#version: 0.2
ä ¸
ç ļ
çļ Ħ
ï ¼
ä º
å ı
ã Ģ
ãĢ Ĥ
ï¼ Į
æ ľ
ç »
ä ½
å Ń
ç Ķ
å ħ
å ®
è ¿
å ľ
æ ĸ
å Ī
ç İ
å Ĭ
ä ¼
æ Ģ
é Ģ
æ ŀ
è ®
å Ĳ
å ¼
è ¯
å ¤
ä »
ä ¹
é ĩ
è ĥ
å ¯
çİ °
å Į
ï¼ Ł
¦ Ĥ
èĥ ½
åŃ ¦
ç Ĳ
å º
æ Ī
æĢ §
å ¦Ĥ
å °
åľ ¨
ä¸ Ń
å ½
è §
çĲ Ĩ
åĮ ĸ
äº Ĩ
è ¡
ç ī
è¿ ĩ
æ ķ
ä¸ »
å® ŀ
ä¸ İ
éĢ ļ
æ µ
ä¹ ī
æ Ĺ
æ ĺ
çĶ Ł
å ¾
æ ³
ä½ ķ
æ Ĭ
ç Ľ
éĢļ è¿ĩ
æ Ŀ
æľ ¯
å¯ ¹
å Ĩ
å ĩ
åı ¯
å ĵ
å Ľ
é Ŀ
è Ģ
ä¸» ä¹ī
è® º
å ¸
ç» Ł
ç ³
çĶ ¨
å¦Ĥ ä½ķ
ä½ ĵ
ç³ »
æĸ ĩ
å Ł
å¼ ı
ä¸ º
ç» ı
æ °
çī ©
å ¹
è ¾
è ´
å ±
æŀ Ħ
æ Ķ
æ ł
æŀ ľ
ä¼ ļ
ä¸ į
åĬ ¨
åŃ Ĳ
æ Į
å ·
å į
å° Ĩ
åı ĳ
ä¼ ł
æ ¨
æ¨ ¡
æ İ
ä ¿
æĪ Ĳ
ç º
æ³ ķ
æĹ ¶
æ ī
æĬ Ģ
éĩ ı
åĲ Į
äº º
åľ °
ç §
åº Ķ
è¡ Į
åı ĺ
å ¿
å®ŀ çİ°
æ Ħ
é Ĺ
ç ¤
ç ®
è °
å İ
å½ ¢
å¦Ĥ æŀľ
æ ´
åĬ Ľ
åº ¦
åĪ ¶
åĪ Ĩ
ç Ł
é ¢
åı¯ èĥ½
äº İ
æľ ī
æĬĢ æľ¯
æľ º
é Ļ
ç ¨
è ĩ
çĽ ¸
è ī
æľ ¬
æĢ ģ
æ ı
åŁ º
ä¸Ń çļĦ
ä» £
è¡ ¨
æ ¯
è° ĥ
æ Ľ
ä¸ ļ
ä½ ľ
ç Ń
åĬ ł
ç³» ç»Ł
èĢ Į
ç ½
æ ²
å ī
å ¢
éĹ ´
åĲ Ī
å¤ §
ç» ĵ
åŃ ĺ
é ģ
æķ °
è§ £
è¿ Ľ
æ¯ Ķ
ç ¡
è ¶
æĸ ¹
éĩ į
ä¸į åĲĮ
ç® Ĺ
å ŀ
åĲ İ
è¯ Ń
å· ¥
åħ ¨
è¯ Ĩ
çĲĨ è®º
ç¨ ĭ
è ĭ
å½ ±
æķ Ī
ä¼ł ç»Ł
ä¸ Ĭ
ä ¾
å¼ º
ç ¼
æĦ ı
æ ĭ
è® ¤
ç ¥
çĶŁ çī©
å Ģ
ç¤ ¾
èī º
åĩ º
è µ
çŁ ¥
åħ ³
è® ¡
å® ļ
æľ Ł
ç¥ ŀ
éĩı åŃĲ
è ±
èĭ ¥
æĪ ĺ
è ½
åŀ ĭ
å ĳ
åĵ į
äº Ľ
èĩ ª
æµ ģ
ä» ¥
æĽ ´
è± ¡
æ Ļ
å¾ Ĺ
å½± åĵį
æĸ °
æ į
çī ¹
ç ±
ç»ĵ æŀĦ
è ¦
åİ Ł
æ Ń
åĽ ł
æ¨¡ å¼ı
å± ķ
é ľ
ç ©
éĿ ¢
ç ł
ç¥ŀ ç»ı
æµ İ
ç»ı æµİ
è´ ¨
åĵ ª
æ º
åŃĺ åľ¨
è§ Ĥ
åĵª äºĽ
æĺ ¯
çİ ĩ
ç ķ
å¯ ¼
å »
åħ ī
æŀ ¶
æ ĥ
çĶ µ
æĿ ¥
å Ĵ
æı Ĳ
åĩ Ĩ
ç ²
è Į
åĴ Į
æĺ İ
çİ ¯
ç¡ ®
äº ĭ
éĿ ŀ
å¯ Ĩ
ç¤¾ ä¼ļ
ĳ æĪĺ
æĮ ģ
èīº æľ¯
èĮ ĥ
æĮ ĳæĪĺ
å¿ ĥ
ç½ ĳ
èĢ ħ
æĶ ¹
ä¿ Ŀ
ç± »
å½¢ æĪĲ
è¶ ħ
æ ¡
éĢ ł
æ ±
å¸ Ĥ
æ ģ
äº §
æĶ ¿
ä¼ ¦
çŃ ĸ
å¤ į
è®¡ ç®Ĺ
éľ Ģ
è¯ ĳ
å¾ ·
è¾ ¾
æ° Ķ
è¦ ģ
å¼ ķ
ä½ ¿
å ģ
è ·
ç ¬
ç ´
æ° ĳ
ä¼¦ çĲĨ
éĢ Ł
åĪ ©
æĪ ĳ
éĩ Ĭ
ä¸ Ģ
é ļ
åĮ º
æº Ĳ
é Ľ
å¤ ļ
çĲ ĥ
éĿ ©
æİ ¥
ä¹ ĭ
åı Ļ
ç¤ º
é ĺ
å¹ ³
è½ ¬
è¯ ģ
å¤ Ł
ç «
ç» ľ
ç½ĳ ç»ľ
èĥ½ å¤Ł
ç ¢
ç Ħ
æ¨¡ åŀĭ
å» º
å¢ ĥ
æķ ´
åı į
éĩ ĩ
æĦ Ł
è® ¾
æľº åĪ¶
ç ĥ
åŃ Ĺ
åĲ ¦
ç ¾
è ģ
è¯ ´
éģ ĵ
åıĻ äºĭ
åľ º
æĸ ¯
åĽ ½
ä½ľ çĶ¨
æµ ·
åĪ Ļ
å¢ ŀ
é ª
è¾ ĥ
å Ŀ
æĿ ĥ
åºĶ çĶ¨
äº Ĵ
æĸĩ åŃ¦
æµ ĭ
åī į
çĦ ¶
æ ®
åĪ °
çİ° ä»£
äºº ç±»
å°Ĩ å¦Ĥä½ķ
åĨ ħ
çİ° å®ŀ
æĸ Ļ
Ĩ æŀ¶
äº ¤
é ķ
æĦı è¯Ĩ
ä¸ ĭ
å± Ĥ
æ¡ Ĩæŀ¶
åħ ·
å· ®
æ ¶
ä¸ ĸ
ä¿ ¡
æ ¸
å¼ Ĥ
æł ¹
å¼º è°ĥ
è§ Ħ
è®¤ çŁ¥
åħ ¥
è¡Į ä¸º
å¸ ¸
æį ®
æĶ¹ åıĺ
ç ĸ
ç² ¾
ä¸ ª
è ¨
è¨ Ģ
ç§ ĳ
è¿ĩ ç¨ĭ
å¿ µ
åĨ ³
éª Į
çº §
æı Ń
ä¼ ĺ
ä» İ
èµ Ħ
åıĳ å±ķ
æıŃ ç¤º
å¼ķ åıĳ
æł ĩ
æ² »
åī §
åĳ ½
æĺ Ł
è¿ Ĳ
ç¬ ¦
æķ° åŃĹ
åŁ Ł
åħ¨ çĲĥ
ç ģ
æ° ´
ç§ į
æ ·
æ ¬
æĸ ½
è¿ Ļ
èĢĮ éĿŀ
è§ Ĩ
ç» Ń
ä» ¬
ç§ ¯
ç» ´
æī Ģ
å Ļ
è ŀ
æİ §
èŀ į
é ©
åı¯èĥ½ ä¼ļ
åĻ ¨
è ¢
ï¼ ļ
æŀ Ĳ
å¤ Ħ
å½ ĵ
äº ļ
å ¥
éĩĩ çĶ¨
ç¬¦ åĲĪ
éķ ¿
çĽ ´
éľĢ è¦ģ
è¢ «
ç© º
æİ ¨
é «
å ¡
é« ĺ
æ® ĸ
è¯Ń è¨Ģ
æł ¼
ç´ ł
æģ ¯
å ²
æĹ¶ æľŁ
ä½ĵ ç³»
æł¹ æľ¬
åħ ¶
ç ľ
é ĵ
ç® ¡
çĶŁ æĢģ
åı £
åı Ĭ
å° ı
åĽ ¾
è Ħ
æĸĩ åĮĸ
é ħ
æķĪ åºĶ
æĻ ®
åį ĩ
åĪĨ æŀĲ
åĲĮ æĹ¶
ä¹ ł
å¸ ¦
åħ ¸
æ ¼
åŁº åĽł
ç ª
æĹ¶ éĹ´
å·® å¼Ĥ
å¤ ĸ
é¢ Ħ
çŃ ī
è§£ éĩĬ
æĸ¹ æ³ķ
åº ķ
æĺ ¾
æŀ ģ
èī ²
ç®Ĺ æ³ķ
å¡ ĳ
åĨ ²
çİ° è±¡
ç» Ħ
æ®ĸ æ°ĳ
æī ĭ
æĥ ħ
çĶ »
ç« ĭ
çª ģ
è´ §
ç© ¶
æĿ Ĳ
çĥ Ń
ä¹ĭ éĹ´
æ´ ¾
é £
æĹ ł
å¸ ģ
çİ¯ å¢ĥ
éģĵ å¾·
æĮ ĩ
è Ĥ
åĪ Ľ
èĩ ´
æ³ ¢
çº ¿
ä¸ ĵ
çł Ķ
èĮĥ å¼ı
è´§ å¸ģ
åıĳ çĶŁ
è¿Ľ è¡Į
æĿĲ æĸĻ
æ ¦Ĥ
å¼ ł
åİ Ĩ
åŁ İ
çķ Į
åħ ĥ
å¸Ĥ åľº
åħ³ ç³»
. .
éĽ Ĩ
å £
å½¢ æĢģ
æĺ ĵ
æ¯Ķ è¾ĥ
å° Ħ
é¢ ĺ
å½ »
å¦Ĥä½ķ å½±åĵį
è¡¨ çİ°
å½» åºķ
² åŃ¦
çº ª
åħ ´
æ´ ²
å¤Ħ çĲĨ
ç½ ®
éĹ ®
ç ¦
æ³ Ľ
æĿ Ĥ
é ĥ
ç¾ İ
è £
è¯ĳ ä¸º
åĬ Ł
åĲ ĳ
åĬ ¡
èĥ½ åĬĽ
æľ ª
å± ±
æł ·
ä¾ Ŀ
çłĶ ç©¶
åĬł éĢŁ
ä¸ĵ ä¸ļ
â Ģ
åŁİ å¸Ĥ
äº Į
åħ Ī
éģ Ĺ
ä¸Ń æĸĩ
å® ¶
è¡¨ è¾¾
ç Ŀ
æ¸ ©
è Ļ
é¢ Ĩ
åĬł åī§
æķ° æį®
åı ¤
éĻ ħ
æĢ§ çļĦ
èģ Ķ
ä¸ĸ çºª
åı ¥
å¹ ¿
ä½ ł
äºº å·¥
ç¼ ĺ
åĢ Ļ
æŃ £
åĨ ľ
å¹ ²
ä¾ Ľ
æ ļ
åĩĨ ç¡®
ç¼ ĸ
æ¬ §
ç§ĳ åŃ¦
é Ķ
è Ĭ
ä» ¶
éĻ Ĳ
æĮģ ç»Ń
å® ĩ
ä» ·
åĵ ²åŃ¦
è¾ ĳ
åĬĽ åŃ¦
æ´ ĭ
çİ°ä»£ ä¸»ä¹ī
éģĹ ä¼ł
å® Ļ
åĵ ģ
å®ĩ å®Ļ
æ°Ķ åĢĻ
æ³ ¨
å® Į
äº§ çĶŁ
æĺ¯ åĲ¦
ç Ĥ
å¯¼ èĩ´
åŁº ç¡
åĿ Ĺ
åŁºç¡ Ģ
æ´ »
é¢Ĩ åŁŁ
æķ Ļ
åį °
å ĸ
ĺ èĭ¥
åĢ ĺèĭ¥
å ķ
å° Ķ
å·¥ ä¸ļ
ç Ĭ
ä¿ ĥ
åģ ı
è¿ °
å¤ ©
å¹ »
è ĳ
åı ĸ
éĻ į
çİ°å®ŀ ä¸»ä¹ī
å¾ ģ
æķĪ çİĩ
å¹ ´
èĥ½ éĩı
æĪ ĸ
è½¬ åıĺ
æĻ º
çĽ¸ äºĴ
è İ
ä¿¡ æģ¯
è°ĥ æķ´
è į
çľ Ł
æ¦Ĥ å¿µ
åħ ĭ
ç¢ ³
æľī çļĦ
æ± Ĥ
èĥ½å¤Ł å®ŀçİ°
è· ¯
æ Ĵ
èĥ½ åĲ¦
åĨľ ä¸ļ
çĶ ±
éĢ Ĥ
åĬł å¯Ĩ
åģ ĩ
åĳ Ī
åķ Ĩ
æ ¿
æłĩ åĩĨ
å¯¹ æ¯Ķ
çĶŁ äº§
éĩį æĸ°
ç»ıæµİ åŃ¦
èĢ ĥ
æĶ¿ çŃĸ
ä¹ĭéĹ´ çļĦ
æ¶ Ī
ä½ Ĩ
æŀ¶ æŀĦ
æ¼ Ķ
æ¿ Ģ
ä¿ ®
çł ´
æıŃç¤º äºĨ
æıĲ åįĩ
å Ĥ
æ Ĥ
æľ¯ è¯Ń
æĶ¿ æ²»
è Ĳ
éĿ© åĳ½
ç¦ »
åĬ ¿
t i
å°ı è¯´
æĸ¹ å¼ı
çĤ ¹
é ¦
å½ ©
å¹¿ æ³Ľ
åħ ±
çĬ ¶
å¾ ®
å¸ ĥ
å¿ĥ çĲĨ
æīĭ æ³ķ
ç» Ŀ
éĹ® é¢ĺ
åı ²
æĶ ¶
ä½ į
å® ī
åŁº äºİ
èĳ Ĺ
R I
åĪ «
å¤į æĿĤ
è º
åľ Ł
èĥ½ æºĲ
è´ ¸
æ² ī
èĦ ĳ
å¾ ª
è£ ħ
P R
çĶŁçī© åŃ¦
çī ĩ
C RI
S PR
çĽ´ æİ¥
CRI SPR
ç¾ ¤
çĽ Ĳ
è´¸ æĺĵ
èº «
è¯ Ħ
åĨ³ çŃĸ
çī© è´¨
çķ ¥
ä¸» å¼ł
æī ¹
ä¼¦çĲĨ åŃ¦
æĺ¾ èĳĹ
çĿ Ģ
æĻº èĥ½
ç¬¦åĲĪ ä¸Ńæĸĩ
å ª
è· ¨
å² ©
ç©º éĹ´
é£ İ
åĮĸ çļĦ
ä¸Ń å¿ĥ
èĩª çĦ¶
å¤į åħ´
æµ· æ´ĭ
ï¼ ī
çº ¦
æĶ ¾
å¾Ĺ ä»¥
" ï¼Į
åª Ĵ
çº ³
èĤ ²
åĩ ł
² Į
è ²Į
çī© çĲĨ
ç² Ĵ
çĶŁæĢģ ç³»ç»Ł
ç¨ ³
å¾ Ģ
çŁ¥ è¯Ĩ
ä¿Ŀ æĮģ
å¤ ±
åĨ °
åľ° è²Į
è® ®
æĸĩ æľ¬
çģ «
ï¼ Ī
å¢ŀ å¼º
åĢ ¼
o n
åİŁ çĲĨ
æĸ¹ éĿ¢
éĢ ī
è¶ Ĭ
é ¡
æĸ Ń
ç»ı åħ¸
æł ¸
éĥ ¨
åĩ ı
ä½ İ
åİĨ åı²
åĪ¶ åº¦
èīº å¤įåħ´
è§Ħ èĮĥ
è¿Ĳ åĬ¨
ç Ĺ
å° ±
æĸĩ èīºå¤įåħ´
æ¬§ æ´²
éĢ Ģ
é Ń
ç§ »
åĪ ¤
çĸ Ĺ
å¤ ª
é Ĵ
åıĺ åĮĸ
åĽł ç´ł
ä¸»ä¹ī çļĦ
å¤§ æ°Ķ
Ġ "
± åĬ¨
çĽ¸ åħ³
åħ ¬
ä¹ ħ
ä¹ī åĬ¡
èĬ Ĥ
éĵ ¾
ç¨³ å®ļ
çł ģ
æıĲ åĩº
éŃ Ķ
åŃ¦ ä¹ł
åį ı
è¦ Ĩ
æł¹æľ¬ æĢ§
åĲİ æ®ĸæ°ĳ
æ· ±
è¡ ¡
è¡Į æĺŁ
éŃĶ å¹»
èµĦ æºĲ
éŃĶå¹» çİ°å®ŀä¸»ä¹ī
é© ±åĬ¨
å¾ª çİ¯
å½¢ å¼ı
æľ Ģ
æĢ İ
æĪĲ ä¸º
éĩ ĳ
æĭ Ł
æĥ ³
æĴ Ń
æĭ ©
åĬ ³
ä» į
å° ½
ä» ĸ
æ²ī ç§¯
ç ¿
å¹ ¶
æ° ¸
å¤ ĩ
æĹ ¢
æĬĢ æ³ķ
å®ī åħ¨
ç £
çļĦ å½¢æĪĲ
æĪĳ ä»¬
åı Ĺ
ä¼ł æĴŃ
è®¾ è®¡
æĹ¶æľŁ çļĦ
æļ Ĺ
æĿ ¡
å¯Ĩ åº¦
å ĥ
æĥ ¯
æıĲ ä¾Ľ
äº ī
çĽ¸ å¯¹
ç» ĩ
æ ĵ
èİ ·
æ Ł
éĢĤ åºĶ
è§ Ĵ
æľº åĻ¨
æĬĢæľ¯ çļĦ
ł è¦Ĩ
çĲĨ æĢ§
é¢ łè¦Ĩ
æĻ® åıĬ
è§ ī
ç¿ »
å® ¹
è®¾ æĸ½
èī² å½©
å°½ ç®¡
éļ Ĳ
è¾ ĵ
æİ¥ åı£
ç£ ģ
æİ ¢
a l
æĵ į
åŁºç¡Ģ è®¾æĸ½
åĬ¨ æĢģ
åħ· æľī
å¾ ĭ
è¾ ¹
èµ ·
a s
çķ Ļ
åĬ³ åĬ¨
æĢİ æł·
åı Ĥ
ä¸ ¤
æ ¢
ä¸ ´
æ± ł
æĦŁ çŁ¥
èģ ļ
ç¿» è¯ĳ
æī ©
å®ŀ æĸ½
ç ĭ
ç»ĵ æŀľ
çĶµ æ±ł
ç¢ İ
å» ¶
ç²Ĵ åŃĲ
åĽ ´
ä»İ èĢĮ
è¯ »
åľ° åĮº
åİ »
ä¼łç»Ł çļĦ
åħ³ äºİ
çĽ¸ è¾ĥ
ä¼ĺ åħĪ
åĳĪ çİ°
å·¥ ç¨ĭ
è§£ æŀĦ
åħ »
æĸ¯ çī¹
èµĦ æľ¬
é Ĥ
åı¥ å¼ı
ç Ļ
å¼ ±
çĽ ĳ
æĹ ©
éħ ¸
è§ ¦
æĭ ĵ
èĢħ åľ¨
åªĴ ä½ĵ
çĽ¸è¾ĥ äºİ
åĽ º
æĢİæł· çļĦ
æĬ ½
å ¨
å± Ģ
çī¹ å¾ģ
ç± ³
é¢Ħ æµĭ
éĢī æĭ©
å® ¤
çĽ¸ æ¯Ķ
çĹ ħ
æĿ ¿
å¦Ĥä½ķ éĢļè¿ĩ
æĺ ł
åİŁ åĪĻ
æĬ½ è±¡
å®ŀçİ° äºĨ
.. .
åĨ »
åĪĨ å¸ĥ
éĻ Ĩ
éĩ Į
æĬ ĺ
ç¥ŀç»ı ç½ĳç»ľ
ç¼ĸ è¾ĳ
åı Ī
æĭ ī
ä¼ĺ åĬ¿
éħ į
âĢ ¦
åį° è±¡
åĥ ı
å¾Ĺ åĪ°
e r
åŁº æľ¬
éªĮ è¯ģ
æ¼Ķ åıĺ
éĿ© æĸ°
æ°¸ ä¹ħ
ä» »
æĶ¹åıĺ äºĨ
è®¤ è¯Ĩ
éĩıåŃĲ è®¡ç®Ĺ
çļĦ åıĳå±ķ
åį ł
çŁ ³
æĿ¡ ä»¶
æ² ³
è®¤ ä¸º
åĲİ æŀľ
æŃ ¥
èµ ĸ
åĽ½ å®¶
æ ½
ä¸Ĭ çļĦ
ç¤¾ äº¤
ç¢İ çīĩ
è¿ ĳ
å®ļ ä¹ī
çĽ¸äºĴ ä½ľçĶ¨
æī ĳ
åĲĪ æĪĲ
æģ ©
ä¾Ŀ èµĸ
ç¥ŀç»ı å½¢æĢģ
æ¡ Ī
æĭĵ æīĳ
èĥ Ģ
è§Ħ æ¨¡
æ³¨ éĩį
åį ļ
è¿ ŀ
å¨ ģ
å° ĳ
è®¤è¯Ĩ è®º
åĩ ¯
æŀĦ éĢł
äººå·¥ æĻºèĥ½
ç²¾ åĩĨ
åĩł ä½ķ
çİ¯ æµģ
åı¯ è¡Į
ä½¿ çĶ¨
åīį æīĢ
åį°è±¡ æ´¾
æģ© æĸ¯
ä½ķ ç§į
åīįæīĢ æľª
éļ ı
æ´» åĬ¨
æĬ ¤
æ· ·
åĩ¯ æģ©æĸ¯
çŃĸ çķ¥
ä¹ł æĥ¯
è§ ģ
çĽ ¾
åı¯ ä»¥
åĪ¶ éĢł
åĬŁ åĪ©
èĻ ĳ
æķ £
åº Ń
åĪĨ åŃĲ
è½ ¨
è¶ħ è¶Ĭ
é© ¬
å¼ Ģ
ä¿Ŀ çķĻ
éĢ ı
è´ Ł
åħī åŃĲ
æĹ© æľŁ
åīįæīĢæľª æľīçļĦ
å°Ĩ éľĢè¦ģ
åŃ¦ æľ¯
çŃ ĳ
åĪ© çĶ¨
è Ĵ
ä¾ µ
ç²¾ ç¡®
çªģ çł´
e n
æĹ¶ ä»£
æĸĩåŃ¦ ä¸ŃçļĦ
æĥħ æĦŁ
æľ Ľ
æį ķ
å»º çŃĳ
çģ« å±±
i n
éģ į
ä¸ĵä¸ļ æľ¯è¯Ń
æī¹ åĪ¤
è ļ
æĢ Ŀ
æĮĳæĪĺ äºĨ
åĬłåī§ äºĨ
ä¼ °
å¯Ĩ çłģ
åĨ į
å¼ķåıĳ åĵªäºĽ
ä»· åĢ¼
ä¹ Ł
è¡¨ è¿°
å¤§ éĻĨ
çĭ ¬
åĬŁåĪ© ä¸»ä¹ī
e s
ä¹ Ī
ä½¿ å¾Ĺ
æĻ® éģį
å® ĥ
éĩį æŀĦ
åı¤ åħ¸
è Ī
ä¸ ¥
ä¸ ī
ä¹īåĬ¡ è®º
æĿ¿ åĿĹ
çĽ¸å¯¹ è®º
åĽ ŀ
è¡¨ æĺİ
C as
èĦĳ æľº
ä¸į åı¯
åİ ĭ
èļ Ģ
åı °
è® °
èĮĥ åĽ´
æ ¹
è¡¨ è§Ĥ
éľĢ æ±Ĥ
è Ĩ
ä¸» å¯¼
åľ° è´¨
æľī æķĪ
åıĺ éĿ©
è¡¨è§Ĥ éģĹä¼ł
åĿ ĩ
çĽĲ çİ¯æµģ
æ ĳ
å¢ŀ éķ¿
æł¹æľ¬ ä¸Ĭ
éĢ »
æĻ ¯
ç¦» åŃĲ
ä¹ ¦
è£ħ ç½®
éĢ» è¾ĳ
åĲ ¯
æİ¨ åĬ¨
Ģ æĸ¯çī¹
æĸĩ æĺİ
éĿ¢ ä¸´
éĺ Ĳ
è¡Įä¸º ç»ıæµİåŃ¦
åĸ Ģæĸ¯çī¹
ä»İ æł¹æľ¬ä¸Ĭ
æĬĺ å°Ħ
æ £
åıį åºĶ
æİ Ĵ
è§£ åĨ³
æĽ´ ä¸º
æį ¢
çº¿ æĢ§
èĦĳæľº æİ¥åı£
è¯ ¥
æĦı ä¹ī
åĮº åĿĹ
åĤ ¨
çī¹ æĢ§
åĮºåĿĹ éĵ¾
ç» ĺ
æ¨¡ æĭŁ
æĮĩ æķ°
é ²
æĬ ķ
åħĥ ç´ł
æŀĦ æĪĲ
ç¢İçīĩ åĮĸ
å¼º åĮĸ
æĪĸ å°Ĩ
éĻĲ åĪ¶
æĬ Ĺ
è´ ¢
ç¨ĭ åº¦
è¿Ĳ çĶ¨
å¯¹ åºĶ
è¿Ľ åĮĸ
æĭ ľ
åįı è®®
åıĤ ä¸İ
è°ĥ æİ§
åħ· å¤ĩ
è¡¨çİ° ä¸»ä¹ī
ä¿ĥ è¿Ľ
é ¥
ħ §
åį ģ
çŁ Ľ
èĩª åĬ¨
æĶ¶ åħ¥
åĮĸ åŃ¦
å½ĵ ä»£
åĨ» åľŁ
çŁĽ çĽ¾
é Ł
åľ° çĲĥ
åŁºåĽł ç¼ĸè¾ĳ
åĩ¯æģ©æĸ¯ ä¸»ä¹ī
å¯¼ ä½ĵ
éĺ ³
å¹³ åı°
åĨ² ç§¯
æĹ ¥
éĤ £
åıĺ å¾Ĺ
å¿ «
æľ¬ è´¨
æ¬ ¡
ç»Ħ ç»ĩ
åĤ ¬
è¿ ĺ
å¼ Ī
åº ı
çĽ Ĭ
äºĴ åĬ¨
é¦ Ī
æĵį æİ§
åįļ å¼Ī
å §
é ¸
çĶµ åŃĲ
åıį é¦Ī
åĬ ©
å£ «
åįł åºŃ
æĭľ åįłåºŃ
è¶ħ æĿĲæĸĻ
ç¤¾äº¤ åªĴä½ĵ
æŀĦ å»º
åķĨ ä¸ļ
ç»Ŀ ç¼ĺ
åı ł
è¶ ĭ
ä¸įåĲĮ çļĦ
éĻį ä½İ
éĢ Ĵ
æľ į
å¾ Ħ
ä½ĵ çİ°
éĶ Ļ
éķ¿ æľŁ
åįļå¼Ī è®º
æĿĥ åĬĽ
åĬŁ èĥ½
æ¸© çĽĲçİ¯æµģ
æĮĩæķ° çº§
äºº åı£
ç¼ º
çĸ ĳ
çī©çĲĨ åŃ¦
åĸĢæĸ¯çī¹ åľ°è²Į
æµĭ éĩı
¨ èĥĢ
è¡¨ éĿ¢
è°ĥ åĴĮ
æ°¸ä¹ħ åĨ»åľŁ
èĨ ¨èĥĢ
è¿Ľ ç¨ĭ
æ³¢ åĬ¨
èĢĥ èĻĳ
å° º
åĬ³åĬ¨ åĬĽ
è¯ Ĺ
i c
å±ķ çİ°
æĦıè¯Ĩ æµģ
å½ĵ åīį
æ½ ľ
åĪ© äºļ
åĽ½ éĻħ
èŀį åĮĸ
åĢ Ł
å¢ŀ åĬł
ti on
ç» Ĩ
ä» Ģ
æ ¤
æľī æľĽ
ç»´ æĮģ
åĩı å°ĳ
å¤ª éĺ³
å ´
çļĦ åıĳ
æķĻ èĤ²
ç Į
æĽ ²
æŃ ¤
éļ ¾
æ¯Ķè¾ĥ ä¼ĺåĬ¿
ä¸Ń ä¸ĸçºª
å±Ĥ éĿ¢
åģĩ è¯´
å ł
èĥ½éĩı å¯Ĩåº¦
å¦Ĥä½ķ æĮĳæĪĺ
å® ĺ
æĽ´ é«ĺ
åº ·
æ¤ į
åħ¨ æ°ĳ
ç¼ ĵ
å¹³ çŃī
ä¸ª äºº
ç«ĭ ä½ĵ
ä¸º ä½ķ
ä¼ł è¾ĵ
æºĲ äºİ
å°º åº¦
æĶ ¯
æĸĩåŃ¦ä¸ŃçļĦ éŃĶå¹»çİ°å®ŀä¸»ä¹ī
åºĶ å¯¹
åģĩ è®¾
äº ¿
åĬ¨ åĬĽåŃ¦
åį ³
ä¼ł è¾¾
é¥ °
è¯» èĢħ
¥ ¿
è ¥¿
èĲ ¥
æĿ Ł
åĬłå¯Ĩ è´§å¸ģ
é¦ Ĩ
éĩįæĸ° å®ļä¹ī
åĤ¬ çĶŁ
çĶŁ æĪĲ
ä¿Ŀ æĬ¤
çº³ ç±³
èĴ Ļ
éĻ ©
åĲİ çİ°ä»£
åĨħ å®¹
éĺĲ éĩĬ
ç ħ§
è§Ĥ å¿µ
è®¡ç®Ĺ æŀ¶æŀĦ
éĢŁ åº¦
å¥ ½
è¡¨è¾¾ ä¹łæĥ¯
ä¾µ èļĢ
èĮĥåĽ´ åĨħ
ä» ĭ
åĮ »
å¿ ħ
éĥ ½
è¿ ģ
âĢ Ķ
æ´ ŀ
è¡ °
èĢ Ĺ
ç»ı éªĮ
èĲ ½
æıĲåĩº äºĨ
åİ» ä¸Ńå¿ĥ
é² ľ
åİŁ åŃĲ
ä¿Ŀ åŃĺ
ç§ĳ æĬĢ
æİ§ åĪ¶
ä» ½
å° ģ
åĵ ¥
æ »
å®ŀ è¯ģ
çĽ ®
ä½ľ èĢħ
r e
è´ ¹
ä½ľ åĵģ
ç¢ į
åı¯èĥ½ä¼ļ å¦Ĥä½ķ
è¯ģ å®ŀ
ä¸İ ä¼łç»Ł
ç³» å¤ĸ
èĩª çĶ±
è¿Ľ æŃ¥
æº ¶
çĶµ ç£ģ
Â ·
ä¿ ¯
çĽ¸ å¹²
éĢŁ çİĩ
æĪ ª
éĢļ çĶ¨
ä½ĵ éªĮ
çŁ ¿
è· µ
ä¿¯ åĨ²
å¼ķåıĳ äºĨ
å®Į æķ´
åĪĽ æĸ°
å®ŀ è·µ
æ° §
ç³»ç»Ł æĢ§
æ²³ æµģ
ç³»å¤ĸ è¡ĮæĺŁ
éļ ľ
è¯ ¯
åľ° ç¼ĺ
è¯Ĩ åĪ«
ç»ĵæŀĦ ä¸»ä¹ī
é¢ĨåŁŁ çļĦ
çĭ¬ çī¹
èĪ ª
å¤ªéĺ³ èĥ½
é²ľ æĺİ
æĪª çĦ¶
éĩį å¡ĳ
çĲĨè®º éĢļè¿ĩ
ä¾ §
åıĳçĶŁ æĢİæł·çļĦ
åŁºæľ¬ æĶ¶åħ¥
åľ°ç¼ĺ æĶ¿æ²»
çļĦ åĲĮæĹ¶
æĮĩ æłĩ
åĪĽ ä½ľ
åıł åĬł
a n
ä¼ĺ åĮĸ
åħ¨çĲĥ èĮĥåĽ´åĨħ
çģ Ń
è¿Ļ ä¸Ģ
æİ¨ è¿Ľ
N A
èŀį åĲĪ
èĢĥ éĩı
åĪ º
æ³ķ å¾ĭ
å¹² é¢Ħ
æĤ ²
å¹¿æ³Ľ åºĶçĶ¨
èº« ä»½
o r
çī© ç§į
åĲİ çİ°ä»£ä¸»ä¹ī
èĩª æĪĳ
è¯´ æĺİ
è°ĥ èĬĤ
ä¼¦çĲĨ æ¡Ĩæŀ¶
ç¨³å®ļ æĢ§
åħ¨ æģ¯
å¸¦ æĿ¥
åħ ħ
åĪ ĩ
åŁ ¹
å¾Ģ å¾Ģ
åħ¨æ°ĳ åŁºæľ¬æĶ¶åħ¥
æİ ª
é£ Ł
éŁ ³
åĨ Ļ
éĿ Ĵ
ç¼ ©
è ħ
çĶ ²
å¯Ĩçłģ åŃ¦
ç»ĺ çĶ»
å¤ ´
åı¯ å¡ĳ
åŃĺåľ¨ ä¸»ä¹ī
å ĺ
éĢļè¿ĩ å°Ĩ
æķĪ æŀľ
éĵ ¶
å¯ Ł
çĶŁ åĳ½
åĲİ ç»ĵæŀĦä¸»ä¹ī
æķ´ åĲĪ
èĻ ļ
æĸĩèīºå¤įåħ´ æĹ¶æľŁ
å½»åºķ éĿ©æĸ°
çº¦ æĿŁ
åħ· è±¡
é£İ éĻ©
ä» ¿
éĻ ¤
åĪ Ĵ
å± ŀ
é¢ ľ
ç¾¤ ä½ĵ
ä»Ģ ä¹Ī
æĸ¹ æ¡Ī
åŃĺåľ¨ çļĦ
çĻ ½
æĤ² åī§
ãĢ ģ
å¿ Ĺ
å¤ļ æł·
åĨ³ å®ļ
å¾® çĶŁçī©
éĢĢ çĽ¸å¹²
æĽ ¿
ç³»ç»Ł çļĦ
å´ ©
2 0
åĪ ·
å¸ Į
æĽ´ æ³¨éĩį
ç¡® è®¤
è§Ĩ è§ī
æī¹ è¯Ħ
åı ·
èĩª ä¸»
çİ°è±¡ åŃ¦
Ĺ æŀģ
åį ķ
åĪĨ å±Ĥ
æĬĢæľ¯ å®ŀçİ°
è¯Ħ ä¼°
çİ° æľī
ç® Ģ
å°Ĩå¦Ĥä½ķ è°ĥæķ´
éĽĨ ä½ĵ
åį° åĪ·
å±ķçİ° åĩº
åĨ² çªģ
é »
æ® µ
åĪº æ¿Ģ
å· Ŀ
åı¯å¡ĳ æĢ§
èĩ ³
éĽ ķ
ä¼ĺåħĪ èĢĥèĻĳ
å· ²
æ² Ł
çĸ ¾
è§Ĩ è§Ĵ
æ·± åº¦
æľºåĻ¨ åŃ¦ä¹ł
åĢŁ åĬ©
å® ¡
è® ¸
çĲĨ è§£
åĨ° å·Ŀ
å®ŀ éªĮ
ä¸į å¹³çŃī
ä¸ŃçļĦ åºĶçĶ¨
åī Ĭ
åĮº åŁŁ
ä¼ Ĺ
æĿ İ
åĳ ¨
ä¿® é¥°
é²ľæĺİ å¯¹æ¯Ķ
å® ı
ä¾ ĭ
å¼ķ åĬĽ
å¦Ĥä½ķ åľ¨
åį Ĭ
åľ° ä½į
æł¼ å±Ģ
ç®¡ çĲĨ
åĿĩ è¡¡
åıĸ ä»£
ä¸¤ èĢħåľ¨
èĩªåĬ¨ åĮĸ
ç»Ŀç¼ĺ ä½ĵ
ī åĽ¾
äºº ä»¬
åĩº çİ°
è¾¾ åĪ°
æĸĩèīºå¤įåħ´ æĹ¶æľŁçļĦ
çļĦ åŁºåĽł
åĪ »
ç§ °
çģ µ
å®Į åħ¨
æłĩåĩĨ åĮĸ
ç» Ī
åĨ µ
åģı å·®
æĭĵæīĳ ç»Ŀç¼ĺä½ĵ
ç«ĭä½ĵ ä¸»ä¹ī
åİ»ä¸Ńå¿ĥ åĮĸ
é¢ľ æĸĻ
è° ±
æµģ åĬ¨
ç¼ĵ è§£
çĸ¾ çĹħ
åĪ Ĺ
å° ¼
æĹ ¦
ä½ľ ä¸º
çĶŁçī© ç¥ŀç»ıç½ĳç»ľ
çĥ ·
åİĭ åĬĽ
çĶ² çĥ·
åĺ īåĽ¾
æĿİ åĺīåĽ¾
ä¸» è§Ĥ
ä¸Ģ æĹ¦
æ²» çĲĨ
æĽ´é«ĺ çļĦ
éĽķ å¡ĳ
çļĦ å½±åĵį
æĤ ĸ
å¿ĥçĲĨ åŃ¦
æıĲä¾Ľ äºĨ
å®ĥ ä»¬
æŀ Ĺ
åĲĪæĪĲ çĶŁçī©åŃ¦
t e
è¯ Ŀ
åħ³ èģĶ
åıį æĺł
æ¢ °
ä¸ Ŀ
çļ ®
çļĦ è®¤çŁ¥
éĢļ ä¿¡
åĨ ·
èĢ ģ
å®ĩå®Ļ åŃ¦
è½¨ éģĵ
è¿ ľ
ä¼ł éĢĴ
æľī ä½ķ
æľº æ¢°
å¤© ä½ĵ
ä¿¯åĨ² å¸¦
çİ° æľīçļĦ
æº ĥ
çľ ĭ
æ¶Ī è´¹
èİ· å¾Ĺ
åĲ¯ èĴĻ
å¦Ĥæŀľ æļĹ
æį Ł
çĬ¶ æĢģ
æ·· åĲĪ
æİª æĸ½
å´© æºĥ
a r
è¿ ¹
ä¼ļ å¼ķåıĳåĵªäºĽ
çº ł
æľŁ éĹ´
å½¢æĪĲ é²ľæĺİå¯¹æ¯Ķ
æ°´ å¹³
ï¼ļ "
çŃī çº§
åĩĨç¡® æĢ§
æĬ½è±¡ è¡¨çİ°ä¸»ä¹ī
åľ¨ å¤ļ
åĽ °
åıĳ çİ°
åŀ Ĥ
è¯Ńè¨Ģ åŃ¦
è§£éĩĬ äºĨ
ç¢³ éħ¸
æľºåĻ¨ äºº
åıįé¦Ī å¾ªçİ¯
åı Į
ä¸İ ç»ıåħ¸
åĪĨ éħį
ä¿ĥ ä½¿
è¾¹ çķĮ
æİ¨åĬ¨ äºĨ
åŀĤ çĽ´
åŃ¦ æ´¾
å¸ Ŀ
æŃ §
å¯¼ çĶµ
å¼ķåıĳ çļĦ
å·¥ ä½ľ
è§Ĥ æµĭ
æ²» çĸĹ
å°ıè¯´ ä¸ŃçļĦ
éĩĳ èŀį
æ²īç§¯ çī©
éĩıåŃĲ éĢĢçĽ¸å¹²
æĪĺ åĲİ
åħī åŃ¦
éĺ ¶
éĵ¶ è¡Į
éľ ¸
åŁºåĽłç¼ĸè¾ĳ æĬĢæľ¯
æĤĸ è®º
ç Ī
å¤ ®
å¿ Ĩ
éĺ »
âĢ¦ âĢ¦
éľ¸ æĿĥ
ä¼ Ĭ
æĦıè¯Ĩæµģ åıĻäºĭ
æıĲåĩºäºĨ æĮĳæĪĺ
èĥ½ å®ŀçİ°
åľ¨ åħ¨çĲĥèĮĥåĽ´åĨħ
ç³»ç»Ł ä¸Ń
éĩĬ æĶ¾
ç¾İ åŃ¦
è¾¹ ç¼ĺ
ä¼ ı
å· §
è¶ħ èĩªçĦ¶
ç´ ¯
ç« ¯
æĺŁ éĻħ
çĭ¬çī¹ çļĦ
è§Ĥ å¯Ł
å»º æ¨¡
å·¥ä¸ļ éĿ©åĳ½
çľŁ å®ŀ
ç½ Ĺ
æ¶ ī
åį ´
æķ´ ä½ĵ
è¿ĩç¨ĭ ä¸Ń
å£ ģ
èİ· åıĸ
åħī åĲĪ
èŀį åħ¥
æĺ¾èĳĹ å·®å¼Ĥ
è¯¥ ç¿»è¯ĳ
çĮ ®
ç ĩ
è¯Ń å¢ĥ
æĪĺ çķ¥
ç¬ ¬
éĺ ²
æł¸ å¿ĥ
åįģ å¹´
åº· å¾·
æĪªçĦ¶ ä¸įåĲĮçļĦ
ä¸Ń å¤®
å¯¹ ä¼łç»Ł
åį ¡
æı ı
ç¡® å®ļ
äºĮ èĢħåľ¨
ç¨ĭåº¦ ä¸Ĭ
å®ŀ æĹ¶
å¡ĳ éĢł
è·¯ å¾Ħ
ç¤¾äº¤åªĴä½ĵ ç®Ĺæ³ķ
åīĬ å¼±
äºº ä¸º
å»º æŀĦ
äº¤ æµģ
éĵ ľ
æ¦Ĥ çİĩ
ä¾Ľ åºĶ
å·¥ä¸ļ åĮĸ
è´ £
æī ĺ
å¤ļ åĪ©äºļ
ç»´ å¤ļåĪ©äºļ
èģļ åıĺ
å¸Ŀ åĽ½
éĿ ł
é¢ ĳ
ç¬ Ķ
äº¤ æĺĵ
ç»Ħ è£ħ
åĪĽ éĢł
åı¯è¡Į æĢ§
è´¢ æĶ¿
å¯ Į
è¶ ³
åĵªäºĽ ç¤¾ä¼ļ
æĥħ åĨµ
å£ °
ç» Ļ
éĢ Ĩ
ç»ĵæŀĦ çļĦ
ç´ ¢
ç²¾ åº¦
åĳĪ æĮĩæķ°çº§
å±ĤéĿ¢ çļĦ
å¤ļæł· æĢ§
ç Ĩ
ä¸» æµģ
æĬĢ å·§
åıį çī©è´¨
ç¡ ħ
ç¤¾ åĮº
æĽ¿ ä»£
åĮ Ĺæŀģ
ç¢³éħ¸ çĽĲ
ãĢ Ĭ
ãĢ ĭ
ãĢĤ ï¼ī
ä¾ ¿
åİŁ æĸĩ
å¹³ è¡¡
ä¸ĭ éĻį
å¦Ĥä½ķå½±åĵį äºĨ
åĳ¨ æľŁ
å®ı è§Ĥ
i s
çļĦ ç¤¾ä¼ļ
çļĦ å¹¿æ³Ľ
ä¼ļ å¦Ĥä½ķ
æĶ¹ éĢł
è¯ĳ æ³ķ
ç« ŀ
å² ¸
å®¤ æ¸©
éĿĴ éĵľ
ï¼ Ľ
å±ķ ç¤º
åħī ä¼ı
ä¹īåĬ¡è®º ä¼¦çĲĨåŃ¦
D NA
æĶ¹ éĿ©
éķ ľ
æĸ¹æ³ķ è®º
çĥŃ å¸¦
è£ Ĥ
çĸĹ æ³ķ
çĻ ¾
å°ĨéľĢè¦ģ è¿Ľè¡Į
åĮº åĪ«
åħ´ èµ·
åģı è¯¯
éĢı è§Ĩ
æ£ Ģ
ä¸Ĭ åįĩ
èģ Į
åĬłéĢŁ äºĨ
å®ĩå®Ļ èĨ¨èĥĢ
æĢĿ æĥ³
æľī æľº
éģĹä¼ł åŃ¦
ä¿ĥè¿Ľ äºĨ
çĩ ĥ
ç¬Ķ è§¦
è¦ģ æ±Ĥ
åºĶçĶ¨ äºİ
åĮºåĿĹéĵ¾ çļĦ
ł éĩĬ
è¿ ½
ä¼ Ĳ
è¯ łéĩĬ
å®ŀ ä½ĵ
æŃ Į
èĬ ¯
æ¯Ķè¾ĥä¼ĺåĬ¿ çĲĨè®º
åħīåĲĪ ä½ľçĶ¨
a tion
çļĦ æĻ®åıĬ
è® ¨
åĲ Ħ
äºļ åİĨ
è´§å¸ģ æĶ¿çŃĸ
åĽº æĢģ
éĿĴéĵľ æĹ¶ä»£
è° ¨
æĻ ¶
å¸¸ éĢļè¿ĩ
éĶ ®
æĺł å°Ħ
ç¡®è®¤ åģıè¯¯
åĽ ¢
å½¢æĪĲ çļĦ
æ¸©çĽĲçİ¯æµģ æ¨¡å¼ı
¿ æ²Ł
å® Ĺ
æĸĩ çĮ®
äºĭ ä»¶
ä¸ĸ çķĮ
é¸ ¿æ²Ł
æĪĲ æľ¬
éĩį åķĨ
æıŃç¤º åĩº
å±± å¤§
æĺ¯åĲ¦ ä¼ļ
ç»Ŀ å¯¹
æľĢ å¤§
åıĪ ç¬¦åĲĪä¸Ńæĸĩ
åł Ĩ
æ°§ åĮĸ
ç«ŀ äºī
äºļåİĨ å±±å¤§
Ġ c
ç³»ç»Ł ä¸ŃçļĦ
å¥ ¥
åĽ¾ ä¹¦
äºī è®®
ä¸¥ è°¨
åĽ¾ä¹¦ é¦Ĩ
è¿ Ł
åĲ «
å¤§ ç¨ĭåº¦ä¸Ĭ
åħ¨ éĿ¢
è½¬ æį¢
æĿĥ å¨ģ
çĲĨæĢ§ éĢīæĭ©
çļĦåıĳ æĺİ
äºļåİĨå±±å¤§ åĽ¾ä¹¦é¦Ĩ
ä¹ ±
åı¯èĥ½ å¦Ĥä½ķ
æ² ¿
åŀ Ħ
è½ ¦
æĦıè¯Ĩ å½¢æĢģ
é¡ »
o l
ä¼ ¤
æĪ ·
åľ° å½¢
è¶ħ å¯¼ä½ĵ
åĩĨç¡® ä¼łè¾¾
èį Ĵ
é©±åĬ¨ æĬĢæľ¯
èħ Ĭ
æµ ĵ
åľ°åĮº çļĦ
èĦĳæľºæİ¥åı£ å®ŀçİ°
æĹ¥ çĽĬ
å¸Į èħĬ
åŀĦ æĸŃ
ä¼ ¼
èĥ Į
ä¸Ģ ä¸ª
å¹³ åİŁ
ä¿ĥ æĪĲ
å¿ħ é¡»
ä¿® æŃ£
éļı çĿĢ
è½¨ è¿¹
éĩįåķĨ ä¸»ä¹ī
éĩ İ
çĽ ĸ
åĬ¨ çī©
æ² ¡
è¿Ľ å±ķ
æµ· å²¸
åģı è§ģ
é¡ ¿
æĬĺå°Ħ çİĩ
æĥħåĨµ ä¸ĭ
åĩ »
åĽ Ľ
çĽĳ ç®¡
åľ¨å¤ļ å¤§ç¨ĭåº¦ä¸Ĭ
åįģå¹´ åĨħ
æĽ ¾
æ² ¹
æĽ´ ç¬¦åĲĪä¸Ńæĸĩ
çĥ ¯
çº³ åħ¥
çļĦ ä¼łç»Ł
æĢ§ ä¸İ
è¾ ¨
æľī åĵªäºĽ
ä¸ª ä½ĵ
èĲ¥ åħ»
å®ŀ éĻħ
åĽ° å¢ĥ
å®Ĺ æķĻ
ç» ¸
è® Ń
è¯ į
æī ¿
ç½ ²
çĲĨè®º ä¸Ĭ
å¼ķ åħ¥
éĽ ·
åı¤ ä»£
åĬ³åĬ¨åĬĽ å¸Ĥåľº
1 9
Ġ s
æĹ ĭ
æĹł æ³ķ
åĨ²ç§¯ å¹³åİŁ
è¯Ĺ æŃĮ
åĲİç»ĵæŀĦä¸»ä¹ī æĸĩåŃ¦
ä¸Ŀ ç»¸
ä¸İ åĬŁåĪ©ä¸»ä¹ī
è±¡ å¾ģ
æīĢ æľī
å¹¶ ç½®
æ¹ ¿
èĻļ æĭŁ
åº ľ
çĲĨ å¿µ
äººç±» è®¤çŁ¥
å¥ ³
äºĮ æ°§åĮĸ
éĥ¨ ç½²
åħ¨æģ¯ åİŁçĲĨ
åĽºæĢģ çĶµæ±ł
ç ŀ
äº ĳ
ç§ ģ
å¦Ĥæŀľ éĩıåŃĲ
åº¦ çļĦ
éĩıåŃĲ åľº
å¸¸ åĢŁåĬ©
æī© å¼ł
åįĬ å¯¼ä½ĵ
i t
åľ £
ä» ¤
ç¨ İ
æĶ¿ åºľ
ä¹ĭ è·¯
å¤ª ç©º
æľĢ ç»Ī
è¿ĳ ä»£
ä¸Ŀç»¸ ä¹ĭè·¯
æĦı åĽ¾
åĽł æŀľ
å°Ĩå¦Ĥä½ķ æ¼Ķåıĺ
åħ¨çĲĥ åĮĸ
æĶ¾ å¤§
åĲİæ®ĸæ°ĳ æĸĩåŃ¦ä¸ŃçļĦéŃĶå¹»çİ°å®ŀä¸»ä¹ī
éĩıåŃĲåľº è®º
æĪ ı
åıĳ èĤ²
æī ĩ
æĬĢæľ¯ éĢļè¿ĩ
éģ µ
éĽ ¶
æ¢ ¯
åħī éģĹä¼łåŃ¦
æĪĸ è®¸
æŁ ĵ
åĨ²ç§¯ æīĩ
è´£ ä»»
åĲ į
ä¸Ĭ åŃĺåľ¨
èį ¯
è®° å¿Ĩ
åĮ» çĸĹ
t r
å Ķ
çļĦ è½¬åıĺ
åıĳ çĶµ
ç¥ŀç»ı ç§ĳåŃ¦
ç¥ŀç»ı åı¯å¡ĳæĢ§
ç³»å¤ĸè¡ĮæĺŁ å¤§æ°Ķ
è¿ĳä»£ æĹ©æľŁ
èĥ ŀ
ä¸į æĸŃ
çī¹ å®ļ
çĥŃ éĩı
ç¾İ å¾·
èģĶ ç½ĳ
ç¼ĸ ç¨ĭ
å»¶ è¿Ł
è¡¨è§ĤéģĹä¼ł æľºåĪ¶
æľį åĬ¡
é» ĳ
ĺ æ±
çī Ľ
æ· ĺæ±
çŃī ç¦»åŃĲ
èī²å½© çĲĨè®º
éļľ ç¢į
äºĮæ°§åĮĸ ç¢³
æ·ĺæ± °
Ġ p
å® ¢
è¯ º
æķ ı
æ´ Ľ
çĶ± äºİ
ç¥ŀç»ıå½¢æĢģ è®¡ç®Ĺæŀ¶æŀĦ
åİŁåŃĲ çº§
å±ķç¤º äºĨ
ä¹ī çĽ¸å¯¹è®º
å¯¹ ç§°
æ¯Ķ çī¹
å¿ĥ è®º
æ± ½
æ¸ ¸
èĦ ±
æľª æĿ¥
æİ¢ æµĭ
å»¶ ç»Ń
èµĦæľ¬ ä¸»ä¹ī
ç»Ĩ èĥŀ
è¥¿ æĸ¹
ä¼ ª
æĮ ¯
æĪĲ åĬŁ
è´¨ çĸĳ
å¥ ĩ
ç¦ ı
åŁºäºİ CRISPR
æ°¸ä¹ħåĨ»åľŁ èŀįåĮĸ
çĶµç£ģ æ³¢
ç¢³éħ¸çĽĲ å²©
çŀ ¬
è¯ ķ
æľ¬ ä½ĵ
æ³Ľ å¿ĥè®º
æĹ¢ ä¿ĿçķĻ
çļĦ æĬĢæľ¯
å± ħ
éĻ ·
ä»İæł¹æľ¬ä¸Ĭ æĶ¹åıĺäºĨ
æ£Ģ æµĭ
çļĦ åħī
åľ° ä¸Ń
éĹ Ń
è®¤çŁ¥ åģıå·®
æłĩ å¿Ĺ
ç§¯ ç´¯
å¥ ¹
éĴ Ļ
çĽ¸åħ³ æĢ§
ä¸ ľ
çļĦ éģĵå¾·
æĽ ¼
èĭ ±
åıĻäºĭ ç»ĵæŀĦ
çĸ «
æķ°åŃĹ é¸¿æ²Ł
æĿĲæĸĻ ç§ĳåŃ¦
å¾Ĺä»¥ å®ŀçİ°
ä»ĸ ä»¬
æ½ľ åľ¨
ä¸Ńå¤® éĵ¶è¡Į
èĬ¯ çīĩ
ç¾İå¾· ä¼¦çĲĨåŃ¦
çŃīç¦»åŃĲ ä½ĵ
åħ į
æł ĳ
æıĲ é«ĺ
èİ İ
èį Ĳ
è¿ŀ æİ¥
è£ħç½® èīºæľ¯
æ£ ®
ç¡®å®ļ æĢ§
åľ Ī
ä» ħ
çŁ Ń
å¤§ è§Ħæ¨¡
éĩıåŃĲ æ¯Ķçī¹
ç¡® ç«ĭ
æ± ĩ
éĩĩ çŁ¿
æİ¨ èįĲ
å°ı è¡ĮæĺŁ
åħĭ æľį
æĪĳä»¬ å¯¹
æĬķ èµĦ
åķĨä¸ļ åĮĸ
æĶ¯ æĮģ
å°ģ å»º
çļĦ æĥħåĨµä¸ĭ
éĢ ģ
åħī è°±
æĺİ æļĹ
æ°´ æĸĩ
çĥŃ åĬĽåŃ¦
èĥ½åĲ¦ åľ¨
æ¶Ī èĢĹ
åªĴ ä»ĭ
äº¿ äº¿
çĻ¾ äº¿äº¿
å¼ Ĺ
éĩį å¤§
å¤į åĪ¶
è¯ģ æį®
ç¡ħ åŁº
å ĭ
åĪĨ è¾¨
å¤§ èĦĳ
æŀģ ç«¯
åı¥ æ³ķ
æī© å±ķ
åĪĨè¾¨ çİĩ
åĲ Ĺ
ç»ĵ åĲĪ
ç¤¾ä¼ļ ä¸Ń
åĸ ·
åħ± çĶŁ
å±Ģ éĻĲ
æĬĺå°Ħ åĩº
åįļå¼Īè®º åľ¨
æ²¹ çĶ»
u r
å¤ «
å½¢ èĢĮ
ä¸Ĭ åŃ¦
éĩıåŃĲ åıłåĬł
âĢĶ âĢĶ
çī Ī
ä¸» æĿĥ
åĪĨ ç±»
å·¥ åħ·
åħ³ éĶ®
éĩıåŃĲ åĬĽåŃ¦
æĸ° åŀĭ
æł¹ æį®
çİ°ä»£ä¸»ä¹ī æĸĩåŃ¦
éĻį æ°´
æįķ æį
çīĽ é¡¿
e c
o m
æĪ ¿
ç»ı åİĨ
è° ·
åı¯èĥ½ åľ¨
ç½ĳç»ľ å®īåħ¨
æ¼ ł
è´¸æĺĵ ç½ĳç»ľ
é©±åĬ¨ çļĦ
è¶ħèĩªçĦ¶ åħĥç´ł
æľ¬ä½ĵ è®º
å½¢èĢĮ ä¸ĬåŃ¦
åı¯ å®ŀçİ°
æī °
ç§» æ¤į
æº¶ è§£
è® ©
ä¸» è¦ģ
æ¨¡ ä»¿
å¢ ¨
åĿ ı
æĮģç»Ń åŃĺåľ¨
å°ıè¡ĮæĺŁ éĩĩçŁ¿
a t
ä½ ı
è¿ «
çĶ¨ æĪ·
åı¯èĥ½ éĢļè¿ĩ
åŃĺ åĤ¨
ä¸ª æĢ§
ä¸ī è§Ĵ
å¿« éĢŁ
åľ°ä¸Ń æµ·
éĢļè¿ĩ æ¯Ķè¾ĥ
å¦Ĥä½ķ è§£éĩĬ
åį «
æĹ¶ ç©º
åĪĨ æŃ§
ç³»ç»Ł éĢļè¿ĩ
æķ° åŃ¦
æĸ° åı¤åħ¸
çĥ Ī
äº¤ æį¢
ç²¾ ç¥ŀ
è´§å¸ģ ä¸»ä¹ī
èĻ ½
å¤įæĿĤ çļĦ
æĸĩæľ¬ çļĦ
æĵį ä½ľ
åŁ¹ åħ»
å£ģ çĶ»
å®¤æ¸© è¶ħå¯¼ä½ĵ
æĻ¶ ä½ĵ
ï¼Į "
ç» ĥ
åĮ ħ
åĮĸ ä¸º
äºº æľº
éĩį ç»Ħ
è¯ģ æĺİ
åĨħ éĥ¨
æīĭ æ®µ
å½»åºķ æĶ¹åıĺ
åĵ²åŃ¦ ä¸»å¼ł
çĽ´æİ¥ å½±åĵį
æī© æķ£
åĨ³å®ļ è®º
æıı è¿°
åĵ Ī
è¡Į ä¸ļ
èĦ ī
è·¨ ä»£
çĽ® çļĦ
æįķæį ī
çļĦ ä¼¦çĲĨ
èĥ½ æķĪ
å®ŀ åľ¨
åľ° ä¸ĭ
å¦Ĥæŀľ åıįçī©è´¨
åıĻ è¿°
åħħ åĪĨ
äººä»¬ å¯¹
ä¸ªæĢ§ åĮĸ
å¤ ľ
æĽ´ å¼ºè°ĥ
åĪĻ å¼ºè°ĥ
ä¾Ŀ åŃĺ
å¤įæĿĤ æĢ§
çļĦ ç¢İçīĩåĮĸ
åį ±
çº ¯
ç´ §
å² Ľ
æĥħ å¢ĥ
çłĶç©¶ è¡¨æĺİ
è¶ĭ åĬ¿
åŁºäºİCRISPR çļĦåŁºåĽł
e d
æĹ ¨
æĬ ¥
è¾ Ĳ
åĳ ĺ
åŁºåĽł ç»Ħ
äº§çĶŁ åĵªäºĽ
åķĨ åĵģ
è¿½ æ±Ĥ
åĲ ¸
å¼ ĥ
éĩį è§Ĩ
æŀģ ç®Ģ
ä¸¥ æł¼
çĻ¾äº¿äº¿ æ¬¡
éĿ ¶
çĶŁçī© å¤ļæł·æĢ§
èµ Ľ
æĸ° çļĦ
ç© ¿
æ°Ķ ä½ĵ
åģ ļ
å°Ĩå¦Ĥä½ķ å½±åĵį
æĦıè¯Ĩ çļĦ
ç¾İ æ´²
éĶ Ĥ
æ¶Ī éĻ¤
ä¾§ éĩį
ç«ĭä½ĵä¸»ä¹ī å¯¹
è® ¢
å½ ķ
å¼º åº¦
æ¨¡å¼ı è¯ĨåĪ«
çĽ´ è¯ĳ
æ°ĶåĢĻ åıĺåĮĸ
çĶŁäº§ åĬĽ
åĲİæ®ĸæ°ĳ åıĻäºĭ
æİ¢ ç´¢
æĳ Ħ
åºı åĪĹ
åħ °
æĹ ±
è´ ¯
æľª æĽ¾
æļ ´
éļĲ ç§ģ
æĭĵæīĳ éĩıåŃĲè®¡ç®Ĺ
éĺĲéĩĬ äºĨ
è¿ģ ç§»
åĨĻ å®ŀ
éĺ» ç¢į
ä¸īè§Ĵ æ´²
è¾Ĳ å°Ħ
æĭ ħ
é£İ æł¼
æ¬§æ´² ä¸Ńå¿ĥ
ç¥ŀç»ıå½¢æĢģ è®¡ç®Ĺ
åĪĨåŃĲ ç»Ħè£ħ
å¼Ģ åıĳ
è´Ł æĬĺå°Ħçİĩ
åıįåºĶ åłĨ
ä½ľèĢħ æĦıåĽ¾
æİ¨è¿Ľ ç³»ç»Ł
å®¢ è§Ĥ
t h
¿ åĳ½
åĬ ±
æī ĵ
åı¯èĥ½ éľĢè¦ģ
æ¯Ķ äºļ
çĲĨè®º æ¡Ĩæŀ¶
è®¡ åĪĴ
æ°ĳ ä¸»
æ¸ ħ
çªģ è§¦
çł´ åĿı
ä¼ ģ
å°Ĩ åıĳçĶŁ
çĲĨè®º çļĦ
éĢł æĪĲ
çķĮ éĻĲ
çĿ £
å¯¼èĩ´ çļĦ
çĽ¸äºĴ ä¾ĿåŃĺ
ç¢³ æįķ
ä¿® è®¢
çĤ¹ å½©
æł¹æľ¬æĢ§ å·®å¼Ĥ
åĳĪçİ° åĩº
çĩĥ æĸĻ
æĹ¨ åľ¨
åı ¸
æĹ ı
åĨ Ľ
æĸĩ ä¸»ä¹ī
éĻ ¢
åŃĺåľ¨ æĺ¾èĳĹå·®å¼Ĥ
å» Ĭ
çĦ ¦
çº§ èģĶ
æĹ¶éĹ´ å°ºåº¦
æŀģ åĮĸ
æ¿Ģ å¢ŀ
åŀĤçĽ´ åĨľä¸ļ
åı ¶
åľ¨ äºİ
è¾ ©
åı¯èĥ½ å®ŀçİ°
åħ³ æ³¨
éľ ĩ
è´¨ éĩı
è§Ĥ ä¼Ĺ
ç¬¦ åı·
å¹² æĹ±
æļ ĸ
è·¨ åĽ½
çŁ³ å¢¨
åĪĨåŃĲ çº³ç±³
å£« æ¯Ķäºļ
å¦ĤæŀľæļĹ èĥ½éĩıå¯Ĩåº¦
æ¹¿ å£ģçĶ»
èİİ å£«æ¯Ķäºļ
åŁºäºİCRISPRçļĦåŁºåĽł é©±åĬ¨æĬĢæľ¯
çŁ³å¢¨ çĥ¯
äº ²
å®ļ çĲĨ
è¾¾ å°Ķ
è¡Įä¸º çļĦ
... "
å¾ĹåĪ° å¹¿æ³ĽåºĶçĶ¨
ä¸¥è°¨ æĢ§
è®Ń ç»ĥ
åĮĸ è¿Ľç¨ĭ
äºĨ åĵªäºĽ
æī §
æľº æŀĦ
åĲİ ç»Ń
å·¥ ç»ıæµİ
ç¼ ł
æŃ »
æ¸ Ĳ
æķ°åŃĹ èīºæľ¯
"ï¼Į "
æĿ¿åĿĹ æŀĦéĢł
éĽ¶ å·¥ç»ıæµİ
æĢ »
å¯ ¡
è¶ħ å¯¼
ä¸ĭ çļĦ
åı¯èĥ½ä¼ļ åıĳçĶŁæĢİæł·çļĦ
å¤ĸ æĺŁ
å¹¿ ä¹īçĽ¸å¯¹è®º
åı¯ä»¥ æıŃç¤º
åĪ¶éĢł ä¸ļ
æİĴ æĶ¾
åĪ» æĦı
çļ® å±Ĥ
ä¼ļå¼ķåıĳåĵªäºĽ ä¼¦çĲĨ
æĪı åī§
çļĦ åı¯
çļĦ ç¥ŀç»ı
çļĦ å¼ºè°ĥ
éĢļè¿ĩ ç®Ĺæ³ķ
åĩ Ŀ
éĿŀ çº¿æĢ§
è¶ħ è¿ĩ
ä¸Ģ ç§į
å² Ĺ
äººå·¥ éĢļçĶ¨
ti c
è®° å½ķ
çºł ç¼ł
ä¿ĥæĪĲ äºĨ
äººå·¥éĢļçĶ¨ æĻºèĥ½
æķ° éĩı
è½ ½
å»º ç«ĭ
çĶ» å»Ĭ
éĽĨ ä¸Ń
æĪĲä¸º åı¯èĥ½
åĪĨå¸ĥ å¼ı
in g
åĨį çİ°
å§ ĭ
çĸĳ éĹ®
åĵ¥ ä¼¦
æľīä½ķ ä¸įåĲĮ
ç ĵ
äºĨ ä¼łç»Ł
åľ° çĲĨ
å¹³ éĿ¢
åĪĽ ä¼¤
å£ ³
åĲİæ®ĸæ°ĳ æĸĩåŃ¦
ç¥ŀç»ıå½¢æĢģ èĬ¯çīĩ
åħīåŃĲ è®¡ç®Ĺ
è´¢ å¯Į
å½ĵåīį çļĦ
éģµ å¾ª
åĵ¥ä¼¦ å¸ĥ
çļĦ åĨľä¸ļ
æĸ ¥
è¡ ¥
ç»ıæµİ ä½ĵ
ç¡® ä¿Ŀ
èĢħ çļĦ
æŁ Ĳ
çĽĳ æİ§
æ½ ®
en t
æľĢå¤§ åĮĸ
å¯¡ å¤´
µ Į
å ³
å µĮ
ç³ Ĭ
æ¨¡ ç³Ĭ
ç¤¾ä¼ļ ç»ıæµİ
æĿĥ åĪ©
äºĮ åħĥ
å¯¼èĩ´ äºĨ
èį ·
å¤± è°ĥ
éĢīæĭ© æĢ§
è¶ĭ äºİ
æµģåĬ¨ æĢ§
åĶ ¯
ç ı
çļĦ æĹ¶éĹ´
æĢ§ çĸ¾çĹħ
ä¸Ń åĽ½
è¯Ń ä¹ī
èĭ¥ éĩıåŃĲ
åĽł ä¸º
æ¨¡å¼ı ä¸İ
æģ Ĵ
æİ¨ çĲĨ
æł¸ èģļåıĺ
æ·· æĿĤ
çĤ¹å½© æ´¾
a c
åĪ Ŀ
æµ ª
åĲĮ è´¨
å¦Ĥæŀľ åĬłå¯Ĩè´§å¸ģ
è¯Ńè¨Ģ ç»ĵæŀĦ
ä½ĵç³» çļĦ
éħ ¶
æ¯Ķè¾ĥ åĪĨæŀĲ
è·¨ æĸĩåĮĸ
ç¿»è¯ĳ è¯´æĺİ
ç§ĳæĬĢ æĸĩçĮ®
èĻļæĭŁ çİ°å®ŀ
ç ¯
éĢ Ĳ
åĩ ¡
éĿ Ļ
åľ° éľĩ
æĬĢæľ¯ èĥ½å¤Łå®ŀçİ°
äºĴ æĸĩ
æ¶ ²
æ¶ µ
æ¸© åº¦
åĸ Ħ
åİĨåı² åıĻäºĭ
åı¥å¼ı ç»ĵæŀĦ
æŀĦæĪĲ äºĨ
åĵ¥ çī¹
æ²¿ æµ·
æµĵ åº¦
çĥŃéĩı åĪĨå¸ĥ
çļĦ ä¼łæĴŃ
æ¨¡åŀĭ çļĦ
äº¤ äºĴ
éħ¸ åĮĸ
éļ¾ é¢ĺ
æŀģç®Ģ ä¸»ä¹ī
éĶĤ ç¦»åŃĲ
å Ħ
è ĵ
çļĦ å´©æºĥ
çļĦ åħ´èµ·
ä¸İ çīĽé¡¿
ä¸į ç¡®å®ļæĢ§
è½¬ åŀĭ
ä¾Ŀ æį®
æİ¢ è®¨
å¤©ä½ĵ çĶŁçī©åŃ¦
ä¸» ä½ĵ
æĬ Ĭ
å¯¹ çĲĨæĢ§éĢīæĭ©
åĨ ¯
å·¥ èīº
æ¨¡å¼ı çļĦ
éĢł å±±
åĬĽåŃ¦ ä¸įåĲĮ
åĢĺèĭ¥ äºļåİĨå±±å¤§åĽ¾ä¹¦é¦Ĩ
å»¶ éķ¿
è§Ħæ¨¡ åĮĸ
è¿ŀ è´¯
å®ŀåľ¨ è®º
¼ å¤ľ
Ĭ ä¹±
æĺ ¼å¤ľ
åľ° å£³
åıĺ æļĸ
éĹ ¨
ç¥ŀ åŃ¦
ç´ Ĭä¹±
æĦŁ å®ĺ
äººç±» æ´»åĬ¨
ç§į ç¾¤
è¢« è¯ģå®ŀ
å½»åºķ æĶ¹åıĺäºĨ
æķ°æį® ä¼łè¾ĵ
å½¢å¼ı çļĦ
æĪĲä¸º ä¸»æµģ
ä¾Ŀèµĸ äºİ
æľīæľĽ å®ŀçİ°
åĤ¬çĶŁ äºĨ
å®¡ è§Ĩ
å ¦
è®¾ å¤ĩ
åĪĻ éĢļè¿ĩ
åĪ° çļĦ
æ¶ Į
ç»´ åº¦
ç¼ĸ çłģ
éļĲ èº«
ä¸İåĬŁåĪ©ä¸»ä¹ī ä¸įåĲĮ
åľ£ åĥı
æ±½ è½¦
5 0
çļĦ æķĪçİĩ
æĪĲ ç«ĭ
å¯Ĩ åĪĩ
èīºæľ¯ å®¶
åĻ¨ å®ĺ
äº§çĶŁ çļĦ
äº§çĶŁ ä½ķç§į
è§Ĵ èī²
çĽĳ çĿ£
ä¸ī ç»´
åĽŀ éŁ³
å²Ĺ ä½į
å¯ ¿åĳ½
å½ Ĵ
ä¸İ åħ·è±¡
æľº ä¼ļ
æĽ´ æĸ°
æĿ¥ è§£éĩĬ
åĪ© çİĩ
çŃī ä»·
å¹» çģŃ
çľŁ çĲĨ
èĲ ¨
éĴ Ī
åıĤ æķ°
ä¸įåı¯ éĿł
ç¤¾äº¤åªĴä½ĵç®Ĺæ³ķ éĢļè¿ĩ
ä¾ĽåºĶ éĵ¾
çĻ¾äº¿äº¿æ¬¡ è®¡ç®Ĺ
å¯¡å¤´ åŀĦæĸŃ
v e
ï¼ ģ
åı ī
ç»Ł ä¸Ģ
ç¨ Ģ
ç¥ŀç»ı åħĥ
å¤ļ ä¸ª
çİ¯å¢ĥ ä¸Ń
åĩĨç¡® å¯¹åºĶ
åĸ »
åĩı å¼±
åĮ» åŃ¦
åŃĺåľ¨ä¸»ä¹ī åĵ²åŃ¦ä¸»å¼ł
å°¼ éĩĩ
åİŁæĸĩ çļĦ
åķĨä¸ļåĮĸ åºĶçĶ¨
æ Ĳ
Ĵ å¼ĥ
çļĦ æĮĳæĪĺ
ç» ķ
å® ³
æµ ¸
çĲĨè®º è®¤ä¸º
ä»¥ ä¸ĭ
æŃ ¢
åħī çº¿
äººç±» ä¸ĸ
äº¤ åıī
æĺŁ ç³»
è¿Ļ äºĽ
çĶŁæĢģ æī¹è¯Ħ
æŀģ åľ°
éĴ ¥
çĽ¸è¾ĥäºİ ä¼łç»Ł
æĳ Ĵå¼ĥ
èģĮ ä¸ļ
åĽŀéŁ³ å®¤
Ġ ä¸ĵä¸ļæľ¯è¯Ń
çļĦ è¡¨è¿°
åı ª
æŀ Ŀ
äºº æł¼
äº¤ éĢļ
ä¿¡ å¿µ
é¢Ħ æľŁ
åĨ° çĽĸ
åįı è°ĥ
éļĲ å½¢
æįķ é£Ł
åĨį çĶŁ
ç¼º éĻ·
åĭ Ĵ
åį± æľº
éĴĪ å¯¹
çļĦ åŃĺåľ¨
ãĢ Į
ãĢ į
ä» Ĭ
åľ¨ ä¿ĿæĮģ
å¦Ĥæŀľ åħ¨æ°ĳåŁºæľ¬æĶ¶åħ¥
åĪĨ åĮĸ
å¤§ äº¤æį¢
éģ Ń
ä¸įåĲĮ äºİ
åĳ½ ä»¤
èĥ½éĩı çļĦ
æ²ī æµ¸
çĶŁæĢģç³»ç»Ł ä¸ŃçļĦ
åľ¨åħ¨çĲĥèĮĥåĽ´åĨħ å®ŀæĸ½
è´¢æĶ¿ æĶ¿çŃĸ
åĽ¢ ç»ĵ
åĵ¥ä¼¦å¸ĥ å¤§äº¤æį¢
åĦ ¿
r o
¹ ģ
ç ¹ģ
çļĦ ç²¾ç¡®
åĪ¶ å®ļ
æĺ¯ éĢļè¿ĩ
è½¬ åĲĳ
æ¨¡åŀĭ ä¸Ń
èĥ½åĬĽ çļĦ
æ¿Ģ åĬ±
åĬŁåĪ©ä¸»ä¹ī ä¼¦çĲĨåŃ¦
æĳĦ å½±
l e
è ı
å® ½
å¯¹ çħ§
å¹ ħ
æī Ń
ä»£ éĻħ
éĩıåŃĲ éľ¸æĿĥ
éľ ²
éĿŀ æ¬§
èīºæľ¯ è¿ĲåĬ¨
ä¾Ŀ æĽ¼
ä¸ĵä¸ļ åĮĸ
æĢ§çļĦ åĲĮæĹ¶
çĬ¶ çģ«å±±
æµ·æ´ĭ éħ¸åĮĸ
èĬĤ å¾ĭ
éļı æĹ¶éĹ´
éľĢæ±Ĥ ä¾§
æĭľåįłåºŃ åľ£åĥı
éļ¾ ä»¥
æĿİåĺīåĽ¾ çŃīä»·
è¯º ä¾ĿæĽ¼
è Ľ
Ġ éĩĩçĶ¨
éĢ Ŀ
å¦Ĥä½ķ æĶ¹åıĺäºĨ
çī© çļĦ
å®ŀçİ° å¯¹
è§£ è¯»
çĶŁçī© ä½ĵ
åĨħ åľ¨
åħĥ å°ıè¯´
éĽĨ æĪĲ
åĵģ æł¼
åĬłå¯Ĩ åįıè®®
åħ± è¯Ĩ
åį°åĪ· æľ¯
ä¼ª éĢł
å±ĢéĻĲ æĢ§
æĺ¼å¤ľ èĬĤå¾ĭ
å¯ĨåĪĩ çĽ¸åħ³
G ç½ĳç»ľ
ç¼ Ŀ
çĶŁçī© æłĩå¿Ĺ
è®¤çŁ¥ å¤±è°ĥ
æĹł æĦı
æĹł éľĢ
çİ¯å¢ĥ çĽ¸äºĴä½ľçĶ¨
æ¬§æ´² çļĦ
å®¹ éĶĻ
æİ¢ ç©¶
æľīæķĪ æĢ§
è¿ĺ æĺ¯
æ°¸ä¹ħåĨ»åľŁ åĬłéĢŁ
åį« æĺŁ
¶ åµĮ
Ġ æķ´ä½ĵ
ä¸» åĬ¨
åı¯ æĮģç»Ń
æµģ å¤±
æĽ´ ç¬¦åĲĪ
çĶµ ç½ĳ
åĴĮ çº¦
çŃĸ å±ķ
ç½ĳç»ľ ç¤¾ä¼ļ
èĥ½å¤Ł åľ¨
éķ ¶åµĮ
åħ¨çĲĥ æ°ĶåĢĻ
å²© çŁ³
æĸ¯çī¹ ä¼Ĳ
å¨ģ æĸ¯çī¹ä¼Ĳ
æĢĿ ç»´
è¡° èĲ½
å°ģ åŃĺ
åį°åĪ· æľº
æ·±åº¦ ä¼ªéĢł
éĢıè§Ĩ æ³ķ
è¾¾å°Ķ æĸĩä¸»ä¹ī
æīŃ æĽ²
å¨ģæĸ¯çī¹ä¼Ĳ åĪ©äºļ
åı¯ æıŃç¤º
è° ¢
å¸¸ å¸¸
çģ °
åĻ¨ çļĦ
æł¹æľ¬æĢ§ è½¬åıĺ
éĢĤåºĶ æĢ§
éļĲ åĸ»
éĩĮ å£«
é©¬ èµĽ
è¯Ŀ è¯Ń
åį¡ å°Ķ
åīĬå¼± äºĨ
å»ºæŀĦ ä¸»ä¹ī
ç»´å¤ļåĪ©äºļ æĹ¶æľŁçļĦ
ä¼ģ ä¸ļ
å¨ģæĸ¯çī¹ä¼ĲåĪ©äºļ åĴĮçº¦
é©¬èµĽ åħĭ
è Ĺ
ç» ¿
è¿ĩ æĹ¶
å¯¹ ç«ĭ
ç³ ħ
å¹ Ķ
æ³ķ å®ļ
åľ° å¹Ķ
å¤ļ å¾·
æİ¥ åıĹ
è½¬ ç§»
å±± èĦī
é¡ ¹
è¡° éĢĢ
çºł éĶĻ
éĩĮå£« å¤ļå¾·
çī© èģĶç½ĳ
è´ ¦
æĮ ¥
æī į
ä¿Ŀ çľŁ
å½¢æĪĲ äºĨ
è¶ħ çİ°å®ŀä¸»ä¹ī
éĺ Ī
åıį å°Ħ
æ°´ ç³»
é© ¾
äºļ éĩĮå£«å¤ļå¾·
çĥŃ å²Ľ
æ¬§ äºļ
çĶŁæĢģç³»ç»Ł ä¸Ń
å¢ŀå¼º çİ°å®ŀ
çŁĽçĽ¾ çļĦ
åį³ éĢĿ
å¥³ æĢ§
æįķé£Ł èĢħ
æ³ķå®ļ è´§å¸ģ
çĽ Ĩ
çº ¢
è½ ®
è¯ĳ æĸĩ
èĥ½æºĲ æ¶ĪèĢĹ
éĢ»è¾ĳ å®ŀè¯ģ
ç»Ŀå¯¹ åĳ½ä»¤
éĩįåķĨä¸»ä¹ī æĶ¿çŃĸ
æ¢¯ åº¦
éĿ¶ åĲĳ
éĺĪ åĢ¼
d e
¡ æĶ¹
çļĦ ç»ıæµİ
å¼ ¹
è¯ ŀ
å± ı
å· ´
å¼º çĥĪ
æĽ´ å¿«
è§Ĥ çĤ¹
èĢħ æķĪåºĶ
å¤ļ åħĥ
æķ´ ä¸ª
è§Ħ åĪĴ
åĨ² åĩ»
é£ ŀ
äººå·¥ æĦıè¯Ĩ
æŁ ¥
ä¸»å¯¼ åľ°ä½į
è¿ĺ åİŁ
æĿĥåĬĽ ç»ĵæŀĦ
åĸĢæĸ¯çī¹åľ°è²Į éĢļè¿ĩ
çŃīçº§ åĪ¶åº¦
éĢĨ è½¬
èĻ½ çĦ¶
äºĮåħĥ è®º
ç¯ ¡æĶ¹
ä¸įåı¯éĿł åıĻè¿°
åı ²åŃ¦
åĪĨ è§£
æ¯Ķ ä¼łç»Ł
è¯Ń æ³ķ
æĿ¥ å®ŀçİ°
ç¤¾ä¼ļ åŃ¦
å°Ĩå¦Ĥä½ķ æĶ¹åıĺ
ç¾İ åĽ½
åı¥ çļĦ
æĭľåįłåºŃ é©¬èµĽåħĭ
è¡¨éĿ¢ å¯¼çĶµ
å½»åºķéĿ©æĸ° äºĨ
è¾¹ç¼ĺ è®¡ç®Ĺ
ç½Ĺ é©¬
ç³»å¤ĸè¡ĮæĺŁå¤§æ°Ķ åħīè°±
çĥŃå²Ľ æķĪåºĶ
o s
r a
è¿ ħ
å¦Ĥæŀľ èĦĳæľºæİ¥åı£å®ŀçİ°
æ² Ļ
éĹ´ çļĦ
è± ª
æĿĲæĸĻ çļĦ
åŁºäºİ åĮºåĿĹéĵ¾çļĦ
å¤§æ°Ķ äºĮæ°§åĮĸç¢³
åħ¬ åı¸
æĹ¢ ä¿ĿæĮģ
è¡¨è§ĤéģĹä¼ł ä¿®é¥°
åĽ½éĻħ è´¸æĺĵ
å¤ªéĺ³èĥ½ åıĳçĶµ
çļĦ ç»ĵæŀĦ
çļĦ ç²¾åĩĨ
ä¸º ä»Ģä¹Ī
å¿ §
è®¤ åĲĮ
æĺ¯ ä»Ģä¹Ī
æ± ī
è¿ĩç¨ĭ çļĦ
ä¹ł å¾Ĺ
éģĵå¾· å®ŀåľ¨è®º
èĤ ĸ
ic al
æĿİåĺīåĽ¾ çļĦ
çĨ Ł
æ±ĩ èģļ
å¦Ĥæŀľåıįçī©è´¨ çº¦æĿŁ
æĿİåĺīåĽ¾çŃīä»· å®ļçĲĨ
èĽ ĭ
çļĦ è®¤è¯Ĩè®º
çļĦ æī¹åĪ¤
æĢ§ åĪ«
æķ ħ
å¯¹ æĬĹ
æĬĢ èĥ½
åľ° å¤ĸ
åı¯èĥ½ æĢ§
å¤§ åĬłéĢŁ
æŃ ¦
æģ Ĳ
ä½ľçĶ¨ å½¢æĪĲ
é© ¶
ç®Ĺæ³ķ æİ¨èįĲ
å¼ł åĬĽ
çķĮ å®ļ
ä¾Ŀ çĦ¶
ä»· æł¼
åıĸ å¾Ĺ
æ¼Ķ åĮĸ
ä¹īåĬ¡è®º æ¡Ĩæŀ¶
è¡Įä¸ºç»ıæµİåŃ¦ éĢļè¿ĩ
æŀĦæĪĲ æĮĳæĪĺ
é¢ľæĸĻ çļĦåıĳæĺİ
çľŁå®ŀ æĢ§
éĶĤç¦»åŃĲ çĶµæ±ł
èĵ Ħ
o g
Ġ m
ä¸ ģ
æµ ®
éĩı åĮĸ
æĸ¹ ç¨ĭ
åģ ¥
æĪĳ çļĦ
è½¬ çŀ¬
æ® Ĭ
ä¿¡ åı·
åıĳå±ķ ä¸Ń
è¢« æ·ĺæ±°
åŁºåĽł è¡¨è¾¾
æĺ¾ ç¤º
æŀģ éĻĲ
æĹł ç¼Ŀ
çķĮ éĿ¢
ä¸ĵä¸ļ è¡¨è¿°
éĶ ģ
å®Į åĸĦ
å¢ŀå¼º æĬĢæľ¯
æĬĢæľ¯çļĦ è¿ĽæŃ¥
åĽ½å®¶ ä¸»æĿĥ
æ³¢åĬ¨ æĢ§
æ½ľ åĬĽ
çģŃ ç»Ŀ
å±ŀ æĢ§
åĲİç»ĵæŀĦä¸»ä¹īæĸĩåŃ¦ çĲĨè®ºéĢļè¿ĩ
çĽ®çļĦ è®º
èı Į
è½¬çŀ¬ åį³éĢĿ
t er
u l
å¼ §
ä¸Ń æĸŃ
éĢļ éģĵ
æµ Ĩ
åı¯èĥ½ å¼ķåıĳåĵªäºĽ
æĦı å¿Ĺ
æµģ è¡Į
éļ Ķ
åŁİå¸Ĥ åĮĸ
è·¯ çº¿
ä¿® å¤į
æĤ ¬
å²© æµĨ
éĤ ¦
æŀĦéĢł æĿ¿åĿĹ
æ¹ ¾
åıĺå¾Ĺ åı¯è¡Į
é¸ £
ç»ıéªĮ éªĮè¯ģ
åıįæĺł äºĨ
æ¶ī åıĬ
éĿĴéĵľæĹ¶ä»£ æĸĩæĺİ
èĥĮ æĻ¯
åĪĨåŃĲç»Ħè£ħ æľº
äºĴæĸĩ æĢ§
å¯¡å¤´åŀĦæĸŃ å¸Ĥåľº
å°¼éĩĩ çļĦ
é©¾ é©¶
ä¹ Ĳ
éĢļ èĥĢ
æŀĦ åĽ¾
å· ¨
å¤§ å¹ħ
æ¯Ķ ä¾ĭ
åĲİ å·¥ä¸ļ
æĸ° è¾¾å°Ķæĸĩä¸»ä¹ī
çł į
äººç±» ä¸»ä¹ī
è¡¨çİ° åĩº
æ¿Ģ æ´»
èĩªåĬ¨ é©¾é©¶
åľ°çĲĥ åĮĸ
é£Ł çī©
ä¼Ĭ æĸ¯
åĲĮè´¨ åĮĸ
æĽ´æĸ° ä¸ĸ
æ°¸ä¹ħåĨ»åľŁåĬłéĢŁ èŀįåĮĸ
å¾ ħ
å· ±
åľ° éĿ¢
æ² ĥ
çĲĨè®º å¼ºè°ĥ
çŁ¥ éģĵ
çī¹ æ®Ĭ
åŃĺåľ¨ æł¹æľ¬æĢ§å·®å¼Ĥ
çĶµ è·¯
ç« Ļ
æ¨¡åŀĭ ä¸įåĲĮ
äººç±» æĦıè¯Ĩ
å¤ĸ éĥ¨
åŁİå¸Ĥ çĥŃå²ĽæķĪåºĶ
åĩł éĩĮ
æĸĩæľ¬ æĿĥå¨ģ
çģ« æĺŁ
è®¾è®¡ çļĦ
å°½ç®¡ åŃĺåľ¨
æĿ¡ä»¶ ä¸ĭ
åº·å¾· çļĦ
æ£® æŀĹ
åĮħ è±ª
äº§çĶŁä½ķç§į å½±åĵį
å²©çŁ³ åľĪ
è¿ħ éĢŁ
çłį ä¼Ĳ
åĩłéĩĮ å¾Ĺ
åĮħè±ª æĸ¯
d i
çļĦ æĸ¹å¼ı
ç» ¼
èĥ ģ
ä¸Ń å¯¹
ä¸İ åį°è±¡æ´¾
æĪĲ åĥı
è¡Į åĬ¨
è§£ æŀĲ
æĽ´ éĩįè§Ĩ
ç¤¾ä¼ļ ä¸ŃçļĦ
æ°ĳ æĹı
å¹³ åĩ¡
æĿĤ ç³ħ
åħ± é¸£
åħ¬ åľ°
çĭ¬ ç«ĭ
åĽŀ è·¯
éĢ»è¾ĳ åħ³ç³»
è¿ĽåĮĸ çĶŁçī©åŃ¦
æĽ² çº¿
ä¸»è§Ĥ ä½ĵéªĮ
ç¥ŀç»ıå½¢æĢģè®¡ç®Ĺæŀ¶æŀĦ éĢļè¿ĩ
åĩĿ èģļ
å³ ¡
æ¶Į çİ°
é ¾
Ġ f
å® Ī
ä¹ ı
æĬ ĳ
ä¸»ä¹ī ä¸İ
è®º æĸĩ
è®º è¯ģ
åĲĮ æŃ¥
åħī æķı
è¿Ĳ è¡Į
æ¼ «
ç§ĳåŃ¦ éĿ©åĳ½
å®Į ç¾İ
éĿ©åĳ½ æĢ§
åħ¬ åħ±
éħį ç½®
æĿ¡ä»¶ åıįå°Ħ
éĻįä½İ äºĨ
æ¸©çĽĲçİ¯æµģæ¨¡å¼ı éĢļè¿ĩ
éĴĻ åĮĸ
åħį çĸ«
åĨįçĶŁ èĥ½æºĲ
çļĦ æĸĩåĮĸ
çļĦ èī²å½©
åº Ł
çĶ¨ äºİ
åŁº å²©
è¿Ľ èĢĮ
æĽ´ èĥ½
çİĩ çļĦ
æĶ¹ è¿Ľ
æİ¥ è¿ĳ
åľº æĻ¯
äºĴ èģĶ
è§Ħ åĪĻ
è¿Ļ ä¸ª
åĲĮæĹ¶ ä¹Ł
èĮĥå¼ı è½¬åıĺ
è´§å¸ģ ä¾ĽåºĶ
çĬ¶ æ°´ç³»
å¤įæĿĤ åĮĸ
èĥ½æºĲ ä¼łè¾ĵ
æĸ¹éĿ¢ çļĦ
èµĦæºĲ åĪĨéħį
åıĹ åĪ°
å¨ģ èĥģ
é©¬ åħĭ
éĩįå¡ĳ äºĨ
éĺ¶ å±Ĥ
èįĴ æ¼ł
çº§èģĶ æķĪåºĶ
è´¦ æľ¬
åħ¬åľ° æĤ²åī§
äº Ł
æĿ ĳ
å¹ ¸
åĪĨ æķ£
æľ¬ åľŁ
ç¬ Ľ
å¤Ħ äºİ
èī² åĬ¨åĬĽåŃ¦
è¿Ľè¡Į å¯¹æ¯Ķ
ç½® äºİ
æľª èĥ½
æŃ£ å¦Ĥ
ä¾Ľ ç»Ļ
å®Į å¥½
èį ¡
åľ°ç¼ĺæĶ¿æ²» åĲİæŀľ
åıłåĬł æĢģ
æĽ´é«ĺçļĦ èĥ½éĩıå¯Ĩåº¦
æĦıè¯ĨæµģåıĻäºĭ æīĭæ³ķ
æĦıè¯ĨæµģåıĻäºĭ æĬĢå·§
æĺİæļĹ å¯¹çħ§
å¦ĤæŀľæļĹèĥ½éĩıå¯Ĩåº¦ éļıæĹ¶éĹ´
c e
p h
éĢ Ķ
å°Ĩ éĿ¢ä¸´
åŀĭ åĮĸ
èĩª éĢĤåºĶ
èĩª å·±
æĺİ ç¡®
æ± ¡
éĺ µ
éĩĩ åıĸ
æķ°åŃĹ åĮĸ
é£İ åĮĸ
æ·± æµ·
äºī è®º
ä¿ĿçķĻ äºĨ
æİĴ æ°´
çº¿æĢ§ åıĻäºĭ
çļĦåıĳ çİ°
æ¨¡ä»¿ çĶŁçī©ç¥ŀç»ıç½ĳç»ľ
çĦ¦ èĻĳ
æŁĲ äºĽ
è Ń
ä¸ ¾
ä¼ ´
åĲ §
æĹ ħ
ä¹ĭ ä¸Ĭ
æµ· å¹³éĿ¢
éª ¨
åĨħ æ¶µ
è¿Ļ ç§į
èĦ Ĩ
è¡¨çİ° æīĭæ³ķ
ç»ĩ ç½ĳ
èµ· æĿ¥
éĩıåŃĲè®¡ç®Ĺ å®ŀçİ°
çģ«å±± å¼§
å®ĩå®ĻåŃ¦ æ¨¡åŀĭ
åħīä¼ı çĶµæ±ł
å®ŀéĻħ åºĶçĶ¨
è¾© è¯ģ
éĢĲ æ¸Ĳ
ç¬Ľ åį¡å°Ķ
c h
m s
åŃ¦ æľ¯è¯Ń
å°Ĩ åıĳçĶŁæĢİæł·çļĦ
æĢģ åº¦
åĲĪ çī©
éĩıåŃĲ èī²åĬ¨åĬĽåŃ¦
åĵį åºĶ
æµģ åŁŁ
åĵªäºĽ åĽłç´ł
å£ ¤
çİ°ä»£ä¸»ä¹ī è¯ĹæŃĮ
æķĻ åŃ¦
å¤© åŁº
åĨľä¸ļ éĿ©åĳ½
æıĲåĩº æĮĳæĪĺ
é¢łè¦Ĩ æ®ĸæ°ĳ
çģ«å±± æ´»åĬ¨
è§£åĨ³ æĸ¹æ¡Ī
åĬłå¯Ĩè´§å¸ģ çļĦ
èįĴ è¯ŀ
æłĳ æŀĿ
æī§ è¡Į
æ·±åº¦ä¼ªéĢł æĬĢæľ¯çļĦ
ä¼Ĭæĸ¯ åħ°
å³¡ æ¹¾
æ±¡ æŁĵ
ä¸ Ķ
åº ĵ
å¾ Ļ
æĬ µ
éĢļè¿ĩ åĪ©çĶ¨
åı¯ ç¼ĸç¨ĭ
çĶ¨ åľ°
æĪĲ çĨŁ
å¦Ĥæŀľ CRISPR
å¦Ĥæŀľ æ³Ľå¿ĥè®º
åĪĨ åıĳ
çĽ¸ èŀįåĲĪ
ä»£ è°¢
èµ ĭ
åıĳå±ķ çļĦ
ç®Ĺæ³ķ åģıè§ģ
çĶ» å®¶
éģĵå¾· ä¹īåĬ¡
äºĮ ç»´
çĿ ¡
æıĲåįĩ äºĨ
çĬ¶ è¯Ń
çŁ¥è¯Ĩ çļĦ
åĽº æľī
æĭī ä¸ģ
èĴ ¸
æĥħæĦŁ åħ±é¸£
ç¦»åŃĲ éĢļéģĵ
åĤ¨ èĵĦ
æĭľåįłåºŃ éķ¶åµĮ
ç¼º ä¹ı
æķĻèĤ² ä¸įå¹³çŃī
è¿ģ å¾Ļ
å®Įæķ´ æĢ§
æ¦Ĥçİĩ æĢ§
å¥ĩ å¹»
æĭħ å¿§
èŃ ¦
1 8
R NA
u n
æ ħ
çĲĨ æĥ³
äºĨ ä½ķç§į
å¦Ĥä½ķ ä¸º
ä¼ļ å¼ķåıĳ
åıĳ æĮ¥
åľ° å±Ĥ
éģ ¿
éĩį è¦ģ
ç¥ŀç»ı ç»ĩç½ĳ
å¯¼ åĲĳ
éĿŀ çĲĨæĢ§
åĮº åĪĨ
å¼Ĥ å¸¸
è§Ĩ ä¸º
æķ°æį® å¤ĦçĲĨ
æĴ ŀ
ä»į çĦ¶
æ²īç§¯ ä½ľçĶ¨
åĽ´ ç»ķ
ä»» åĬ¡
åĩ¯æģ©æĸ¯ä¸»ä¹ī ä¸İ
ç»´å¤ļåĪ©äºļ æĹ¶æľŁ
åĳĪæĮĩæķ°çº§ å¢ŀéķ¿
åĸ· åıĳ
ç¢³æįķ éĽĨ
æĺ¼å¤ľèĬĤå¾ĭ ç´Ĭä¹±
å¥³æĢ§ ä¸»ä¹ī
ç»¼ åĲĪ
äºŁ éľĢ
èĦĨ å¼±
äº ¡
ä½ Ļ
èĥ½ åľ¨
åĮĸ çŁ³
å¦Ĥä½ķ åı¯èĥ½
ä½ĵ åĪ¶
åĪĨ å½¢
çĽ¸ ç»ĵåĲĪ
å½± æķĪæŀľ
çĶŁçī© å·¥ç¨ĭ
åĩº çīĪ
éĩıåŃĲ çĶŁçī©åŃ¦
åİŁ æĦı
æİ¥ è§¦
ç½ĳç»ľ çĲĨè®º
æĺ¾ äºĨ
çłĶ åıĳ
å¿ĥçĲĨ è¯Ńè¨ĢåŃ¦
åĨ° æľŁ
é¢łè¦Ĩ æ¬§æ´²ä¸Ńå¿ĥ
è´Ł åĪ©çİĩ
å®ŀéªĮ å®¤
åĲ¯èĴĻ è¿ĲåĬ¨
å®ĹæķĻ æĶ¹éĿ©
æķ°åŃĹé¸¿æ²Ł éĢļè¿ĩ
çİ »
å¹ ķ
ä¸į ç¨³å®ļæĢ§
åı¯èĥ½ å¼ķåıĳ
ç¤¾ä¼ļ åĪĨå±Ĥ
åģ ľ
è· Ŀ
å°Ĩå¦Ĥä½ķ è½¬åıĺ
ç²¾ å¯Ĩ
åıĳå±ķ åĩº
å¾® è§Ĥ
å¼Ģ éĩĩ
ä¸įåı¯ ç¯¡æĶ¹
åıĤä¸İ åº¦
å§ Ķ
çĮ İ
èĲ¥ éĢł
åıĮ åĲĳ
æŃ§ è§Ĩ
çļĦå¹¿æ³Ľ æĻ®åıĬ
DNA åºıåĪĹ
it y
èĹ ı
éĢĶ å¾Ħ
çļĦ æ¿Ģå¢ŀ
çļĦ è¡°èĲ½
åı¯ åĨįçĶŁèĥ½æºĲ
çī© é¦Ĩ
è¡¨ åŀĭ
è¯Ń æ°Ķ
åĢ Ĵ
åŃĺåľ¨ çĽ¸åħ³æĢ§
çľ ł
æĮĩ å¯¼
åħĪ è¿Ľ
æĪĸ åı¯
åĨľä¸ļ çĶ¨åľ°
æĥ¯ ä¾ĭ
åĬ¨æĢģ éĽķå¡ĳ
åįļ çī©é¦Ĩ
å¼ºåĮĸ äºĨ
æ» ¡
æ» ŀ
ä¸İç»ıåħ¸ åĬĽåŃ¦ä¸įåĲĮ
è®¨ è®º
è¯ķ åĽ¾
ä¼ ĳ
åĲ ¬
çİ° è¡Į
åĩ ¸
æĬĢæľ¯ åľ¨
èµ °
ç»ıæµİ è¡°éĢĢ
ä¿Ŀ éļľ
å½¢æĪĲ è¿ĩç¨ĭ
å¸¸ è§Ħ
æ³¨ æĦı
èĳ Ľ
æıŃç¤ºäºĨ äºĮèĢħåľ¨
åľŁ å£¤
è´¸æĺĵ è·¯çº¿
çĶŁæĢģç³»ç»Ł çļĦ
æĪĲä¸º ä¸»å¯¼
åįł æį®
æĳ ĩ
åĲİçİ°ä»£ä¸»ä¹ī æĸĩåŃ¦
åĽłæŀľ åħ³ç³»
æĸ°åı¤åħ¸ ä¸»ä¹ī
æĻ¶ä½ĵ ç®¡
åĨĽ äºĭ
å¹»çģŃ æĦŁ
æĹłæĦı ä¸Ń
çĽĨ åľ°
æĭīä¸ģ ç¾İæ´²
i l
ä¸ ĩ
çļĦ èīºæľ¯
çļĦ å·®å¼Ĥ
çļĦ çĲĨè§£
å¤ º
ä» ª
å¦Ĥæŀľ å®¤æ¸©è¶ħå¯¼ä½ĵ
éĩıåŃĲ æĢģ
æĽ´ åĬł
å¯Ĩ éĴ¥
èīºæľ¯ çļĦ
å¤ļ èĳĽ
æĸ¯ å¤ļèĳĽ
æķ°æį® éĽĨ
æŃ£ å¼ı
å¤© çĦ¶
çł´ è§£
è£ħç½® éĢļè¿ĩ
çī©çĲĨåŃ¦ ä¸įåĲĮ
å®ŀè¯ģ éªĮè¯ģ
æ¶Īè´¹ èĢħ
éĺ¶ çº§
æ²¡ æľī
ç«ĭä½ĵä¸»ä¹īå¯¹ å½¢å¼ıçļĦ
èĤĸ åĥı
èĽĭ çĻ½
é ī
Ġ ä½¿çĶ¨
Ġ in
æĢ Ģ
èĥ½ åĬ¨
æĢ§ èĥ½
çĶŁ åŃĺ
ä¸į è¶³
æ³ķ åĽ½
äºº æĭ©
èĭ¥ èĥ½
åŃĺåľ¨ å·®å¼Ĥ
ç² ¹
çİ°å®ŀ ä¸İ
å¸¸ éĩĩçĶ¨
éģĵå¾· åĨ³çŃĸ
âĢ ľ
âĢ Ŀ
åħĪ äºİ
ä½ł çļĦ
ä½į ç½®
ä½İ æ¸©
åĪ¤ æĸŃ
èµĦæľ¬ ç§¯ç´¯
æ³ķå¾ĭ æ¡Ĩæŀ¶
å¹²é¢Ħ æİªæĸ½
åĨ· åĨ»
ä¿¯åĨ²å¸¦ éĢļè¿ĩ
å¦ĤæŀľæļĹ èĥ½éĩıçļĦ
å°ıè¯´ä¸ŃçļĦ éŃĶå¹»çİ°å®ŀä¸»ä¹ī
å¸ĮèħĬ æĤ²åī§
éĽ· åħĭ
åĲ¸ æĶ¶
ä¾§éĩį äºİ
éĺ»ç¢į äºĨ
å²Ĺä½į æµģå¤±
éĿŀæ¬§ åĩłéĩĮå¾Ĺ
åĵģæł¼ åŁ¹åħ»
éī ´
4 0
Ġ re
æĢ ¥
åŃ¦ ç§ĳ
çĶŁ æ®ĸ
å¾ Ī
ä¼ł æĦŁ
åĲİ çļĦ
è®¤ è¯ģ
å½¢æĪĲ äºİ
ä¹ĭ åīį
è¯Ńè¨Ģ çĽ¸å¯¹è®º
åĽ¾ æ¡Ī
æ¼ Ĥ
æĥħ æĻ¯
èĤ ī
æ³¢ éķ¿
æŃ£ åľ¨
æłĩåĩĨ è¯ĳæ³ķ
æ¶Ī è§£
çĽ´æİ¥ çĽ¸åħ³
å°± ä¸ļ
çĽ¸åħ³ èģĶ
é¢łè¦Ĩ ä¼łç»Ł
åħ» èĢģ
ç²¾ç¡® çļĦ
åįļå¼Īè®º æ¨¡åŀĭ
å¤ªéĺ³èĥ½ çĶµæ±ł
åŁ¹ èĤ²
é¢ĳ çİĩ
çļĦå¹¿æ³Ľ éĩĩçĶ¨
éĩİ çĶŁ
è±¡å¾ģ æĢ§
è¡¨è§ĤéģĹä¼łæľºåĪ¶ éĢļè¿ĩ
éĻįæ°´ æ¨¡å¼ı
éĢīæĭ©æĢ§ åĨħå®¹
å¯¹çĲĨæĢ§éĢīæĭ© çĲĨè®º
æģĲ æĢ
æ£®æŀĹ çłįä¼Ĳ
äººæĭ© åİŁçĲĨ
c i
§ æĪ¿
çļĦ æ¦Ĥå¿µ
çļĦ ä¾Ŀèµĸ
çļĦ æ²»çĸĹ
ä¹ °
ä¸» é¢ĺ
éĢļ å¸¸
å¦Ĥä½ķ ä½ĵçİ°
ä¸į ä¼ļ
äºº çļĦ
æ¯ ģ
åĲİ äººç±»ä¸»ä¹ī
è¯Ń åºı
èĩª æ²»
æµģ ä½ĵ
èĮ §æĪ¿
ç¤¾ä¼ļ ç»ĵæŀĦ
æģ ¶
è®¡ç®Ĺ æľº
å¾· å°Ķ
å¾· éĽ·åħĭ
å¤ļ ç§į
åıĻäºĭ æīĭæ³ķ
æ¶ ¨
çİ¯å¢ĥ åĽłç´ł
éģĵå¾· çī¹æ®Ĭ
åŁİå¸Ĥ è§ĦåĪĴ
æ°ĶåĢĻ å»ºæ¨¡
å¹´ ä»£
ä¹ĭéĹ´çļĦ çŁĽçĽ¾
ä¸Ńå¿ĥ çļĦ
çĽĳ æµĭ
éĢı éķľ
åĩ¯æģ©æĸ¯ä¸»ä¹ī ç»ıæµİåŃ¦
åĩ¯æģ©æĸ¯ä¸»ä¹ī åĪºæ¿Ģ
å®¡ ç¾İ
ä¸ŃçļĦåºĶçĶ¨ æıŃç¤ºäºĨ
çĪ Ĩ
æµ·å²¸ ä¾µèļĢ
æŀģç«¯ å¾®çĶŁçī©
æļ´ éľ²
éĿĻ æĢģ
è®¤çŁ¥å¤±è°ĥ çĲĨè®º
ä¿ĿçľŁ åº¦
ä¸įåı¯éĿłåıĻè¿° èĢħ
s i
y s
çļĦ åĬ¨æĢģ
å®ŀ çĶ¨
å¦Ĥä½ķ åıįæĺł
æĪĲ åĪĨ
æ¯ į
èµ ¤
èĭ¥ èĥ½å®ŀçİ°
èīºæľ¯ ä¸Ń
å¤į åĲĪ
ä¸Ģ èĩ´
å¤ļ éĩį
éª ¼
è¿Ĳ è¾ĵ
ç»´ æĬ¤
äºļ åİŁåŃĲ
è¢« åĬ¨
çĬ ¯
ä¹ĭéĹ´çļĦ åħ³ç³»
å¹¿æ³Ľ éĩĩçĶ¨
ç¬¦åĲĪä¸Ńæĸĩ è¡¨è¾¾ä¹łæĥ¯
é¡ º
çĽ¸å¯¹ ä¸»ä¹ī
æĢİæł·çļĦ å½±åĵį
éĢı æĺİ
çªģçł´ æĢ§
ä¹¦ ä¿¡
æİĴ æĸ¥
è¶ħæĿĲæĸĻ éļĲèº«
éĥ½ å¸Ĥ
åı¯èĥ½ä¼ļå¦Ĥä½ķ æ¼Ķåıĺ
èĪª å¤©
åĵ¥çī¹ å¼ı
éª¨ éª¼
èĤĸåĥı çĶ»
éģĵå¾·çī¹æ®Ĭ ä¸»ä¹ī
çļĦ æıĲåįĩ
äº «
ä¸Ń ä»ĭ
ä¸İ äººç±»
äºº çī©
ä»¥ éĢĤåºĶ
ç¥ŀç»ı è°ĥæİ§
ä½¿ ä¼łç»Ł
æĦıè¯Ĩ çłĶç©¶
æĮĩ æ¶ī
ç¼ĸ ç»ĩ
æĶ¶ éĽĨ
ç¾¤ èĲ½
æ°¸ä¹ħ æĢ§
è¿ŀ ç»Ń
è¡Įä¸ºç»ıæµİåŃ¦ éĢļè¿ĩå°Ĩ
æº¶ èļĢ
æľºåĻ¨äºº åŃ¦
æĪĺçķ¥ åĨ³çŃĸ
ç¬¬ äºĮ
åĨ²ç§¯å¹³åİŁ ä¸įåĲĮ
çļĦåħī å½±æķĪæŀľ
åħ¬åı¸ æ²»çĲĨ
æĹħ è¡Į
a b
m ent
v er
¿ æĢģ
çļĦ è¿ĲçĶ¨
çļĦ æ¯Ķè¾ĥåĪĨæŀĲ
äº Ī
ç» ħ
è¯ ¸
åľ¨ çĲĨè®ºä¸Ĭ
éĩı çļĦ
åľ° åĪ©
å®ŀçİ° æłĩåĩĨåĮĸ
å¦Ĥæŀľ å¾®çĶŁçī©
æ¯ Ĵ
èĩª æĹĭ
æĻ ļ
åİŁ åŀĭ
åĵªäºĽ æĬĢæľ¯
å°Ĩå¦Ĥä½ķ éĩįå¡ĳ
å±Ĥ æ¬¡
å¹² æī°
å°ıè¯´ ä¸Ń
åħ± åĲĮ
å°± æĺ¯
æł¹æľ¬æĢ§ åıĺéĿ©
ç¢İçīĩ åĮĸçļĦ
åľ°è´¨ æĹ¶éĹ´å°ºåº¦
å§ ¿æĢģ
åķĨä¸ļ åı¯è¡ĮæĢ§
å¥¥ åľ°åĪ©
éĽ· è¾¾
æµª æ¼«
éĽĨæĪĲ çĶµè·¯
æ¬§äºļ å¤§éĻĨ
æģĲæĢ ĸ
0 0
9 0
Ġ e
çļĦ åºĶçĶ¨
åŃ Ł
åĲĮ åĮĸ
å¦Ĥæŀľ åŁºäºİCRISPRçļĦåŁºåĽłé©±åĬ¨æĬĢæľ¯
çĽ¸ ä¼¼
ç³»ç»Ł å®ŀçİ°
æĦı åŃĲ
éĩıåŃĲ å¯ĨçłģåŃ¦
éĩıåŃĲ çºłç¼ł
è½ ¯
åİŁ åı¥çļĦ
ä¼¦çĲĨ åĽ°å¢ĥ
æ¨¡åŀĭ æıĲåĩºäºĨæĮĳæĪĺ
åīį æıĲ
æ· ¡
éĩĩçĶ¨ äºĨ
çİ¯å¢ĥ ä¸ŃçļĦ
äººå·¥ åħīåĲĪä½ľçĶ¨
çº³ ä»Ģ
æŁ ı
ä»» æĦıåŃĲ
æĦıè¯Ĩæµģ æīĭæ³ķ
èį¯ çī©
ç¡®ç«ĭ äºĨ
çº¯ ç²¹
çĿ¡ çľł
æ³¨æĦı åĬĽ
åħ»èĢģ éĩĳ
å¾·éĽ·åħĭ æĸ¹ç¨ĭ
çº³ä»Ģ åĿĩè¡¡
ĵ è¨Ģ
åŃ ¤
è¯ ī
ä¸Ń å¾®
æ´ ª
äºĴ èģĶç½ĳ
ä¿¡ ä»»
éľĢè¦ģ è¿Ľè¡Į
é«ĺ åº¦
éĽĨ çº¦
å½»åºķ çļĦ
èĬ ±
ä¿¡æģ¯ èĮ§æĪ¿
è°ĥæķ´ ä¸º
å¾ªçİ¯ ç»ıæµİ
äººå·¥æĻºèĥ½ ç³»ç»Ł
åįģ åĽĽ
åĮĸåŃ¦ é£İåĮĸ
æĶ¯ åĩº
è¯»èĢħ å¯¹
åľ°ç¼ĺæĶ¿æ²» æł¼å±Ģ
åİ»ä¸Ńå¿ĥåĮĸ èĩªæ²»
åĳĪæĮĩæķ°çº§ æıĲåįĩ
äº¤åıī æĢ§
èĩªåĬ¨é©¾é©¶ æ±½è½¦
ç¬Ľåį¡å°Ķ äºĮåħĥè®º
å¯ĨéĴ¥ åĪĨåıĳ
åİ»ä¸Ńå¿ĥåĮĸèĩªæ²» ç»Ħç»ĩ
çļĦ ä¸įåĲĮ
çļĦ æĺ¯
è¿ İ
å¯ »
å¯ ĵè¨Ģ
çİ° åľ¨
è¡ į
éĢļ è·¯
ç»ı éĻ¢
æ° ¢
åºĶ å¦Ĥä½ķ
è¡Į è¯Ĺ
åı¯èĥ½ å¯¹
çĽ¸ è°ĥåĴĮ
çĶŁçī© çļĦ
éĩıåŃĲ åĬłå¯Ĩ
æµģ ç¨ĭ
æĿ¥ è§£æŀĦ
èīºæľ¯ ä¸İ
è¶ħ æĸĩæľ¬
å¼Ĥ ç§į
åįĩ é«ĺ
åģı å¥½
è¯Ħ ä»·
åĩł åįģå¹´åĨħ
ç²ĴåŃĲ çļĦ
æĮĳæĪĺäºĨ ä¼łç»Ł
æĦıä¹ī çļĦ
åıįé¦Ī æľºåĪ¶
ä½ĵçİ° äºĨ
æľºæ¢° åĽ¢ç»ĵ
æ£Ģæµĭ åĪ°
éĹŃ çİ¯
å¯¿åĳ½ å»¶éķ¿
åº·å¾·çļĦ ç»Ŀå¯¹åĳ½ä»¤
å¥ĩå¹» åħĥç´ł
éĩİçĶŁ ç§įç¾¤
åįģåĽĽ è¡Įè¯Ĺ
l y
m e
o p
ç ĳ
ç» ª
å® ľ
åº Ĭ
æĢ§ åĴĮ
è¡Į æĶ¿
åı¯èĥ½ å¦Ĥä½ķå½±åĵį
åħ³ ç¨İ
çķ ħ
åħī çļĦ
ç¤¾ä¼ļ çļĦ
éļ §
ä¹ĭ ä¸Ń
è½¬ åĮĸä¸º
äººç±» ä¸Ńå¿ĥ
åĨħ çĶŁ
è¡¨è¾¾ è§ĦèĮĥ
èĻ «
æĮģç»Ń åĬłåī§
æ´ĭ æµģ
ä½Ĩ ä¹Ł
å¹¶ è¡Į
æĬĢæ³ķ éĢļè¿ĩ
ä¸´ çķĮ
åıĮ è¯Ń
ol og
ç¦ı åĪ©
å°ģå»º åĪ¶åº¦
æ²¹çĶ» é¢ľæĸĻçļĦåıĳæĺİ
åľ°éľĩ æ´»åĬ¨
éģĵå¾·å®ŀåľ¨è®º èĥ½åĲ¦
æĬĳ åĪ¶
æµ·å¹³éĿ¢ ä¸Ĭåįĩ
ä¸Ńå¾® åŃĲ
n e
ç» §
å¦Ĥæŀľ åħīåŃĲè®¡ç®Ĺ
çĲĨè®º å¦Ĥä½ķè§£éĩĬ
æ¨¡å¼ı å¦Ĥä½ķå½±åĵį
äº§ åĵģ
åĿ ¡
åīį ç½®
æł¼ å°Ķ
åĲĮæĹ¶ å¤Ħäºİ
æ¼ ı
çİ°ä»£ä¸»ä¹ī æĸĩåŃ¦ä¸ŃçļĦ
éģĹä¼ł æĢ§çĸ¾çĹħ
èĢĥ åı¤
æ¶Ī èŀį
æĤ ¨
åľŁ åľ°
éĢĢ åĮĸ
åį°è±¡æ´¾ ç¬Ķè§¦
åħīåŃĲ éĽĨæĪĲçĶµè·¯
ä¾µ åħ¥
æĬķ æľº
åģĩè¯´ è®¤ä¸º
å¼ķåıĳäºĨ åĵªäºĽ
éĺ¶ æ®µ
å·¨ åŀĭ
åŃŁ å¾·å°Ķ
å° ļ
ä¸İ ä¼łç»ŁçļĦ
çĶŁ æ´»
ç»Ł è®¡
åĬ¨ æĳĩ
åį ĥ
äºº åĬĽ
è° Ī
åĲĪ ä½ľ
èĩª åıĳ
æµģ çķħ
ç© ´
ç¤¾ä¼ļ å¯¹
æ¸ ¡
èĢĮéĿŀ åĲİæŀľ
è¢« è¯ģæĺİ
éĵ ģ
æĹ¶éĹ´ çº¿
ä¸ĸçºª æ¬§æ´²
ä¸ĸçºª åĪĿ
æŃ£ åıįé¦Īå¾ªçİ¯
éĩĳ å±ŀ
ç£ģ åľº
è§£æŀĦ äºĨ
ä»» ä½ķ
è´Ł èį·
åĤ¨ åŃĺ
å¦Ĥä½ķæĮĳæĪĺ ä¼łç»Ł
çĽ® æłĩ
å¸¦æĿ¥ äºĨ
ç¼© çŁŃ
æįŁ å®³
æ´Ľ åħĭ
æĵįä½ľ æĢ§
æ¹¿å£ģçĶ» æĬĢæ³ķ
åĶ¯ çī©
æµªæ¼« ä¸»ä¹ī
ķ å°Ķ
Ľ çŁ¿
åħ ½
ä¸İ æĸĩåĮĸ
åĽ Ń
çº µ
è¡¨ å¾ģ
ä½ľ çī©
åĳ Ĭ
æĽ´ åħ·
å½±åĵį çļĦ
è¶ħ åĩº
éĺ ¿
çĥŃ æ¶²
è¡¨è¾¾ æĸ¹å¼ı
çĹ ĩ
éĴ ĽçŁ¿
åŁºç¡Ģè®¾æĸ½ çļĦ
ç²ĴåŃĲ åľ¨
éĤ£ ä¹Ī
äººåı£ ç»ĵæŀĦ
åİ»ä¸Ńå¿ĥ åĮĸçļĦ
ä»¿ çĶŁ
åŃ¦æ´¾ çļĦ
ä¼Ĭ å¾·
éĴĻ éĴĽçŁ¿
å¼Ĺ æ´Ľ
åĸ· åı£
è¡¥ åħħ
ç¨Ģ ç¼º
æĽ´å¿« çļĦ
åģ¥ åº·
æ¼Ĥ ç§»
éļ§ ç©¿
çĥŃæ¶² åĸ·åı£
a p
i g
Ġ l
ģ è®¸
çļĦ ä½ľçĶ¨
çļĦ åĩĨç¡®æĢ§
åħ ģè®¸
ä¼ ¯
ä¸İ çİ¯å¢ĥ
åĬ¨ åĬĽ
å¦Ĥæŀľ æķ°åŃĹ
åī ©
éĩį å»º
è¯Ĩ åŃĹ
ä¸Ĭ æĪªçĦ¶ä¸įåĲĮçļĦ
èĩª ç»Ħè£ħ
æĸ° åħ´
èĢħ å¯¹
æ± Ĳ
å¤ļ æĻ®
å¹³ ä»·
æĿĥ è¡¡
æĸĩåŃ¦ åĪĨæŀĲ
å±Ĥ çº§
é«ĺ æķĪ
èī² åŁŁ
çº¿ ç²Ĵ
åĨľ æĿĳ
ä¿¡æģ¯ å¤ĦçĲĨ
é¢łè¦Ĩ æĢ§
åĽº æľīçļĦ
æĭī åĽ¾
æĹ¶ä»£ çļĦ
å¤§éĻĨ æ¼Ĥç§»
æĬķ åħ¥
éĤ£ äºĽ
åĬŁèĥ½ ä¸»ä¹ī
æįŁ èĢĹ
ç¬¬ åĽĽ
æĿ¿åĿĹæŀĦéĢł çĲĨè®ºéĢļè¿ĩ
æ½® æ±Ĳ
åħĪäºİ æľ¬è´¨
æŁı æĭīåĽ¾
å¼Ĺæ´Ľ ä¼Ĭå¾·
å¤ļæĻ® åĭĴ
çº¿ç²Ĵ ä½ĵ
c on
u c
Ġ d
ä¸ ķå°Ķ
çļĦ è§£éĩĬ
çļĦ çĶ²çĥ·
æĹ ģ
åĨ ¶
ä¸į ç¨³å®ļ
åį Ĺ
å®ŀçİ° åķĨä¸ļåĮĸåºĶçĶ¨
ç½ ª
æĭ ¥
çĶŁçī© çī¹å¾ģ
éĩıåŃĲ å¯ĨéĴ¥åĪĨåıĳ
èĭ¥ å°Ĩ
æĺ¯ å¦Ĥä½ķ
éĽ ¨
åı¯èĥ½ä¼ļ å¦Ĥä½ķå½±åĵį
åħ¸ åŀĭ
å¡ĳ æĸĻ
æĥħ ç»ª
å¤ĦçĲĨ åĻ¨
åı¤ æ°ĶåĢĻ
èģĶ ç³»
æ¿Ģ åħī
ti ve
ä¿ĿæĮģ ç»Ŀç¼ĺ
å¤± èĮĥ
åĥ ļ
åĩłä½ķ æĬ½è±¡
åŃ¦æľ¯ ä¸¥è°¨æĢ§
æ¹ ĸ
å®ĺ åĥļ
åħ¨æ°ĳåŁºæľ¬æĶ¶åħ¥ åĪ¶åº¦
ç»ĺçĶ» ä¸ŃçļĦ
åĨ°å·Ŀ ä¾µèļĢ
åĮºåĿĹéĵ¾çļĦ ä¸įåı¯ç¯¡æĶ¹
æıŃç¤ºåĩº ä¸¤èĢħåľ¨
19 50
æī° ä¹±
åĪĨåŃĲçº³ç±³ æĬĢæľ¯
éĽĨä¸Ń å¼ı
ä¸İçīĽé¡¿ çī©çĲĨåŃ¦ä¸įåĲĮ
èĲ¨ ä¸ķå°Ķ
éĢ»è¾ĳå®ŀè¯ģ ä¸»ä¹ī
éĿĴéĵľæĹ¶ä»£æĸĩæĺİ çļĦå´©æºĥ
é¾ Ħ
éģ¿ åħį
a g
a te
ç Ĵ
Ġ b
çļĦ çİ°è±¡
çļĦ çłĶç©¶
çļĦ çĽ¸äºĴä½ľçĶ¨
éĢ ¼
ä¸Ń å®ŀçİ°
å¦Ĥä½ķ ä¸İ
å¦Ĥæŀľ çĻ¾äº¿äº¿æ¬¡è®¡ç®Ĺ
åĬł å¿«
æĻ °
åİŁ ä½ı
ç»ıæµİ ä¸Ń
èīºæľ¯ åĵģ
ç« Ń
ç½ĳç»ľ æķĪåºĶ
å°Ĩå¦Ĥä½ķ éĢĤåºĶ
åħ· ä½ĵ
æīĢ ä»¥
äºļ æ³¢éķ¿
æİ¨ è¡Į
å¹² æ¶ī
åĨ³çŃĸ è¿ĩç¨ĭä¸Ń
éĥ¨ åĪĨ
å°± ä¼ļ
è®¾è®¡ åİŁåĪĻ
è®¤è¯Ĩè®º å±ĤéĿ¢çļĦ
å°ĨéľĢè¦ģ å½»åºķ
åıĺå¾Ĺ å¤įæĿĤ
èĩªæĪĳ å¤įåĪ¶
å¼ķåĬĽ éĢıéķľ
æĭĵæīĳç»Ŀç¼ĺä½ĵ éĢļè¿ĩ
çĪ ¶
åĮºåĪ« äºİ
èģĮ åľº
å®ĩå®ĻèĨ¨èĥĢ æ¨¡åŀĭ
éĩİ åħ½
çŃīç¦»åŃĲä½ĵ çº¦æĿŁ
çªģè§¦ åı¯å¡ĳæĢ§
ä¼ļå¼ķåıĳåĵªäºĽä¼¦çĲĨ èĢĥéĩı
ç»¿ èī²
åıĳå±ķä¸Ń åĽ½å®¶
åĩĿèģļ åĬĽ
å®ŀéªĮå®¤ åŁ¹èĤ²
çİ» çĴ
çİ»çĴ ĥ
ä¹ İ
åŃ¦ çłĶç©¶
æĿ ¾
æĪĲ åĽł
å¦Ĥæŀľ ç¥ŀç»ıå½¢æĢģè®¡ç®Ĺ
ä»£ çĲĨ
æ¯ ı
ç¥ ¨
èµ «
ç»ıæµİ ä½ĵç³»
éĿŀ ä¾µåħ¥
ç¤¾ä¼ļ æĶ¿æ²»
èīºæľ¯ ä¸ŃçļĦ
æ¡ £
å¤į æĢ§
åĿ į
å·® è·Ŀ
è¿Ĳ ä½ľ
åħ¨çĲĥ èĥ½æºĲ
è¿Ļ æł·
åı¯èĥ½ä¼ļ å¼ķåıĳåĵªäºĽ
å¤ĸ äº¤
çªģ çĦ¶
ä¹ĭéĹ´ åŃĺåľ¨
å®¶ åºŃ
ä¿¡æģ¯ ä¼łæĴŃ
ç¦» æķ£
ä»į èĥ½
èµĦæľ¬ ä¸»ä¹īçļĦ
ä¼° ç®Ĺ
æ´ŀ ç©´
è¡° èĢģ
éĢļçĶ¨ äººå·¥æĻºèĥ½
å¼ķåıĳäºĨ åħ³äºİ
æ³ķå¾ĭ ä½ĵç³»
å¸¦æĿ¥ çļĦ
ä¿¯åĨ²å¸¦ åĬ¨åĬĽåŃ¦
åĲ¯èĴĻ æĢĿæĥ³
éĺ² æŃ¢
çĨ Ķ
ç¥ŀç»ıåı¯å¡ĳæĢ§ çłĶç©¶è¡¨æĺİ
é»ĳ æ´ŀ
æĹ¢ä¿ĿçķĻ äºĨ
çŁ³å¢¨çĥ¯ çĶŁäº§
çĵ ¦
æ²īæµ¸ å¼ı
ç»´å¤ļåĪ©äºļæĹ¶æľŁçļĦ å°ıè¯´
é¡¹ çĽ®
å§Ķ æīĺ
åįłæį® ä¸»å¯¼åľ°ä½į
èĥ½åĬ¨ æĢ§
ä¹¦ä¿¡ ä½ĵ
¢ å¤į
® é£Ł
ä¸ §
çļĦ çĶŁçī©
çļĦ å¢ŀåĬł
å® ª
éĢļè¿ĩ å¼ºè°ĥ
è®º è¿°
åŁ ĥ
åĬ¨ æľº
åıĺ è¿ģ
åı¯èĥ½ åĤ¬çĶŁ
èĭ ı
ä»¥ æŃ¤
å½±åĵį äºĨ
æģ ¢å¤į
ä¼¦çĲĨ éĹ®é¢ĺ
åĪ© çĽĬ
åĳ½ è¿Ĳ
çªģ åĩº
åıĳçĶŁ æ³¢åĬ¨
å¤ĦçĲĨ ä¸º
æĺ¯åĲ¦ åºĶ
æĺ¯åĲ¦ éľĢè¦ģ
å°Ķ å¤«
éĢĤ éħį
éĩįæĸ° è®¾è®¡
ti n
èµĦæºĲ å¼Ģéĩĩ
å®īåħ¨ èĮĥå¼ı
æļĹ çī©è´¨
ç»ĵæŀľ ä¸»ä¹ī
é¢Ħæµĭ æĢ§
çĽ¾ çĬ¶çģ«å±±
éĺĲ æĺİ
åľ°çĲĥ åĮĸåŃ¦
åĲİçİ°ä»£ åħĥå°ıè¯´
èĪª æµ·
çİ°è±¡åŃ¦ æĸ¹æ³ķ
åįķ çº¯
çģµ æ´»
çľĭ åĩº
èĲ¥åħ» çº§èģĶæķĪåºĶ
æº¶è§£ ä½ľçĶ¨
çĽĳçĿ£ åŃ¦ä¹ł
å¤©åŁº å¤ªéĺ³èĥ½
èĦĨå¼± æĢ§
åĮĸçŁ³ çĩĥæĸĻ
çªģçł´æĢ§ è¿Ľå±ķ
ç²ĴåŃĲåľ¨ è¢«
å¤ļæĻ®åĭĴ æķĪåºĶ
æ ħ§
Ġ åı¥å¼ı
çļĦ åŁºç¡Ģ
æĸ Ĺ
çİ° æĪĲ
åľ¨ åºĶå¯¹
åľ¨ æľªæĿ¥
è¿ĩ æ¸¡
éĢļè¿ĩ åĪ»æĦı
è´ Ń
ä¸į æĶ¹åıĺ
æī ¾
å®ŀçİ° éĩıåŃĲéľ¸æĿĥ
å¤§ éĿ©åĳ½
è®¤ åı¯
èĭ¥ èĦĳæľºæİ¥åı£å®ŀçİ°
æ¨¡å¼ı éĢļè¿ĩ
ç¥ŀç»ı åħ±çĶŁ
åĵªäºĽ åľ°è´¨
å¯Ĩ éĽĨ
èīºæľ¯ åĪĽä½ľ
äº§ éĩı
è¾¾ è¾¾
åħ¨çĲĥ çĥŃéĩıåĪĨå¸ĥ
è¯Ńè¨Ģ ä¹łå¾Ĺ
å°ı åĨ°æľŁ
åĽ¾ åĥı
éĩįæĸ° çķĮå®ļ
è¯Ħ åĪ¤
é¡ ¶
éĢĢ ç¼©
çļĦå½¢æĪĲ è¿ĩç¨ĭ
æ¢ ¦
éĿ©æĸ° äºĨ
è¶ħè¶Ĭ ä¼łç»Ł
éĩįæŀĦ äºĨ
åĲ¯ åıĳ
åıĤä¸İ å¼ı
æľ¬è´¨ å·®å¼Ĥ
åĽ½éĻħ åħ³ç³»
å´ ĩ
æ» ¤
æĪªçĦ¶ ä¸įåĲĮ
æ·±åº¦ åŃ¦ä¹ł
åĿĩè¡¡ è°ĥæķ´
èģļåıĺ åıįåºĶåłĨ
åıĪç¬¦åĲĪä¸Ńæĸĩ è¡¨è¾¾ä¹łæĥ¯
æ°¸ä¹ħåĨ»åľŁèŀįåĮĸ éĩĬæĶ¾
æ¸ħ æĻ°
çı Ń
æģĴ æĺŁ
å¤§æ°ĶäºĮæ°§åĮĸç¢³ æµĵåº¦
åľ°çĲĥåĮĸ æĶ¹éĢł
çł´è§£ çļĦ
æ³ķåĽ½ å¤§éĿ©åĳ½
ç»ħ å£«
éĩİåħ½ æ´¾
% ãĢĤ
q u
è® ½
åı¯ æī©å±ķ
ä¸»ä¹ī å¯¹
å¦Ĥä½ķ è°ĥåĴĮ
åľ° æĸ¹
å¦Ĥæŀľ äºļåİĨå±±å¤§åĽ¾ä¹¦é¦Ĩ
å¦Ĥæŀľ æ°¸ä¹ħåĨ»åľŁåĬłéĢŁèŀįåĮĸ
æľ¬ çľŁ
æĭ Ĵ
æĭ Ľ
åĢ ¾
äº§ æĿĥ
èĥ½å¤Ł éĢļè¿ĩ
ç¢ °
æĦŁ åıĹ
äººç±» çļĦ
äººç±» åŃ¦
è¿ĩç¨ĭ ä¸ŃçļĦ
æķ°åŃĹ çĽĳæİ§
ç¬¦åĲĪ ä¸ŃåĽ½
åħ¶ ä»ĸ
çĶŁæĢģ å¹³è¡¡
æĸĩåĮĸ äº¤æµģ
å¸Ĥåľº çļĦ
æĻº æħ§
çĽ¸äºĴ çŁĽçĽ¾çļĦ
éĩįæĸ° è¯łéĩĬ
é¦ ĸ
çĽĲ åº¦
ä¿ĿæĮģ åħ¶
çŁ³ çģ°
ä»·åĢ¼ è§Ĥ
æľīæķĪ åľ°
åł ¡
èĩªåĬ¨åĮĸ å¼ķåıĳçļĦ
éĩıåŃĲéĢĢçĽ¸å¹² çĲĨè®º
æµĵ åº¦çļĦ
æįķæįī è½¬çŀ¬åį³éĢĿ
çĸĳéĹ® åı¥å¼ı
ä¸İåħ·è±¡ èīºæľ¯
åĪĨå½¢ åĩłä½ķ
ys te
æģĲæĢĸ è°·
åĮĸåŃ¦é£İåĮĸ ä½ľçĶ¨
äººåĬĽ èµĦæľ¬
çŁ³çģ° å²©
a d
Ŀ åı¶
çļĦ éĿŀ
çļĦ å¸Ĥåľº
æľ Ŀ
åŃ ©
ä¸Ń åħ³äºİ
è¿ĩ æ»¤
å¾ ¡
çĽ Ľ
è´ ´
åį Ĺæŀģ
æĦ ¿
å¦Ĥæŀľ è´ŁåĪ©çİĩ
åĪĨ å·¥
æľī æīĢ
æķ° ä¸ª
åĩĨ åĪĻ
å°Ĩå¦Ĥä½ķ åıĺéĿ©
è¿Ļ æĺ¯
åĻ¨ ä»¶
åħ¶ ä¸Ń
å®ĩå®Ļ ä¸Ń
äº§çĶŁ äºĨåĵªäºĽ
æ´» åŃĹ
éĻĨ åľ°
è®¤è¯Ĩè®º å»ºæŀĦä¸»ä¹ī
åħīåŃĲ è®¡ç®Ĺæŀ¶æŀĦ
æĥħæĦŁ å¼ºåº¦
çī©çĲĨåŃ¦ ä¸ŃçļĦ
æ¤į çī©
æ¤į åħ¥
çĶŁæĪĲ å¯¹æĬĹ
èĲ½ æ°´
å¡ĳéĢł äºĨ
åĳ¨æľŁ æĢ§
ï¼Ľ "
åĮºåĪ« åľ¨äºİ
åłĨ ç§¯
æµ·å²¸ åľ°è²Į
äººæľº äº¤äºĴ
ç¢³æįķ èİ·
åı¯èĥ½ä¼ļåıĳçĶŁæĢİæł·çļĦ è½¬åıĺ
åı¯ä»¥æıŃç¤º ä¸¤èĢħåľ¨
æķ°éĩı çº§
ç¼ĸçłģ åľ¨
æµģè¡Į çĹħ
åĬłå¯Ĩè´§å¸ģçļĦ æ³¢åĬ¨æĢ§
æłĳæŀĿ çĬ¶æ°´ç³»
ä¸įåı¯éĿłåıĻè¿°èĢħ æīĭæ³ķ
åĨħçĶŁ å¢ŀéķ¿
æ¼ı æ´ŀ
åİŁä½ı æ°ĳ
åĿį ç¼©
çİ°æĪĲ åĵģ
çĶŁæĪĲå¯¹æĬĹ ç½ĳç»ľ
i al
p l
t s
t u
è ¸
Ļ çĥ¯
çļĦ æł¸å¿ĥ
çĶ °
å° ¤
éĢļè¿ĩ å¯¹
æĶ »
æł ¡
ä¼ļ äº§çĶŁåĵªäºĽ
åıĺ è´¨
å¦Ĥæŀľ å®ŀçİ°äºĨ
çĽ¸ æ¯Ķè¾ĥ
ç³»ç»Ł åľ¨
åī ¥
å¤§ éĥ½å¸Ĥ
èĩª èº«
ä»¥ åıĬ
æĮģ ä¹ħ
åľº åŁŁ
çİ°å®ŀ çļĦ
è¯Ńè¨Ģ çļĦ
æĹ¶éĹ´ æĦŁçŁ¥
é¢Ħ è®¾
æĺ¾ çİ°
å¹´ åĲİ
åħ± ä»·
æĶ¾ å°Ħ
æł¹æľ¬æĢ§ åĪĨæŃ§
ä¸´ åºĬ
è¡Įä¸ºç»ıæµİåŃ¦ å°Ĩ
æľ¬è´¨ åĮºåĪ«
è¶ĭ åĲĮ
åĲİçİ°ä»£ä¸»ä¹ī å°ıè¯´ä¸ŃçļĦ
å¿Ĩ éĺ»
é¢ĳ ç¹ģ
æĺłå°Ħ åĩº
åĲ« ä¹ī
å¹²æĹ± åľ°åĮº
æŀĦæĪĲäºĨ æĮĳæĪĺ
å±ı å¹ķ
ç¾İåĽ½ éĿ©åĳ½
é¢łè¦Ĩæ¬§æ´²ä¸Ńå¿ĥ ä¸»ä¹īçļĦ
å¤ļç§į çĬ¶æĢģ
å¥¥åľ°åĪ© åŃ¦æ´¾
åŃ¤ ç«ĭ
ç²ĴåŃĲåľ¨è¢« æµĭéĩı
ç¢° æĴŀ
r i
t ur
u s
è ķ
çļĦ å¹¿æ³ĽåºĶçĶ¨
ä½ Ľ
ä¹ ³
ä¸İ è¡Įä¸º
æ³ ¡
éĢļè¿ĩ å¯¹æ¯Ķ
æĿ °
åı¯ éĢļè¿ĩ
æł ĸ
ä¼ļ å¯¼èĩ´
å°Ĩ å¯¹
æĪĲ æ¯Ķä¾ĭ
äºº ä½ĵ
å®ŀçİ° åħ¨çĲĥ
å¦Ĥæŀľ åĲĪæĪĲçĶŁçī©åŃ¦
åĪ¶ çº¦
åı¯èĥ½ åıĳçĶŁ
æ¯ «
è½ »
ç¥ŀç»ı åĽŀè·¯
çĶµ å½±
æıĲ æ¡Ī
è®¡ç®Ĺ èĥ½åĬĽ
æ°Ķ æĹĭ
æºĲ èĩª
èĢĮéĿŀ åŁºäºİ
çľ ¼
çªģ åıĺ
éĩįæĸ° è¯Ħä¼°
ç¬¦åĲĪä¸Ńæĸĩ ç§ĳæĬĢæĸĩçĮ®
èĩªçĦ¶ ä¸»ä¹ī
æł¸ éħ¸
æıĲåĩº è´¨çĸĳ
æł¹æľ¬æĢ§ æĮĳæĪĺ
å¯Ĩåº¦ é©±åĬ¨çļĦ
å¯Ĩçłģ ç³»ç»Ł
æ¹ ®
æĮĩæķ°çº§ å¢ŀéķ¿
å¢ŀåĬł äºĨ
ä¸ªäºº ä¸»ä¹ī
çī©ç§į çļĦ
åĨ°å·Ŀ éĢĢç¼©
çĪ ±
æıı ç»ĺ
å¸¸åĢŁåĬ© æ··æĿĤ
åĲİæ®ĸæ°ĳæĸĩåŃ¦ä¸ŃçļĦéŃĶå¹»çİ°å®ŀä¸»ä¹ī å¸¸
æĺİæļĹ å¯¹æ¯Ķ
åľ°ä¸ĭ æ°´
æĬ¥ å¤įæĢ§
éĿŀæ¬§åĩłéĩĮå¾Ĺ åĩłä½ķ
ä¹° åĬĽ
è¿İ æĿ¥
ç»ıéĻ¢ åĵ²åŃ¦
åī© ä½Ļ
ç»¿èī² éĿ©åĳ½
è´Ń ä¹°åĬĽ
èĲ½æ°´ æ´ŀ
r es
çļĦ çĲĨè®º
çļĦ æµ·
çļĦ å¯¹æ¯Ķ
çļĦ è§ĦèĮĥ
çļĦ å®ŀæĸ½
çļĦ ä¸»è¦ģ
åŃ £
å¼ ¦
èĥ ¶
æĪ ´
çī §
ä¸İ éĽĨä½ĵ
çĽ Ł
ç»Ł æ²»
ä¸º ä¸Ńå¿ĥçļĦ
ä¸į ä»ħ
ä¿ Ĺ
åĪ¶ åĨ·
ä¼¦çĲĨ èĢĥéĩı
å»º è®¾
åĪĻ å°Ĩ
çİ°ä»£ è´§å¸ģ
å±Ĥ çĬ¶çģ«å±±
å¸¸ æĢģ
æķ°åŃĹ å¹³åı°
æł¹æľ¬ æĢ§çļĦ
åŁºåĽł é©±åĬ¨æĬĢæľ¯
æĮĩ åĩº
è¿Ľè¡Į äºĨ
äºĮ è±¡
æ¸© å®¤
åĵ²åŃ¦ ä¸ŃçļĦ
äº§çĶŁ äºĨ
æ´» ä½ĵ
èĥ½å¤Łå®ŀçİ° å¯¹
æ¼Ķ è¿Ľ
éĴ Ł
æĢİ ä¹Ī
å®īåħ¨ æĢ§
æŁ Ķ
åĬłåī§äºĨ ç¡®è®¤åģıè¯¯
å±ķçİ° äºĨ
åį³ åı¯
åĨ· åį´
æĺŁéĻħ æĹħè¡Į
ç¬¬ ä¸Ģ
åĮĹæŀģ åľ°åĮº
ation s
åĲĦ åĽ½
è´§å¸ģæĶ¿çŃĸ å·¥åħ·
æĶ¾å¤§ äºĨ
æĪĸè®¸ èĥ½
é»ĳ æł¼å°Ķ
å»¶ç»Ń äºĨ
éĩıåŃĲåĬĽåŃ¦ ä¸ŃçļĦ
ä¸¥æł¼ çļĦ
åŁİå¸ĤçĥŃå²ĽæķĪåºĶ éĢļè¿ĩ
ç¥ŀç»ıç»ĩç½ĳ æİ¥åı£
ç»´å¤ļåĪ©äºļæĹ¶æľŁ å°ıè¯´
èĽĭçĻ½ è´¨
åīįæıĲ ä¸ĭ
æĹģ è§Ĥ
ä¹¦ä¿¡ä½ĵ å°ıè¯´
çļĦ èĥ½åĬĽ
åŃ¦ çķĮ
æĢ§ çĬ¶
ä¸İ ç¬Ľåį¡å°ĶäºĮåħĥè®º
èĢ Ĳ
ä¼ļ å¯¹
åıĺ åĮĸçļĦ
å¦Ĥæŀľ äºĴåĬ¨
æĬĢæľ¯ åĪĽæĸ°
çĲĨè®º ä¸»å¼ł
æķĪ çĶ¨
åİŁ åĪĽ
çĶµ æ¢¯
ç² ®é£Ł
éĽ Ħ
ç« Ł
ç½ĳç»ľ åĮĸ
è¿ĩç¨ĭ ç»´æĮģ
åħ¨çĲĥ åıĺæļĸ
é«ĺ èĥ½æķĪ
å¤ĸ éª¨éª¼
æļ Ĥ
æĺ¯åĲ¦ åı¯èĥ½
èį £
åħ± åŃĺ
æĺ¾èĳĹ çļĦ
ç»ĵæŀľ çļĦ
æĺł çħ§
ç²¾åĩĨ å¯¹åºĶ
åį°è±¡æ´¾ çĶ»å®¶
æĿ¿åĿĹ è¾¹çķĮ
ä»İæł¹æľ¬ä¸Ĭ æĮĳæĪĺäºĨ
æĹ¥ å¸¸
æĸĩåŃ¦ä¸ŃçļĦéŃĶå¹»çİ°å®ŀä¸»ä¹ī éĢļè¿ĩå°Ĩ
èĩªçĶ± æĦıå¿Ĺ
èº«ä»½ è®¤åĲĮ
åĨ°å·Ŀ åĿĩè¡¡è°ĥæķ´
åıĸä»£ äºĨ
é¢ľæĸĻ çļĦ
æľºæ¢° åĮĸ
æĺŁéĻħ æİ¨è¿Ľç³»ç»Ł
çĨ µ
è½¬æį¢ æķĪçİĩ
å¤ªç©º çĶµæ¢¯
éĩıåŃĲåľºè®º éĢļè¿ĩ
åİŁåŃĲçº§ ç²¾å¯Ĩ
æııè¿° äºĨ
æĳĦå½± æµĭéĩı
ç®Ĺæ³ķæİ¨èįĲ ç³»ç»ŁéĢļè¿ĩ
èµĭ äºĪ
å¯¹çĲĨæĢ§éĢīæĭ©çĲĨè®º æıĲåĩºäºĨæĮĳæĪĺ
è¶ħæĿĲæĸĻéļĲèº« è£ħç½®éĢļè¿ĩ
åĨ¶ éĩĳ
ä»£çĲĨ éĹ®é¢ĺ
åĢ¾ åĲĳ
æ¹® çģŃ
è´Ńä¹°åĬĽ å¹³ä»·
½ æķ°
ä¸ Ļçĥ¯
çļĦ è¿Ľå±ķ
åĩ ½æķ°
åı¯ éĿł
å¦Ĥä½ķ ä¿ĥè¿Ľ
å¼ı çļĦ
ä¼ļ å¦Ĥä½ķå½±åĵį
åıĳ è¾¾
åĲĮ çŃī
å¦Ĥæŀľ å°ıè¡ĮæĺŁéĩĩçŁ¿
åĬĽ éĩı
åĪĨ ç¦»
åı¯èĥ½ åıĳçĶŁæĢİæł·çļĦ
æľī åħ³
ä¸ŃçļĦ ä¼łç»Ł
éģ ĩ
çĲĨè®º åľ¨
éĩıåŃĲ å¹²æ¶ī
èĭ¥ ç¥ŀç»ıå½¢æĢģè®¡ç®Ĺ
ä»¥ æĿ¥
ç»ıæµİ æ¨¡åŀĭ
æĮĳæĪĺ ä¼łç»Ł
æľºåĪ¶ éĢļè¿ĩ
å¸¸ è§ģ
æķ°åŃĹ åªĴä½ĵ
æł¹æľ¬ åĪĨæŃ§
åĪĨæŀĲ ä¸Ń
å¸¦ å®½
å½¢æĢģ åıĳçĶŁ
äºĮ åįģ
èģĶ æĥ³
æłĩåĩĨ æ¨¡åŀĭ
ä¹ĭéĹ´çļĦ ä¼łç»Ł
åħ± æĮ¯
ä¼¦çĲĨåŃ¦ ä¸įåĲĮ
è¶Ĭ çļĦ
è¿ĲåĬ¨ çļĦ
ä¸¤ æŀģ
åĽº å®ļ
ç¥ŀç»ıç½ĳç»ľ æŀ¶æŀĦ
åı¯è¡Į çļĦ
æķ£ æĸĩ
ä¹¦ åĨĻ
åħ·å¤ĩ åı¯è¡ĮæĢ§
å¿ħ çĦ¶
æ³ķå¾ĭ äººæł¼
åĩºçİ° åĵªäºĽ
è½¨éģĵ å¤ªéĺ³èĥ½åıĳçĶµ
çŃīçº§ ä½ĵç³»
è§Ĥå¯Ł èĢħæķĪåºĶ
åĵªäºĽç¤¾ä¼ļ åŃ¦
ä¼ļå¦Ĥä½ķ æĶ¹åıĺ
å¸ĮèħĬ åĮĸ
åĲİç»ĵæŀĦä¸»ä¹īæĸĩåŃ¦ æī¹è¯Ħ
æīĢæľī æĿĥ
åĽºæĢģçĶµæ±ł æĬĢæľ¯
çĶµç£ģæ³¢ æĵįæİ§
åķĨåĵģ åĮĸ
çĽ´è¯ĳ çļĦ
åĨĻå®ŀ ä¸»ä¹ī
æīĵ åį°
æŃ» äº¡
è¶ħå¯¼ éĩıåŃĲå¹²æ¶ī
åı¯èĥ½ä¼ļåıĳçĶŁæĢİæł·çļĦ åıĺåĮĸ
ç¤¾äº¤åªĴä½ĵç®Ĺæ³ķéĢļè¿ĩ éĢīæĭ©æĢ§åĨħå®¹
Ġæķ´ä½ĵ åı¥å¼ı
æĿİåĺīåĽ¾çļĦ æ¯Ķè¾ĥä¼ĺåĬ¿
é©¬åħĭ æĢĿ
æ»¡ è¶³
olog ical
ä¸İåħ·è±¡èīºæľ¯ ä¸įåĲĮ
æĹģè§Ĥ èĢħæķĪåºĶ
i z
p er
Ġ æĸĩåĮĸ
çļĦ å¿ĥçĲĨ
çļĦ éĩıåŃĲæ¯Ķçī¹
çļĦ æľīæķĪæĢ§
è¡ Ģ
éĢļè¿ĩ åĪĨæŀĲ
åĩ Ń
ç® Ń
åı¯èĥ½ å¯¼èĩ´
ç¡ ¬
å¼º åĮĸçļĦ
æĽ´ æľīæķĪåľ°
ç¥ŀç»ı æİ¥åı£
å¾· æĢ§
éĽ ĩ
ç« ¥
å»º éĢł
æ¡Ĩæŀ¶ ä¸Ń
æ· »
æīĢ éľĢ
åı¯èĥ½ä¼ļ å¯¹
æ³¢ ç²Ĵ
æķ°æį® åºĵ
å¤© æĸĩåŃ¦
èĥ½åĲ¦ åħħåĪĨ
éĢĤ çĶ¨
ä½Ĩ éľĢè¦ģ
å¹¿æ³Ľ æĻ®åıĬ
éĹ®é¢ĺ ä¸ĬåŃĺåľ¨
CRISPR åŁºåĽłç¼ĸè¾ĳæĬĢæľ¯
ç¬¦åĲĪä¸Ńæĸĩ ç§ĳæĬĢ
ç©ºéĹ´ åħ³ç³»
ç§» æ°ĳ
åħ¬ å¹³
å®īåħ¨ åįıè®®
éĩĮ å¥¥
çļĦåıĳå±ķ è½¨è¿¹
åĲİæŀľ è®º
è¿ŀ éĶģ
ç²¾ç¡® æĢ§
ä¼° åĢ¼
ä¸įåı¯ éĢĨè½¬
è´¹ ç±³
å®Įæķ´ ä¿ĿçķĻ
éŁ³ ä¹Ĳ
å®Įåħ¨ ç«ŀäºī
çĶ²çĥ· éĩĬæĶ¾
çļ® è´¨
çľĭ ä¼¼
èİ·å¾Ĺ å®ŀè¯ģ
è¾¹ç¼ĺ è®¡ç®Ĺæŀ¶æŀĦ
çĥŃå¸¦ æ°ĶæĹĭ
è£Ĥ è°·
å°ĨéľĢè¦ģè¿Ľè¡Į éĩįå¤§
åĬ¨çī© ç¾¤
éģµ å®Ī
è¿« ä½¿
çı Ĭ
åıª æĺ¯
è¯ºä¾ĿæĽ¼ æŀ¶æŀĦ
å¢ŀå¼ºçİ°å®ŀ çķĮéĿ¢
æ°ĳæĹı åĽ½å®¶
åħīæķı æĦŁ
è¾©è¯ģ æ³ķ
èĴ¸ æ±½
æ¶¨ èĲ½
åħ»èĢģéĩĳ ä½ĵç³»
éĽĨçº¦ åĮĸ
åĲĮæĹ¶å¤Ħäºİ å¤ļç§įçĬ¶æĢģ
åŃŁå¾·å°Ķ éģĹä¼ł
æĭ¥ æľī
tin g
æŁĶ æĢ§
æ³¢ç²Ĵ äºĮè±¡
1 5
ä¸ ½
çļĦ äºº
çļĦ æĸ°
çļĦ æ°ĶåĢĻ
çļĦ åŁºæľ¬
åŃ¦ è¯´
å° ¾
åľ¨ è¡¨éĿ¢å¯¼çĶµ
ä¸İ çĽĳçĿ£åŃ¦ä¹ł
å¦Ĥä½ķ ä¿ĥè¿ĽäºĨ
åį ĵ
çº ½
åĲĪ çº¦
è¿Ľ åı£
å®ļ ä»·
æĽ´ ä¼ĺ
åĵªäºĽ åľ°è²Į
åĵªäºĽ ä¼¦çĲĨæ¡Ĩæŀ¶
èīºæľ¯ ä½ľåĵģ
éĺ Ł
åºĶçĶ¨ ä¸Ń
å°Ĩå¦Ĥä½ķ åºĶå¯¹
å°Ĩå¦Ĥä½ķ éĩįæĸ°å®ļä¹ī
å¸¸ çĶ¨
æłĩ è®°
æķ°åŃĹ åĩºçīĪ
çģ ¾
ç»´ ç³»
æİ¨ éĢģ
åĪĨæŀĲ æ£ĢæµĭåĪ°
æĹ¶éĹ´ æĢ§
é¢Ħ éĺ²
çĥŃ çĽĲçİ¯æµģ
éģĵå¾· è´£ä»»
éĽĨ æĿĥ
åŁİå¸Ĥ ç»ħå£«
ä¸ĸçºª çļĦ
ä½ł ä»¬
äº§çĶŁ äºİ
æĴ Ĵ
åĬłå¯Ĩ æłĩåĩĨ
çĶŁäº§ çİĩ
åĪ¶åº¦ åĲĮ
å°± èĥ½
åħ¬ æ°ĳ
æ°¸ æģĴ
æĻ¯ è§Ĥ
æ¨¡æĭŁ çĶŁçī©ç¥ŀç»ıç½ĳç»ľ
åĤ¬ åĮĸ
è¡¨éĿ¢ æĢģ
è¡¨éĿ¢ ä¸Ĭ
åĲİçİ°ä»£ æĸĩåŃ¦
éĢļçĶ¨ è¯ĳæ³ķ
å°Ĩå¦Ĥä½ķè°ĥæķ´ ä»¥éĢĤåºĶ
çļĦåŁºåĽł ç»Ħ
ä¸İç»ıåħ¸ æĿ¡ä»¶åıįå°Ħ
Ġc on
åı¯èĥ½å¦Ĥä½ķ æĶ¹åıĺ
ç²¾ç¥ŀ åĪĨæŀĲ
çĽ´æİ¥å½±åĵį äºĨ
çĵ ¶
æŀģç®Ģä¸»ä¹ī éĽķå¡ĳ
åĢĺèĭ¥äºļåİĨå±±å¤§åĽ¾ä¹¦é¦Ĩ å¾Ĺä»¥
æĿİåĺīåĽ¾çļĦ æ¯Ķè¾ĥä¼ĺåĬ¿çĲĨè®º
å¤ĸéĥ¨ æĢ§
å¹¸ ç¦ı
åŃ¦æľ¯è¯Ń å¢ĥ
ç®Ĺæ³ķåģıè§ģ éĢļè¿ĩ
çĮİ çī©
çĬ¯ ç½ª
éĢ¼ çľŁ
ä¸§ å¤±
yste ms
æ´»åŃĹ åį°åĪ·æľ¯
è¸ ª
èİ·å¾Ĺå®ŀè¯ģ æĶ¯æĮģ
çļĦ äºĴåĬ¨
çļĦ å±ĢéĻĲæĢ§
çļĦ åı¯èĥ½æĢ§
å½ ¼
åıĳ å°Ħ
ä¼ł å¯¼
äºº æĿĥ
å¿ ł
é¢ Ī
éĹ´ æİ¥
æĸ¹ åĲĳ
çĲĨè®º å¦Ĥä½ķ
æĦı è±¡
æĦı å¤ĸ
å®ļ åĪ¶
å®ļ å±ħ
çī¹ è´¨
ç¥ŀç»ı éĢļè·¯
èĢħ ä¸İ
è®¡ç®Ĺ èµĦæºĲ
ç¢ ±
èĢĮéĿŀ ç»ĵæŀľ
ç´ł åħ»
å°ı åŀĭåĮĸ
ç«ĭ åį³
éģĵå¾· è¡Įä¸º
åŁİå¸Ĥ äººåı£
å°Ķ æĸ¯
åģı æĮ¯
èĥ½åĲ¦ ä¸º
æľ¯è¯Ń è§ĦèĮĥ
æĻºèĥ½ åĲĪçº¦
å¾Ĺä»¥ å®ĮåĸĦ
çģ« ç®Ń
å¢ŀå¼º äºĨ
åįı ä½ľ
é¢łè¦Ĩ äºĨ
è¾ĵ éĢģ
åħ·æľī æĽ´é«ĺçļĦ
å®ŀçİ°äºĨ å¯¹
æ²³ åı£
åı¯ä»¥ çľĭåĩº
ä¸¥ éĩį
ä»İæł¹æľ¬ä¸Ĭ æĶ¹åıĺ
æĬķ å½±
è¶ħæĿĲæĸĻ å·¥ç¨ĭ
åĲİçİ°ä»£ä¸»ä¹ī å»ºçŃĳ
è½¨éģĵ çİ¯
éĿĴéĵľæĹ¶ä»£ å´©æºĥ
äºĳ ç«¯
ä¸Ŀç»¸ä¹ĭè·¯ çļĦè¡°èĲ½
å¯¹ç§° æĢ§
æĮ¯ èį¡
ç¢³éħ¸çĽĲå²© çļĦ
èĭ± éĽĦ
çŁŃ ç¼º
æ¨¡å¼ıè¯ĨåĪ« èĥ½åĬĽ
èİİå£«æ¯Ķäºļ æĤ²åī§
éĢłå±± å¸¦
åĽŀéŁ³å®¤ éĢļè¿ĩç®Ĺæ³ķ
Ġä¸ĵä¸ļæľ¯è¯Ń å¤ĦçĲĨ
æĿİåĺīåĽ¾çŃīä»·å®ļçĲĨ è®¤ä¸º
äººç±»æĦıè¯Ĩ åħĪäºİæľ¬è´¨
éĺµ åĪĹ
ä¼Ĭæĸ¯åħ° åĩłä½ķ
åĩ¯æģ©æĸ¯ä¸»ä¹īä¸İ è´§å¸ģä¸»ä¹ī
ç«ĭä½ĵä¸»ä¹īå¯¹å½¢å¼ıçļĦ è§£æŀĦ
ä¼łæĦŁ åĻ¨
çĪĨ åıĳ
éĢıæĺİ åº¦
å¦Ĥæŀľå¾®çĶŁçī© ç»Ħ
äººç±»ä¸Ńå¿ĥ ä¸»ä¹ī
å¹¶è¡Į å¤ĦçĲĨ
çĽ¸äºĴçŁĽçĽ¾çļĦ ä¿¡å¿µ
% ï¼Į
e l
h i
· éħ¸
çļĦ åİĨåı²
æľ Ī
å® £
åĬ ŀ
å¼ ¯
ä¹ ĺ
åĮ Ĺ
ä¸İ åİĨåı²
éĢļè¿ĩ åľ¨
å¯¹ æµģ
å°Ĩ æľīæľĽ
çŃ Ľ
ç¨ĭ åºı
èĭ ·éħ¸
ä¸Ĭ ä¼ł
çĶŁçī© ç¥ŀç»ı
å®ļ ä½į
åİŁ åĽł
çķ ľ
å¯¼ çļĦ
ä¹ĭ å¤ĸ
éĩĩ éĽĨ
æĦŁ è§ī
åıĻäºĭ ç»ĵæŀĦçļĦ
æĸĩåŃ¦ æī¹è¯Ħ
æĦıè¯Ĩ éļ¾é¢ĺ
åħ· èº«
åĨ³ äºİ
æ®ĸæ°ĳ åľ°
ç¾İ æľ¯
çłĶç©¶ çļĦ
å®ĩå®Ļ çļĦ
åıĸ åĨ³äºİ
éĻį è§£
ç¢³ å°ģåŃĺ
ä¿® æĶ¹
æĤ £
è£ħ é¥°
çĽ´æİ¥ æİ¨åĬ¨äºĨ
è¯Ħ è®º
æł¸ èĭ·éħ¸
èĬĤ çĤ¹
æ·± å±Ĥ
æĪĲä¸º çİ°å®ŀ
æĬĢæľ¯çļĦ åıĳå±ķ
åħ·æľī è´ŁæĬĺå°Ħçİĩ
æī© å¤§
çĭ Ń
ç²ĴåŃĲ çī©çĲĨåŃ¦
ä¼ĺåħĪ èĢĥéĩı
åİĭ è¿«
åĲ¯ ç¤º
é¸ Ł
è¶ħæĿĲæĸĻ éĢļè¿ĩ
ä¸Ńä¸ĸçºª ç»ıéĻ¢åĵ²åŃ¦
ä¿ĿæĬ¤ çļĦ
æ´ŀ è§ģ
çĶµç£ģ è¾Ĳå°Ħ
åĮºåŁŁ çļĦ
å¿ĥçĲĨåŃ¦ çĲĨè®º
æĦıè¯Ĩå½¢æĢģ æŀģåĮĸ
å¦ĤæŀľéĩıåŃĲ åĬłå¯Ĩ
æĶ¿åºľ å¹²é¢Ħ
æĶ¾å¤§ ç¡®è®¤åģıè¯¯
åİŁåŃĲçº§ ç²¾åº¦
ç§»æ¤į çĸĹæ³ķ
åĪĨåŃĲçº³ç±³ æĬĢæľ¯èĥ½å¤Łå®ŀçİ°
åĪĨå¸ĥå¼ı è´¦æľ¬
çĶŁçī©æłĩå¿Ĺ çī©
çĶŁçī©æłĩå¿Ĺ æ°Ķä½ĵ
æµģåŁŁ çļĦ
æħ ¢
è¡į çĶŁ
ä¸İç¬Ľåį¡å°ĶäºĮåħĥè®º ä¸įåĲĮ
åİŁåŃĲçº§ç²¾å¯Ĩ åĪ¶éĢł
a m
© åĽº
º ä¹³
è Ķ
Ġ åı¥å¼ıç»ĵæŀĦ
çļĦ çİ¯å¢ĥ
äº Ķ
åı ¦
æŀ ¯
è¯ ¾
å¤ ¸
ä¹ Į
æ³ ¥
åı¯ æº¶
åĵ ºä¹³
ä¸»ä¹ī ä¸»å¼ł
å¦Ĥä½ķ éĩįå¡ĳäºĨ
ä¸º æł¸å¿ĥ
å· ©åĽº
å°Ĩ ä¼ļ
ä¼ł æī¿
æİ Į
å¦Ĥæŀľ äººå·¥æĦıè¯Ĩ
æı ¡
å·¥ ä½ľèĢħ
åĳ ³
ç»ĵæŀĦ æĢ§
æŃ ĩ
åĪ© ä»ĸ
èĥ½å¤Ł è¾¾åĪ°
æľºåĪ¶ æĺ¯ä»Ģä¹Ī
æķ°åŃĹ äºĴèģĶ
æ³¢ åĩ½æķ°
æŃ£ çĽ¸åħ³
çľŁ æŃ£
å¤± ä¸ļ
ä¸¤ ç§į
æĿ¡ä»¶ ä½ľçĶ¨
æĿ¡ä»¶ çĬ¶è¯Ń
è§ģ è§£
ä»·åĢ¼ è¯Ħä¼°
çĽ¸å¯¹è®º éĢŁåº¦
èĨ ľ
éŁ µ
å§ Ĩ
ä¸Ńä¸ĸçºª çļĦ
åł Ĥ
å°ºåº¦ ä¸Ĭ
or m
çİ°è±¡åŃ¦ è¿ĺåİŁ
ç®Ģ åįķ
èĩªåĬ¨åĮĸ å¯¼èĩ´çļĦ
æŀĹ æķĪåºĶ
éĢļä¿¡ ç½ĳç»ľ
è¿ľ ç¨ĭ
æįŁ ä¼¤
æĬ½è±¡è¡¨çİ°ä¸»ä¹ī æĽ´æ³¨éĩį
è¯¥ç¿»è¯ĳ åľ¨ä¿ĿæĮģ
åº·å¾· ä¹īåĬ¡è®º
ä¸Ńå¤® éĽĨæĿĥ
åħīä¼ı æķĪçİĩ
éķľ åĥı
æĪĸè®¸ ä¼ļ
æ½ľåľ¨ çļĦ
å¼Ĺ æŀĹæķĪåºĶ
ä¸ªæĢ§åĮĸ åĨħå®¹
è¿ŀè´¯ æĢ§
å¦Ĥæŀľåħ¨æ°ĳåŁºæľ¬æĶ¶åħ¥ åľ¨åħ¨çĲĥèĮĥåĽ´åĨħå®ŀæĸ½
åħ±è¯Ĩ æľºåĪ¶
æ²ĥ å°Ķå¤«
èĥ½æºĲä¼łè¾ĵ åŁºç¡Ģè®¾æĸ½
æ·±åº¦ä¼ªéĢłæĬĢæľ¯çļĦ æī©æķ£
å¿ĥçĲĨè¯Ńè¨ĢåŃ¦ çłĶç©¶è¡¨æĺİ
åĩ¸ æĺ¾äºĨ
æ·¡ æ°´
å®ľ å±ħ
åįĥ å¹´
åı¯æī©å±ķ æĢ§
æ·» åĬł
åħīæķıæĦŁ ç¦»åŃĲéĢļéģĵ
çĵ¶ é¢Ī
çŃĽ éĢī
åĵºä¹³ åĬ¨çī©
f f
m o
é º
Ġ éĢļè¿ĩ
çļĦ èĥ½æºĲ
çļĦ è®Ńç»ĥ
åŃ¦ éĻ¢
åľ¨ éģĵå¾·åĨ³çŃĸ
åľ¨ åľ°è´¨æĹ¶éĹ´å°ºåº¦
ä¸Ń åŃĺåľ¨
ä¸Ń æĸĩåŃ¦
å¦Ĥä½ķ å°Ĩ
ä½ĵ çļĦ
è´ «
å°Ĩ ç»ıåİĨ
å¦Ĥæŀľ ç³»å¤ĸè¡ĮæĺŁå¤§æ°Ķ
æľ¬ èº«
åĬł å·¥
åī ¯
åī ²
å¼º åĪ¶
éĩıåŃĲ éļ§ç©¿
åĳ ¢
æĽ´ å¼º
çī¹ å¼Ĥ
çī¹ æĭī
åŃĺåľ¨ åħ³èģĶ
åŃĺåľ¨ äºīè®®
å¯¼ èĪª
çĶµ åĬ¨
ç² ĺ
å½¢æĪĲ çĭ¬çī¹çļĦ
éĢł å°±
è¦ģ ç´ł
ä¸Ģ ä»£
åıį èĢĮ
åıĻäºĭ çļĦ
åıĻäºĭ ä¼łç»Ł
åĪĻ ä¼ĺåħĪèĢĥèĻĳ
äººç±» å¯¹
è®¤çŁ¥ è¿ĩç¨ĭ
æķ°åŃĹ éĢļä¿¡
åı¯èĥ½ä¼ļ åıĳçĶŁ
åĪĨæŀĲ æıŃç¤ºäºĨ
æĥħ èĬĤ
æĹł çĽĳçĿ£
èĥ½å¤Łå®ŀçİ° çĶŁçī©ç¥ŀç»ıç½ĳç»ľ
ç©ºéĹ´ æ³ķ
æĸ¹éĿ¢ åŃĺåľ¨
æ·± åĪ»
æ²īç§¯ æ¨¡å¼ı
åĬłåī§äºĨ èĥ½æºĲæ¶ĪèĢĹ
æĸĩæĺİ ä¹ĭéĹ´çļĦ
æĬķ ç¥¨
æ¬¡ ä¸ĸçķĮ
éĢĴ å½Ĵ
ä½ľèĢħ èº«ä»½
ä½ľåĵģ ä¸ŃçļĦ
åı¯èĥ½ä¼ļå¦Ĥä½ķ æĶ¹åıĺ
æ²³æµģ åľ°è²Į
ç³»å¤ĸè¡ĮæĺŁ æ®ĸæ°ĳ
çģµ æķı
æľīä½ķ å·®å¼Ĥ
æīĺ éĤ¦
å¸ĿåĽ½ ä¸»ä¹ī
çĽĳç®¡ æ¡Ĩæŀ¶
çŀ¬ æģ¯
çİ°ä»£ä¸»ä¹īæĸĩåŃ¦ ä¸Ń
ç½ĳç»ľå®īåħ¨ èĮĥå¼ı
è¶ħèĩªçĦ¶åħĥç´ł å¹¶ç½®
è½½ ä½ĵ
ç³»å¤ĸè¡ĮæĺŁå¤§æ°Ķåħīè°± åŃ¦
æŃ¦ åĻ¨
æĤ¬ æµ®
å²©çŁ³åľĪ æĿ¿åĿĹ
ä¾Ľç»Ļ åŃ¦æ´¾
æİĴæ°´ ç³»ç»Ł
æĺ¼å¤ľèĬĤå¾ĭç´Ĭä¹± å¦Ĥä½ķå½±åĵį
DNAåºıåĪĹ çļĦæĥħåĨµä¸ĭ
å¼ķåıĳäºĨåĵªäºĽ åľ°ç¼ĺæĶ¿æ²»åĲİæŀľ
è°Ī åĪ¤
æ¿Ģåħī éĽ·è¾¾
åıĤä¸İå¼ı èīºæľ¯
å¸¸æĢģ åĮĸ
æ¸©å®¤ æ°Ķä½ĵ
ä¸İç»ıåħ¸æĿ¡ä»¶åıįå°Ħ ä¸įåĲĮ
æŀ¯ ç«Ń
æ¬¡ä¸ĸçķĮ å¤§
i es
çļĦ è¡Įä¸º
çļĦ è¿ĽæŃ¥
çļĦ ä¸ŃæĸŃ
è¯ ±
ä¸İ åĮĸåŃ¦
éĢļ è´§
éĢļè¿ĩ åĲĮæĹ¶
åı¯ åıĳçİ°
ä¸į æĪĲæ¯Ķä¾ĭ
çº ¹
è° ĵ
åİ Į
å¦Ĥæŀľ éĩıåŃĲè®¡ç®Ĺå®ŀçİ°
çĽ¸ å®¹
ä¸ŃçļĦ ä½ľçĶ¨
ç³»ç»Ł åĴĮ
èĢĮ åĨħéĥ¨
åŀ Ĵ
ç¤¾ ç¾¤
æº ¢
åħī éĢŁ
çĶµ è§£
æĿ¥ çļĦ
æĿ¥ é¢łè¦Ĩæ®ĸæ°ĳ
ä¸Ģ èµ·
éļ Ļ
èģ ĺ
äººç±» å¯¿åĳ½å»¶éķ¿
åĨħ çļĦ
æł¹ éĻ¤
æķ°åŃĹ æ¸¸
æ°´ åĲĪçī©
äºļ æĸĩåĮĸ
å¥ ĳ
å½»åºķ éĩįæŀĦ
éĹ® ä¸ĸ
åħĪ åīį
åħĪ éªĮ
è¡¨è¾¾ çļĦ
ä¸ĸçºª ä¸Ń
å¤© æ°Ķ
èİ «
å¾® æ³¢
è§ī å¾Ĺ
è§¦ è§ī
çĹħ æ¯Ĵ
åĤ¨ èĥ½
é² ģ
æĹ¥ æľ¬
è¯»èĢħ çļĦ
éĩįæĸ°å®ļä¹ī äºĨ
ä¿ĿåŃĺ å®Įå¥½
åŁ¹ è®Ń
åĨ²çªģ çļĦ
åıĸä»£ ä¼łç»Ł
æ¶Īè´¹ æ¨¡å¼ı
éĩıåŃĲéĢĢçĽ¸å¹² çĲĨè®ºéĢļè¿ĩ
ä¸ĸçķĮ è§Ĥ
ç«ŀäºī æĢ§
åįļå¼Īè®ºåľ¨ è¿ĽåĮĸçĶŁçī©åŃ¦
å¦ Ī
åŃĺåľ¨ä¸»ä¹īåĵ²åŃ¦ä¸»å¼ł äººç±»æĦıè¯ĨåħĪäºİæľ¬è´¨
çº¢ ç§»
æ²Ļ æ¼ł
æĽ´æĸ°ä¸ĸ å·¨åŀĭ
è¿ħéĢŁ ä¼łæĴŃ
æĺİæļĹå¯¹çħ§ æĬĢæ³ķ
èŃ¦ åĬ¡
äºĨä½ķç§į ä½ľçĶ¨
åĲİäººç±»ä¸»ä¹ī åĵ²åŃ¦
å¼Ĥç§į ç§»æ¤į
éĴĻéĴĽçŁ¿ å¤ªéĺ³èĥ½çĶµæ±ł
å®ŀéªĮå®¤åŁ¹èĤ² èĤī
æĭĽ èģĺ
æµģè¡ĮçĹħ åŃ¦
åĪ¶åº¦åĲĮ æŀĦ
åħ·æľīè´ŁæĬĺå°Ħçİĩ çļĦ
åı¯æº¶ æĢ§
a in
å Ĺ
çļĦ åıĻäºĭ
çļĦ è§£æŀĦ
åı ĭ
åľ¨ ä¸įåĲĮ
è§ Ī
åĮĸ è¿ĩç¨ĭ
ä¸İ å½ĵåīįçļĦ
ä¸İ åĨ²ç§¯å¹³åİŁä¸įåĲĮ
æĹ §
éĢļè¿ĩ åĪĨå±Ĥ
åį İ
å®ŀçİ° çļĦ
å¤§ ä¼Ĺ
åŃĺ ç»Ń
åĲİ åį°è±¡æ´¾
å½± åĥı
çĶŁçī© åĮ»åŃ¦
å®ļ å¾ĭ
å½±åĵį çĿĢ
æĸ° èīºæľ¯è¿ĲåĬ¨
ç±» åĬ¨çī©
åĮº çļĦ
ä¹ĭ å¤Ħ
åıį å¯¹
åĪ° ç»ıåħ¸
äººç±» è¿ģå¾Ļ
å°Ĩå¦Ĥä½ķ åıĺåĮĸ
è¢« ç¼ĸçłģåľ¨
éģĵå¾· ä¸»ä½ĵ
éĢĤ çĶ¨äºİ
åĬłå¯Ĩ æĸ¹æ³ķ
å¾® åŀĭåĮĸ
çĽ´æİ¥ ä¿ĥæĪĲäºĨ
å¤± è¡¡
åĩı ç¼ĵ
å¤§æ°Ķ ä¸ŃçļĦ
è¦Ĩ çĽĸ
åı¯ä»¥ è§£éĩĬ
ä¸ĵä¸ļæľ¯è¯Ń è¯´æĺİ
åı¤åħ¸ ç»ıæµİåŃ¦
åı¤åħ¸ çŁ¥è¯Ĩ
è¯¥ è¯ĳæĸĩ
æĿĥåĬĽ åħ³ç³»
è¯»èĢħ ä¸İ
åĲİçİ°ä»£ åıĻäºĭ
æ» ´
åı¯èĥ½ä¼ļå¦Ĥä½ķ è°ĥæķ´
ç³»ç»ŁæĢ§ é£İéĻ©
è°ĥèĬĤ åħ¨çĲĥçĥŃéĩıåĪĨå¸ĥ
åĲİç»ĵæŀĦä¸»ä¹ī å¯¹
é» ı
èĩ³ ä»Ĭ
éĽķå¡ĳ ä¸įåĲĮ
å®ĩå®ĻåŃ¦ ä¸ŃçļĦ
å®ŀæĹ¶ æ°ĶåĢĻå»ºæ¨¡
æľīæľº åĽ¢ç»ĵ
è¿ĳä»£æĹ©æľŁ æ¬§æ´²çļĦ
æľįåĬ¡ ä¸ļ
èĦ± éĿ¶
çļĦåħī çº¿
åı¥æ³ķ ç»ĵæŀĦ
ç©¿ éĢı
æ°ĳä¸» åĮĸ
ä¼ļå¼ķåıĳåĵªäºĽä¼¦çĲĨ éĹ®é¢ĺ
ä¸īç»´ ç©ºéĹ´
åı¯æĮģç»Ń æĢ§
æ±ī è¯Ń
åĲİç»ĵæŀĦä¸»ä¹īæĸĩåŃ¦çĲĨè®ºéĢļè¿ĩ å¼ºè°ĥ
èĥĮæĻ¯ ä¸ĭ
çĭ¬ç«ĭ äºİ
è®ºæĸĩ çļĦ
éĩıåŃĲèī²åĬ¨åĬĽåŃ¦ è®¡ç®Ĺ
æĢĢ çĸĳ
çĶŁæ®ĸ ç³»
æµģä½ĵ åĬ¨åĬĽåŃ¦
è¡Įä¸ºç»ıæµİåŃ¦éĢļè¿ĩå°Ĩ è®¤çŁ¥åģıå·®
æ°¢ çĩĥæĸĻ
æľºæ¢°åĽ¢ç»ĵ ä¸įåĲĮ
åĶ¯çī© ä¸»ä¹ī
å¦Ĥæŀľæķ°åŃĹ è¶ħæĸĩæľ¬
æįķæįīè½¬çŀ¬åį³éĢĿ çļĦåħīå½±æķĪæŀľ
çĽĽ è¡Į
æłĸ æģ¯
æł¸éħ¸ éħ¶
æĬ¥å¤įæĢ§ è´¸æĺĵ
åĪ¶åĨ· éľĢæ±Ĥ
è´Ńä¹°åĬĽå¹³ä»· è°ĥæķ´
ä¹Į æīĺéĤ¦
å ©
Ġ w
çļĦ åĵ²åŃ¦
çļĦ ç©ºéĹ´
çļĦ ç¨³å®ļæĢ§
åĪ ļ
åĮĸ æ¨¡å¼ı
è¡ Ĺ
ä¸İ çĶŁçī©
ä¸İ ç¤¾ä¼ļ
å¦Ĥä½ķ æıĲåįĩ
åĬ¨ èį¡
å°Ĩ èĥ½
ç³»ç»Ł ä¸įåĲĮ
èĢĮ è¨Ģ
å¤§ åŁİå¸Ĥ
æĪĺ äºī
çī¹ çĤ¹
åİŁ å§ĭ
ç»ıæµİ åı¯è¡ĮæĢ§
è´¨ æĦŁ
æĥ ł
æĿ¥ æĮĳæĪĺ
éĿŀ æ´²
å¿ĥ èº«
è¶ħ åĪĨåŃĲ
è¶ħ å¯¹ç§°
èĥ½å¤Ł ä»¥
æµ· æ°´
æµĭ è¯ķ
æĦıè¯Ĩ ä¸Ĭä¼ł
ä¿¡ çĶ¨
çĽ´ è§ī
åŁºåĽł å·¥ç¨ĭ
é¢Ħ åħĪ
çİ°è±¡ çļĦ
èĤ ¯
å¸Ĥåľº åĨ³çŃĸ
è¡¨çİ° ä¸»ä¹īçļĦ
å½»åºķ åıĺéĿ©
ç¦ ģ
å®Į æĪĲ
çľŁ ç©º
æ¿Ģ åıĳ
åĽłç´ł ä¿ĥä½¿
åħ¬ ä¼Ĺ
çļĦå½¢æĪĲ æºĲäºİ
æĿ¡ çº¦
è¾ĵ åħ¥
å¾ĹåĪ° å®ŀè¯ģéªĮè¯ģ
å°ĳ å¹´
è®¤è¯Ĩè®º æ¡Ĩæŀ¶
è¶ħè¶Ĭ ç¡ħåŁº
å¤§éĻĨ æĿ¿åĿĹ
åĮºåĿĹéĵ¾ æĬĢæľ¯éĢļè¿ĩ
éĤ£ ä¸ª
å¿ħ è¦ģ
åĵ¥ çĻ½
çŁ¿ çī©
éĿĴ å°ĳå¹´
å·² ç»ı
æĭĵæīĳç»Ŀç¼ĺä½ĵ çļĦ
åħīåŃ¦ æ··åĲĪ
ç´¯ ç§¯
åĪĽéĢł åĩº
åĵªäºĽç¤¾ä¼ļ ç»ıæµİ
ç¨İ æĶ¶
åĲİæ®ĸæ°ĳæĸĩåŃ¦ä¸ŃçļĦéŃĶå¹»çİ°å®ŀä¸»ä¹ī å¸¸éĢļè¿ĩ
æĬĺå°Ħåĩº æĪĺåĲİ
om p
è¿ģç§» æ¨¡å¼ı
å°ĨåıĳçĶŁ æł¹æľ¬æĢ§è½¬åıĺ
çĽ¸äºĴä¾ĿåŃĺ åħ³ç³»
æĢ» ä½ĵ
ç½Ĺé©¬ å¸ĿåĽ½
ä¾ĿçĦ¶ åŃĺåľ¨
éĶģ å®ļ
åŁºå²© çļĦ
çĳ ļ
çº¿ç²Ĵä½ĵ DNA
äºļæ³¢éķ¿ ç»ĵæŀĦ
æĶ¾å°Ħ æĢ§
çıĬ çĳļ
çĶµåĬ¨ æ±½è½¦
åĵ¥çĻ½ å°¼
t o
çļĦ éĩĩçĶ¨
çļĦ åĩłä½ķ
çļĦ åħ¨çĲĥåĮĸ
ãĢĤ "
è¯ ·
æĢ§ è´¨
åľ¨ å½ĵä»£
ä¸İ æŁıæĭīåĽ¾
çĶŁ çĲĨ
æĿ Ģ
å¸ ķ
å¦Ĥä½ķ ä¿ĥä½¿
è¡Į ä¼ļ
å¿ ½
å½¢ è±¡
å¦Ĥæŀľ åľ¨
å¦Ĥæŀľ æ°¸ä¹ħåĨ»åľŁèŀįåĮĸ
å¦Ĥæŀľ äººå·¥éĢļçĶ¨æĻºèĥ½
æ´ ģ
æĬĢæľ¯ åıĳå±ķ
å¤§ çļĦ
çĲĨè®º å°Ĩ
åĢ į
åĳ ¼
ä»¥ å¾Ģ
æŃ ī
å±ķ è§Ī
éĿ¢ å¯¹
ç»ıæµİ ä¸ŃçļĦ
äºĭ å®ŀ
å½¢æĪĲ çģ«å±±å¼§
è¾¾ ç±³
è½¬ èĢĮ
æľºåĪ¶ çļĦ
æĸ¯ ç§ĳ
å±Ĥ çļĦ
è§Ħ å¾ĭ
å¸¸ æķ°
è¿Ļ éĩĮ
å¥ ĸ
é«ĺ äºİ
ä½ĵç³» ä¸Ń
æĻ® ä¸ĸ
åĲĮæĹ¶ ä¿ĿæĮģ
ç»Ħ æĪĲ
æĹł éĻĲ
è¡¨çİ° å½¢å¼ı
å¤ĦçĲĨ æĸ¹å¼ı
åŁİå¸Ĥ åĮĸè¿Ľç¨ĭ
çĤ ¼
åģı ç¦»
æ¦Ĥå¿µ éĢļè¿ĩ
èĥ½åĲ¦ å®ŀçİ°
çł´ ç¢İ
çŁ¥è¯Ĩ ä¼łæĴŃ
æĸŃ è£Ĥ
åħ» åĪĨ
ç¤¾äº¤ ç½ĳç»ľ
å¨ģ æĿĥ
ä¸»å¯¼ çļĦ
å¹³åı° çļĦåħ´èµ·
ä¸ºä½ķ æŁĲäºĽ
æĸĩåŃ¦ä¸ŃçļĦéŃĶå¹»çİ°å®ŀä¸»ä¹ī å°Ĩ
èĩªçĶ± ä¸»ä¹ī
æ²³æµģ ä¸īè§Ĵæ´²
an s
èĩªæĪĳ å¼ºåĮĸçļĦ
å®ı å¤§
å¦Ĥä½ķåľ¨ ä¸įæĶ¹åıĺ
å¿ĥçĲĨåŃ¦ æ´ŀè§ģ
åıĮ éĩį
æ²īç§¯çī© è´Łèį·
éĢĨ åĳ¨æľŁ
æĽ¿ä»£ æĸ¹æ¡Ī
çĥŃå¸¦ æµģåŁŁçļĦ
åħīåĲĪä½ľçĶ¨ æķĪçİĩ
æĺłå°Ħ äºĨ
åľ°å½¢ éĻįæ°´æ¨¡å¼ı
Ġs ystems
å¦ĤæŀľéĩıåŃĲ éľ¸æĿĥ
çī¹å®ļ åľºåŁŁ
èĥ½åĲ¦åľ¨ ä¸į
èĦī åĨ²
éĽ¶å·¥ç»ıæµİ çļĦ
å¦ĤæŀľåĬłå¯Ĩè´§å¸ģ çļĦæĻ®åıĬ
çĶŁæĢģæī¹è¯Ħ æĸĩåŃ¦åĪĨæŀĲ
éļĶ ç¦»
ä¼´ éļı
åħĪè¿Ľ çļĦ
åĩ¯æģ©æĸ¯ä¸»ä¹īç»ıæµİåŃ¦ ä¸»å¼ł
çĵ¦ è§£
å§Ķæīĺ ä»£çĲĨéĹ®é¢ĺ
ä¸¤æŀģ åĪĨåĮĸ
å¿ł å®ŀ
çĭŃ ä¹īçĽ¸å¯¹è®º
åŃ¦éĻ¢ æ´¾
i m
o w
è ľ
ķ è£Ĥ
çļĦ çĶŁæĢģ
çļĦ èĮĥå¼ı
çļĦ æľīæľº
æľ «
çİ Ľ
å¯¹ è¿Ľåı£
åı¯ åľ¨
åı¯ è¯»
æİ ł
æĬĢæľ¯ å¾ĹåĪ°
éĻ Ħ
çĽ¸ å½ĵ
å·¥ ä¼ļ
çĶŁçī© ç¾¤èĲ½
ç¥ŀ åľ£
æĪĳ ä¸į
å¤ļ ç»´
èĥ½å¤Ł è§£éĩĬ
åŃĹ éĿ¢
æµ· ä¸Ĭ
åīį èĢħ
åīį æĻ¯
çĦ¶ åĲİ
æ¡Ĩæŀ¶ çļĦ
ä¸ĸ ä»£
è¿Ļ å°Ĩå¦Ĥä½ķå½±åĵį
è§Ĩ åĮĸ
åı¯èĥ½ä¼ļ æľīä½ķä¸įåĲĮ
çĥŃ çĤ¹
èĤ ¥
æķ°æį® åŃĺåĤ¨
èģĶ ç»ĵ
åĩĨç¡® æĢ§çļĦ
æĮģç»Ń çļĦ
åĢĺèĭ¥ éĩıåŃĲ
å¤© æĸĩ
çĽ¸äºĴ ä¾Ŀèµĸ
æĴ ķè£Ĥ
æĶ¿æ²» æŀģåĮĸ
ç»Ŀ çĥŃ
åŁºäºİ å¿Ĩéĺ»
çĿĢ éĩį
ä¸Ńå¿ĥ åĮĸ
çŁ¥è¯Ĩ æĺ¯éĢļè¿ĩ
åĨ° åį«æĺŁ
çģ« èį¯
éĥ¨ éĹ¨
åĪ¶åº¦ æĢ§
å¤§æ°Ķ ä¸Ń
æĦŁçŁ¥ åĪĨç±»
åıĪ ç¬¦åĲĪ
åı¯ä»¥ åıĳçİ°
åĬłåī§äºĨ æķĻèĤ²ä¸įå¹³çŃī
ä¸įåı¯ çł´è§£çļĦ
è¡Įä¸ºç»ıæµİåŃ¦ æ¨¡åŀĭ
åıĤä¸İ çİĩ
æľ¬è´¨ ä¸Ĭ
æĿĥåĬĽ æł¼å±Ģ
æ¸©çĽĲçİ¯æµģ çļĦä¸ŃæĸŃ
æ½ľ æĦıè¯Ĩ
æľīæľĽ åľ¨
èĪª ç©º
è°ĥèĬĤ åħ¨çĲĥæ°ĶåĢĻ
èĻļ æĹł
ä¸ŃçļĦåºĶçĶ¨ éĢļè¿ĩ
åįĬ çĲĥ
æĸĩèīºå¤įåħ´æĹ¶æľŁçļĦ èīºæľ¯å®¶
åİ»ä¸Ńå¿ĥåĮĸ éĩĳèŀį
æľºåĻ¨äºº æĬĢæľ¯
ä¸İç»ıåħ¸ çĥŃåĬĽåŃ¦
éĺ² å¾¡
éĩıåŃĲåľºè®º å°Ĩ
è¿ĳä»£æĹ©æľŁ æ¬§æ´²
éĩıåŃĲåıłåĬł æĢģ
åı¯èĥ½éľĢè¦ģ è¿Ľè¡Į
ç»ıæµİä½ĵ ä¸Ń
ä¸İçīĽé¡¿ åĬĽåŃ¦ä¸įåĲĮ
çŃĸå±ķ å®ŀè·µ
æĢĿç»´ æ¨¡å¼ı
è½® çıŃ
å¼ºçĥĪ çļĦ
çĽ®çļĦè®º è®ºè¯ģ
çģ«æĺŁ æ®ĸæ°ĳ
éĿ©åĳ½æĢ§ åıĺéĿ©
å°ĨåıĳçĶŁæĢİæł·çļĦ è½¬åıĺ
åıĮåĲĳ éĢļä¿¡
æĽ´åĬł å¼ºè°ĥ
si on
èµ¤ éģĵ
é¡º åºı
åĵªäºĽæĬĢæľ¯ éļľç¢į
é¢ĦæµĭæĢ§ èŃ¦åĬ¡
å¤©åŁºå¤ªéĺ³èĥ½ æĶ¶éĽĨ
æķ°ä¸ª æķ°éĩıçº§
çĶ° åĽŃ
é»ĳæł¼å°Ķ è¾©è¯ģæ³ķ
åģıæĮ¯ æĢģ
å¼¯ æĽ²
åıĻäºĭç»ĵæŀĦçļĦ ç¢İçīĩåĮĸ
å¤¸ åħĭ
éķľåĥı ç¥ŀç»ıåħĥ
çĶµè§£ è´¨
æķ°åŃĹæ¸¸ æ°ĳ
è¶ħåĪĨåŃĲ åĮĸåŃ¦
åŁºäºİå¿Ĩéĺ» åĻ¨çļĦ
ä¸İç»ıåħ¸çĥŃåĬĽåŃ¦ ä¸įåĲĮ
A I
D æīĵåį°
i r
Ġ h
Ġ th
çļĦ æĦŁçŁ¥
çļĦ åı¥å¼ı
çļĦ é¢Ħæµĭ
çļĦ å¼ķåħ¥
çļĦ åĮºåĪ«åľ¨äºİ
åħ ¹
åľ¨ ç»ıæµİ
ä¸İ çİ°æľī
æĿ ľ
åı¯ è§Ĥæµĭ
å¸ ®
å¦Ĥä½ķ è°ĥæķ´
ä¸į è¾¾ç±³
æĪĲ å¹´
å¦Ĥæŀľ èĦĳæľºæİ¥åı£
åĬĽ çļĦ
åı¯èĥ½ å½»åºķæĶ¹åıĺ
æľī åı¯èĥ½
èī ¯
ä¸ŃçļĦ çĶŁçī©
æĸ¹ çļĦ
çĲĨè®º ä¸İ
æĦı åĳ³
çĶŁçī© æ··åĲĪ
éĩıåŃĲ çĥŃåĬĽåŃ¦
ä»¥ åºĶå¯¹
åĽł æŃ¤
æĿ¥ è¯Ħä¼°
æĺİ æĺ¾
äºĭ æķħ
ä¸Ģ åĪĩ
åıį å¼¹
åıį è®½
åĿ ¦
å¼ºè°ĥ ç»ıéªĮéªĮè¯ģ
å¸¸ å°Ĩ
åħ¨çĲĥ è´¸æĺĵ
è¿Ļ å¯¹
èĢĮéĿŀ è¢«åĬ¨
å½ĵ æĹ¶
å¥ ł
å¡ Ķ
åı£ è¯Ń
å·®å¼Ĥ åĮĸçļĦ
æĺ¾ å¾®
ç»Ħ åĲĪ
æĹł è®º
å¸Ĥåľº ä¸ŃçļĦ
ç¾İ ç´¢
äºĮ åŃĹ
åħĪ çĶŁ
æŃ£ ä¹ī
çİ°ä»£ä¸»ä¹ī å°ıè¯´ä¸ŃçļĦ
èĥ½åĲ¦ éĢļè¿ĩ
è·¨ è¶Ĭ
åĨ° èĬ¯
éĢĢ ä¼ĳ
æļĹ èĥ½éĩıå¯Ĩåº¦
ç£ģ æĤ¬æµ®
èµ· åĪ°
çĹħ åİŁ
ç²¾åĩĨ åº¦
å»ºçŃĳ çļĦ
åŁºåĽłç¼ĸè¾ĳ æĬĢæľ¯çļĦ
çĶµåŃĲ åĻ¨ä»¶
éĶĻ è¯¯
æĿĥåĬĽ åĬ¨æĢģ
çļĦåıĳ èĤ²
å°ģ éĹŃ
è¿Ļä¸Ģ çİ°è±¡
éĵ¶ æ²³
åħ·è±¡ èīºæľ¯
å°Ĩå¦Ĥä½ķè°ĥæķ´ éĢĤåºĶ
éĩıåŃĲéĢĢçĽ¸å¹² å¯¹
äººä¸º çİ¯å¢ĥ
is t
ä¹īåĬ¡è®ºä¼¦çĲĨåŃ¦ å¼ºè°ĥ
å®ĩå®ĻèĨ¨èĥĢ éĢŁçİĩ
è¿½ è¸ª
äºĳ è®¡ç®Ĺ
åħīéģĹä¼łåŃ¦ æĬĢæľ¯éĢļè¿ĩ
æ¸¸ æĪı
ç¡®ç«ĭ çļĦ
çļĦç¢İçīĩåĮĸ åıĻäºĭ
åĪĨåŃĲç»Ħè£ħ åĻ¨
å®¢è§Ĥ çľŁçĲĨ
æīĵ çł´
åı¯ä»¥æıŃç¤º äºĮèĢħåľ¨
ä¸İåħ·è±¡ éĽķå¡ĳä¸įåĲĮ
æľºä¼ļ æĪĲæľ¬
æĲ ľ
æĭľåįłåºŃåľ£åĥı çĶ»
æīį èĥ½
éĢ»è¾ĳå®ŀè¯ģ ä¸»ä¹īçļĦ
å·´ æ´Ľåħĭ
çļĦè®¤è¯Ĩè®º æ¡Ĩæŀ¶
æĺİæļĹå¯¹çħ§ æ³ķ
éĿŀçĲĨæĢ§ åĨ³çŃĸ
åĢĴ ç½®
ç»ıæµİè¡°éĢĢ æľŁéĹ´
ä¸ĩ åıĺ
ä¸Ģèĩ´ æĢ§
æģĲæĢĸè°· çİ°è±¡
çĮİçī© åĬ¨æĢģ
çķľ çī§
é¸Ł ç±»
çŀ¬æģ¯ ä¸ĩåıĺ
æ°¢çĩĥæĸĻ çĶµæ±ł
æİł å¤º
ä¸įè¾¾ç±³ äºļ
ç¾İç´¢ ä¸įè¾¾ç±³äºļ
æ ¥
Ġ g
çļĦ è®¡ç®Ĺ
çļĦ åŃ¦æľ¯
çļĦ æĻ®éģį
çļĦ è§Ĥå¿µ
çļĦ ä½įç½®
æľ ¨
å® ¾
ä¹ ¡
ä¹ Ķ
èĥ½ èĢĹ
ä¸Ń åŃĺåľ¨çļĦ
è¿ĩ åº¦
ä¸İ æĸĩèīºå¤įåħ´æĹ¶æľŁçļĦ
ä¸İ å®Įåħ¨ç«ŀäºī
çĶŁ ç´ł
çĽ ĺ
ä¸»ä¹ī æĸ¹æ³ķ
å¦Ĥä½ķ ä»İæł¹æľ¬ä¸ĬæĶ¹åıĺäºĨ
æĸĩ åŃĹ
çī© æµģ
æĮ ī
ä¼ł æĢģ
æ¨¡ æĢģ
æĪĲ å°±
çº Ĥ
æī ®
äºº åĳĺ
æĦ Ī
å¦Ĥæŀľ åħīéģĹä¼łåŃ¦
æĬĢæľ¯ è¿ĽæŃ¥
åŁº åĩĨ
éĩį çĤ¹
çŁ¥ è§ī
å®ļ åĲĳ
åŀĭ æĿ¿åĿĹè¾¹çķĮ
ä»¥ å®ŀçİ°
å½±åĵį åŁºåĽłè¡¨è¾¾
åŃĺåľ¨ æľ¬è´¨å·®å¼Ĥ
åĵªäºĽ ç¥ŀç»ı
åĵªäºĽ æĸ°åŀĭ
ç¤¾ä¼ļ åĩĿèģļåĬĽ
æĮģ å¹³
å½¢æĪĲ å¯¹æ¯Ķ
äº§ ä¸ļ
éĽ ħ
åĲ¦ å®ļ
è¡Įä¸º çĸĹæ³ķ
å¡ ŀ
åı£ å¤´
å¤ĸ çļ®å±Ĥ
ç«ĭ æ³ķ
èĤ ¡
ä¸ĵ éĹ¨
åı¤ èĢģ
åı¥ ç»ĵæŀĦ
ç¼ĸ çºĤ
åĸ ľ
å¤© èĬ±
èİ ±
çľŁ æł¸
çī©è´¨ åĮĸ
å¢ŀå¼º çļĦ
éĴ ©
é©±åĬ¨ åĬĽ
çĲĨæĢ§ ä¸»ä¹ī
çĲĨæĢ§ è¡Įä¸º
çĽ¸æ¯Ķ ä¼łç»Ł
å®ŀçİ°äºĨ åīįæīĢæľªæľīçļĦ
åį°è±¡æ´¾ ä¸İ
es s
ä¹¦ éĿ¢
éĻĲåĪ¶ çļĦ
è¶ħæĿĲæĸĻ çļĦåıĳå±ķ
éĢĴ éĢģ
å®Įæķ´ ä¿ĿçķĻäºĨ
ç³»ç»ŁæĢ§ åľ°
èĪª è¡Į
å±ķçİ°åĩº çĭ¬çī¹çļĦ
è§Ĥå¯Ł åĪ°çļĦ
ç½Ĺ å°Ķæĸ¯
ç½Ĺ æĸ¯ç§ĳ
æĽ´ç¬¦åĲĪä¸Ńæĸĩ è¡¨è¾¾ä¹łæĥ¯
èĦ± éĴ©
ä¸ľ è¥¿æĸ¹
åħĭæľį å½ĵåīį
çļĦä¼¦çĲĨ äºīè®®
ä¸ªæĢ§åĮĸ åĮ»çĸĹ
èİİå£«æ¯Ķäºļ åįģåĽĽè¡Įè¯Ĺ
åĪĽä¼¤ æĢ§
éļĲå½¢ ä¼łæĢģ
éģŃ åĪ°
åı¯æıŃç¤º ä¸¤èĢħåľ¨
åħīæķı ç¦»åŃĲéĢļéģĵ
åºŁ çī©
è´§å¸ģä¾ĽåºĶ éĩı
å¦ĤæŀľæļĹèĥ½éĩıå¯Ĩåº¦éļıæĹ¶éĹ´ æ³¢åĬ¨
æĭľåįłåºŃéķ¶åµĮ å·¥èīº
ä»įçĦ¶ æĺ¯
æİĴæĸ¥ åĬĽ
æ´ª æ°´
ç»§ æī¿
åħīåŃĲéĽĨæĪĲçĶµè·¯ éĢļè¿ĩ
éĺĲæĺİ äºĨ
æ¢¦ å¢ĥ
æĦŁåıĹ è´¨
åĬłå¯Ĩè´§å¸ģçļĦæ³¢åĬ¨æĢ§ æºĲäºİ
ä½Ľ æķĻ
ä¸ŃæĸĩåŃ¦ æľ¯
è´« åĽ°
æĽ´å¼º çļĦ
çī¹å¼Ĥ æĢ§
æĽ´æĸ°ä¸ĸå·¨åŀĭ åĬ¨çī©ç¾¤
èĦ±éĿ¶ æķĪåºĶ
æłĸæģ¯ åľ°
çĥŃå¸¦æµģåŁŁçļĦ æ£®æŀĹçłįä¼Ĳ
å¯¹è¿Ľåı£ åķĨåĵģ
å¥ł å®ļ
å¤©èĬ± æĿ¿
1 2
p re
ç ĺ
Ġ n
Ġ o
ä¸ °
çļĦ æ¼Ķåıĺ
çļĦ éĻĲåĪ¶
è¿ Ŀ
ä¼ Ļ
åĲ ĥ
è¯ Ĭ
åľ¨ æıĲåįĩ
ä¸İ å¼Ĺæ´Ľä¼Ĭå¾·
ä¸İ æľºæ¢°åĽ¢ç»ĵä¸įåĲĮ
æĬ Ħ
éĢļè¿ĩ éĿŀ
å¦Ĥä½ķ å¯¹
ä¸į è¿ĩ
æĪĲ æŀľ
æ³ķ è§Ħ
åıĺ éĩı
éĹ ²
ä¸ŃçļĦ çŃīç¦»åŃĲä½ĵçº¦æĿŁ
åī ª
å¤§ åŀĭ
å¤§ æĴķè£Ĥ
è¿Ľ åħ¥
çĲĨè®º åĪĻ
åĢ º
å¯¼ RNA
ç±» åŀĭ
äº§ åĩº
å¤ļ ä¸ĸçķĮ
å°Ĩå¦Ĥä½ķ è¢«
å±Ĥ ä¸Ń
è®¤çŁ¥ è¯Ńè¨ĢåŃ¦
åħ¥ ä¾µ
è¿Ļ ä¸İ
æł¹æľ¬ å·®å¼Ĥ
æ®ĸæ°ĳ æĹ¶æľŁçļĦ
æīĭ åĬ¿
çªģ æĺ¾äºĨ
æĹł æĦıè¯Ĩ
å¸Ĥåľº åĪĨæŀĲ
å¸Ĥåľº åĿĩè¡¡
è¡¨çİ° æĸ¹å¼ı
åħĪ å¤©
ä¸ĸçºª åĨħ
ç§ĳåŃ¦ è¿ĽæŃ¥
çĤ ¸
ä¿¡æģ¯ çļĦ
çĶŁäº§ æ¨¡å¼ı
ä½Ĩ åħ¶
æ¿Ģ è¿Ľ
å¾® å¡ĳæĸĻ
å®ī æİĴ
èĥ½æºĲ æķĪçİĩ
æĺ¾èĳĹ æıĲåįĩ
çŁ¥è¯Ĩ åŀĭ
å¤± ç¨³
åİĨåı² è¿ĽæŃ¥
ä¸»ä¹īçļĦ åıį
åħ¬ éĴ¥
è¾ĵ åĩº
éĤ »
æŀĦéĢł ä¿¯åĨ²å¸¦éĢļè¿ĩ
çŃĸçķ¥ æĢ§
åĪ¶éĢł èĮĥå¼ı
å¼Ģ å§ĭ
æī¹åĪ¤ æĢ§
åľ°è´¨ åŃ¦
åĮºåĿĹéĵ¾ æĬĢæľ¯
åıĤä¸İ èĢħ
æĶ¶åħ¥ ä¸įå¹³çŃī
æĮĩæķ°çº§ æıĲåįĩ
åĽ½éĻħ ç©ºéĹ´æ³ķ
ä¸Ńä¸ĸçºª æ¬§æ´²
å¾Ģå¾Ģ ä¼ļ
åįķ ä¸Ģ
æľºåĻ¨åŃ¦ä¹ł æŀ¶æŀĦ
å®ŀéªĮ éªĮè¯ģ
æĭĵæīĳç»Ŀç¼ĺä½ĵ åľ¨è¡¨éĿ¢å¯¼çĶµ
èĢģ é¾Ħ
æĬ½è±¡è¡¨çİ°ä¸»ä¹ī å¯¹
ä¼ļå¦Ĥä½ķ æ¼Ķåıĺ
è£Ĥ åıĺ
çĸ« æĥħ
çŃīç¦»åŃĲä½ĵ å°¾
æıĲé«ĺ äºĨ
ç½ĳç»ľå®īåħ¨ åįıè®®
è®© æĪĳ
åĵĪ æĭī
ç´§ ç¼©
åģļ åĩº
åı¶ ç»¿
å¹¿ä¹īçĽ¸å¯¹è®º ä¸İ
éľĢæ±Ĥä¾§ å¹²é¢Ħæİªæĸ½
æĤ¬ ç½®
å¹³åĩ¡ çİ°å®ŀä¸İ
æĽ´èĥ½ æľīæķĪ
å®Įå¥½ ä¿ĿåŃĺ
èµ¤ åŃĹ
åı¤æ°ĶåĢĻ åŃ¦
èĩªåĬ¨åĮĸå¼ķåıĳçļĦ å²Ĺä½įæµģå¤±
ç²®é£Ł å®īåħ¨
è¿ŀéĶģ æķĪåºĶ
æ³¢ç²ĴäºĮè±¡ æĢ§
çº½ å¸¦
æĴĴ åĵĪæĭī
éĩıåŃĲéļ§ç©¿ æķĪåºĶ
ä¸ĸçºªä¸Ń åı¶
è¡Ĺ å¤´
e m
o ci
u b
u m
è ĸ
çļĦ è¯Ńè¨Ģ
çļĦ ä¸ĵä¸ļ
çļĦ å¤įæĿĤ
çļĦ æ²īç§¯çī©
çĶ ·
å¦Ĥ æŃ¤
åľ¨ æ¬§æ´²
å¯¹ çŃī
å¯¹ è¯Ŀ
å¯¹ åĽ½å®¶ä¸»æĿĥ
åĩ Ģ
è¾ Ĩ
å°Ĩ åľ¨
å°Ĩ éľĢ
ä¼ł æŁĵ
æī ¬
åı¯èĥ½ åĩıå°ĳ
éĻ Ī
ä½ľ å®¶
åī ĸ
åĲĪ çĲĨ
å¤§ éĩı
èĭ Ĺ
èµ ¢
æĺ¯ çĶ±
çĶµ åĬĽ
çĶµ ç«Ļ
ä½¿ åħ¶
æĸ¯ åŁº
åīį é¢
ä¸ĭ æ¸¸
æķ°åŃĹ åıĻäºĭ
è¢« æĻ®éģį
è¢« æľĢç»Ī
ä½ĵç³» ä¸ŃçļĦ
æĸĩåĮĸ èº«ä»½
åįĩ çº§
ä¹ĭéĹ´ å¤įæĿĤçļĦ
æķ°æį® åĪĨæŀĲ
æĮģç»Ń å½±åĵįçĿĢ
åĵ²åŃ¦ ä¸Ń
å®ĩå®Ļ è§Ĥ
åģĩ èĭ¥
çĶŁäº§ çļĦ
ç©ºéĹ´ æĦŁçŁ¥
çŁ¥è¯Ĩ äº§æĿĥ
åİŁçĲĨ å¦Ĥä½ķ
ç¨³å®ļ åĮĸ
èµĦæºĲ çļĦ
ä»ĸ çļĦ
çļĦå½¢æĪĲ éĢļè¿ĩ
å°½ç®¡ éĿ¢ä¸´
å·¥ç¨ĭ åĮĸ
æĭī ç¾İ
éĩıåŃĲè®¡ç®Ĺ æŀ¶æŀĦ
è´Ł ç©ºéĹ´
åħīåŃĲ æĻ¶ä½ĵ
èĴ Ĥ
åĲ¯ åĬ¨
ç¢İçīĩåĮĸ æīĭæ³ķ
ç»Ħç»ĩ ç»ĵæŀĦ
ç»Ĩ èıĮ
ç»´æĮģ åıłåĬłæĢģ
æŃ¤ åīį
ä¸ªäºº æĿĥåĪ©
åĤ¬çĶŁ åĩº
æ» ¥
ä¼ĺåĮĸ éĹ®é¢ĺ
or k
èĩªæĪĳ æĦıè¯Ĩ
åĨ³å®ļ äºĨ
20 0
åĮºåŁŁ æ°ĶåĢĻ
åıĸä»£ æ³ķå®ļè´§å¸ģ
åĪ» çĶ»
åĵªäºĽç¤¾ä¼ļ æĶ¿æ²»
å£° åŃ¦
ä¸ĭéĻį é£İ
åĩĨç¡®ä¼łè¾¾ äºĨ
æİ¢æµĭ åĻ¨
ç¢³éħ¸çĽĲå²© æº¶è§£
ä¸ľ è¥¿
çĸ« èĭĹ
ç´§ æĢ¥
å°ĨåıĳçĶŁ ä½ķç§į
ç¬¦åı· åŃ¦
è·¨åĽ½ ç§»æ°ĳ
å§ĭ ç»Ī
åĢĺèĭ¥äºļåİĨå±±å¤§åĽ¾ä¹¦é¦Ĩ æľªæĽ¾
ä»¥ä¸ĭ ä¸ĵä¸ļ
æŀģåľ° åĨ°çĽĸ
éĿŀæ¬§ åĩłä½ķ
éľĢæ±Ĥä¾§ å¹²é¢Ħ
å°¼éĩĩçļĦ è§Ĩè§Ĵ
é£Łçī© èįĴæ¼ł
æ¸©çĽĲçİ¯æµģæ¨¡å¼ıéĢļè¿ĩ å¯Ĩåº¦é©±åĬ¨çļĦ
å¦ĤæŀľæļĹèĥ½éĩıå¯Ĩåº¦éļıæĹ¶éĹ´ åıĳçĶŁæ³¢åĬ¨
ä¸¾ æİª
äºĮç»´ è¡¨éĿ¢ä¸Ĭ
èĲ¥éĢł åĩº
åĨľä¸ļçĶ¨åľ° ä½¿çĶ¨
å¾ªçİ¯ç»ıæµİ åİŁåĪĻ
èĻ« æ´ŀ
çĶŁçī©çī¹å¾ģ æ°Ķä½ĵ
çİ»çĴĥ å¤©èĬ±æĿ¿
è¾¾è¾¾ ä¸»ä¹īçļĦåıį
æľ¬çľŁ æĢ§
åŃ© åŃĲ
æĪ´ æ£®
éĩıåŃĲåĬĽåŃ¦ä¸ŃçļĦ è§Ĥå¯ŁèĢħæķĪåºĶ
ç½ĳç»ľåĮĸ ä¸ªäººä¸»ä¹ī
è¯¾ ç¨ĭ
æ³¢åĩ½æķ° åĿįç¼©
å®ľå±ħ å¸¦
éĢłå°± äºĨ
å¿½ è§Ĩ
ç»ĿçĥŃ åĨ·åį´
åĨ°åį«æĺŁ ä¸ĬçļĦ
æĿľ å°ļ
ç£ģæĤ¬æµ® äº¤éĢļ
éĵ¶æ²³ ç³»
çķľçī§ ä¸ļ
æī® æ¼Ķ
å¤ļä¸ĸçķĮ è¯łéĩĬ
èĢģé¾Ħ åĮĸ
e t
y n
¬ åįĩ
Į æĮĩ
çļĦ æĦıä¹ī
çļĦ èĦĨå¼±æĢ§
äº ®
åħ ¼
å¯¹ äººç±»
ä¸į åľ¨
ä¸į æĺ¯
æĮ ¤
å°Ĩ å®ŀçİ°
å°Ĩ å½»åºķ
ä¼ł åħ¥
æĹ¶ åĢĻ
äºº ç¾¤
ç¤ ¼
å¦Ĥæŀľ éĢļè¿ĩ
å¦Ĥæŀľ ç¥ŀç»ıå½¢æĢģèĬ¯çīĩ
åı¯èĥ½ åĬłåī§
æĬĢæľ¯ ä¸İ
æĬĢæľ¯ å¾ĹåĪ°å¹¿æ³ĽåºĶçĶ¨
èĩ Ń
è°ĥ èī²
å¤§ æ´ĭ
ä¸Ĭ ä¸İ
èĭ¥ åıįçī©è´¨
èĭ¥ ç¥ŀç»ıå½¢æĢģèĬ¯çīĩ
æĿ¥ æī¹åĪ¤
å¿ĥ è¯´
å¤ļ è¯Ńè¨Ģ
è½¬ æĬĺ
åıį çħ§
éª ¤
äººç±» çļĦè®¤çŁ¥
æ¸ Ĺ
å¼ºè°ĥ å¼ºåĮĸ
è®¤çŁ¥ è¡Įä¸ºçĸĹæ³ķ
çº§ åĪĨè¾¨çİĩ
å¥ ı
å¤ĸ åħī
éģĵå¾· åĽ°å¢ĥ
èĤ Į
é¢Ĩ åľŁ
åĩĨç¡® ä¼łéĢĴ
éĶ ĮæĮĩ
æĪĸ åı¯å®ŀçİ°
åħĭ éĩĮå¥¥
ä½Ĩ åĲĮæĹ¶ä¹Ł
åĨ³çŃĸ è¿ĩç¨ĭ
åĨ³çŃĸ ç®Ĺæ³ķ
å¾Ĺä»¥ å®ŀæĸ½
åĽłç´ł æİ¨åĬ¨äºĨ
æł¹æľ¬æĢ§ éĩįæŀĦ
æĥ³ ä¸į
èģļ çĦ¦
ç²ĴåŃĲ è¡Įä¸ºçļĦ
ä¾Ŀèµĸ æĢ§
æĹ©æľŁ çļĦ
åŃ¦æľ¯ çķĮ
en er
æĥħæĦŁ è¡¨è¾¾
in e
èĪ ¬
æĬĹ çĶŁç´ł
è¿ĽåĮĸ è½¨è¿¹
ç¤¾äº¤åªĴä½ĵ å¹³åı°
åĬłå¯Ĩè´§å¸ģ çļĦæĻ®åıĬ
çĶŁæĪĲ å¼ı
èĴĻ åı¤
å¯ĨçłģåŃ¦ ä¸įåĲĮ
åŃĺåľ¨ä¸»ä¹ī åĵ²åŃ¦
ãĢģ "
åħ³èģĶ æĢ§
åĲ¯èĴĻ åĵ²åŃ¦
å¯¼çĶµ çī¹æĢ§
å·¥ä¸ļéĿ©åĳ½ æľŁéĹ´
is m
å°ĨéľĢè¦ģè¿Ľè¡Į åħ¨éĿ¢
æ¯Ķè¾ĥä¼ĺåĬ¿çĲĨè®º æľªèĥ½
è½¬æį¢ ä¸º
çĲĨè®ºä¸Ĭ ä¸įåı¯çł´è§£çļĦ
ä¸ĬåŃĺåľ¨ æĺ¾èĳĹå·®å¼Ĥ
æľįåĬ¡ è¡Įä¸ļ
Ġp ro
æķı æĦŁ
ä¸Ńå¤®éĵ¶è¡Į çļĦ
å¤§èĦĳ çļ®å±Ĥ
åı¸ æ³ķ
çļĦåĨľä¸ļ éĽĨçº¦åĮĸ
éħ¶ ä¿ĥ
æ¶² æĢģ
Ġä¸ĵä¸ļæľ¯è¯Ń åĩĨç¡®
éģŃ åıĹ
éĢıè§Ĩæ³ķ åĪĻ
é£ŀ è¡Į
åŁºäºİåĮºåĿĹéĵ¾çļĦ æĬķç¥¨
Ġm o
éĺ¶å±Ĥ åĪĨåĮĸ
un d
è¯ķåĽ¾ éĢļè¿ĩ
åĩ¸ æĺ¾
å¦ĤæŀľæļĹèĥ½éĩıçļĦ æİĴæĸ¥åĬĽ
å¸ĮèħĬæĤ²åī§ å¼ºè°ĥ
è®¤çŁ¥å¤±è°ĥçĲĨè®º è§£éĩĬäºĨ
ç¬¬åĽĽ æ³¢
èģĶç³» èµ·æĿ¥
è®¤è¯Ĩè®ºå±ĤéĿ¢çļĦ æĮĳæĪĺ
çģµæ´» æĢ§
äººæľºäº¤äºĴ èĮĥå¼ı
åĨħçĶŁå¢ŀéķ¿ çĲĨè®ºå¼ºè°ĥ
æ´»ä½ĵ ç»Ħç»ĩ
å½¢æĢģåıĳçĶŁ ç¼ĸç¨ĭ
äºĮåįģ ä¸ĸçºª
åįĵ è¶ĬçļĦ
éĢļè´§ èĨ¨èĥĢ
æº¢ åĩº
è¶ħå¯¹ç§° çĲĨè®º
å¦Ĥä½ķåľ¨ä¸įæĶ¹åıĺ DNAåºıåĪĹçļĦæĥħåĨµä¸ĭ
æĺ¾å¾® éķľ
çľŁæł¸ çĶŁçī©
åīįé¢ Ŀåı¶
éĶĮæĮĩ æł¸éħ¸éħ¶
åħĭéĩĮå¥¥ å°Ķ
" ï¼Ī
f orm
s p
s t
Ġ å°Ĩ
çļĦ äººç±»
çļĦ æĮģç»Ń
çļĦ åģĩè®¾
çļĦ ä¼¦çĲĨæ¡Ĩæŀ¶
çļĦ å®ĩå®Ļä¸Ń
æľ ĭ
ä¼ ¸
ä¸İ çİ°ä»£
ä¸İ çĶ±
ä¸İ çī©çĲĨ
ä¸İ åħīä¼ıçĶµæ±ł
åı¯ è§ĨåĮĸ
å¦Ĥä½ķ éĩįæŀĦ
çī© ä½ĵ
ä¸į éĢĤ
åĬ¨ è¯į
åĲĮ çĽŁ
åİ ļ
å¦Ĥæŀľ æĬĹ
å¦Ĥæŀľ åħ¨æģ¯åİŁçĲĨ
å¦Ĥæŀľ èĻļæĭŁçİ°å®ŀ
åŁº è´¨
åī Ĥ
è¯Ń ä½ĵ
åħ¨ çŁ¥
çĲĨè®º çī©çĲĨåŃ¦ä¸ŃçļĦ
æĦı æĥ³ä¸į
æµģ æ´¾
åŃĺåľ¨ ä¸»ä¹īçļĦ
åħī æ³¢
æĿ¥ ä¼łè¾¾
ç±» ä¼¼
è¶ħ çº§
åĪĻ æ³¨éĩį
ç²¾ èĭ±
èµĦ äº§
åħ¨çĲĥ ä¾ĽåºĶéĵ¾
å² ģ
æĸĩåĮĸ åĲĮè´¨åĮĸ
è¿Ľè¡Į å»ºæ¨¡
çłĶç©¶ æĸ¹æ³ķ
åŁİå¸Ĥ é£Łçī©èįĴæ¼ł
äº§çĶŁ æĢİæł·çļĦå½±åĵį
ä¹ĭéĹ´çļĦ å¼łåĬĽ
ä½Ĩ åľ¨
è·¨ åŃ¦ç§ĳ
çŁ¥è¯Ĩ èİ·åıĸ
ä½İ çļĦ
åİĨåı² ä¹¦åĨĻ
èµĦæºĲ æİłå¤º
æĬĢæ³ķ ä¸İ
æĥ¯ çĶ¨
ç£ģ åħ±æĮ¯
å®ŀæĸ½ åħ¨æ°ĳåŁºæľ¬æĶ¶åħ¥
ç²ĴåŃĲ èĥ½å¤Ł
ç²ĴåŃĲ åĬłéĢŁ
æĭĵ å±ķ
åį°è±¡ ä¸»ä¹ī
åĲİæŀľ ä¸»ä¹ī
åĩ¯æģ©æĸ¯ ä¸»ä¹īçļĦ
en ti
ä»·åĢ¼ ä½ĵç³»
æĽ´ä¸º æĺ¾èĳĹ
åħĥç´ł çļĦ
éŁ §
äºĴåĬ¨ æĮĩæłĩ
éĻįä½İ å»¶è¿Ł
æ¸©çĽĲçİ¯æµģ ä¸ŃæĸŃ
åĩıå°ĳ äºĨ
åħ¨æ°ĳ åĮ»çĸĹ
an d
èĩªä¸» æĢ§
èĩªä¸» æĿĥ
æĬĢæľ¯å®ŀçİ° åķĨä¸ļåĮĸåºĶçĶ¨
ç®Ģ åĮĸ
ä¾ĭ è¯ģ
åĿĩè¡¡ åıįå¼¹
æıĲä¾ĽäºĨ åħ³éĶ®
å¤©ä½ĵ çī©çĲĨåŃ¦
çľŁå®ŀ æĢ§çļĦ
å·¥ä¸ļåĮĸ è§Ħæ¨¡
è¶³ å¤Ł
åĵªäºĽç¤¾ä¼ļ è¯Ńè¨ĢåŃ¦
ä¹īåĬ¡è®ºä¼¦çĲĨåŃ¦ ä¸»å¼ł
åĲĦ åľ°
å½¢æĪĲçļĦ åĨ²ç§¯å¹³åİŁä¸įåĲĮ
æ¸©çĽĲçİ¯æµģæ¨¡å¼ı å¦Ĥä½ķå½±åĵį
äºĭä»¶ çļĦ
æıŃç¤ºåĩº äºĮèĢħåľ¨
æµ·å²¸ çº¿
çº³åħ¥ äºĨ
å¼ķåħ¥ äºĨ
åĽłæŀľ éĢ»è¾ĳ
tr uc
çĶµç£ģæ³¢ ä¼łæĴŃ
æłĳ æŀĹ
éĩįå¤§ æĮĳæĪĺ
åı¯èĥ½åľ¨ æľªæĿ¥
çĶ¨æĪ· åıĤä¸İåº¦
åı¯èĥ½éĢļè¿ĩ æĶ¹åıĺ
çĽ¸äºĴä¾ĿåŃĺ çļĦ
ç¬¦åı· äººå·¥æĻºèĥ½
å¤ĸæĺŁ çĶŁåĳ½
æ¨¡ç³Ĭ æĢ§
äº¤äºĴ å¼ı
éĢłå±± è¿ĲåĬ¨
äººç±»æ´»åĬ¨ å¯¹
åĵ¥ä¼¦å¸ĥå¤§äº¤æį¢ ä¸ŃçļĦçĶŁçī©
çī©èģĶç½ĳ è®¾å¤ĩ
è½® åĽŀ
åŁºäºİåĮºåĿĹéĵ¾çļĦ æĻºèĥ½åĲĪçº¦
æĹłç¼Ŀ æķ´åĲĪ
éĢļèĥĢ æİ§åĪ¶
åıĹåĪ° æĢİæł·çļĦå½±åĵį
å¹¸ åŃĺ
éĩĩåıĸ äºĨ
çİ°ä»£ä¸»ä¹īè¯ĹæŃĮ çļĦç¢İçīĩåĮĸ
æķĻåŃ¦ æ³ķ
åģľ æ»ŀ
æµªæ¼«ä¸»ä¹ī è¯ĹæŃĮ
èī²åŁŁ ç»ĺçĶ»
æ½®æ±Ĳ éĶģå®ļ
ä¿ĿæĮģç»Ŀç¼ĺ çī¹æĢ§
éĿŀä¾µåħ¥ æĢ§
çĨĶ èŀį
é¡¶ çº§
äº§çĶŁäºĨåĵªäºĽ éķ¿æľŁ
æĶ» åĩ»
å¼¦ çĲĨè®º
é©¬åħĭæĢĿ ä¸»ä¹ī
æ°¸æģĴ è½®åĽŀ
æŃĩ å°Ķ
æ²ĥå°Ķå¤« åģĩè¯´
ä¾Ľç»ĻåŃ¦æ´¾ ç»ıæµİåŃ¦
æĹ§ å¤§éĻĨ
è½®çıŃ å·¥ä½ľèĢħ
çĹħåİŁ ä½ĵ
å¯¹åĽ½å®¶ä¸»æĿĥ çļĦå¼ºè°ĥ
è¾¾è¾¾ä¸»ä¹īçļĦåıį èīºæľ¯
åıįçħ§ çİĩ
w ork
çļĦ åĬłéĢŁ
çļĦ ä¿¡æģ¯
çļĦ å®ļä¹ī
çļĦ çī¹æĢ§
çļĦ èī²å½©çĲĨè®º
çļĦ ç§¯ç´¯
çļĦ èĥ½æķĪ
çļĦ è¯Ńä¹ī
è¿ ¥
éĢ Ĭ
å¼ ¥
æĢ§ æł¼
åľ¨ æķ°åŃĹ
ä¸İ ç»´å¤ļåĪ©äºļæĹ¶æľŁçļĦ
ä¸İ åĨľæĿĳ
å¦Ĥä½ķ å¯¼èĩ´
è¾ ŀ
è´ ·
ä¼ļ åĬłåī§
ä¼ļ è®®
ä¸į åĿĩ
æĪĲ äºº
äºº æĸĩä¸»ä¹ī
åºĶ åĬĽ
å¦Ĥæŀľ äººä¸º
åĪĨ æķ°
åı¯èĥ½ ä½¿
åı¯èĥ½ éĿ¢ä¸´
æľī éĻĲ
æľī åĪ«
æĬĢæľ¯ å¾Ĺä»¥å®ŀçİ°
æĢģ çļĦè½¬åıĺ
èĢĮ æĪĲ
å¤§ è´¨éĩı
è§£ åīĸ
çĲĨè®º åĪĻå¼ºè°ĥ
æĭ ¼
èĭ¥ èĦĳæľºæİ¥åı£
èĭ¥ å°ıè¡ĮæĺŁéĩĩçŁ¿
èĩª ä¿®å¤į
æĸ° æķĻ
æ¨¡å¼ı çļĦå½¢æĪĲ
åĵªäºĽ æľºåĪ¶
çİĩ ä¸ĭéĻį
æĿ¥ ç¼ĵè§£
åĩĨ å¤ĩ
èīºæľ¯ åªĴä»ĭ
å¿ĥ çģµ
ç±» èĦĳ
è· ĥ
å¹³ æµģ
æ¶ Ĥ
åıĳå±ķ è½¨è¿¹
æķ°åŃĹ åĽŀéŁ³å®¤éĢļè¿ĩç®Ĺæ³ķ
çģ Į
çĽ´ éĿ¢
é«ĺ ç»´
è¯Ńè¨Ģ å¤ĦçĲĨ
è¯Ńè¨Ģ çŃīçº§åĪ¶åº¦
åħ¶ åľ¨
å¸¦ éļĻ
å·®å¼Ĥ åĮĸ
å¤ĸ çļ®è´¨
ç»Ħ ä»¶
ç©¶ ç«Ł
çİ¯å¢ĥ åİĭåĬĽ
å¸Ĥåľº ä¸Ń
çłĶç©¶ ä¸Ń
åŁİå¸Ĥ åŁºç¡Ģè®¾æĸ½
æŃ£ å½ĵ
æ°ĶåĢĻ æ¨¡åŀĭ
çĽ¸äºĴ åĨ²çªģçļĦ
æ¦Ĥå¿µ åĮĸä¸º
ç¢³ å¾ªçİ¯
èĥ½åĲ¦ è°ĥåĴĮ
èĢĥ å¯Ł
èº« ä½ĵ
åĨ³çŃĸ èĥ½åĬĽ
æµ·æ´ĭ éĴĻåĮĸ
çŁ¥è¯Ĩ æº¢åĩº
ä¿ĿæĮģ äºĨ
å¤± æķĪ
çĹ ķ
éĴ ±
å¤§æ°Ķ åıĺæļĸ
æ·± è¿ľ
èµĦæºĲ ç®¡çĲĨ
èµĦæºĲ éħįç½®
éŃĶå¹»çİ°å®ŀä¸»ä¹ī åıĻäºĭ
ä»į åŃĺåľ¨äºīè®®
æĬĺ åıł
åıĪ éĢļè¿ĩ
çŁ³ åĻ¨
æĿ¡ä»¶ ä¸ĭçļĦ
æŀĦéĢł ä¿¯åĨ²å¸¦
è¶ħè¶Ĭ äºĨ
åĪ©çĶ¨ åħīåŃĲ
çģ«å±± åĸ·åıĳ
åı¤åħ¸ åŃ¦æľ¯
åı¤åħ¸ çŁ¥è¯ĨçļĦ
åľ°è´¨ å¹´ä»£
æĳ Ĩ
å¢ŀéķ¿ çļĦ
æĪĸå°Ĩ å®ŀçİ°
çĶµåŃĲ æĺ¾å¾®éķľ
tion s
æĽ² æµģ
çħ§ çĽ¸
å¥½ çļĦ
è¯¯ å·®
åĲİçİ°ä»£ä¸»ä¹ī å°ıè¯´
åħħ å½ĵ
å¾Ģå¾Ģ ä¼ļå¼ķåıĳ
å¯ĨçłģåŃ¦ æłĩåĩĨ
ä»¿ çľŁ
æľºåĻ¨åŃ¦ä¹ł ç®Ĺæ³ķ
å¼ķåĬĽ çĲĨè®º
è°± ç³»
ä¸»è§Ĥ ç»ıéªĮ
äº¤æĺĵ æ¨¡å¼ı
æ¯Ķè¾ĥä¼ĺåĬ¿çĲĨè®º è®¤ä¸º
æĪ· å¤ĸ
å¸ĮèħĬ æĪıåī§
åĬ³åĬ¨åĬĽå¸Ĥåľº çļĦ
ä»İæł¹æľ¬ä¸ĬæĶ¹åıĺäºĨ æĪĳä»¬å¯¹
çŁŃ æļĤ
å¤§è§Ħæ¨¡ åºĶçĶ¨
åĪĨç±» ä½ĵç³»
æĹ¶ç©º æĽ²
äººæľº åħ±çĶŁ
çļĦç¢İçīĩåĮĸ å¤ĦçĲĨ
æĥħå¢ĥ ä¸Ń
æĭĵæīĳéĩıåŃĲè®¡ç®Ĺ åĪ©çĶ¨
çĶ»å»Ĭ ç©ºéĹ´
æĢ§çĸ¾çĹħ çļĦæ²»çĸĹ
å¦ Ļ
ç¨Ģ åľŁ
çº¢ æłĳæŀĹ
å°¼éĩĩçļĦ æ°¸æģĴè½®åĽŀ
æłĳæŀĿ çĬ¶
æĬµ æĬĹ
åıĳæĮ¥ äºĨä½ķç§įä½ľçĶ¨
æĸ°åı¤åħ¸ä¸»ä¹ī å»ºçŃĳ
ç«ĭä½ĵä¸»ä¹īå¯¹å½¢å¼ıçļĦ åĪĨè§£
ä½İæ¸© çģ«å±±æ´»åĬ¨
å¤įåĲĪ æĿĲæĸĻ
æĻļ æľŁ
è°ĥæķ´ä¸º ä¸Ńæĸĩ
è¯Ħä»· æłĩåĩĨ
èĢĥåı¤ åŃ¦
åĬ¨æĳĩ äºĨ
è¯ĨåŃĹ çİĩ
å¦ĤæŀľçĻ¾äº¿äº¿æ¬¡è®¡ç®Ĺ å¾ĹåĪ°å¹¿æ³ĽåºĶçĶ¨
æķ°åŃĹçĽĳæİ§ èµĦæľ¬ä¸»ä¹ī
å°¤ ä¸º
åħ±ä»· éĶ®
ç²ĴåŃĲåľ¨è¢«æµĭéĩı åīį
æ¯« ç±³
åį³åı¯ è¯ĨåĪ«
èį£ æł¼
è½¨éģĵå¤ªéĺ³èĥ½åıĳçĶµ ç«Ļ
åĩŃ åĢŁ
è´¹ç±³ æĤĸè®º
çļĦåŁºåĽłç»Ħ ä¿®é¥°
ç¢± åŁº
ç¾İæľ¯ é¦Ĩ
éŁµ å¾ĭ
åı¯è¯» æĢ§
èĻļæĹł ä¸»ä¹ī
æĬĦ æľ¬
çŃīç¦»åŃĲä½ĵå°¾ æ³¢
1 7
u re
é ½
Ġ ä¿ĿçķĻ
çļĦ æĵįæİ§
çļĦ äº¤æĺĵ
çļĦ å¹»çģŃæĦŁ
å¼ Ł
ä» ĺ
åĮ ¿
åľ¨ ä½ķç§į
ä¸İ åĲİ
ä¸İ äººå·¥æĻºèĥ½
ä¸İ æ²¹çĶ»
ä¸İ ç»ĵæŀľä¸»ä¹ī
éĢļè¿ĩ æĶ¹åıĺ
éĢļè¿ĩ æıŃç¤º
éĢļè¿ĩ åħ¶
åı¯ è§ģ
èĢ ¶
å¦Ĥä½ķ èĥ½å¤Ł
å¦Ĥä½ķ æĶ¹åıĺ
æŀĦ æĥ³
æ¨¡ åĿĹ
æİ ī
æĪĲ éķ¿
æĬĢ èīº
åľ° è¡¨
å½¢ å¡ĳ
å¦Ĥæŀľ åħ¨æģ¯
é¢ Ĺ
åı¯èĥ½ è§£éĩĬ
çĽ¸ åĲĮ
çĽ¸ çŁĽçĽ¾
å·¥ èµĦ
è½ ´
æĽ´ å®Įæķ´
çī¹ çļĦ
çķ ´
æĿ¥ èĩª
æĿ¥ è§ĦèĮĥ
æıĲ åıĸ
ç² Ĺ
èĮĥ çķ´
åıį ä¹ĮæīĺéĤ¦
å°Ĩå¦Ĥä½ķ éĿ©æĸ°
å¼ºè°ĥ éĢļè¿ĩ
åĳ½ é¢ĺ
æ¬ ¢
æ¬ ¾
è¢« æ¯ģ
ç©º æ°Ķ
åĽ¾ çģµ
æŀģ å¤§
æ®ĸæ°ĳ æī©å¼ł
æīĭ æĬĦæľ¬
æĹł å¤Ħ
åıĳçĶŁ åľ¨
å¤ĦçĲĨ æķ°æį®
ä¸ĵä¸ļ æĢ§çļĦåĲĮæĹ¶
æĮģç»Ń åŃĺåľ¨çļĦ
åĵ²åŃ¦ ä¸İ
åķ Ĭ
å¹´ éī´
æĻº åķĨ
èĥ½å¤Łå®ŀçİ° ç²¾åĩĨ
æĴ ĳ
åĨľä¸ļ å®ŀè·µ
æĶ¿æ²» çİ°å®ŀ
åı² è¯Ĺ
æĶ¶ çĽĬ
æĶ¶ ç¼©
è·¨ å¤§éĻĨ
æµ·æ´ĭ çĶŁæĢģç³»ç»Ł
æµ·æ´ĭ çĶŁçī©å¤ļæł·æĢ§
æµ·æ´ĭ çĶŁçī©çļĦ
éĢī ä¸¾
ä½İ ä¼°
æıĲåĩº çļĦ
æĪĳä»¬ çļĦ
èī²å½© æĬ½è±¡
åĬ³åĬ¨ ä»·åĢ¼
æ°¸ä¹ħ æĶ¹åıĺ
è®¤è¯Ĩè®º ä¸ĬçļĦ
ä¸ī åįģå¹´åĨħ
æŀĦæĪĲ ä¸»ä¹ī
çŁĽçĽ¾ åľ°
åıĺå¾Ĺ è¿ĩæĹ¶
å¾Ħ æµģ
åĬŁèĥ½ æĢ§
åĽ½éĻħ å¤ĸäº¤
æĶ¯ æĴĳ
è¿ģ ç¦»
å¤ªéĺ³èĥ½ çĶµç«Ļ
çĶ² åŁº
æĤ²åī§ æĢ§
è§Ĩè§ī æ··åĲĪ
è¾¾åĪ° åīįæīĢæľªæľīçļĦ
æł¸å¿ĥ æ¦Ĥå¿µ
æĽ¿ä»£ çĽ´è¯ĳçļĦ
æĸĩçĮ® çļĦ
å¥¥ æĸ¯
it h
æĶ¿åºľ æĶ¯åĩº
ä¸Ŀç»¸ä¹ĭè·¯ çļĦ
ä¸Ńå¤®éĵ¶è¡Į ä½ĵç³»
çīĪ æĿĥ
æ¬§æ´²ä¸Ńå¿ĥ ä¸»ä¹ī
çŁ³å¢¨çĥ¯ çļĦ
è¶ĭäºİ ç¨³å®ļ
è·¨æĸĩåĮĸ æĬĢæľ¯
å¯¹çĲĨæĢ§éĢīæĭ© æ¨¡åŀĭæıĲåĩºäºĨæĮĳæĪĺ
æķ°æį®ä¼łè¾ĵ éĢŁåº¦
èĲ¨ åĲĮçĽŁ
å®¹éĶĻ çļĦéĩıåŃĲæ¯Ķçī¹
æ±ī èĲ¨åĲĮçĽŁ
æķħ äºĭ
æµ® æ¸¸
é¾ Ļ
æĽ´é«ĺçļĦèĥ½éĩıå¯Ĩåº¦ åĴĮ
æĭľåįłåºŃéķ¶åµĮ çĶ»
çĶŁæ®ĸ ç»Ĩèĥŀ
æ¶Īè§£ äºĨ
æº¶èļĢ ä½ľçĶ¨
ab le
ne ur
æĵįä½ľæĢ§ æĿ¡ä»¶åıįå°Ħ
åĮºåĿĹéĵ¾çļĦä¸įåı¯ç¯¡æĶ¹ çī¹æĢ§
æ¡£ æ¡Ī
æ´ŀç©´ ç³»ç»ŁåĴĮ
çŁ³å¢¨çĥ¯çĶŁäº§ å®ŀçİ°
æĭĴ æĸ¥
tur es
èķ ¾
çİ°ä»£è´§å¸ģ çĲĨè®º
æĢ§çĬ¶ ä¼łéĢĴ
å¾·æĢ§ ä¼¦çĲĨåŃ¦
çģ¾ éļ¾
éĩıåŃĲéĢĢçĽ¸å¹²çĲĨè®ºéĢļè¿ĩ çİ¯å¢ĥçĽ¸äºĴä½ľçĶ¨
çī¹å®ļåľºåŁŁ è£ħç½®èīºæľ¯
ä¸İå®Įåħ¨ç«ŀäºī æ¨¡åŀĭä¸įåĲĮ
åĢº åĬ¡
éĤ» è¿ĳ
èĩŃ æ°§
éħ¶ä¿ĥ åıįåºĶ
ç¬¬åĽĽæ³¢ å¥³æĢ§ä¸»ä¹ī
æľĭ åıĭ
æľīåĪ« äºİ
e x
h y
çļĦ äºĭ
çļĦ è¿ĩç¨ĭ
çļĦ éľĢæ±Ĥ
åĲ Ľ
åľ¨ æĬĢæľ¯
ä¸» äºº
æĬ ±
çĶ¨ ä»¥
å¦Ĥä½ķ åĬłåī§
ä¸į å¯¹ç§°
åį ·
åĲĮ ä½į
å®ŀçİ° åķĨä¸ļåı¯è¡ĮæĢ§
å¦Ĥæŀľ å°Ĩ
å¦Ĥæŀľ äººå·¥æĻºèĥ½
å¦Ĥæŀľ ç¤¾äº¤åªĴä½ĵç®Ĺæ³ķ
çĽ¸ åĨ²çªģ
ä¸ŃçļĦ ç®Ĺæ³ķåģıè§ģéĢļè¿ĩ
çŃ ¾
ç³»ç»Ł çĸ¾çĹħ
éĩį å¤į
åĲİ åĩ¯æģ©æĸ¯ä¸»ä¹ī
æĭ į
çĶŁçī© åľĪ
ä»¥ ä¸º
æĽ´ å¹¿æ³Ľ
æĸ° çŁ³åĻ¨
éľ į
åĵªäºĽ åľ°ç¼ĺæĶ¿æ²»
æĿ¥ è§£åĨ³
ä½¿ ä¸Ńæĸĩ
è· Ł
ä¼¦çĲĨ åĨ³çŃĸ
ä¸Ģ æĪĺåĲİ
è¯ģ ä¼ª
æ¨¡åŀĭ åľ¨
æ¨¡åŀĭ ä¸İ
åľº åĬłéĢŁ
åºĶçĶ¨ ä¸ŃçļĦ
å°Ĩå¦Ĥä½ķ è°ĥåĴĮ
åĨħ å¿ĥ
æ¡Ĩæŀ¶ ä¸ĭ
ä¸ĸ ä¿Ĺ
ç²¾ ç»Ĩ
ä»İ éĩįåķĨä¸»ä¹ī
èĢĮéĿŀ ç®Ģåįķ
æİ¨ æµĭ
é«ĺ æ¸©
è¯Ńè¨Ģ éľ¸æĿĥ
èĦ Ĭ
æĹ¶éĹ´ é¡ºåºı
é¢Ħ è§ģ
æ³¢ æµª
è¿Ľè¡Į æ¯Ķè¾ĥ
åŁİ éĤ¦
å¤ĦçĲĨ éĢŁåº¦
æ³Ľ æ»¥
åĲĳ ç»ıåħ¸
äºĮ åįģå¹´åĨħ
æŃ£ æĺ¯
æĺ¯åĲ¦ èĥ½å¤Ł
åĨľä¸ļ çĶŁäº§åĬĽ
çĶŁäº§ æĪĲæľ¬
ä¹ĭéĹ´çļĦ åĨ²çªģ
ä¹ĭéĹ´çļĦ çķĮéĻĲ
æŀ¶æŀĦ éĢļè¿ĩ
çĬ¶ åĨµ
å¿ĥçĲĨ çİ°å®ŀä¸»ä¹ī
èĥ½æºĲ çĶŁäº§
è·¨ æĴĴåĵĪæĭī
æĸĩæľ¬ åĪĨæŀĲ
æĸĩæľ¬ æĦıä¹ī
æĸ¹éĿ¢ ä¸İ
èµĦæºĲ æŀ¯ç«Ń
æĹ¢ æľī
çĲĨæĢ§ é¢ĦæľŁ
å°½ç®¡ åħ¨çĲĥåĮĸ
è§£æŀĦ ä½ľèĢħæĦıåĽ¾
çī¹å¾ģ çļĦ
åĪĨå¸ĥ æ¨¡å¼ı
éªĮè¯ģ æľºåĪ¶
ä¸ĬçļĦ æĺ¾èĳĹå·®å¼Ĥ
åĩłä½ķ å½¢æĢģ
æķ£ çĥŃ
ç²¾ç¡® åº¦
æĮĳæĪĺäºĨ æĸĩèīºå¤įåħ´æĹ¶æľŁ
å¤§éĻĨ åľ°å£³
èĪ ŀ
éĿ¢ä¸´ æĮĳæĪĺ
éĻĲåĪ¶ äºĨ
åħ·å¤ĩ ç»ıæµİåı¯è¡ĮæĢ§
æĿĥåĬĽ æĦıå¿Ĺ
tion al
åł ª
è¯»èĢħ åıįåºĶ
çº³ç±³ ç»ĵæŀĦ
åİŁåŃĲ ç²¾åº¦
èĩªçĶ± å¸Ĥåľº
æ²³æµģ æ²īç§¯ä½ľçĶ¨
èĩªæĪĳ è°ĥèĬĤ
å¸¦æĿ¥ åĵªäºĽ
èħ »
çĶ²çĥ· æİĴæĶ¾
å®ĥä»¬ å°Ĩ
æįŁ å¤±
åŁºåĽłç¼ĸè¾ĳæĬĢæľ¯ éĢļè¿ĩ
è¯Ńå¢ĥ ä¸Ń
é¢ĳ è°±
è´¢æĶ¿ åĪºæ¿Ģ
å®ıè§Ĥ ç»ıæµİ
çļĦç¤¾ä¼ļ ç»ıæµİ
ä¸İåĬŁåĪ©ä¸»ä¹ī ä¼¦çĲĨåŃ¦ä¸įåĲĮ
ç¥ŀç»ıåı¯å¡ĳæĢ§ çłĶç©¶
åįļå¼Īè®ºåľ¨ è¡Įä¸ºç»ıæµİåŃ¦
åħ³éĶ® æľŁ
çĻ¾äº¿äº¿æ¬¡ çº§
è¾© è®º
å¹²æĹ± åľ°åĮºçļĦ
èİİå£«æ¯Ķäºļ æĪıåī§
äº² å±ŀ
è¾¾å°Ķ æĸĩ
è§Ħæ¨¡åĮĸ åºĶçĶ¨
åľ°å¹Ķ å¯¹æµģ
äºļéĩĮå£«å¤ļå¾· çļĦ
é£Łçī© éĵ¾
æĢģåº¦ è°ĥæķ´
æĥħæĦŁåħ±é¸£ èĢĮéĿŀ
åģľ æŃ¢
åĨ·åĨ» çĶµåŃĲæĺ¾å¾®éķľ
æ²¹çĶ»é¢ľæĸĻçļĦåıĳæĺİ ä½¿
æ²¹çĶ»é¢ľæĸĻçļĦåıĳæĺİ ä½¿å¾Ĺ
ä¸Ńå¾®åŃĲ æĮ¯èį¡
æĬķæľº æĢ§
è¯ĨåŃĹ çİĩçļĦ
æĥħç»ª è°ĥèĬĤ
åħ·ä½ĵ æĥħå¢ĥ
å¼ķåĬĽéĢıéķľ è§Ĥæµĭ
éĿŀä¾µåħ¥ å¼ı
è¡°èĢģ çĸĹæ³ķ
ä»¥æŃ¤ æī¹åĪ¤
æº¶è§£ä½ľçĶ¨ åıĳèĤ²
è®¤è¯Ĩè®ºå»ºæŀĦä¸»ä¹ī ä¸»å¼ł
ä¸įä»ħ ä¿ĥè¿ĽäºĨ
ç¬¬ä¸Ģ æ¬¡ä¸ĸçķĮå¤§
åİŁåĪĽ æĢ§
ä¹ĭéĹ´çļĦä¼łç»Ł çķĮéĻĲ
æķ£æĸĩ ä¸įåĲĮ
åľ¨éģĵå¾·åĨ³çŃĸ ä¸Ń
è¢«ç¼ĸçłģåľ¨ äºĮç»´è¡¨éĿ¢ä¸Ĭ
é»ı åº¦
èĩ³ä»Ĭ ä»į
å®ĩå®ĻåŃ¦ä¸ŃçļĦ äººæĭ©åİŁçĲĨ
èĤ¯ å®ļ
åħ¬éĴ¥ åŁºç¡Ģè®¾æĸ½
è¢«æľĢç»Ī è¯ģå®ŀ
åħĭéĩĮå¥¥å°Ķ è¯Ń
å¹³æµģ å±Ĥ
æĹłå¤Ħ ä¸įåľ¨
i d
m RNA
o us
Ġ tr
Ŀ åħī
ä¸ ĺ
çļĦ æľºåĪ¶
çļĦ ç»ĵæŀľ
çļĦ åľ°è´¨
çļĦ åĪĽä½ľ
çļĦ é£İéĻ©
çļĦ è¯Ŀ
çļĦ ç¬Ķè§¦
çļĦ æľ¬ä½ĵè®º
çļĦ äºīè®º
çļĦ åĽºæľī
åħ Ħ
è¿ ·
çİ ©
åľ¨ éģĵå¾·
åľ¨ è¿ĳä»£æĹ©æľŁ
ä¸Ń ç¾İæ´²
æķ ĳ
ä¸İ æķ°åŃĹ
ä¸İ å¯¹ç§°
åĩ ¿
èĢ ķ
ä¸º äºĨ
ä¼ļ éĻįä½İ
ä¼ļ æįŁå®³
åĬ¨ ä½ľ
çº ¬
å®ŀçİ° è´ŁæĬĺå°Ħçİĩ
å¦Ĥæŀľ è¶ħæĿĲæĸĻ
å¦Ĥæŀľ éĢļçĶ¨äººå·¥æĻºèĥ½
åĪ¶ ä½ľ
åĪ¶ åĽ¾
æĬĢæľ¯ èİ·åıĸ
ç³»ç»Ł èĥ½å¤Łå®ŀçİ°
è§£ ä½ĵ
æ¯Ķ çĽ´è¯ĳ
åĲİ èĢħ
æķĪ çĽĬ
æĦı æ¶µ
æĭ ¿
éĩıåŃĲ çĤ¹
æĽ´ åĩĨç¡®
ç»ıæµİ å¢ŀéķ¿
çĶµ åĮĸåŃ¦
æĿ¥ è°ĥåĴĮ
ç¡® åĩ¿
ç±» åĻ¨å®ĺ
è¾¾ æĪĲ
ç´ «
ä¼¦çĲĨ äºīè®®
ä¸Ģ æŃ¥
éļ Ĩ
ç½ĳç»ľ ä¸ŃçļĦ
åĽ½ åĨħ
æĸĩåŃ¦ ä¸Ń
äººç±» åŁºåĽł
ä¸ĭ æĿ¥
ä¸ĭ ä¸Ģä»£
è®¤çŁ¥ éļĲç§ģ
æķ°åŃĹ è¿ŀæİ¥
æ°´ çĶŁ
èĢĮéĿŀ åŃĹéĿ¢
èŀį èµĦ
åı¯èĥ½ä¼ļ åľ¨
çĶŁæĢģ åĲİæŀľ
æĸĩåĮĸ åĲĮåĮĸ
çªģ æĺ¾
éģĵå¾· è§ĦåĪĻ
è£ ģ
åŁİå¸Ĥ å¤±èĮĥ
æķ°æį® å®īåħ¨
ç§ĳåŃ¦ æĸ¹æ³ķè®º
æĮģç»Ń æĹ¶éĹ´
åĵģ å¾·
æ³¨ åħ¥
æķĻ ä¹ī
å¾ģ æĶ¶
èĥ½åĲ¦ ä¸İ
éĩįæĸ° å®¡è§Ĩ
ti v
ti es
åħ± äº«
éĹ®é¢ĺ ä¸Ĭ
çĽ´æİ¥ å¯¼èĩ´
ä¸»å¼ł éĢļè¿ĩ
æµ·æ´ĭ çĥŃéĩıåĪĨå¸ĥ
é¡ ¾
éĥ¨ ä»¶
çĹ Ľ
åĽłç´ł ä½¿å¾Ĺ
èµĦæºĲ æ¶ĪèĢĹ
éĩĳ æľ¯
æĪĳä»¬ åľ¨
æļĹ èĥ½éĩıçļĦ
ä¸¤ èĢħ
å·¥ç¨ĭ æĬĢæľ¯
æ²³ éģĵ
åĽ½å®¶ çļĦ
æ·· åĩĿ
en ce
æĸĩæĺİ ä¹ĭéĹ´
æĽ´ä¸º å½»åºķ
éĶĻ ä½į
äººåı£ èĢģé¾ĦåĮĸ
æľīæľĽ éĢļè¿ĩ
æŃ¤ ç±»
ä»ĭ åħ¥
ç»ıéªĮ ä¸»ä¹ī
åľ°ç¼ĺæĶ¿æ²» å½±åĵį
å¸¦æĿ¥ äºĨåĵªäºĽ
åĨĻ ä½ľ
é» Ħ
å®¡ æŁ¥
ä¸ĢæĹ¦ éĩıåŃĲ
æľīä½ķ æľ¬è´¨åĮºåĪ«
è¯Ńè¨ĢåŃ¦ è½¬åĲĳ
çĪ ¸
è¶ħèĩªçĦ¶ éļĲåĸ»
å·¥ä¸ļéĿ©åĳ½ æĹ¶æľŁçļĦ
æĪĺçķ¥ æĢ§
éĿł è¿ĳ
ä¾¿ ä¼ļ
å®¤æ¸© è¶ħå¯¼
åĮºåĿĹéĵ¾çļĦ åİ»ä¸Ńå¿ĥåĮĸ
è½¦ è¾Ĩ
çĽĳç®¡ æĮĳæĪĺ
è®°å¿Ĩ å·©åĽº
æİ¢æµĭ åĪ°
èĭ± æĸĩ
å¤§è§Ħæ¨¡ çºłéĶĻ
çİ°ä»£ä¸»ä¹īæĸĩåŃ¦ çļĦç¢İçīĩåĮĸåıĻäºĭ
åĵĪ å¾·
è·¨ä»£ çİ¯å¢ĥ
ä¸¥æł¼ éģµå¾ª
æ¬§æ´²ä¸Ńå¿ĥ ä¸»ä¹īçļĦ
éĢłæĪĲ äºĨ
æĢ» éľĢæ±Ĥ
tic al
ç¥ŀç»ıå½¢æĢģèĬ¯çīĩ éĢļè¿ĩ
ç»ıæµİä½ĵ ä¸ŃçļĦ
æµģåĬ¨æĢ§ åģıå¥½
æĺŁç³» åĽ¢
æ¿ĢåĬ± æľºåĪ¶
æĹłæĦı éĹ´
ç½ĳç»ľç¤¾ä¼ļ çĲĨè®ºè®¤ä¸º
åı¯æıŃç¤º äºĮèĢħåľ¨
de l
å±ı éļľ
å¤ļåħĥ åĮĸ
èıĮ ä¸Ŀ
åŁİå¸ĤåĮĸ æ¨¡å¼ı
æĽ²çº¿ åĽ¾
ä¾Ľç»Ļ ä¾§
å¤©åŁº å¤ªéĺ³èĥ½åıĳçĶµ
è¯Ńè¨ĢçĽ¸å¯¹è®º åģĩè¯´
çĽ¸ä¼¼ æĢ§
äºĴèģĶç½ĳ åįıè®®
éľĢè¦ģè¿Ľè¡Į æĢİæł·çļĦ
çºµ åĲĳ
åıĺè´¨ å²©
å¦Ĥæŀľå®ŀçİ°äºĨ éĩıåŃĲéľ¸æĿĥ
å¦ĤæŀľåĲĪæĪĲçĶŁçī©åŃ¦ èĥ½å¤Łå®ŀçİ°
æķĪçĶ¨ æľĢå¤§åĮĸ
èĴ¸æ±½ æľº
åĬŀ åħ¬
åľ¨åľ°è´¨æĹ¶éĹ´å°ºåº¦ ä¸Ĭ
ä¹ĭå¤Ħ åľ¨äºİ
ä¿¡çĶ¨ ä½ĵç³»
çĤ¼ éĩĳæľ¯
ä¼łåħ¥ æ¬§æ´²
çĲĨè®ºçī©çĲĨåŃ¦ä¸ŃçļĦ åħ¨æģ¯åİŁçĲĨ
æĦıæĥ³ä¸į åĪ°çļĦ
é¡¶çº§ æįķé£ŁèĢħ
è¿¥ å¼Ĥ
æŃ£å½ĵ æĢ§
åĲĮä½į ç´ł
æ··åĩĿ åľŁ
a u
f ic
s e
Ġ éĢ»è¾ĳåħ³ç³»
Ħ æŃ¦
çļĦ å½¢å¼ı
çļĦ è®¾è®¡
çļĦ å·¥ä½ľ
çļĦ ä¸įæĸŃ
çļĦ çľŁå®ŀæĢ§
çİ ĦæŃ¦
åĬ ª
è¯ ļ
æĢ§ çī¹å¾ģ
å° ¸
åľ¨ ä¸Ģä¸ª
ä¸Ń å½¢æĪĲ
åĮĸ èĥ½
ä¸İ éĩıåŃĲ
ä¸İ çİ°ä»£ä¸»ä¹ī
ä¸İ åı¤åħ¸
ä¸İ éĩįåķĨä¸»ä¹īæĶ¿çŃĸ
ä¸İ ä½ĽæķĻ
æĬ ¬åįĩ
éĢļè¿ĩ è¿ĲçĶ¨
å¯¹ åħ¶
ä¸º çİ°ä»£
è¾ «
ä¼ļ å½±åĵį
å· ¦
ä¿ Ħ
çº ¤
çº ¸
æĹ¶ ä¼ļ
åľ° æĶ¹åıĺ
å®ŀçİ° ç²¾åĩĨ
å®ŀçİ° ä»·æł¼
ç¤ ģ
è° Ĳ
å¦Ĥæŀľ ä½ł
å¦Ĥæŀľ äººå·¥åħīåĲĪä½ľçĶ¨
åĬĽ äºİ
çŁ ©
åŁº çŁ³
çŃ Ķ
æķ° åįĥå¹´
è¶ £
æĸ¹ è¨Ģ
éĩį åĬĽ
è¯Ń éŁ³
ç¤¾ ç§ĳ
åħ³ éĩįè¦ģ
æľŁ å¾ħ
èĭ¥ æ³Ľå¿ĥè®º
æĽ´ å¤ļ
çī¹ æĢ§çļĦ
ç»ıæµİ çĶŁäº§åĬĽ
åĵªäºĽ çĶŁçī©
æĿ¥ æŀĦå»º
å¤į æ´»
å¤į èĭı
åģ ¿
æĪĳ æĺ¯
æĪĳ æĥ³
ä¸Ģ äºĽ
ä¸Ģ ä¸ĭ
æİ¥ åħ¥
è½¬ åŁºåĽł
èĥ½å¤Ł å¯¹
çĥ §
åıĻäºĭ æĬĢå·§
åıĻäºĭ æĿĥå¨ģ
æĦıè¯Ĩ ç»ıéªĮ
è®¤çŁ¥ èĥ½åĬĽ
å¸¸ è¿ĲçĶ¨
æ· ¹
è¿Ļ ä¹Ī
ç»´ ä¹Ł
æīĢ èĩ´
å¡ Į
æł¼ å¼ı
çĶŁæĢģ å¥³æĢ§ä¸»ä¹ī
å¤ĸ çº¿
åºķ çĽĺ
èī² è°ĥ
çĥŃ åĸĢæĸ¯çī¹
æĹł äººæľº
åŁİå¸Ĥ ç²®é£Łå®īåħ¨
å®ĩå®Ļ è®º
çľŁ çļĦ
åĬłå¯Ĩ ä¸įåĲĮ
æ¶Ī éĢĢ
å¾® æ°ĶåĢĻ
èº« å¿ĥ
æĺ¾èĳĹ çĽ¸åħ³æĢ§
çº³ ä¼ļè®®
æł¸ åıįåºĶåłĨ
åĽłç´ł ä¿ĥæĪĲäºĨ
æ·± åħ¥
è¡¡ éĩı
é©±åĬ¨ åĽłç´ł
è®¾è®¡ ä¸Ń
ä¸¤ ä¸ª
å¨ ľ
æĬ½è±¡ è¡¨çİ°ä¸»ä¹īçļĦ
åĪĨå¸ĥ çļĦ
å¾ĹåĪ° è¯ģå®ŀ
ä¸ĬçļĦ å·®å¼Ĥ
ä½¿çĶ¨ æĹ¶éĹ´
åŃ¦æľ¯ æĸĩæľ¬çļĦ
åĽŀ å¼¹
æĸĩæĺİ çļĦ
æĽ´ä¸º ä¸¥æł¼
åħ·å¤ĩ åķĨä¸ļåı¯è¡ĮæĢ§
ç»Ĩ èĬĤ
æĽ´é«ĺ æķĪ
åº· å®ļ
ç«ĭä½ĵ æ´¾
ä¸ºä½ķ åľ¨
çº³ç±³ å°ºåº¦
ä¾µèļĢ ä½ľçĶ¨
èĢĹ æķ£
ç»ıéªĮ è§Ĥå¯Ł
ç§ĳæĬĢ æĸĩæľ¬çļĦ
èĩªçĶ± éĹ´æİ¥
å¾Ģå¾Ģ éĢļè¿ĩ
å¾®çĶŁçī© çĶŁåĳ½
ç¡®è®¤ åģıå·®
èĩ³ åħ³éĩįè¦ģ
è¾¾åĪ° ä¸´çķĮ
çģµ éķ¿
æ²»çĲĨ æ¨¡å¼ı
è§Ĥæµĭ åĪ°çļĦ
ç¾İåŃ¦ åİŁåĪĻ
æĺŁéĻħ æİ¨è¿Ľ
ä¸»æµģ åºĶçĶ¨
å®ŀä½ĵ æĺ¯åĲ¦åºĶ
åľ°å½¢ éĻįæ°´
åľ¨å¤ļå¤§ç¨ĭåº¦ä¸Ĭ å½±åĵįäºĨ
æĪĲåĬŁ å®ŀçİ°
éĩıåŃĲåıłåĬł åİŁçĲĨ
è·¨ä»£ è¡¨åŀĭ
åľ°ä¸ĭ æİĴæ°´ç³»ç»Ł
ç´§ å¼ł
åŁºåĽłç»Ħ ç¼ĸè¾ĳ
åĲİæ®ĸæ°ĳåıĻäºĭ å¸¸åĢŁåĬ©æ··æĿĤ
æ¸ħ æ´ģ
åĪĨåŃĲçº³ç±³ æĬĢæľ¯å®ŀçİ°
çļĦåĨľä¸ļ å®ŀè·µ
æİ¨çĲĨ èĥ½åĬĽ
æĦŁå®ĺ çŁ¥è§ī
ç¤¾äº¤åªĴä½ĵç®Ĺæ³ķéĢļè¿ĩ ä¸ªæĢ§åĮĸåĨħå®¹
å¤ļä¸ª è§Ĩè§Ĵ
çļĦè¡¨è¿° ä¹łæĥ¯
å®¹éĶĻ èĥ½åĬĽ
Ġæķ´ä½ĵ éĩĩçĶ¨
éĢıè§Ĩæ³ķ çļĦè§£æŀĦ
å¼¹ æĢ§
è¯Ńæ³ķ ç»ĵæŀĦ
ç³»å¤ĸè¡ĮæĺŁå¤§æ°Ķåħīè°± åĪĨæŀĲæ£ĢæµĭåĪ°
å¦ĤæŀľèĦĳæľºæİ¥åı£å®ŀçİ° ç¥ŀç»ıåħ±çĶŁ
çļĦç²¾åĩĨ æĵįæİ§
å¤§å¹ħ åĩıå°ĳ
æī§è¡Į åĬŁèĥ½
åı¯ç¼ĸç¨ĭ çī©è´¨
åĤ¨èĵĦ è¡Įä¸º
ä»»åĬ¡ ä¸Ń
éĩıåŃĲçĶŁçī©åŃ¦ çłĶç©¶
é¢łè¦Ĩæ¬§æ´²ä¸Ńå¿ĥ ä¸»ä¹ī
å¤ļéĩį è§Ĩè§Ĵ
åħ¬åı¸æ²»çĲĨ ä¸ŃçļĦ
Ġe ff
å¥ĩå¹»åħĥç´ł ä¸İ
éĽ¨ æŀĹ
éĽĨä¸Ńå¼ı äºĳ
åĲ¯åıĳ çļĦ
èģļåıĺåıįåºĶåłĨ ä¸ŃçļĦçŃīç¦»åŃĲä½ĵçº¦æĿŁ
è®¤è¯Ĩè®ºå»ºæŀĦä¸»ä¹ī è®¤ä¸º
æł¡ åĩĨ
åī¥ å¤º
èĩªèº« åħįçĸ«
å±ıå¹ķ ä½¿çĶ¨æĹ¶éĹ´
äººä½ĵ åĨ·åĨ»
å®ŀçİ°åħ¨çĲĥ éĥ¨ç½²
èĲ½æ°´æ´ŀ åĴĮ
èĥ¶ åŃĲ
æĶ¾å¤§äºĨ ç¡®è®¤åģıè¯¯
èĽĭçĻ½è´¨ æĬĺåıł
è¿ĩç¨ĭç»´æĮģ çĿĢ
ä¸Ļçĥ¯ é¢ľæĸĻçļĦåıĳæĺİ
è½¨éģĵçİ¯ ç³»ç»Ł
å¾®æ³¢ ä¼łè¾ĵ
è§¦è§ī åıįé¦Ī
å¤§ä¼Ĺ åĮĸ
æĸ°èīºæľ¯è¿ĲåĬ¨ çļĦæľīæľº
å¤§æ°Ķä¸ŃçļĦ äºĮæ°§åĮĸç¢³
è¡Įä¸ºç»ıæµİåŃ¦éĢļè¿ĩå°Ĩè®¤çŁ¥åģıå·® çº³åħ¥
å¥ĸ åĬ±
å¿ĥçĲĨåŃ¦æ´ŀè§ģ èŀįåħ¥
åŃ¦éĻ¢æ´¾ ç»ĺçĶ»
å¤§æ°Ķä¸Ń äºĮæ°§åĮĸç¢³
å°¼éĩĩçļĦè§Ĩè§Ĵ ä¸»ä¹ī
åĨ°åį«æĺŁä¸ĬçļĦ ä½İæ¸©çģ«å±±æ´»åĬ¨
æ¸Ĺ éĢı
çľŁæł¸çĶŁçī© åŁºåĽłç»Ħ
åīįé¢Ŀåı¶ çļ®å±Ĥ
éĩĩåıĸäºĨ æĪªçĦ¶ä¸įåĲĮçļĦ
çĹķ è¿¹
æ¨¡åĿĹ åĮĸ
ä¸»äºº åħ¬
çº¬ åº¦
ç»´ä¹Ł çº³ä¼ļè®®
" ãĢģ"
G D
g y
¶ å£ģ
Ġ te
Ġ ar
ĵ æ»´
ł éģĵ
çļĦ æĹł
çļĦ éĢŁåº¦
çļĦ æłĩåĩĨåĮĸ
çļĦ å¿«éĢŁ
çļĦ è§£è¯»
çļĦ æĭħå¿§
çļĦ å®ŀæĹ¶æ°ĶåĢĻå»ºæ¨¡
æĢ ª
åľ¨ å¯¹
åľ¨ çİ°ä»£
åľ¨ ç©ºéĹ´
ä¸İ ç©ºéĹ´
ä¸İ åĩ¯æģ©æĸ¯ä¸»ä¹ī
ä¸İ å¹¿ä¹īçĽ¸å¯¹è®º
ä¸İ åĮħè±ªæĸ¯
ä¸İ äºĳç«¯
ä¸º åŁºç¡Ģ
å°Ĩ åı¯èĥ½
æī ¶å£ģ
ç§ Ĵ
åºĶ è¯¥
åıĺ å¼Ĥ
å¦Ĥæŀľ åĨ³å®ļè®º
å¦Ĥæŀľ åįĹæŀģ
å¦Ĥæŀľ äººç±»å¯¿åĳ½å»¶éķ¿
åĬĽ åº¦
åı¯èĥ½ æľĢç»Ī
çĽ¸ åºĶ
ä»£ è¡¨
æĽ Ŀåħī
ä½ľ ä¸ļ
ç³»ç»Ł åĮĸ
èĢĮ çİ°ä»£ä¸»ä¹ī
å¤§ è¥¿
ä¸įåĲĮ æĸĩåĮĸ
çĲĨè®º æ¨¡åŀĭ
æķĪ èĥ½
æĪĺ æľ¯
èĩª ç»Ħç»ĩ
ä»¥ æī¹åĪ¤
æĽ´ æĹ©
æĽ´ ç²¾ç¡®
å½±åĵį åĬĽ
æĸ° èĩªçĶ±ä¸»ä¹ī
ç»ĵæŀĦ ä¸Ń
èīºæľ¯ å®ŀè·µ
ä¿Ŀ åģ¥
è¦ģ æĺ¯
åģ ¶
éĺ ±
éĺ ħ
ä½ľçĶ¨ åĬĽ
éª ĳ
è¾ĥ ä¹ĭ
æĸĩåŃ¦ ä¼łç»Ł
æµĭ ç»ĺ
æĦıè¯Ĩ çĲĨè®º
ä¸ĭ æĸ¹çļĦ
æ¶ ĵæ»´
ç²¾ å¿ĥ
è¿Ĳ æ°Ķ
æķ°åŃĹ ç¤¾ä¼ļä¸ŃçļĦ
èĢĮéĿŀ çĽ´è¯ĳ
äºļ æ´²
æİ¨ å´ĩ
æ®ĸæ°ĳ åĮĸ
éģĵå¾· è¿Ĳæ°Ķ
ä¸ĵä¸ļ é¢ĨåŁŁ
åı¤ å¸ĮèħĬ
ç§ĳåŃ¦ çŁ¥è¯Ĩ
åŁºç¡Ģ æĢ§
æķĻ åłĤ
ä¿¡æģ¯ åŃĺåĤ¨
ç¢³ æİĴæĶ¾
çĶŁäº§ æĸ¹å¼ı
éĩįæĸ° æł¡åĩĨ
ä¹ĭéĹ´çļĦ çĽ¸äºĴä½ľçĶ¨
æĶ¿æ²» åĵ²åŃ¦
å¿ĥçĲĨ åĽłç´ł
åİĨåı² åĪĽä¼¤
å¤ª èµ«
èĬĤ å¥ı
åįı åĲĮ
æĪĲä¸º å¸¸è§Ħ
æĹ¢ å®ļ
æļĹ èĥ½éĩı
çĽ¸å¯¹ æĢ§
éĢĤåºĶ èĥ½åĬĽ
åŃ¦æľ¯ ä¸¥è°¨
çªģçł´ äºĨ
en c
çģ«å±± çģ°
è¡¨è¿° ä¹łæĥ¯
èĪ ¹
åĽŀ å£°
è¿ĺ èĥ½
éķ¿æľŁ åŃĺåľ¨
æĦıè¯Ĩæµģ æĬĢå·§
ç»Ĩ èħ»
ç»´æĮģ çĿĢ
æ¯Ķè¾ĥä¼ĺåĬ¿ çĲĨè®ºéĢļè¿ĩ
å¦Ĥä½ķæĮĳæĪĺ ä¼łç»ŁçļĦ
æ¤į è¢«
çº³ç±³ ç²ĴåŃĲ
åĲİçİ°ä»£ å°ıè¯´ä¸ŃçļĦ
ä½ľèĢħ æĿĥå¨ģ
ä½ľåĵģ ä¸Ń
å®Įæķ´ ä¿ĿåŃĺ
an ce
èħ ¾
å±ŀ äºİ
20 40
èĩªä¸» éĢīæĭ©
å¼ķåĬĽ æķĪåºĶ
çĶ²çĥ· æ°´åĲĪçī©
te d
åıįæĺł åĩº
è½¨éģĵ å¤ªéĺ³èĥ½çĶµç«Ļ
è¿ľ æ´ĭ
åĪĨéħį æľºåĪ¶
æ²īç§¯çī© åłĨç§¯
ç¬¬ ä¸ī
å£° éŁ³
å°ĨéľĢè¦ģè¿Ľè¡Į å½»åºķ
çļĦä¼łç»Ł å®ļä¹ī
æī¿ è®¤
ä»¤ äºº
åĨ²ç§¯æīĩ å½¢æĪĲè¿ĩç¨ĭ
åĶ ¤
éļľç¢į æľīåĵªäºĽ
å±ħ æ°ĳ
éĻ· éĺ±
æ°´æĸĩ ç³»ç»Ł
éĩıåŃĲåıłåĬł ä½¿å¾Ĺ
è´¸æĺĵç½ĳç»ľ çļĦå´©æºĥ
at ter
æķ°åŃ¦ æ¡Ĩæŀ¶
è´§å¸ģä¸»ä¹ī æĶ¿çŃĸ
è·¨ä»£ æĢ§çĬ¶ä¼łéĢĴ
æľªæĽ¾ åıĳçĶŁ
åĲİç»Ń åıĳå±ķ
åĲİæ®ĸæ°ĳæĸĩåŃ¦ å¸¸åĢŁåĬ©æ··æĿĤ
åĶ¯ å¿ĥ
èĭ¥éĩıåŃĲ åĬłå¯Ĩ
è¯Ńè¨Ģç»ĵæŀĦ æĿ¥é¢łè¦Ĩæ®ĸæ°ĳ
åĵ¥çī¹ æĸĩåŃ¦
ä¸»ä½ĵ æĢ§
äº¤éĢļ äºĭæķħ
çļĦç²¾ç¡® æĢ§
ä¸ĵä¸ļåĮĸ åĪĨå·¥
æĭľåįłåºŃåľ£åĥı èīºæľ¯ä¸İ
åį°åĪ·æľ¯ çļĦåıĳæĺİ
é£ŀ æī¶å£ģ
çļĦç»ĵæŀĦ æĢ§
åľ°å¤ĸ çĶŁåĳ½
åĲİå·¥ä¸ļ ç¤¾ä¼ļä¸Ń
åľ°éĿ¢ åı¯åĨįçĶŁèĥ½æºĲ
ä¸İåį°è±¡æ´¾ èī²å½©çĲĨè®º
èįĴæ¼ł åĮĸ
å¦Ĥæŀľæ³Ľå¿ĥè®º èİ·å¾Ĺå®ŀè¯ģæĶ¯æĮģ
ç½ĳç»ľçĲĨè®º åľ¨
å®ĹæķĻæĶ¹éĿ© æĢĿæĥ³
èµ° åĲĳ
çĽĨåľ° ä¸ŃçļĦ
æĭīä¸ģç¾İæ´² æĸĩåŃ¦ä¸ŃçļĦéŃĶå¹»çİ°å®ŀä¸»ä¹ī
ä»ª å¼ı
çĪĨ çĤ¸
å¦ĤæŀľåŁºäºİCRISPRçļĦåŁºåĽłé©±åĬ¨æĬĢæľ¯ è¢«
å¾ªçİ¯ç»ıæµİ æ¨¡å¼ı
ç²ĴåŃĲçļĦ äº§çĶŁ
éĩİçĶŁç§įç¾¤ ä¸Ń
ç»§ ç»Ń
ig h
é«ĺæķĪ çļĦ
ä»įèĥ½ ä¿ĿæĮģ
åī¥ åīĬ
é¢ĳç¹ģ è¿ĲçĶ¨
åŃ£ èĬĤ
åŁİå¸Ĥç»ħå£« åĮĸè¿Ľç¨ĭ
æ²³åı£ çĶŁæĢģç³»ç»Ł
çī¹æĭī åħĭ
åĲİç»ĵæŀĦä¸»ä¹īæĸĩåŃ¦çĲĨè®ºéĢļè¿ĩå¼ºè°ĥ è¯»èĢħ
è¡Įä¼ļ åĪ¶åº¦
çģ«èį¯ ä¼łåħ¥æ¬§æ´²
é¢ĦæµĭæĢ§èŃ¦åĬ¡ ç®Ĺæ³ķ
çĲĨæĢ§è¡Įä¸º èĢħ
å¥łå®ļ äºĨ
ä¸° å¯Į
ç£ģæĤ¬æµ®äº¤éĢļ ç³»ç»Ł
èģļçĦ¦ äºİ
æ´»ä½ĵç»Ħç»ĩ ä¸İ
ç£ģåħ±æĮ¯ æĪĲåĥı
è§£åīĸ åŃ¦
æĹ¶ç©ºæĽ² çİĩ
å°¼éĩĩçļĦæ°¸æģĴè½®åĽŀ æ¦Ĥå¿µ
é½ Ĳ
åĮ¿ åĲį
é¢Ĺ ç²Ĵ
å¹´éī´ åŃ¦æ´¾çļĦ
ä»İéĩįåķĨä¸»ä¹ī åĲĳ
ç´« å¤ĸçº¿
æ·¹ æ²¡
åº·å®ļ æĸ¯åŁº
å¤§è¥¿ æ´ĭ
å¤ªèµ« åħ¹
g e
i on
p os
º ç»ĩ
è ¤
Ġ ä¿ĿæĮģ
çļĦ å¤§æ°Ķ
çļĦ å¤įæĿĤæĢ§
çļĦ ä¸¥è°¨æĢ§
çļĦ ä»»æĦıåŃĲ
åı ³
ä» °
èĥ½ æıĲä¾Ľ
åľ¨ è¡¨çİ°
åľ¨ å¤ĦçĲĨ
çĲĨ æĢ§çļĦ
æĺ Ĩ
çĶŁ éķ¿
æ³ °
å¸ Ī
ä½ĵ ç§¯
ç»ı è¿ĩ
ç»ı åıĹ
ä¼ļ å½¢æĪĲ
ä¼ļ åıĳçĶŁæĢİæł·çļĦ
åıĳ æĢ§
çº ºç»ĩ
äºº ç§°
å®ŀçİ° åı¯ç¼ĸç¨ĭ
ç® ±
åİ Ĥ
å¦Ĥæŀľ éĩıåŃĲè®¡ç®Ĺ
æľī äºº
æĬĢæľ¯ å¾Ĺä»¥
è¿Ľ ä¸ĢæŃ¥
åĲİ ç¨Ģç¼º
ä¸Ĭ ä¸ĭ
æĭ ¬
åĢ ¡
åĩº æĿ¥
åħ³ åĪĩ
ç¥ŀ è¯Ŀ
èĭ¥ åĲĪæĪĲçĶŁçī©åŃ¦
èĭ¥ äººä¸º
èĭ¥ åħ¨æģ¯åİŁçĲĨ
åĽł åħ¶
è§Ĥ èĢħ
åĵªäºĽ å·®å¼Ĥ
åĵªäºĽ è¿ĽåĮĸ
çĶµ éĺ»
æĿ¥ æºĲ
æĿ¥ è¶Ĭ
æĿ¥ é¢łè¦Ĩ
éĿŀ å¸¸
ç¤¾ä¼ļ ä¿¡çĶ¨ä½ĵç³»
èīºæľ¯ å¯¹
èīºæľ¯ ä¼łç»Ł
èīºæľ¯ åı²
æ¡ ¥
è¦ģ çĤ¹
æĪĳ ä¼ļ
ç½ĳç»ľ å¤ĸéĥ¨æĢ§
æ¨¡åŀĭ æıĲåĩºæĮĳæĪĺ
æĸ¯ å®ļçĲĨ
å°Ĩå¦Ĥä½ķ åıĳå±ķ
å¼ºè°ĥ éģĵå¾·
è®¤çŁ¥ è®Ńç»ĥ
æ¬ ²
èĢĮéĿŀ è´¢æĶ¿
ç»´ åº¦çļĦ
åı¯èĥ½ä¼ļ ç»ıåİĨ
å¥ Ĺ
ç¬¦åĲĪ ä¸ŃæĸĩåŃ¦æľ¯
éķ¿ æĹ¶éĹ´
çĶŁæĢģ åŃ¦
åĲĮæĹ¶ éĢļè¿ĩ
æĹ¶éĹ´ ç»´åº¦
ç®Ĺæ³ķ åĨħå®¹
éģĵå¾· çĽ¸å¯¹ä¸»ä¹ī
åĪĽ å»º
èĩ´ åĳ½
ä¸ĵ æ³¨
äºĮ èĢħå¯¹
æĮģç»Ń å¼ķåıĳ
æ°ĶåĢĻ æ¨¡åŀĭçļĦ
åĢĺèĭ¥ èĦĳæľºæİ¥åı£å®ŀçİ°
å¹´ é¾Ħ
æ¦Ĥå¿µ åĮĸ
åĨľä¸ļ äº§éĩı
åģĩ å®ļ
è´¸æĺĵ é¡º
è·¨ æ´ĭ
æµ·æ´ĭ çĶŁçī©
æµ·æ´ĭ çĥŃ
è¶Ĭ æĿ¥è¶Ĭ
åİĨåı² ç¼ĸçºĤ
å°± åı¯èĥ½
éĢĢ è¡Į
æĹ¢ åĩĨç¡®ä¼łè¾¾
æıĲä¾Ľ ä¾Ŀæį®
æĬĢæľ¯çļĦ æĻ®åıĬ
å®¹ éĩı
åħ·æľī æĺ¾èĳĹ
as ed
ç»ĵæŀľ æľĢå¤§åĮĸ
å·¥ç¨ĭ é¢ĨåŁŁ
è§£æŀĦ ä¸»ä¹ī
èµĦæľ¬ æĬķèµĦ
åı¥å¼ı éĩĩçĶ¨
å¼± åĮĸ
åĽ½å®¶ ä¸Ń
ç¤¾äº¤ äºĴåĬ¨
æĭĵæīĳ æķ°æį®åĪĨæŀĲ
åį°è±¡æ´¾ èī²å½©çĲĨè®º
æľĽ è¿ľ
å»ºçŃĳ è®¾è®¡
æĮĳæĪĺäºĨ ä¼łç»ŁçļĦ
åĨį åŁ¹è®Ń
ä»·åĢ¼ çļĦ
å¤§éĻĨ ç¢°æĴŀ
çĽ¸å¯¹è®º åĬĽåŃ¦
åĤ¨ å¤ĩ
åľ°çĲĥ å·¥ç¨ĭ
åĬ© éķ¿
éĢĴ è¿Ľ
èĨ¨èĥĢ æķĪåºĶ
èĢĥèĻĳ åĪ°
ic s
åį³ åħ´
ç§ĳæĬĢ æĸĩæľ¬
ç³»ç»ŁæĢ§ æŃ§è§Ĩ
é¢ĨåŁŁçļĦ ä¸ĵä¸ļ
åħħ çĶµ
åŃĺåľ¨ä¸»ä¹ī å¼ºè°ĥ
èĻļ æŀĦ
åĪĴ åĪĨ
ç¾¤ä½ĵ æľºåĻ¨äººåŃ¦
èĩªä¸» æŃ¦åĻ¨
å±ķçİ°åĩº åīįæīĢæľªæľīçļĦ
å®ŀéªĮ æĢ§
èĩªåĬ¨åĮĸ é©±åĬ¨çļĦ
çģµ æĢ§
å¯¼çĶµ æĢ§
æĺŁéĻħ èĪªè¡Į
è§Ĥå¯Ł èĢħ
èŀįåħ¥ äºĨ
åĪĽéĢł åĬĽ
æĺ¯åĲ¦ä¼ļ åľ¨
åĲ« æ°´
åħ¨éĿ¢ æĻ®åıĬ
åľ¨å¤ļå¤§ç¨ĭåº¦ä¸Ĭ ä¿ĥè¿ĽäºĨ
è¯į æ±ĩ
æĹĭ è½¬
åħīéģĹä¼łåŃ¦ éĢļè¿ĩ
å¥ĩ çĤ¹
çĶµç£ģæ³¢ è°ĥæİ§
èĭ± è¯Ń
åŀĤçĽ´åĨľä¸ļ çļĦå¹¿æ³ĽéĩĩçĶ¨
è´¢å¯Į ç§¯ç´¯
æ··æĿĤ æĢ§
å¦ĤæŀľåĬłå¯Ĩè´§å¸ģ åıĸä»£æ³ķå®ļè´§å¸ģ
æ¸©åº¦ è¶ħè¿ĩ
è§Ħæ¨¡åĮĸ çĶŁäº§
æĳĴå¼ĥ äºĨ
éģŃ éģĩ
åĦ¿ ç«¥
å¤§åĬłéĢŁ æĽ²çº¿åĽ¾
ç®Ĺæ³ķæİ¨èįĲ ç³»ç»Ł
çģŃç»Ŀ æ¨¡å¼ıä¸İ
di g
ph ic
èĩªå·± çļĦ
å¼Ĥå¸¸ çİ°è±¡
å¾®è§Ĥ ç»ıæµİåŃ¦
ä¼ĳ éĹ²
åĵ¥çī¹å¼ı å»ºçŃĳçļĦ
ç¼ĸç»ĩ çļĦä»»æĦıåŃĲ
åħ¬åı¸æ²»çĲĨ ç»ĵæŀĦ
å¦Ĥæŀľå¾®çĶŁçī© ç¾¤
çĿ¡çľł ä¸įè¶³
æ³¨æĦıåĬĽ æĮģç»ŃæĹ¶éĹ´
è¯ī è¯¸
æ´ª æ³Ľ
å¼Ĥç§į æľºåĻ¨äºº
æĮģç»ŃåĬłåī§ æķĻèĤ²ä¸įå¹³çŃī
èĢĮéĿŀåĲİæŀľ è®¡ç®Ĺ
åĳĬ è¯ī
çĥŃæ¶²åĸ·åı£ çĶŁæĢģç³»ç»Ł
ç¬¬åĽĽ ä»£
åħ¨çĲĥèĥ½æºĲ åľ°ç¼ĺæĶ¿æ²»æł¼å±Ģ
ä¿¯åĨ²å¸¦åĬ¨åĬĽåŃ¦ éĢļè¿ĩ
çĨĶ å²©
åĵªäºĽåľ°è´¨ è¿ĩç¨ĭ
æ°¸ä¹ħåĨ»åľŁèŀįåĮĸéĩĬæĶ¾ åĩº
æľīæīĢ ä¸įåĲĮ
å¦Ĥæŀľå®ŀçİ°äºĨ äººå·¥æĦıè¯Ĩ
èķ ´
æĿİåĺīåĽ¾çļĦæ¯Ķè¾ĥä¼ĺåĬ¿ åİŁçĲĨ
çĥŃå¸¦æ°ĶæĹĭ çĶŁæĪĲ
å½¼ çī¹æĭīåħĭ
å®ļåĪ¶ åĮĸ
æİĮ æı¡
éĢļè¿ĩåĲĮæĹ¶ åĳĪçİ°
åıįå¯¹ æĻ®éģį
åį°è±¡æ´¾ä¸İ çĤ¹å½©æ´¾
åı¤æ°ĶåĢĻåŃ¦ åĨ°èĬ¯
æĮ¤ åİĭ
ener gy
è½®çıŃå·¥ä½ľèĢħ çļĦ
æĢ§æł¼ ç¼ºéĻ·
ä¸İç»´å¤ļåĪ©äºļæĹ¶æľŁçļĦ æķ£æĸĩä¸įåĲĮ
çħ§çĽ¸ åĨĻå®ŀä¸»ä¹ī
æĸ°åı¤åħ¸ä¸»ä¹īå»ºçŃĳ å¤įåħ´
çŃīç¦»åŃĲä½ĵå°¾æ³¢ åľºåĬłéĢŁ
åľ¨ä½ķç§į ç¨ĭåº¦ä¸Ĭ
èķ¾ ä¸Ŀ
åĲĽ ä¸»
åį· ç§¯
åĵģå¾· åŁ¹åħ»
çŁ© éĺµ
éģĵå¾·è¿Ĳæ°Ķ æĤĸè®º
è´¸æĺĵé¡º å·®
æľĽè¿ľ éķľ
2 1
b i
c al
p tion
© åºı
è Ŀ
Ġ -
çļĦ ä¸į
çļĦ æ¨¡å¼ı
çļĦ çİ°å®ŀ
çļĦ å½¢æĢģ
çļĦ çĽ´æİ¥
çļĦ ä»·åĢ¼
çļĦ åĩºçİ°
çļĦ æĮģç»ŃåŃĺåľ¨
çļĦ ç²¾ç¥ŀåĪĨæŀĲ
å® ¿åĳ½
çİ ĭ
æĢ§ åģĩè®¾
åľ¨ çī¹å®ļ
åľ¨ åĨ³çŃĸè¿ĩç¨ĭä¸Ń
åľ¨ ä¸Ģèµ·
ä¸Ń ä¼łç»ŁçļĦ
äºĨ ä»Ģä¹Ī
ä¸İ æĬĢæľ¯
ä¸İ çĽ¾çĬ¶çģ«å±±
éĢļè¿ĩ å¤ļ
å¯¹ æĸ°è¾¾å°Ķæĸĩä¸»ä¹ī
åĨ Ĵ
è®º ä¸įåĲĮ
çĶ¨ è¯Ń
å¦Ĥä½ķ ä¿ĥæĪĲ
å¦Ĥä½ķ å¡ĳéĢłäºĨ
ä¸º å¯¼åĲĳ
æ° ®
è¾ ĸ
è´ Ŀåı¶
æŀĦ åŀĭ
ä¼ļ éĢļè¿ĩ
å°Ĩ å½»åºķéĿ©æĸ°
ç§ ©åºı
è¡Į æĸĩ
ç® Ķ
è° ģ
å¦Ĥæŀľ äº¤äºĴå¼ı
çŁ «
åı¯èĥ½ å¦Ĥä½ķæĮĳæĪĺ
åı¯èĥ½ äº§çĶŁåĵªäºĽ
æĬĢæľ¯ èĥ½å¤Ł
æĬĢæľ¯ å®ŀçİ°äºĨ
æĬĢæľ¯ çªģçł´
è°ĥ æŁ¥
ç³»ç»Ł çĽ¸æ¯Ķ
èĢĮ åŃĺåľ¨
èĢĮ èİİå£«æ¯ĶäºļæĤ²åī§
æķ° åįģå¹´åĨħ
åĲİ å·¥ä¸ļåĮĸ
å·¥ äºĭ
çĲĨè®º å¯¹
çĲĨè®º ä¸įåĲĮ
çĲĨè®º ä½ĵç³»
ä¸Ĭ æ¶¨
ç¥ ī
éĩıåŃĲ è¡Įä¸º
ä»¥ ç»´æĬ¤
æĽ´ è´´
çī¹ å¤§åŁİå¸Ĥ
åİŁ åı¥
ç¥ŀç»ı ä¼¦çĲĨæ¡Ĩæŀ¶
ç¥ŀç»ı ç³»ç»Łçĸ¾çĹħ
æĺ¯ åĽłä¸º
æĺ¯ åĽ½éĻħè´¸æĺĵ
ç¤¾ä¼ļ ä¼łæŁĵ
èīºæľ¯ éĢļè¿ĩ
è¶ħ èĦ±
è¶ħ å¤§è´¨éĩı
æĶ¿ æĿĥ
å¤į è°ĥ
å¾· éĩĮ
æ°Ķ åĽ¢
å¼ķ çĶ¨
ä¼¦çĲĨ åİŁåĪĻ
ä¸Ģ æł·
å¹³ è¡Į
è½¬ åĮĸ
æĦŁ åºĶ
æľºåĪ¶ åľ¨
è¯´ æķĻ
åĪĻ æĽ´æ³¨éĩį
åĿ Ģ
æ® ĭ
åĨħ çĩĥ
äº¤ ç»ĩ
è¡Įä¸º èīºæľ¯
ä»İ éĩıåŃĲæĢģ
è¿Ļ å°Ĩå¦Ĥä½ķéĩįå¡ĳ
èĢĮéĿŀ ä¾Ŀèµĸ
è¢ Ń
è¢« çĶ¨
ç©º åīį
é«ĺ ä¿ĿçľŁ
ç®¡ è¾ĸ
éħ Ĵ
æķĪåºĶ æıŃç¤ºäºĨ
æĹ¶éĹ´ ç»ĵæŀĦ
æ³¢ ç½Ĺ
åħĥ ä»¶
åħ³ç³» çļĦ
å¦Ĥä½ķå½±åĵį è¯»èĢħå¯¹
åĲĳ åķĨä¸ļ
åĲĳ å¯¼RNA
äºĮ èĢħ
éĶ Ģ
çĤ Ń
ä¿¡æģ¯ å®īåħ¨èĮĥå¼ı
æĶ¿çŃĸ åĪ¶å®ļ
æıŃç¤ºäºĨ ä¸¤èĢħåľ¨
å¹¿æ³Ľ å®ŀæĸ½
å¿ĥçĲĨ æ·±åº¦
é£İ æļ´
åľ°è²Į çī¹å¾ģ
æĸ¹éĿ¢ çļĦæĮĳæĪĺ
åĪ¶åº¦ å¤±èĮĥ
çłģ è½¬æį¢
åĲİæ®ĸæ°ĳ å°ıè¯´ä¸ŃçļĦéŃĶå¹»çİ°å®ŀä¸»ä¹ī
é©±åĬ¨ äºĨ
éĩĳ ç®Ķ
åĥ µ
çĽ¸å¯¹ ä¸»ä¹īçļĦ
éĢĤåºĶ æľºåĪ¶
é¢łè¦Ĩ è¥¿æĸ¹
èµ· æºĲ
èģļ åĲĪçī©
ç²ĴåŃĲ çĽ¸äºĴä½ľçĶ¨
ä»İèĢĮ åľ¨
ä»İèĢĮ å®ŀçİ°
ä»İèĢĮ åĬłåī§
éħ¸ æĢ§
åĲİæŀľ çļĦ
çŃĸçķ¥ äºĴåĬ¨
è´Ł çĽ¸åħ³
en d
æįķ èİ·
ä¼° è®¡
ä¸įåı¯ éĢĨ
æĳ ©
åĤ¨ å±Ĥ
æ¨¡æĭŁ åģĩè¯´
æĪĸå°Ĩ åıĳçĶŁ
æĬĹ è¯¯å·®
å¹³åı° çļĦ
å§ ĵ
æĭľåįłåºŃ ä¸İ
ç¤¾äº¤åªĴä½ĵ åĽŀéŁ³å®¤
ç¼º å¤±
æºĲäºİ å¯¹
ä¿ĿæĬ¤ ä¸»ä¹ī
æ²³æµģ æ²īç§¯
åĨĻ çĶŁ
æķ´åĲĪ åĪ°
é¢ľ èī²
ç¾¤ä½ĵ ä¸Ń
å¤ļæł· åĮĸ
æĽ¿ æį¢
éĽĨä½ĵ è®°å¿Ĩ
å®¡ è®¡
çĶŁçī©ç¥ŀç»ıç½ĳç»ľ çļĦæķĪçİĩ
è¿ľ è¶ħ
æĬ½è±¡è¡¨çİ°ä¸»ä¹ī éĢļè¿ĩ
åħīåŃ¦ æĻ¶ä½ĵç®¡
è¾¹ç¼ĺ åĮĸ
å·¥ä¸ļéĿ©åĳ½ æĹ¶æľŁ
ç¡®å®ļ æĢ§çļĦ
å¡ĳéĢł åĩº
æĽ¿ä»£ çĸĹæ³ķ
å°ĨéľĢè¦ģè¿Ľè¡Į å½»åºķçļĦ
äººç±»è®¤çŁ¥ èĥ½åĬĽ
ç¦ı ç¥ī
ä¸Ńå¤®éĵ¶è¡Į æľºæŀĦ
å°ģå»º åľŁåľ°
æ°´æĸĩ å¾ªçİ¯
è¯ģæį® æĶ¯æĮģ
åįļå¼Īè®ºåľ¨ ç»ıæµİåŃ¦
åľ°ä¸Ńæµ· åľ°åĮºçļĦ
æĭĵæīĳéĩıåŃĲè®¡ç®Ĺ éĢļè¿ĩ
æŀĦæĪĲäºĨ æł¹æľ¬æĢ§æĮĳæĪĺ
è¢«è¯ģå®ŀ åĩĨç¡®
ä¸īç»´ çİ°å®ŀ
å½Ĵ åĽł
ä»¥ä¸ĭ åİŁåĪĻ
ä¸»åĬ¨ åĲĮåĮĸ
çĶµç½ĳ æķĪçİĩ
å±±èĦī çļĦå½¢æĪĲ
ä¿¡åı· å¤ĦçĲĨ
çĽ®çļĦè®º ä¼¦çĲĨåŃ¦
å¯¡å¤´åŀĦæĸŃå¸Ĥåľº è¡Įä¸º
èĩªåĬ¨é©¾é©¶ è½¦è¾Ĩ
èĥ½æºĲä¼łè¾ĵ æķĪçİĩ
åĪĨæķ£ å¼ı
æ·±æµ· æ²Ł
å³¡æ¹¾ çļĦå½¢æĪĲ
åľ°å±Ĥ æłĩå¿Ĺ
æĭīä¸ģç¾İæ´² å°ıè¯´ä¸ŃçļĦéŃĶå¹»çİ°å®ŀä¸»ä¹ī
ä½İæ¸© ä¿ĿåŃĺ
ä¼łæĦŁ åĻ¨çļĦ
è®¤çŁ¥å¤±è°ĥçĲĨè®º éĺĲéĩĬäºĨ
çº¯ç²¹ æĢ§
åħ³ç¨İ å¾Ģå¾Ģä¼ļå¼ķåıĳ
éĽ¨ å½±
å¼ķåĬĽéĢıéķľ æķĪåºĶ
å¦Ĥæŀľç¥ŀç»ıå½¢æĢģè®¡ç®Ĺ èĥ½å¤Łå®ŀçİ°çĶŁçī©ç¥ŀç»ıç½ĳç»ľ
çļĦå¢ŀåĬł ä¸İ
å®ª æĶ¿
æ·±åº¦åŃ¦ä¹ł ç®Ĺæ³ķ
å¤§æ°ĶäºĮæ°§åĮĸç¢³æµĵåº¦ åįĩé«ĺ
ç²ĴåŃĲåľ¨è¢«æµĭéĩı ä¹ĭåīį
tur al
èĢĲ èį¯
ĠæĸĩåĮĸ éĢĤéħį
æŁĶæĢ§ çĶµåŃĲ
æķ°åŃĹåĩºçīĪ å¹³åı°çļĦåħ´èµ·
åı¯ä»¥çľĭåĩº ä¸¤èĢħåľ¨
åĲİçİ°ä»£ä¸»ä¹īå»ºçŃĳ å¯¹
æľĪ çĲĥ
ä¹ĺ æķ°
æĤ£ èĢħ
èĩªåĬ¨åĮĸå¯¼èĩ´çļĦ å²Ĺä½įæµģå¤±
å¥ĳ çº¦
åħ·æľīè´ŁæĬĺå°ĦçİĩçļĦ è¶ħæĿĲæĸĻ
åı¯æº¶æĢ§ åŁºå²©çļĦ
è´Ńä¹°åĬĽå¹³ä»·è°ĥæķ´ æıŃç¤ºäºĨ
åħ¬ä¼Ĺ å¯¹
æŃī æĶ¶
çĶŁæĢģæī¹è¯ĦæĸĩåŃ¦åĪĨæŀĲ éĢļè¿ĩ
éĺ²å¾¡ å·¥äºĭ
çĶŁçī©æ··åĲĪ æľºåĻ¨äººåŃ¦
ä¹¡ æĿĳ
å¦ĤæŀľåħīéģĹä¼łåŃ¦ èĥ½å¤Łå®ŀçİ°
ä¹ĭéĹ´å¤įæĿĤçļĦ çĽ¸äºĴä½ľçĶ¨
ä¸İåħīä¼ıçĶµæ±ł ä¸įåĲĮ
æĭ¼ è´´
çİ¯å¢ĥåİĭåĬĽ åĽłç´ł
æĪ·å¤ĸ åĨĻçĶŁ
æ¯«ç±³ æ³¢
çĶ²åŁº åĮĸæ¨¡å¼ı
å¥¥æĸ¯ æĽ¼
æĸ°çŁ³åĻ¨ æĹ¶ä»£
çİĦæŃ¦ å²©
åĮĸèĥ½ åĲĪæĪĲ
è¾¾åĪ°ä¸´çķĮ è§Ħæ¨¡
ä¸İåį°è±¡æ´¾èī²å½©çĲĨè®º ä¸įåĲĮ
æĺĨ èĻ«
è´Ŀåı¶ æĸ¯
è¶ħå¤§è´¨éĩı é»ĳæ´ŀ
åĨħçĩĥ æľº
æ³¢ç½Ĺ çļĦæµ·
i te
ª çĶ¨
ł é²ģ
çļĦ åħ³ç³»
çļĦ ç§ĳåŃ¦
çļĦ èĥ½éĩı
çļĦ åıĺåĮĸ
çļĦ åıįé¦Īå¾ªçİ¯
çļĦ å®ĩå®ĻåŃ¦æ¨¡åŀĭ
æľ Ĺ
å® ģ
åĮ ¹
æĢ§ æĮĳæĪĺ
æĢ§ ç¬Ķè§¦
å° Ŀ
åľ¨ è¡Įä¸º
åľ¨ é«ĺ
åľ¨ å®ĩå®Ļ
ä¸İ æ¬§æ´²
ä¸İ æĸĩèīºå¤įåħ´æĹ¶æľŁ
ä¸İ ç¾İå¾·ä¼¦çĲĨåŃ¦
ä¸İ ä¸īè§Ĵæ´²
ä¸İ è¶ħçİ°å®ŀä¸»ä¹ī
çĶŁ èĤ²
å¾ Ĵ
å¯¹ äºİ
å¯¹ åĮĸçŁ³çĩĥæĸĻ
åı¯ åıĬ
å¦Ĥä½ķ ä½¿
è´ ¥
æĮ ªçĶ¨
å°Ĩ å¼ķåıĳåĵªäºĽ
æ¨¡ åĽł
åľ° æĶ¹åıĺäºĨ
å®ŀçİ° çĶŁçī©
å¦Ĥæŀľ å®ŀçİ°éĩıåŃĲéľ¸æĿĥ
åĬĽ åĩıå¼±
åĪĨ åī²
é¢ Ŀ
ä¸ŃçļĦ è®¤çŁ¥
è¡¨ æ¼Ķ
åĬł å¼º
éģ ¥
éĩį åıł
å¼º åŃĲ
è®¤ å®ļ
çĶŁçī© æĬĢæľ¯
çĶŁçī© éĻįè§£
èĭ¥ CRISPR
èĭ¥ éĩıåŃĲè®¡ç®Ĺå®ŀçİ°
èĭ¥ åĪĨåŃĲçº³ç±³æĬĢæľ¯èĥ½å¤Łå®ŀçİ°
æ¨¡å¼ı ä¸įåĲĮ
å±ķ å¼Ģ
ç¥ŀç»ı æ´»åĬ¨
ç¥ŀç»ı éĢĢè¡Į
ç»ıæµİ æ¨¡å¼ı
åĵªäºĽ å¯Ĩçłģç³»ç»Ł
çİĩ ä¸İ
æĥ ©
æĥ Ĭ
åĴĮ ç¤¾ä¼ļ
åĴĮ çªģè§¦åı¯å¡ĳæĢ§
è®¡ç®Ĺ èĮĥå¼ı
ä¹ĭ åĲİ
èĥ½å¤Ł è¢«
æ¨¡åŀĭ éĢļè¿ĩ
è®¾ éĹ®
åľº æīĢ
åĿ ļ
æĸĩåŃ¦ å½¢å¼ı
å°Ĩå¦Ĥä½ķ æıĲåįĩ
æĸĻ çļĦ
å¸¸ ä¸İ
ä»İ å°ģå»º
æłĩ çŃ¾
è¿Ĳ ç®Ĺ
æķ°åŃĹ éĿ©åĳ½
æķ°åŃĹ è®¤è¯ģ
åħ¨çĲĥ æĢ§
åħ¨çĲĥ ç»ıæµİ
è¿Ļ ç±»
è¿Ļ å°Ĩå¯¹
èĢĮéĿŀ è¡Įä¸º
éķ¿ æĹ¶
éľĢè¦ģ å¦Ĥä½ķ
åħ¶ ä¸İ
æĸ¹æ³ķ ä¸įåĲĮ
è¿Ľè¡Į åħ¨éĿ¢
åŁİ åł¡
è¯ĳä¸º ä¸ĵä¸ļæľ¯è¯Ń
çłĶç©¶ èĮĥå¼ı
äºĮ åĪĨ
é¢Ĩ çĬ¯ç½ª
æĢ§çļĦ ä¼łç»Ł
ä½ł æĺ¯
æŃ£ ç¡®
æĺ¯åĲ¦ ä»į
ä¿¡æģ¯ ä¸įå¯¹ç§°
è°ĥæķ´ è¯Ńåºı
èį ī
åħĭ æĸ¯
çĶŁäº§ èĥ½åĬĽ
æ¶Ī å¤±
ä½Ĩ ä»į
èĦĳ æįŁä¼¤
çĽ´æİ¥ å¯¼èĩ´äºĨ
æĺ¾èĳĹ æĶ¹åıĺ
è·¨ çī©ç§į
å¾Ĺä»¥ åľ¨
çŁ¥è¯Ĩ ä½ĵç³»
å¤± åİ»
æĸĩæľ¬ éĺĲéĩĬ
æĸ¹éĿ¢ æ¯Ķ
è§ĦèĮĥ è¯ĳæ³ķ
åįı åķĨ
ä»į å°Ĩ
åıĹ ä¿ĿæĬ¤çļĦ
å¯Ĩåº¦ æ¢¯åº¦
æŁ ±
èī²å½© æĦŁçŁ¥
éļĲ åĲ«
ç£ģ æĦŁåºĶ
æĵį çºµ
ä¼łç»ŁçļĦ å·¥ä½ľ
å·¥ç¨ĭ åŃ¦
è§¦ åıĳ
åĽº åĮĸ
åıĪ ä½ĵçİ°
å¾ĹåĪ° æĻ®éģį
éļı æľº
éļı ä¹ĭ
æĥħæĦŁ æĬ½è±¡
æĮĳæĪĺäºĨ æĸĩèīºå¤įåħ´æĹ¶æľŁçļĦ
æĻ®éģį åİŁåĪĻ
ä¸ī ä¸ª
åĽŀ åºĶ
è¡¨è§ĤéģĹä¼ł ç»§æī¿
æĸĩæĺİ ä¸Ń
éĺĲ è¿°
æĽ´ä¸º æ¿Ģè¿Ľ
åĮºåĿĹéĵ¾ æĬĢæľ¯çļĦ
å¼ºåĮĸ çĶ¨æĪ·
æĬĹ éĩıåŃĲå¯ĨçłģåŃ¦
åħ·å¤ĩ æĦŁçŁ¥
é¸ łé²ģ
éĶĻ è§ī
éķ¿æľŁ çļĦ
åįļå¼Īè®º éĢļè¿ĩ
åĸĢæĸ¯çī¹åľ°è²Į å½¢æĪĲäºİ
è¡¨éĿ¢ çĶµåŃĲ
ç»Ĩ èĩ´
å¦Ĥä½ķæĮĳæĪĺ è¥¿æĸ¹
æĶ¯ éħį
åį³ ä½¿
é¢ĨåŁŁçļĦ ä¸ĵä¸ļæľ¯è¯Ń
é¢ĨåŁŁçļĦ ä¸ĵä¸ļè¡¨è¿°
è¿Ļä¸Ģ æ¦Ĥå¿µ
or y
èĩªæĪĳ æĮĩæ¶ī
ç»ĺçĶ» æĬĢæ³ķ
çĻ½ é¢ĨçĬ¯ç½ª
å¾®çĶŁçī© ç»Ħ
è§Ĩè§ī æĦŁçŁ¥
æ²Ł éĢļ
å¼ķåĬĽ æ³¢
ä¸ĢæĹ¦ å®ŀçİ°éĩıåŃĲéľ¸æĿĥ
çŃīçº§ ç»ĵæŀĦ
æĬ½è±¡è¡¨çİ°ä¸»ä¹ī å¼ºè°ĥ
åıĳçİ° çļĦ
ä¼Ĭ å£ģ
ç´¯ æīĺ
çĭ¬çī¹çļĦ æ´ŀç©´ç³»ç»ŁåĴĮ
èİ·åıĸ æľºä¼ļ
æĪĺçķ¥ äºĴåĬ¨
åº·å¾· ä¼¦çĲĨåŃ¦
å£° åŃĲ
éĢĨ åĨ²
æĶ¹éĢł çļĦ
åħīä¼ı åıĳçĶµ
çĻ¾ å¹´
Ġc omp
æĦıè¯Ĩå½¢æĢģ çļĦ
éļıçĿĢ èĩªåĬ¨åĮĸ
æľįåĬ¡ åŀĭ
ä»ħ ä»ħ
å¤§èĦĳ åľ¨
åľ°ä¸Ńæµ· æĸĩæĺİ
åľ°ä¸Ńæµ· çĽĨåľ°
æĹ¶ç©º å¼¯æĽ²
åĵĪ å¸Į
åħħåĪĨ è§£éĩĬ
åĲ¸ å¼ķ
ç«ĭä½ĵä¸»ä¹īå¯¹ éĢıè§Ĩæ³ķçļĦè§£æŀĦ
åĲİæ®ĸæ°ĳåıĻäºĭ å¸¸éĩĩçĶ¨
è§Ĥä¼Ĺ åıĤä¸İ
æ¸Ĳ è¿Ľ
æł¸èģļåıĺ èĥ½æºĲ
å¦ĤæŀľåĬłå¯Ĩè´§å¸ģ çļĦéĩĩçĶ¨
åĢĺèĭ¥äºļåİĨå±±å¤§åĽ¾ä¹¦é¦Ĩ ä¿ĿåŃĺå®Įå¥½
äººç±»æ´»åĬ¨ å·²
åį±æľº æľŁéĹ´
åħ¨çĲĥæ°ĶåĢĻ è°ĥèĬĤ
åį°åĪ·æľº çļĦåıĳæĺİ
äºļéĩĮå£«å¤ļå¾· åĵ²åŃ¦ä¸İ
æĢ§åĪ« å¹³çŃī
æĹłç¼Ŀ èŀįåĲĪ
çģŃç»Ŀ äºĭä»¶
é£Łçī© ç½ĳ
åľºæĻ¯ ä¸İ
æ·±åº¦ä¼ªéĢłæĬĢæľ¯çļĦ æ³Ľæ»¥
çĲĨæĥ³ åĮĸ
åıĤä¸İåº¦ æĮĩæłĩ
æķ°æį®éĽĨ ä¸ŃçļĦ
æķ°æį®éĽĨ åį³åı¯è¯ĨåĪ«
éī´ äºİ
å¯¹çĲĨæĢ§éĢīæĭ©çĲĨè®º æıĲåĩºæĮĳæĪĺ
åĩ¯æģ©æĸ¯ä¸»ä¹īåĪºæ¿Ģ æĶ¿çŃĸ
åĩ¯æģ©æĸ¯ä¸»ä¹īåĪºæ¿Ģ æİªæĸ½
èĪªå¤© åĻ¨
ç¥ŀç»ıè°ĥæİ§ æ¤įåħ¥
éľĢè¦ģè¿Ľè¡Į åĵªäºĽ
åį°è±¡æ´¾ç¬Ķè§¦ æĬĢæ³ķéĢļè¿ĩ
éĩıåŃĲå¯ĨéĴ¥åĪĨåıĳ åĪ©çĶ¨
éĿĴéĵľæĹ¶ä»£æĸĩæĺİçļĦå´©æºĥ å¦Ĥä½ķéĩįå¡ĳäºĨ
åıĳå±ķä¸ŃåĽ½å®¶ çļĦ
éĩıåŃĲéĢĢçĽ¸å¹²çĲĨè®º è¯ķåĽ¾éĢļè¿ĩ
æµĵåº¦çļĦ å¢ŀåĬł
æĥħæĦŁå¼ºåº¦ èĢĮéĿŀ
ç¬¦åĲĪä¸Ńæĸĩç§ĳæĬĢæĸĩçĮ® çļĦ
ĠæĸĩåĮĸ éĢĤåºĶæĢ§
åĵªäºĽåľ°è²Į è¿ĩç¨ĭ
åŁİå¸Ĥç»ħå£« åĮĸ
éģĵå¾·è¡Įä¸º å¿ħé¡»
ä¼Ĭæĸ¯åħ°åĩłä½ķ åĽ¾æ¡Ī
æ³¥ æ²Ļ
åĪ©ä»ĸ è¡Įä¸º
åİĮ æ°§
çĽ¸å®¹ æĢ§
åįļå¼Īè®ºåľ¨è¿ĽåĮĸçĶŁçī©åŃ¦ ä¸ŃçļĦåºĶçĶ¨éĢļè¿ĩ
åĹ ¯
å© ļ
å¸ķ ç´¯æīĺ
åĵªäºĽæĬĢæľ¯éļľç¢į éĺ»ç¢įäºĨ
å®¾ ç»ĵæŀĦ
åĪĽä¼¤æĢ§ èĦĳæįŁä¼¤
è¯Ĭ æĸŃ
å¦ĤæŀľæĬĹ è¡°èĢģçĸĹæ³ķ
æĸ°æķĻ æĶ¹éĿ©
æĻºåķĨ åĪĨæķ°
åħĦ å¼Ł
è¯Ńè¨ĢåŃ¦è½¬åĲĳ å°Ĩ
çĥŃåĸĢæĸ¯çī¹ æ¹ĸ
GD P
éĺħ è¯»
æ®ĸæ°ĳåĮĸ è¿ĲåĬ¨
åĶ¯å¿ĥ ä¸»ä¹ī
ç´«å¤ĸçº¿ è¾Ĳå°Ħ
ç»ıåıĹ ä½ı
åĵ¥çī¹å¼ıå»ºçŃĳçļĦ é£ŀæī¶å£ģ
ä¼Ĭå£ģ é¸łé²ģ
1 50
2 6
k e
m ic
n i
² ç¾İ
é Ĩ
Ġ Ġ
Ġ de
Ġ è¡¥åħħ
Ġ to
çļĦ æ¡Ĩæŀ¶
çļĦ æĸ¹æ³ķ
çļĦ åĬŁèĥ½
çļĦ éĺĲéĩĬ
çļĦ æ½ľåľ¨
çļĦ è´¸æĺĵç½ĳç»ľ
çļĦ åŁ¹åħ»
çļĦ è½¬åŀĭ
çļĦ è¾©è¯ģ
çļĦ ä¿ĿçľŁåº¦
åħ µ
è¿ ª
èĥ½ æĮĩ
æĢ§ éĹ®é¢ĺ
åľ¨ åħ¶
åľ¨ åŁİå¸Ĥ
åľ¨ æŀĦå»º
åľ¨ è¡¨éĿ¢
åľ¨ å¡ĳéĢł
çĲĨ åŃ¦
ä¸» è°ĵ
ä¸İ çİ°æľīçļĦ
éĢļè¿ĩ å®ŀçİ°
éĢļè¿ĩ åİ»ä¸Ńå¿ĥåĮĸçļĦ
å¯¹ è±¡
å¯¹ çİ°æľī
åı¯ éĢĨ
æĸĩ æĸ¯
çī© åĵģ
ä¼ļ åľ¨
ä¼ļ å¢ŀåĬł
ä¸į å¾Ĺ
ä¸į åıĹ
ä¸į èī¯
åĬ¨ éĩı
å°Ĩ åıĺå¾Ĺ
æĹ¶ å»¶
äºº å½¢
è° ĭ
å¦Ĥæŀľ ç¢³æįķéĽĨ
å¦Ĥæŀľ ä¹¦ä¿¡ä½ĵå°ıè¯´
æ´ ½
åĪĨ éĴŁ
æĬĢæľ¯ å¥ĩçĤ¹
ç³»ç»Ł å¦Ĥä½ķéĢļè¿ĩ
èĢĮ ä¸į
èĢĮ ç¾İå¾·ä¼¦çĲĨåŃ¦
ç½ ļ
æ² Į
è¯Ń çłģè½¬æį¢
çĲĨè®º æĽ´å¼ºè°ĥ
èĭ ¦
ä¸Ĭ åıĺå¾Ĺåı¯è¡Į
å¼º çĽ¸äºĴä½ľçĶ¨
éĩıåŃĲ èĩªæĹĭ
èĭ¥ åĪĨåŃĲç»Ħè£ħæľº
èĩª æ´½
æĽ´ æ¸ħæĻ°
åİŁ æľī
ç¥ŀç»ı åģĩ
ç¥ŀç»ı åħ³èģĶ
ç¥ŀç»ı èķ¾ä¸Ŀ
åŃĺåľ¨ äºİ
åħī çļĦä¼łæĴŃ
èĮ İ
åĴĮ æĬķèµĦ
éĿŀ äººç±»
ç¤¾ä¼ļ ç§ĳåŃ¦
ç¤¾ä¼ļ è§ĦèĮĥ
ç¤¾ä¼ļ èµĦæľ¬
ç±» äºº
æ°Ķ æ³¡
æĪĳ è®¤ä¸º
ä¸Ģ çĽ´
ä¹ĭ æīĢä»¥
èĥ½å¤Ł çªģçł´
æ¨¡åŀĭ åıĺå¾Ĺ
è®¾ å®ļ
å¢ŀ çĽĬ
äºĴ è¡¥
çĦ¶ èĢĮ
äº¤ èŀį
åħ· äºīè®®
æ¸ łéģĵ
çĸ ı
ç§ĳ æĸ¯å®ļçĲĨ
çº§ åĪ«
ä¼ĺ äºİ
å¼ķåıĳ æ°ĶåĢĻ
åī§ çĥĪ
åħ¨çĲĥ åĮĸçļĦ
ç»´ å°Ķ
é© ±
åı¯èĥ½ä¼ļ åĤ¬çĶŁ
éľĢè¦ģ ç«ĭåį³
æİ¨ å¹¿
è¯Ńè¨Ģ çĽ¸å¯¹æĢ§
åıĬ åħ¶
æĸĩåĮĸ æĿĤç³ħ
æĹ¶éĹ´ æīŃæĽ²
é¢Ħ è¨Ģ
çŃī å¾ħ
çĶ» éĿ¢
èĩ´ åĬĽäºİ
æ³¢ æ´Ľåħĭ
è¡¨çİ° ä¸º
å¤ĦçĲĨ ä¿¡æģ¯
éĹ® è´£
æľª è¢«
ä¸Ńæĸĩ è¡¨è¾¾ä¹łæĥ¯
èģĶ éĤ¦
åı¥ åŃĲ
äººå·¥ ç¥ŀç»ıç½ĳç»ľ
å¹² çĩ
ç§ĳåŃ¦ åıĳå±ķ
æĮģç»Ń æĢ§
æ°ĶåĢĻ åıįé¦Īå¾ªçİ¯
æ´» æĢ§
é¢ĨåŁŁ å¯¹
åıĸ åĲĳ
ä¿¡æģ¯ è®º
çĶ± æŃ¤
åĳĪ æŃ£çĽ¸åħ³
æłĩåĩĨ æľ¯è¯Ń
æľ¯è¯Ń åĩĨç¡®æĢ§
åĬ¿ åŀĴ
å¿ĥçĲĨ çĬ¶æĢģ
çĶŁçī©åŃ¦ é¢ĨåŁŁ
çī©è´¨ çļĦ
åª ²ç¾İ
æĶ¾ æĿ¾
ç»ıåħ¸ è®¡ç®Ĺæľº
åĽłç´ł æľīåĵªäºĽ
åĲİæ®ĸæ°ĳ æĸĩæľ¬
ä»į ä¿ĿæĮģç»Ŀç¼ĺçī¹æĢ§
æĹ¢ ç¬¦åĲĪ
æŁ ±åĬ¨
èī²å½© æ··åĲĪ
al ly
åŁºç¡Ģè®¾æĸ½ å»ºè®¾
æ¢ ģ
ç²ĴåŃĲ è¡Įä¸º
è§£æŀĦ æĸĩæľ¬æĿĥå¨ģ
æĭī å¼Ĺ
éħį å¯¹
è¿ŀ éĢļ
å°ĳ æķ°
åį°è±¡æ´¾ æįķæįīè½¬çŀ¬åį³éĢĿçļĦåħīå½±æķĪæŀľ
æ·· æ²Į
åĩ¯æģ©æĸ¯ ç»ıæµİåŃ¦
en g
in ter
æĢĿ è¾¨
å¯Ĩçłģ åįıè®®
åĨį åº¦
åĬŁåĪ©ä¸»ä¹ī ä¼¦çĲĨ
æĻ®éģį æĢ§
æĸĩæĺİ æķ°éĩı
æĽ´ä¸º æľīæķĪ
å¼ºåĮĸ æľºåĪ¶
å½ĵä»£ è£ħç½®èīºæľ¯
è¿ĺ æİ¨åĬ¨äºĨ
æĵįæİ§ æĬĢæľ¯
è¶ħæĿĲæĸĻ çļĦ
èĢĥèĻĳ äºĨ
ä¸ªäºº èĩªçĶ±
ä¸ºä½ķ ä»į
çº³ç±³ æľºåĻ¨äºº
åĲİçİ°ä»£ è¯ĹæŃĮ
çĽ® åīį
åĲİçİ°ä»£ä¸»ä¹ī å¯¹
å¤´ è¶³
ç¾¤ä½ĵ çļĦ
éĢĢçĽ¸å¹² æĮĳæĪĺ
æĬĢæľ¯å®ŀçİ° æłĩåĩĨåĮĸ
ç®Ģ åĮĸä¸º
ä¼ĺåħĪèĢĥèĻĳ äºĴåĬ¨æĮĩæłĩ
æľºåĻ¨åŃ¦ä¹ł èĮĥå¼ı
åĩºçİ° çļĦ
ç«ĭä½ĵä¸»ä¹ī éĢļè¿ĩ
å¿ĥçĲĨåŃ¦ ä¸ŃçļĦ
åŁºåĽłç¼ĸè¾ĳæĬĢæľ¯ åľ¨
å·¥ä¸ļéĿ©åĳ½ å¯¹
å£ģ åŀĴ
è¯Ńå¢ĥ ä¸ĭ
å¯¹ä¼łç»Ł åįĬå¯¼ä½ĵ
å¸ĿåĽ½ çļĦ
åĪĽéĢł æĦıä¹ī
å¯Į éĽĨ
åĵªäºĽç¤¾ä¼ļ æĸĩåĮĸ
ç¤¾åĮº ä¸įåĲĮ
ä¾¿ åı¯èĥ½
çļĦç¤¾ä¼ļ åĪĨå±Ĥ
çļĦå¹¿æ³Ľ ä¼łæĴŃ
å°ĨéľĢè¦ģè¿Ľè¡Į æł¹æľ¬æĢ§
éĢıè§Ĩ åĩłä½ķ
å®ĩå®ĻèĨ¨èĥĢ åĬłéĢŁ
éĿĴéĵľæĹ¶ä»£ è´¸æĺĵç½ĳç»ľçļĦå´©æºĥ
æĽ´ç¬¦åĲĪä¸Ńæĸĩ ç§ĳæĬĢæĸĩçĮ®
èĲ¥åħ» çº§èģĶ
äººç±»è®¤çŁ¥ çļĦ
ç§ģ äºº
åĲį è¯į
é»ĳ æŃ»
éĻ· åħ¥
çĥŃåĬĽåŃ¦ ç¬¬äºĮ
å¤įåĪ¶ æĢ§
çīĪ çĶ»
éĩıåŃĲåĬĽåŃ¦ ä¸İå¹¿ä¹īçĽ¸å¯¹è®º
at er
æįķæįī åħīçº¿
åģļ æ³ķ
ç¤¾ä¼ļç»ıæµİ å½±åĵį
æĬĬ æı¡
ç¥ŀåŃ¦ æķĻä¹ī
å½Ĵ å±ŀ
æĲ ¬
æŀģåľ° åĨ°
åĬŁåĪ©ä¸»ä¹īä¼¦çĲĨåŃ¦ åľ¨
å°ģåŃĺ çļĦçĶ²çĥ·
èĹ »
åĸĢæĸ¯çī¹åľ°è²ĮéĢļè¿ĩ ç¢³éħ¸çĽĲå²©
ä¸įåı¯éĿłåıĻè¿° èĢħçļĦ
æĹ¢ä¿ĿæĮģ äºĨ
è¡¨è§ĤéģĹä¼łä¿®é¥° å¦Ĥä½ķå½±åĵį
å¦Ĥæŀľåıįçī©è´¨çº¦æĿŁ ç³»ç»Łå®ŀçİ°
çļĦè®¤è¯Ĩè®º è½¬åıĺ
è¡Įä¸ºç»ıæµİåŃ¦éĢļè¿ĩ æıŃç¤º
ç¥ŀç»ıå½¢æĢģè®¡ç®Ĺæŀ¶æŀĦéĢļè¿ĩ æ¨¡ä»¿çĶŁçī©ç¥ŀç»ıç½ĳç»ľ
å®Įç¾İ çļĦ
æİ¥è¿ĳ åħīéĢŁ
å°ĨéĿ¢ä¸´ åīįæīĢæľªæľīçļĦ
å°ĨåıĳçĶŁæĢİæł·çļĦ åıĺåĮĸ
åĵªäºĽåĽłç´ł å¯¼èĩ´äºĨ
ä»£è°¢ éĢĶå¾Ħ
äºĨä½ķç§į è§Ĵèī²
æ»ŀ çķĻ
å¤©çĦ¶ æĿĲæĸĻçļĦ
å¦ĤæŀľæļĹèĥ½éĩıçļĦ èĨ¨èĥĢ
æĢ¥ åī§
æģ¶ æĢ§
å¹´ä»£ åŃ¦
åĩ¯æģ©æĸ¯ä¸»ä¹īç»ıæµİåŃ¦ å¼ºè°ĥ
éĿĻæĢģ èīºæľ¯
æ¯į äº²
è½¯ ä»¶
è¡ĮæĶ¿ ä½ĵç³»
ç»Łè®¡ çī¹æĢ§
å±Ĥçº§ ç»ĵæŀĦ
åįĹ äºļ
åĮºåĿĹéĵ¾çļĦä¸įåı¯ç¯¡æĶ¹ æĢ§
éĢ»è¾ĳå®ŀè¯ģä¸»ä¹ī å¼ºè°ĥç»ıéªĮéªĮè¯ģ
ag e
çĪ¶ æĿĥ
èģĮåľº æŃ§è§Ĩ
èµ« åħĭ
å°ıåĨ°æľŁ çļĦæ°ĶåĢĻ
å¦Ĥæŀľè´ŁåĪ©çİĩ æĶ¿çŃĸ
é¢łè¦Ĩæ¬§æ´²ä¸Ńå¿ĥä¸»ä¹īçļĦ åİĨåı²
é¢łè¦Ĩæ¬§æ´²ä¸Ńå¿ĥä¸»ä¹īçļĦ åİĨåı²åıĻäºĭ
ç»¿èī²éĿ©åĳ½ çļĦåĨľä¸ļéĽĨçº¦åĮĸ
å¦ĤæŀľäºĴåĬ¨ åıĻäºĭ
iz ation
éĽĩ ä¸»
ç«¥ å¹´
æīĢéľĢ æĹ¶éĹ´
éĹ®é¢ĺä¸ĬåŃĺåľ¨ æł¹æľ¬æĢ§åĪĨæŃ§
ä¸½ èİİ
æ´»åŃĹåį°åĪ·æľ¯ çļĦåıĳæĺİ
å¦Ĥæŀľå¾®çĶŁçī©ç»Ħ ç§»æ¤įçĸĹæ³ķ
å®ĩå®ĻçļĦ èĨ¨èĥĢ
èĶ ½
æĿ¡ä»¶çĬ¶è¯Ń ä»İ
çģµæķı åº¦
ä¸İåĮĸåŃ¦ çģ«ç®Ń
åĲİç»ĵæŀĦä¸»ä¹īå¯¹ è¯Ńè¨Ģ
çļĦåħīçº¿ æķĪæŀľ
çıĬçĳļ ç¤ģ
åĳ¼ åĲ¸
éĽ¶å·¥ç»ıæµİçļĦ æī©å¼ł
æĿ¥è¯Ħä¼° è¡Įä¸º
æĲľ å¯»
é¸Łç±» ç£ģæĦŁåºĶ
æĦĪ åıĳ
è¿Ŀ èĥĮ
éĻĪ è¿°
åĢĺèĭ¥äºļåİĨå±±å¤§åĽ¾ä¹¦é¦ĨæľªæĽ¾ è¢«æ¯ģ
æĿľå°ļ çļĦ
æī®æ¼Ķ äºĨä½ķç§įè§Ĵèī²
è°ĥèī² æĿ¿
ç²ĴåŃĲè¡Įä¸ºçļĦ çĲĨè§£
çĶŁæĪĲå¼ı äººå·¥æĻºèĥ½
å¸ĮèħĬæĤ²åī§å¼ºè°ĥ åĳ½è¿Ĳ
éŁ§ æĢ§
åħ¨æ°ĳåĮ»çĸĹ ä¿Ŀåģ¥
work s
ç²Ĺ éĩİ
å®¹éĶĻçļĦéĩıåŃĲæ¯Ķçī¹ æĵįä½ľ
çģ¾éļ¾ æĢ§
ç¬¬ä¸Ģæ¬¡ä¸ĸçķĮå¤§ æĪĺåĲİ
mRNA çĸ«èĭĹ
èŀįèµĦ çļĦ
åĬª åĬĽ
åŃ¦æľ¯ä¸¥è°¨ æĢ§çļĦåĲĮæĹ¶
åĶ¤ èµ·
ä¸Ĭä¸ĭ æĸĩ
æ¡¥ æ¢ģ
çŁ« æŃ£
éķ¿æĹ¶ æ®µ
å¸ķç´¯æīĺ æķĪçİĩ
å¹²çĩ ¥
æĭīå¼Ĺ æĽ²çº¿
é»ĳæŃ» çĹħ
çĥŃåĬĽåŃ¦ç¬¬äºĮ å®ļå¾ĭ
s oci
u tion
¶ çļ
å ¬
æ §
Ġ v
Ķ æİ¥
çļĦ éĩıåŃĲ
çļĦ æ¯Ķè¾ĥ
çļĦ éģĹä¼ł
çļĦ äº§çĶŁ
çļĦ éĹ®é¢ĺ
çļĦ æĬĢæ³ķ
çļĦ çī¹å¾ģ
çļĦ åĨħå®¹
çļĦ è¿ĩç¨ĭä¸Ń
çļĦ çĲĨè®ºæ¡Ĩæŀ¶
äº ¦
ãĢĤ âĢĿ
æŀ ª
åĲ ī
å¼ Ĭ
å¯ Ĵ
èĥ½ è¾¾åĪ°
åľ¨ å°Ĩ
åľ¨ çİ°æľī
åľ¨ æĹ¥çĽĬ
åľ¨ æŀģç«¯
åľ¨ ç¼ºä¹ı
åľ¨ å®ľå±ħå¸¦
ä¸Ń åĽºæľīçļĦ
è¡ ·
è¡ Ķæİ¥
ä¸İ åħ¶
ä¸İ å½ĵåīį
ä¸İ åĨ³å®ļè®º
éĢļ åĲĥ
æ³ ½
åı¯ è§Ĥå¯Ł
èĢ ¦
å¹ ¼
ä¼ļ äº§çĶŁ
å°Ĩ å½»åºķæĶ¹åıĺ
åıĳ èµ·
åĲĮ æĹ¶æľŁçļĦ
åıĺ å½¢
å¦Ĥæŀľ æĻ®éģį
å¦Ĥæŀľ åħ¨çĲĥèĮĥåĽ´åĨħ
å¦Ĥæŀľ å¢ŀå¼ºçİ°å®ŀ
å¦Ĥæŀľ çº¿ç²Ĵä½ĵ
å¦Ĥæŀľ åŁºäºİåĮºåĿĹéĵ¾çļĦæĬķç¥¨
åĪĨ æĺİ
åı¯èĥ½ å½¢æĪĲ
éĻ ¡
éĻ ¶
ä¸ŃçļĦ éŃĶå¹»çİ°å®ŀä¸»ä¹ī
è¡¨ ç¤º
èĢĮ åĬłåī§
å¤§ æ´²
å¤§ åĪĨåŃĲ
å¤§ æķĻåłĤ
çĲĨè®º ä¸ĬçļĦ
ä¼łç»Ł ç¡ħåŁº
çĶŁçī© è¯ĨåĪ«
çŁ¥ ä¹ĭ
éĩıåŃĲ æ¶¨èĲ½
èĭ¥ æ°¸ä¹ħåĨ»åľŁåĬłéĢŁèŀįåĮĸ
æĪĺ åľº
åĳ ĥ
ä»¥ ç»ĵæŀľ
ä»¥ ä½ķç§į
æĽ´ ç²¾åĩĨ
è´¨ æĢ§
è§Ĥ èĢħçļĦ
åħī çº¤
æĿ¥ æ¨¡ä»¿çĶŁçī©ç¥ŀç»ıç½ĳç»ľ
åĴĮ è°Ĳ
ç¡® å®ŀ
ç¤¾ä¼ļ æµģåĬ¨
ç¤¾ä¼ļ éĺ¶å±ĤåĪĨåĮĸ
èīºæľ¯ å¸Ĥåľº
ä¿Ŀ æľī
ä¿Ŀ è¯ģ
è¶ħ éªĮ
è¶ħ é«ĺ
è¶ħ äººç±»ä¸»ä¹ī
æ°ĳ éĹ´
ä¸Ģ è¯į
èĥ½å¤Ł åĲĮæĹ¶å¤Ħäºİå¤ļç§įçĬ¶æĢģ
æ¨¡åŀĭ ä¸ŃçļĦ
åĪĻ çĿĢéĩį
å¼Ĥ è±¡
è®¤çŁ¥ çļĦ
è®¤çŁ¥ ç§ĳåŃ¦
è®¤çŁ¥ å¢ŀå¼º
ç§į å§ĵ
ç»´ å¥ĩ
åı¯èĥ½ä¼ļ å¦Ĥä½ķæĮĳæĪĺ
éĩĩçĶ¨ ä¸ŃåĽ½
è¢« è¿«
æİ¨ é«ĺ
é«ĺ å±±
çľ ģ
çĶŁæĢģ å½±åĵį
å°ı æ°ĶåĢĻ
æĸĩåĮĸ èµĦæľ¬
åŁºåĽł æĶ¹éĢł
æĹ¶éĹ´ è¿Ľç¨ĭ
åºķ å±Ĥ
æĥħ æĬ¥
æ´¾ çļĦ
æ³¢ å¯¼
è´§å¸ģ ä¸»ä¹īçļĦ
åıĳçĶŁ äºĨåĵªäºĽ
æĺĵ åıĹ
å¦Ĥä½ķå½±åĵį å½ĵä»£
åħ´ è¶£
å¤ĦçĲĨ èĥ½åĬĽ
å®¶ éĢļåĲĥ
æķ°æį® éļĲç§ģ
åı¤ åŁºåĽłç»Ħ
äººå·¥ è®¾è®¡çļĦ
æŃ£ åıįé¦ĪæľºåĪ¶
åĵ²åŃ¦ çĲĨå¿µ
çİ°ä»£ä¸»ä¹ī æĦıè¯Ĩæµģæīĭæ³ķ
æ°ĶåĢĻ åıĺåĮĸçļĦ
æĺ¯åĲ¦ èĥ½
æĺ¯åĲ¦ æľī
åĢĺèĭ¥ æļĹèĥ½éĩıå¯Ĩåº¦
å°Ķ çļĦ
çİ°å®ŀä¸»ä¹ī çĶµå½±
èĥ½éĩı è½¬æį¢æķĪçİĩ
çĽ¸äºĴ åħ³èģĶ
èĥ½åĲ¦ æľīæķĪ
å¤įæĿĤ ç³»ç»Ł
çĽ´æİ¥ åħ³èģĶ
åĨ³çŃĸ æ¨¡åŀĭ
èĩªçĦ¶ è¯Ńè¨Ģå¤ĦçĲĨ
æĸ¹éĿ¢ åŃĺåľ¨æĺ¾èĳĹå·®å¼Ĥ
ç»ıåħ¸ æĸĩæľ¬
ç»ıåħ¸ çī©çĲĨåŃ¦
å°± åĥı
éĴ ¢
åħ¬ éĩĮ
éŃĶå¹»çİ°å®ŀä¸»ä¹ī æīĭæ³ķ
æĪĲä¸º ä¸»è¦ģ
æ²īç§¯ éĢŁçİĩ
æĬĢæ³ķ ä¸įåĲĮ
al l
ä¸¤ æŀģåĮĸ
ä¸¤ èĢħå¯¹
å®ŀæĸ½ åħ¨æ°ĳåŁºæľ¬æĶ¶åħ¥åĪ¶åº¦
çĭ Ĺ
è§£æŀĦ å½¢æĢģ
é¢Ħæµĭ çļĦ
çŁ³ æ²¹
è§Ħæ¨¡ çļĦ
è§Ħæ¨¡ ç»ıæµİ
ç²¾åĩĨ æĢ§
å¼Ģ æĿ¥
åħīåŃĲ åŃ¦
en e
æĻ®éģį åŃĺåľ¨çļĦ
è¡¨è§ĤéģĹä¼ł çĶ²åŁºåĮĸæ¨¡å¼ı
æİĴ åĪĹ
èĦĳæľºæİ¥åı£ æĬĢæľ¯
æ¨¡æĭŁ çĶŁçī©
é² į
å¼ºåĮĸ åŃ¦ä¹ł
æĪĸå°Ĩ éĿ¢ä¸´
æŀĦå»º æĦıä¹ī
åģĩè¯´ å°Ĩ
å¹³çŃī ä¸»ä¹ī
ç«ĭä½ĵ ä¸»ä¹īçļĦ
å°ºåº¦ çļĦ
çĶŁæĪĲ çļĦèīºæľ¯
çħ§ çīĩ
è§Ĥå¿µ çļĦ
æİ§åĪ¶ æľºåĪ¶
re l
an t
or s
é£İéĻ© è¯Ħä¼°
å¸Į æľĽ
å®Įåħ¨ èŀįåĮĸ
ç¼ĵè§£ åĨľä¸ļçĶ¨åľ°
çĸ¾çĹħ æ²»çĸĹ
åĲĪæĪĲçĶŁçī©åŃ¦ çļĦ
åĨ· æ¼ł
ä¿¯åĨ²å¸¦ åľ°éľĩæ´»åĬ¨
å¦ĤæŀľæļĹ çī©è´¨
ar a
ä¼ļå¼ķåıĳåĵªäºĽ ç¥ŀç»ı
ä¼Ĭ ä¸½èİİ
ç³»ç»Łä¸Ń ç»´æĮģåıłåĬłæĢģ
åį¡ é©¬åħĭ
æ¦Ĥçİĩ æĢ§çļĦ
æīĺ åĭĴ
æīĺ åį¡é©¬åħĭ
åĳĪæĮĩæķ°çº§ åĬłéĢŁ
æĽ¿ä»£ æĢ§
å¦Ĥä½ķå½±åĵįäºĨ æĸĩèīºå¤įåħ´æĹ¶æľŁ
is tic
çĥŃå¸¦ éĽ¨æŀĹ
éĢıè§Ĩ æĬĢæ³ķ
çĩĥ çĥ§
ç»Ŀå¯¹ çĶŁäº§çİĩ
åı¯èĥ½å¦Ĥä½ķ åıĺéĿ©
èĥĮ åĲİ
åĽĽ åŃĹ
çĽĳç®¡ ä¸įç¡®å®ļæĢ§
æī¿ åıĹ
åĲİç»ĵæŀĦä¸»ä¹īæĸĩåŃ¦ çĲĨè®º
åĽºæĢģçĶµæ±ł æĬĢæľ¯éĢļè¿ĩ
ä¸ĬåŃĺåľ¨ æł¹æľ¬æĢ§å·®å¼Ĥ
çļĦæĬĢæľ¯ åĪĽæĸ°
éĹŃ åĲĪ
çļĦéģĵå¾· ä¹īåĬ¡
æĿĲæĸĻç§ĳåŃ¦ é¢ĨåŁŁ
æĿĲæĸĻç§ĳåŃ¦ çļĦè¿ĽæŃ¥
çŃīç¦»åŃĲä½ĵ çº³ç±³ç²ĴåŃĲ
åįļå¼Īè®ºåľ¨ å¾®è§Ĥç»ıæµİåŃ¦
å·¥åħ· çļĦæĻ®åıĬ
ec h
åı¯èĥ½åľ¨ åĩłåįģå¹´åĨħ
ç½ĳç»ľå®īåħ¨ åŁºç¡Ģè®¾æĸ½
è¿« åĪĩ
äº§çĶŁåĵªäºĽ å½±åĵį
å¼Ģåıĳ åĩº
ä½ľèĢħæĦıåĽ¾ çļĦ
ä¼ģ åıĬ
éĢłæĪĲ çļĦ
æĹ¶éĹ´å°ºåº¦ ä¸Ĭ
çŁ³å¢¨çĥ¯ åŁº
è®Ńç»ĥ æķ°æį®
æ¸Ĳ åıĺ
çļĦåı¯ éĿł
åľ°çĲĨ åŃ¦
è´¢å¯Į ä¸įå¹³çŃī
éĢīæĭ©æĢ§ æİ¥è§¦
æł¸èģļåıĺ åıįåºĶåłĨ
çĻ¾äº¿äº¿æ¬¡è®¡ç®Ĺ èĥ½åĬĽ
äººç±»ä¸ĸ æıĲæ¡Ī
çĶŁæĢģç³»ç»Łä¸ŃçļĦ æįķé£ŁèĢħ
è¡¨éĿ¢å¯¼çĶµ èĢĮåĨħéĥ¨
ç³»å¤ĸè¡ĮæĺŁå¤§æ°Ķåħīè°± åĪĨæŀĲ
æŀĦéĢłæĿ¿åĿĹ ä¿¯åĨ²å¸¦éĢļè¿ĩ
éĿ©åĳ½æĢ§ çªģçł´
èĩªéĢĤåºĶ åŃ¦ä¹ł
æĬµ æ¶Ī
èĴ¸ æķ£
å®ĹæķĻæĶ¹éĿ© è¿ĲåĬ¨
è¡¨åŀĭ åı¯å¡ĳæĢ§
çİ°è¡Į çļĦ
çİ¯å¢ĥåĽłç´ł å¦Ĥä½ķåľ¨ä¸įæĶ¹åıĺDNAåºıåĪĹçļĦæĥħåĨµä¸ĭ
äº« æľī
æĦıè¯ĨçłĶç©¶ ä¸Ń
åħ»èĢģéĩĳ åĪ¶åº¦
è¡į å°Ħ
åºĶå¦Ĥä½ķ è°ĥæķ´
ä¸Ńå¾®åŃĲ æİ¢æµĭ
ä¸ĬæĪªçĦ¶ä¸įåĲĮçļĦ èīºæľ¯
èĩªæĪĳå¤įåĪ¶ çļĦ
æ³ķå¾ĭä½ĵç³» å°Ĩå¦Ĥä½ķ
åĲ¯èĴĻæĢĿæĥ³ åľ¨
èĲ¥åħ»çº§èģĶæķĪåºĶ æıŃç¤ºäºĨ
è¾¾è¾¾ ä¸»ä¹ī
å°ıåĨ°æľŁ å¯¹
è¯ĦåĪ¤ è¡Įä¸º
è®½ åĪº
æĻºæħ§ çĶŁåĳ½
é¦ĸ è¦ģ
æĿ° æĸĩæĸ¯
é«ĺèĥ½æķĪ çļĦ
è½¨éģĵå¤ªéĺ³èĥ½åıĳçĶµ åį«æĺŁ
å¸ĮèħĬåĮĸ æĹ¶æľŁ
ç¡¬ ä»¶
éĽĩ åĳĺ
èĥ½åĲ¦åħħåĪĨ åºĶå¯¹
ä¸İçĽĳçĿ£åŃ¦ä¹ł ä¸įåĲĮ
çĥŃçĽĲçİ¯æµģ æ¨¡å¼ıéĢļè¿ĩ
çŁŃç¼º éĹ®é¢ĺ
æħ¢ æĢ§
æĿ¡ä»¶çĬ¶è¯Ń åīįç½®
ç²ĺ åº¦
å®ŀéªĮå®¤åŁ¹èĤ²èĤī å®ŀçİ°ä»·æł¼
ä¸İå½ĵåīįçļĦ æľºåĻ¨åŃ¦ä¹ł
åĪ°ç»ıåħ¸ æĢģçļĦè½¬åıĺ
å¦Ĥæŀľæķ°åŃĹè¶ħæĸĩæľ¬ å°ıè¯´
æĬ¥å¤įæĢ§è´¸æĺĵ æİªæĸ½
å¦Ĥæŀľæ°¸ä¹ħåĨ»åľŁèŀįåĮĸ åĬłéĢŁ
ans form
èĪªç©º èĪªå¤©
Ġth e
æ¸¸æĪı åĮĸ
ä¸ľè¥¿æĸ¹ æĸĩæĺİä¹ĭéĹ´çļĦ
Ġo f
åħ¥ä¾µ çī©ç§į
èµ¢ å®¶éĢļåĲĥ
200 8
èĭ¥åıįçī©è´¨ çº¦æĿŁ
æµ·æ´ĭçĶŁçī©çļĦ éĴĻåĮĸ
æµ®æ¸¸ æ¤įçī©
åħ³éĶ®æľŁ åģĩè¯´
çĻ¾äº¿äº¿æ¬¡çº§ è®¡ç®Ĺ
ä¿Ħ æŀĹ
åºķçĽĺ çĶŁçī©
äººä½ĵåĨ·åĨ» ä¿ĿåŃĺ
æ¶ĵæ»´ ç»ıæµİåŃ¦
æķ°åŃĹç¤¾ä¼ļä¸ŃçļĦ ç½ĳç»ľåĮĸä¸ªäººä¸»ä¹ī
åĽŀå£° å®¤
äº¤éĢļäºĭæķħ æŃ»äº¡
è¤ ¶çļ
ä¸ĵæ³¨ äºİ
çģŃç»Ŀæ¨¡å¼ıä¸İ äººç±»è¿ģå¾Ļ
åı¤æ°ĶåĢĻåŃ¦åĨ°èĬ¯ æķ°æį®
ä»İéĩıåŃĲæĢģ åĪ°ç»ıåħ¸æĢģçļĦè½¬åıĺ
éħ¸æĢ§ åľ°ä¸ĭæ°´
å°Ŀ è¯ķ
æĥ© ç½ļ
æŁ±åĬ¨ åĬĽåŃ¦
èµ«åħĭ æŃĩå°Ķ
æĿľå°ļçļĦ çİ°æĪĲåĵģ
ä¼Ĭä¸½èİİ çĻ½
æīĺåĭĴ å¯Ĩ
æĿ°æĸĩæĸ¯ æĤĸè®º
è¤¶çļ ±
1 0
1 6
L E
c omp
l o
m a
o t
o ver
s ub
ª å®Ī
ç ħ
é ¬
Ġ æ¦Ĥå¿µ
ĵ å»¶
çļĦ è¡¨è¾¾
çļĦ çī©çĲĨ
çļĦ å¾ªçİ¯
çļĦ ç¥ŀç»ıç½ĳç»ľ
çļĦ è¿ĽåĮĸ
çļĦ è¡¨è¾¾ä¹łæĥ¯
çļĦ è¯ĳæ³ķ
çļĦ åıĻäºĭç»ĵæŀĦ
çļĦ æĳĴå¼ĥ
çļĦ è§ĤçĤ¹
çļĦ åīįæıĲä¸ĭ
çļĦ æ·±å±Ĥ
çĶ ļ
åľ¨ åĪĨæŀĲ
åľ¨ ä¼łè¾¾
ä¸Ń äº§
ä¸Ń èĦĬ
ä¸İ æĸ°åı¤åħ¸
ä¸İ æµ·æ´ĭéħ¸åĮĸ
ä¸İ åĲİæŀľè®º
ä¸İ ç¬¦åı·äººå·¥æĻºèĥ½
éĢļè¿ĩ åħī
éĢļè¿ĩ æĮģç»Ń
éĢļè¿ĩ çĶµåĮĸåŃ¦
éĢļè¿ĩ èĩªä¸»éĢīæĭ©
å¯¹ ä½ľèĢħæĦıåĽ¾
å¯¹ åĲ§
åĨ Ĺ
åĽ ļ
å¦Ĥä½ķ å®ŀçİ°
å¦Ĥä½ķ è§£åĨ³
å¦Ĥä½ķ åºĶå¯¹
å¦Ĥä½ķ éĩįå¡ĳ
ä½ĵ çĽ¸
ä½ĵ æĿĲæĸĻ
ç³» æķ°
ä¸º ä¸Ģ
è´ ¬
è´ Ŀ
å°Ĩ æĦıè¯Ĩ
æĪĲ å²©
éĩı äº§
åĲĮ ä¸Ģ
åĲĮ æł·
äºº èĦĳ
è° ¬
é¢ ĩ
åı¯èĥ½ ä¸º
åı¯èĥ½ å°Ĩ
æľī æĦı
æľī ä»Ģä¹Ī
åŁº çĿ£
ä½ľ çī©çļĦ
åĬł å¾ģ
èĢĮ è¶ħçİ°å®ŀä¸»ä¹ī
æ² «
å¤§ èĪªæµ·
è§£ çłģ
ä¸įåĲĮ è¯Ńè¨Ģ
åĲİ éĩıåŃĲ
åħ¨ æĸ°çļĦ
æĭ Ķ
èĭ¥ å®¤æ¸©è¶ħå¯¼ä½ĵ
æĻ ķ
æĸ° è´¸æĺĵ
æĸ° æī¹è¯Ħ
ç± į
æº ¯
åĵªäºĽ ç»ıåħ¸
åĵªäºĽ åľ°çĲĥåĮĸåŃ¦
æĺ¯ åľ¨
çĶµ éķľ
æĿ¥ æĵįæİ§
éĿŀ åħ·è±¡
å¯Ĩ çļĦ
ç¤¾ä¼ļ çİ°å®ŀä¸»ä¹ī
ç¤¾ä¼ļ çŃīçº§åĪ¶åº¦
èīºæľ¯ è¡¨çİ°
æģ ªå®Ī
äº§ çī©
è¯ĳ åĲį
ä½¿ æĸĩåŃ¦
ä½¿ è¯ĳæĸĩ
æĪĳ åĽ½
æºĲ å¤´
å¹³ ç¼ĵ
èĥ½å¤Ł æıĲä¾Ľ
æĸ¯ åĿ¦
æµ· éĿ¢
æµ· é©¬
æµ· æ²Ł
åĪĻ ä¾§éĩįäºİ
åīį åį«
äººç±» åľ¨
å°Ĩå¦Ĥä½ķ åıĳçĶŁ
äº¤ æ±ĩ
ä¸ĭ è¿Ĳè¡Į
æł¹ æºĲ
å¼ºè°ĥ åĵģæł¼åŁ¹åħ»
è§Ħ éģ¿
è®¤çŁ¥ å¿ĥçĲĨåŃ¦
è®¤çŁ¥ ç¥ŀç»ıç§ĳåŃ¦
èµĦ éĩĳ
è¿Ļ å°±æĺ¯
èĢĮéĿŀ è¿½æ±Ĥ
è§Ĩ çķĮ
è§Ĩ çĤ¹
ç§¯ æŀģ
åĻ ª
å¥ ´
éĩĩçĶ¨ çļĦ
é«ĺ å¸¦å®½
æł¼ åŃĲ
æł¼ å¾ĭ
æķĪåºĶ å¯¹
åĪĨæŀĲ éĢļè¿ĩ
æĺ¾ å¾Ĺ
ç®Ĺæ³ķ ä¸įåĲĮ
ç®Ĺæ³ķ ç´łåħ»
æĹł æįŁ
çİ¯å¢ĥ çĽĳæµĭ
éģĵå¾· ä»·åĢ¼
åĪĽ æĦı
åİĨ ç¨ĭ
å¸Ĥåľº æ³¢åĬ¨
å½»åºķ æĶ¹éĿ©
çłĶç©¶ ä¸ŃçļĦ
çłĶç©¶ æıŃç¤ºäºĨ
çłĶç©¶ äººåĳĺ
åħĪ ä¾ĭ
æķ°æį® å®īåħ¨èĮĥå¼ı
ä¸ĸçºª æ¬§æ´²çļĦ
ä½ł è¯´
éĶ Ĳ
ä»¶ äºĭ
é¢ĨåŁŁ ä¸ĵä¸ļè¡¨è¿°
å·¥ä¸ļ çĶŁäº§
æķĪçİĩ æıĲåįĩ
æ¼Ķ åĳĺ
å½© é¥°
èĥ½æºĲ éľĢæ±Ĥ
è´¸æĺĵ æĶ¿çŃĸ
çŁ¥è¯Ĩ ç»ıæµİ
on om
æĸ¹éĿ¢ æĪªçĦ¶ä¸įåĲĮçļĦ
åĩı æİĴ
æĸĩèīºå¤įåħ´ èīºæľ¯
èµĦæºĲ æīĢæľīæĿĥ
æľĢ ä¼ĺ
éĩĳ æĺŁ
æĹ¢ å¿łå®ŀ
çļĦå½¢æĪĲ æľºåĪ¶
åıĹ æİ§
åıĹ éĻĲ
è§Ĵ åº¦
é¢łè¦Ĩ äºĨä¼łç»Ł
èī²å½© å¼ºåº¦
èµ· çļĦ
çķĻ åŃĺ
ç¿»è¯ĳ è¦ģçĤ¹
çĶµæ±ł æĬĢæľ¯
ä¼łç»ŁçļĦ åĬ³åĬ¨
çĹħ çİĩ
å¾ĹåĪ° éªĮè¯ģ
æĿ¡ä»¶ çļĦ
åĲĪæĪĲ åªĴä½ĵ
æ³¨éĩį éģĵå¾·
åı¯ä»¥ æıŃç¤ºåĩº
è¶ħè¶Ĭ äººç±»
è¶ħè¶Ĭ ç»ıåħ¸
ä¸ĵä¸ļæľ¯è¯Ń å¤ĦçĲĨ
åĬŁåĪ©ä¸»ä¹ī è®¡ç®Ĺ
åİĭ ç¼©
æĽ´ä¸º å¤įæĿĤ
çº¿æĢ§ æĹ¶éĹ´æĢ§
èĦĳæľºæİ¥åı£ çļĦå¹¿æ³ĽæĻ®åıĬ
ç¢İçīĩåĮĸ åıĻäºĭ
ç¢İçīĩåĮĸ åı¥æ³ķ
éĺ³ æŀģ
å¹³åı° çļĦæ¿Ģå¢ŀ
éĤ£ æł·
ç»Ħç»ĩ çļĦ
éķ¿æľŁ çĿ¡çľłä¸įè¶³
åįļå¼Īè®º åºĶçĶ¨
æ¸©çĽĲçİ¯æµģ ç´Ĭä¹±
äººåı£ å¯Ĩåº¦
æµĭéĩı éĹ®é¢ĺ
æŃ¤ åĪ»
åº· å¤į
åį³ ä¾¿
ä¸İä¼łç»Ł å¯ĨçłģåŃ¦ä¸įåĲĮ
å¼ķåıĳäºĨ åīįæīĢæľªæľīçļĦ
an is
or g
çī©ç§į ç¾¤
èĻļ åģĩ
æĸĩèīºå¤įåħ´æĹ¶æľŁ èīºæľ¯ä¸Ń
å°Ĩå¦Ĥä½ķè°ĥæķ´ ä»¥
åıĸä»£ å®ŀä½ĵ
é¢ľæĸĻ æ··åĲĪ
çĶ²çĥ· æµĵåº¦
æ²»çĲĨ ç»ĵæŀĦ
æ²»çĲĨ æ¡Ĩæŀ¶
ar ra
åľ¨å¤ļ ä¸ª
å¯¼çĶµ è¡¨éĿ¢æĢģ
å¼ķåıĳçļĦ éģĵå¾·åĽ°å¢ĥ
è¾¹ç¼ĺ æĢģ
è¯¥ç¿»è¯ĳ æ»¡è¶³
è¯¥ç¿»è¯ĳ ä¸¥æł¼éģµå¾ª
éĺ² æĬ¤
äº¤æĺĵ éªĮè¯ģ
åĮĹæŀģ ç¢³å¾ªçİ¯
å¦Ĥä½ķå½±åĵįäºĨ æĹ©æľŁ
ä¼ļå¦Ĥä½ķ åĬłéĢŁ
ä¼ļå¦Ĥä½ķ è°ĥæķ´
çĥŃå¸¦ åľ°åĮº
æĺłå°Ħ è®¤çŁ¥è¿ĩç¨ĭ
çļĦä¼łç»Ł è§Ĥå¿µ
æī¿ æĭħ
åĬ³åĬ¨åĬĽå¸Ĥåľº åıĤä¸İçİĩ
äººç±»è®¤çŁ¥ ä¸İ
æĶ¾å¤§ æķĪåºĶ
åıĳèĤ² çĶŁçī©åŃ¦
åĲį ä¹ī
æĹ¢ä¿ĿçķĻ åİŁæĦı
å±ħ ä½ı
çļĦéģĵå¾· æİ¨çĲĨ
èĭ± åĽ½
ç¾İå¾·ä¼¦çĲĨåŃ¦ èĥ½åĲ¦ä¸º
éĩıåŃĲæ¯Ķçī¹ çļĦ
çĻ¾äº¿äº¿ çº§
om or
å°ıè¡ĮæĺŁéĩĩçŁ¿ æ´»åĬ¨
è´§å¸ģä¸»ä¹ī æĸ¹æ³ķ
åĵĪ èĢ¶
åĲİæ®ĸæ°ĳåıĻäºĭ å¸¸éĢļè¿ĩ
æĭħ å¿ĥ
è¾© æĬ¤
åĲİç»Ń çļĦ
å»ºç«ĭ åľ¨
æ¨¡ç³Ĭ äºĨ
ç¤¾ä¼ļç»ıæµİ ä¸įå¹³çŃī
äºĮåħĥ å¯¹ç«ĭ
æµģåĬ¨æĢ§ éĻ·éĺ±
éĢĲ æŃ¥
æĲ Ń
å¦Ĥæŀľåħ¨æ°ĳåŁºæľ¬æĶ¶åħ¥ åĪ¶åº¦
ä¸ĵä¸ļåĮĸ çĶŁäº§
å¤ļåħĥ å®ĩå®Ļ
è¿ĺåİŁ è®º
åĸĢæĸ¯çī¹åľ°è²ĮéĢļè¿ĩ ç¢³éħ¸çĽĲå²©çļĦ
æĭľåįłåºŃé©¬èµĽåħĭ èīºæľ¯ä¸İ
åıĳå±ķä¸Ń ç»ıæµİä½ĵ
ul ation
å²©æµĨ é»ıåº¦
å°¼éĩĩçļĦ æĿĥåĬĽæĦıå¿Ĺ
éĢļèĥĢ åİĭåĬĽ
Ġf ra
è¿Ļä¸ª ç¿»è¯ĳ
éĩıåŃĲèī²åĬ¨åĬĽåŃ¦ éĢļè¿ĩ
åĬłå¯Ĩè´§å¸ģçļĦ éĩĩçĶ¨
éģĵå¾·ä¹īåĬ¡ èĢĮéĿŀç»ĵæŀľ
è´ŁåĪ©çİĩ æĶ¿çŃĸ
æķ°åŃĹé¸¿æ²ŁéĢļè¿ĩ å·®å¼ĤåĮĸçļĦ
çİ» èī²
åĲ¬ è§ī
åĲİçİ°ä»£ä¸»ä¹īæĸĩåŃ¦ å¸¸åĢŁåĬ©
éĩıåŃĲæĢģ åĲĳç»ıåħ¸
æĸ¯å¤ļèĳĽ åŃ¦æ´¾
æĸ¯å¤ļèĳĽ åŃ¦æ´¾çļĦ
å¤©çĦ¶ æĿĲæĸĻ
åĨ·åĨ» çĶµéķľ
äº« ä¹Ĳ
åħ¬åı¸æ²»çĲĨ æ¨¡å¼ı
ab il
æ·¡ åĮĸ
èį¯çī© çłĶåıĳ
çº¯ç²¹ æĢ§çļĦ
çĳ Ł
ä½Ĩä¹Ł å¼ķåıĳäºĨ
æĽ´å¿«çļĦ æķ°æį®ä¼łè¾ĵ
æĿ¿åĿĹæŀĦéĢłçĲĨè®ºéĢļè¿ĩ å²©çŁ³åľĪæĿ¿åĿĹ
Ġd is
çĪ¶ äº²
å¤ļæĻ®åĭĴæķĪåºĶ è§£éĩĬäºĨ
æī¾ åĪ°
å¯ĨéĽĨ åĮĸ
éĩįæŀĦäºĨ ä¼łç»ŁçļĦ
æ³ķåĽ½å¤§éĿ©åĳ½ å¼ºè°ĥ
å¦ĤæŀľäºļåİĨå±±å¤§åĽ¾ä¹¦é¦Ĩ å¾Ĺä»¥
æĭĴ ç»Ŀ
çĽĲåº¦ æ¢¯åº¦
äººåĬĽèµĦæľ¬ æĬķèµĦ
è¿ĩæ»¤ æ°Ķæ³¡
æĮģä¹ħ æĢ§
è¡Įä¸ºç»ıæµİåŃ¦å°Ĩ å¿ĥçĲĨåŃ¦æ´ŀè§ģèŀįåħ¥
åĲİçİ°ä»£ä¸»ä¹īå°ıè¯´ä¸ŃçļĦ ä¸įåı¯éĿłåıĻè¿°èĢħæīĭæ³ķ
ä¸İè¡Įä¸º ä¸»ä¹ī
æ³¡ æ²«
è¿ĩç¨ĭç»´æĮģ äºĨ
å¤ĸéª¨éª¼ å¢ŀå¼ºæĬĢæľ¯
åĲĮçŃī çļĦ
è¶ħå¯¼éĩıåŃĲå¹²æ¶ī ä»ª
è´¹ç±³ åŃĲ
çľĭä¼¼ çŁĽçĽ¾åľ°
å®ļå±ħ çĤ¹
åŁİå¸Ĥäººåı£ è¿ģç§»æ¨¡å¼ı
éĿĴéĵľæĹ¶ä»£å´©æºĥ æľªæĽ¾åıĳçĶŁ
ä¸İåİĨåı² åĪĽä¼¤
èĶ ĵå»¶
éº ¦
çļĦè®Ńç»ĥ æķ°æį®
æĥħèĬĤ ç»ĵæŀĦ
æ²³æµģåľ°è²Į åŃ¦
åı¯åıĳçİ° ä¸¤èĢħåľ¨
çº¹ çĲĨ
åŃĺåľ¨ä¸»ä¹īåĵ²åŃ¦ä¸»å¼łäººç±»æĦıè¯ĨåħĪäºİæľ¬è´¨ åŃĺåľ¨
çº¢ç§» æµĭéĩı
è¯»èĢħä¸İ æĸĩæľ¬çļĦ
æĶ¾å°ĦæĢ§ åºŁçī©
èĥ½åĲ¦åľ¨ä¸į è¯īè¯¸
å¦ĤæŀľåĬłå¯Ĩè´§å¸ģçļĦæĻ®åıĬ ç¨ĭåº¦
éĻĦ è¿ĳ
èģĶç»ĵ ä¸»ä¹ī
ç½Ĺæĸ¯ç§ĳ çļĦ
å¯¹è¿Ľåı£åķĨåĵģ å¾ģæĶ¶
æ®ĸæ°ĳæĹ¶æľŁçļĦ èµĦæºĲæİłå¤º
æĭĵæīĳç»Ŀç¼ĺä½ĵåľ¨è¡¨éĿ¢å¯¼çĶµ çļĦåĲĮæĹ¶
åı¶ç»¿ ä½ĵ
åħīåŃĲæĻ¶ä½ĵ éĢļè¿ĩ
ä½İä¼° äºĨ
è·¨æĴĴåĵĪæĭī è´¸æĺĵè·¯çº¿
ä¸įä»ħä¿ĥè¿ĽäºĨ è´¸æĺĵ
ä¹ĭå¤Ħåľ¨äºİ åħ¶
ä¸İéĩįåķĨä¸»ä¹īæĶ¿çŃĸ ä¸įåĲĮ
åħ¬åı¸æ²»çĲĨä¸ŃçļĦ å§Ķæīĺä»£çĲĨéĹ®é¢ĺ
ä¸ĭæĸ¹çļĦ å²©æµĨ
ç½ĳç»ľçĲĨè®ºåľ¨ æµģè¡ĮçĹħåŃ¦
åĵªäºĽè¿ĽåĮĸ ä¼ĺåĬ¿
èĢĮéĿŀè´¢æĶ¿ å¹²é¢Ħ
æ´ªæ³Ľ åĮº
çĥŃå¸¦æ°ĶæĹĭçĶŁæĪĲ éľĢè¦ģ
ä¸İçĽ¾çĬ¶çģ«å±± ä¸įåĲĮ
è¢«çĶ¨ ä½ľ
åĪ¶åº¦å¤±èĮĥ çĲĨè®ºå¦Ĥä½ķè§£éĩĬ
äºĮåĪĨ æ³ķ
äººå½¢ æľºåĻ¨äºº
çĸı ç¦»
å¤´è¶³ ç±»åĬ¨çī©
ä¸İåĮĸåŃ¦çģ«ç®Ń ä¸įåĲĮ
åıĳèµ· æĮĳæĪĺ
çŁ¥ä¹ĭ å¹ķ
åŁºçĿ£ æķĻ
åĵĪèĢ¶ åħĭ
E M
b ased
c o
c ess
l as
p H
p ro
© çĮİ
æ ĩ
Ġ è¯ĳä¸º
Ġ ec
Ġ æ·»åĬł
çļĦ ä¸Ģ
çļĦ èĩªçĦ¶
çļĦ æĥħæĦŁ
çļĦ è°ĥæİ§
çļĦ èŀįåĲĪ
çļĦ åĪĨå±Ĥ
çļĦ æĤĸè®º
çļĦ çľŁå®ŀ
çļĦ åıĤæķ°
çļĦ åĪ¶å®ļ
çļĦ æ½ľåĬĽ
çļĦ æķ°åŃĹåĮĸ
çļĦ æĪĲåĽł
çļĦ å¸¸æĢģåĮĸ
èĥ İ
å¦Ĥ ä»Ĭ
å° ĸ
åľ¨ è§£éĩĬ
ä¸Ń åŃĲ
æķ ¢
ä¸İ ä¸Ńä¸ĸçºª
ä¸İ ä¹īåĬ¡è®ºä¼¦çĲĨåŃ¦
ä¸İ çİ¯å¢ĥçĽ¸äºĴä½ľçĶ¨
ä¸İ ä¹īåĬ¡è®ºæ¡Ĩæŀ¶
ä¸İ æ¹¿å£ģçĶ»æĬĢæ³ķ
ä¸İ éĢ»è¾ĳå®ŀè¯ģä¸»ä¹ī
ä¸İ å±ĤçĬ¶çģ«å±±
ä¸İ ä¹¡æĿĳ
çĶŁ çļĦ
çĶŁ åĮĸ
æ³ ī
éĢļè¿ĩ åŁºäºİ
éĢļè¿ĩ èŀįåĲĪ
éĢļè¿ĩ æķ´åĲĪ
éĢļè¿ĩ çĶ¨æĪ·
éĢļè¿ĩ çİ¯å¢ĥçĽ¸äºĴä½ľçĶ¨
å¯¹ èĩªçĦ¶
åı¯ æµĭéĩı
åı¯ çĶŁçī©éĻįè§£
ä½ĵ è£ģ
åŁ ĭ
ä¸º å®ŀçİ°
ä¸º ä¼ĺåħĪ
ç»ı éªĮè¯ģ
è´ ¡
è´ ¤
ä¼ļ æľīä½ķä¸įåĲĮ
ä¸į èĥ½
å°Ĩ æľ¬åľŁ
åıĳ è¡Į
å®ŀçİ° åīįæīĢæľªæľīçļĦ
å®ŀçİ° åķĨä¸ļåĮĸ
å¦Ĥæŀľ è¡¨è§ĤéģĹä¼ł
å¦Ĥæŀľ å¤ļä¸ĸçķĮè¯łéĩĬ
å¦Ĥæŀľ çłĶç©¶äººåĳĺ
åĪĨ è£Ĥ
åı¯èĥ½ æıĲåįĩ
æľī çĤ¹
æĬĢæľ¯ ä¸įåĲĮ
åŁº çī¹æĭī
ä¸ŃçļĦ å¹¿æ³ĽåºĶçĶ¨
ä¸ŃçļĦ éĩıåŃĲæ¶¨èĲ½
åĬł çĥŃ
èĢĮ è¡¨çİ°ä¸»ä¹ī
èĢĮ åĸĢæĸ¯çī¹åľ°è²Į
èĢĮ ç«ĭä½ĵä¸»ä¹ī
èĢĮ ä¹īåĬ¡è®ºä¼¦çĲĨåŃ¦
èĢĮ çĤ¹å½©æ´¾
èĢĮ äº§çĶŁçļĦ
èĢĮ ç¾İåĽ½éĿ©åĳ½
ç½ ©
å¤§ åľ°
å¤§ æµģè¡Į
è§£ å¯Ĩ
åŀ ©
åĲİ æľŁ
è¯Ń ç³»
çĲĨè®º ä¸ŃçļĦ
çĶŁçī© èīºæľ¯
çĶŁçī© åľ°çĲĥåĮĸåŃ¦
åħ³ æĢĢ
èĭ¥ åħ¨æ°ĳåŁºæľ¬æĶ¶åħ¥
èĭ¥ äººå·¥åħīåĲĪä½ľçĶ¨
èĩª è½¬
èĩª éĹŃ
ä»¥ äººç±»
æĸ° çİ°å®ŀä¸»ä¹īçĶµå½±
çī¹ æľīçļĦ
ç»ĵæŀĦ åĮĸ
è´¨ æĸĻ
æº ī
æĿ¥ ç»´æĮģ
æıĲ åŁºçī¹æĭī
ç² ī
åĴĮ åľ°å£³
åĴĮ æ¹®çģŃ
æĺİ çĻ½
èīºæľ¯ è¯Ħè®º
æĮĳæĪĺ ä¼łç»ŁçļĦ
å½¢æĪĲ æľºåĪ¶
å¾· æ¸©
ä¼¦çĲĨ ä½ĵç³»
ä¸Ģ åħĥ
æ¨¡åŀĭ å°Ĩ
åıį å¤į
æľºåĪ¶ å®ŀçİ°
æµ· åºķ
åĪĻ ä¸»å¼ł
æĦıè¯Ĩ ä½ĵéªĮ
å±Ĥ çĬ¶
ä¿¡ ä»°
æł¹ åŁº
è¡Įä¸º æ¨¡å¼ı
çº§ ç²¾åº¦
æłĩ æ³¨
åħ¨çĲĥ åĨľä¸ļ
ç§į æĹı
æĸ½ åĬł
æīĢ éĿ¢ä¸´
æīĢ äº§çĶŁçļĦ
åı¯èĥ½ä¼ļ åĩºçİ°åĵªäºĽ
å¤Ħ çļĦ
éĩĩçĶ¨ ä¸Ńæĸĩ
éķ¿ çļĦ
åħ¶ å®ŀ
æĸĩåĮĸ èµĦæľ¬ç§¯ç´¯
æķĪåºĶ æııè¿°äºĨ
æĻ® èīºæľ¯
æĻ® æĥł
æīĭ æľ¯
æĹł æĦıä¹ī
è¿Ľè¡Į å¹²é¢Ħ
å¸Ĥåľº å¼Ĥè±¡
æ¯Ķè¾ĥ è¯Ńè¨ĢåŃ¦
å½»åºķ æ¶ĪéĻ¤
åĬłéĢŁ èĨ¨èĥĢ
åĩĨç¡® è¿ĺåİŁ
ç§ĳåŃ¦ ä¾Ŀæį®
ç§ĳåŃ¦ åıĳå±ķçļĦ
äº§çĶŁ èĥ½éĩı
é¢ĨåŁŁ ä¸Ń
åį° åº¦
åĢĺèĭ¥ åħ¨æ°ĳåŁºæľ¬æĶ¶åħ¥
å¹´ ä»¥æĿ¥
çľŁ çĽ¸
éĢĤ å®ľ
éĩįæĸ° éħįç½®
èĢĥ è¯ķ
æĶ¿æ²» ç»ĵæŀĦ
åħ± æĥħ
å¸ĥ å±Ģ
å®ī æıĲåŁºçī¹æĭī
çĽ´æİ¥ ä¿ĥè¿ĽäºĨ
æĺ¾èĳĹ éĻįä½İ
ç©ºéĹ´ è¡¨çİ°
é£İ åĿ¡
ï¼ī "
å¾Ģ æĿ¥
åĨ° åĨ»
çģ« æĪĲå²©
æĸŃ å±Ĥ
ç»ıåħ¸ åĬĽåŃ¦
è§ĦèĮĥ æĢ§
åĽłç´ł å¯¼èĩ´äºĨ
ç¨³å®ļ çļĦ
æĪĲä¸º èīºæľ¯
ä»į åľ¨
ä¼łæĴŃ çļĦ
éĢĤåºĶ ä¸įèī¯
æĬĢæľ¯çļĦ è¿Ľå±ķ
éļĲ èĹı
åĬ¨æĢģ åħ³ç³»
åħ·æľī æĽ´é«ĺçļĦèĥ½éĩıå¯Ĩåº¦
åıĤ çħ§
æ¢ ħ
æ¢ Ń
èģļ åĲĪ
çĭ ©çĮİ
çĻ Į
çĽ¸è¾ĥäºİ ä¼łç»ŁçļĦ
é¢Ħæµĭ åĩĨç¡®æĢ§
ç¼ĸè¾ĳ æĬĢæľ¯
å¾ĹåĪ° æĻ®åıĬ
åŁºæľ¬ ç²ĴåŃĲ
è¶ħè¶Ĭ çĶŁçī©
è¶ħè¶Ĭ èĩªçĦ¶
å¼Ģ å±ķ
en s
en ted
å»ºçŃĳ æĿĲæĸĻ
ä¸ĵä¸ļæľ¯è¯Ń çļĦåĩĨç¡®æĢ§
å¤§éĻĨ è¾¹ç¼ĺ
æĻ®éģį åĮĸ
çĽ¸å¯¹è®º æĢ§
åĿĩ åĬ¿
éĿ¢ä¸´ åĵªäºĽ
çº¿æĢ§ åıĻäºĭç»ĵæŀĦ
ç»ĺ åĪ¶
å½ĵä»£ å¯¹
å½ĵä»£ å°ıè¯´ä¸ŃçļĦéŃĶå¹»çİ°å®ŀä¸»ä¹ī
åľ°çĲĥ ç³»ç»Ł
æĹ¥ å¿ĥè¯´
åıĺå¾Ĺ æĹłå¤Ħä¸įåľ¨
äºĴåĬ¨ åħ³ç³»
çĶµåŃĲ ç³»ç»Ł
æŀĦå»º åĩº
ç»Ŀç¼ĺ çī¹æĢ§
è¶ĭ è¿ĳ
åįļå¼Īè®º ä¸ŃçļĦ
æĿĥåĬĽ ç»ĵæŀĦçļĦ
åĸĢæĸ¯çī¹åľ°è²Į æĺ¯éĢļè¿ĩ
åĸĢæĸ¯çī¹åľ°è²Į çļĦåıĳèĤ²
è¯Ĺ äºº
åĢŁ è´·
ä¸ªäºº éļĲç§ģ
åį³ åı¯å®ŀçİ°
èĴĻ å¾·éĩĮ
å¥½ åĲ§
å®ŀè¯ģ ä¸»ä¹ī
å®ŀè¯ģ çłĶç©¶
è¯ģå®ŀ äºĨ
éĢļçĶ¨ çļĦ
æ²³æµģ ä¾µèļĢ
åı¯å¡ĳ æĢ§çļĦ
çĻ½ åŀ©
å¤ļæł· æĢ§çļĦ
å´© å¡Į
åĨ°å·Ŀ ä½ľçĶ¨
æłĩåĩĨåĮĸ èĢĥè¯ķ
æĿİåĺīåĽ¾ æ¯Ķè¾ĥä¼ĺåĬ¿
ä¸ĢæĹ¦ éĩıåŃĲåĬłå¯Ĩ
å¿ĥçĲĨåŃ¦ è§ģè§£
è½¨éģĵ ç¢İçīĩ
çľĭ åĪ°
åĲ¯èĴĻ æĹ¶æľŁçļĦ
çĬ¶æĢģ çļĦ
ar y
ä¿ĥä½¿ äºĨ
éĩĳèŀį åį±æľº
éĩĬæĶ¾ åĩº
æķ´ä½ĵ åı¥å¼ı
åīĬå¼± äºĨä¼łç»Ł
å£° è°ĥ
ç»Ļ ä½ł
å±ĤéĿ¢çļĦ èĢĥéĩı
å®ıè§Ĥ çī©çĲĨ
åºĶçĶ¨äºİ éĩİçĶŁç§įç¾¤
åıĪç¬¦åĲĪä¸Ńæĸĩ ç§ĳæĬĢæĸĩçĮ®
åĲ« éĩı
è½¬æį¢ åŀĭæĿ¿åĿĹè¾¹çķĮ
åı¯èĥ½å¦Ĥä½ķ éĩįæĸ°å®ļä¹ī
ä¼¼ ä¹İ
æĹłæ³ķ ä¼ģåıĬ
èĻļæĭŁ è¯Ńæ°Ķ
å¸¸åĢŁåĬ© æĿĤç³ħ
æ¢¯ åº¦çļĦ
åĲį åįķ
ç¥ŀç»ıç§ĳåŃ¦ èĮĥå¼ı
å»¶è¿Ł éĹ®é¢ĺ
Ġp er
åİŁåŃĲçº§ ç²¾ç¡®
èĦ± ç¦»
çļĦéģĵå¾· èĢĥéĩı
æ½ľåľ¨ æ¨¡å¼ı
åħ±çĶŁ åħ³ç³»
å½¢èĢĮä¸ĬåŃ¦ ä¸»å¼ł
è®© ä½ł
åĮħ åĲ«
åĮħ æĭ¬
ç©¿ è¶Ĭ
ä¾§éĩį çĤ¹
æĭĵæīĳéĩıåŃĲè®¡ç®Ĺ éĢļè¿ĩåĪ©çĶ¨
åĨĻå®ŀ ä¸»ä¹īçļĦ
th ro
çł´åĿı è¿ĲåĬ¨
å°ĨåıĳçĶŁ æł¹æľ¬æĢ§åıĺéĿ©
çĲĨè®ºçļĦ æ¯Ķè¾ĥåĪĨæŀĲ
è§Ĥä¼Ĺ ä¸İ
å¹¿ä¹īçĽ¸å¯¹è®º å°Ĩ
çļĦåı¯ å¤įåĪ¶æĢ§
è®°å½ķ äºĨ
è´¢å¯Į åĪĨéħį
è´¢å¯Į éĽĨä¸Ń
æĸ¥ åĬĽ
ç¡®ä¿Ŀ äºĨ
å³ Ń
åĶ¯ ä¸Ģ
æ²¿æµ· çĶŁæĢģç³»ç»Ł
éļĲèº« æĬĢæľ¯
åĻ¨å®ĺ ç§»æ¤į
æĲ º
æĲ ŀ
çĽ¸è¾ĥäºİä¼łç»Ł éĶĤç¦»åŃĲçĶµæ±ł
æŀĿ æĻ¶
ä»Ĭ å¤©
æ²īæµ¸ æĦŁ
æ¿ĢåĬ± æİªæĸ½
å®½ å¸¦
æĭľåįłåºŃåľ£åĥı èīºæľ¯
åħĥå°ıè¯´ æīĭæ³ķ
å¸¸å¸¸ éĩĩçĶ¨
ç½Ĺé©¬ å¼ı
æ±ī æľĿ
æķħ éļľ
éĶĤç¦»åŃĲçĶµæ±ł æĽ´é«ĺçļĦèĥ½éĩıå¯Ĩåº¦
åı¯èĥ½å¼ķåıĳåĵªäºĽ ä¼¦çĲĨåĽ°å¢ĥ
æĸ°è¾¾å°Ķæĸĩä¸»ä¹ī è¿ĽåĮĸ
æ²ĥ å¤«
çĲĨè®ºå¼ºè°ĥ éĢļè¿ĩ
åĮħè±ªæĸ¯ è®¾è®¡åİŁåĪĻ
ç¥ŀç»ıå½¢æĢģè®¡ç®Ĺæŀ¶æŀĦéĢļè¿ĩ åŁºäºİå¿Ĩéĺ»åĻ¨çļĦ
ç§ĳåŃ¦éĿ©åĳ½ çļĦ
åħ¬åħ± åį«
è§ĦåĪĻ çļĦ
å°ĨéĿ¢ä¸´ åĵªäºĽ
æ·±æµ· æµ·æ²Ł
åħīä¼ıçĶµæ±ł æķĪçİĩ
èįĴè¯ŀ æ´¾
èįĴè¯ŀ çļĦå®ĩå®Ļä¸Ń
æĬµ å¾¡
å¦Ĥæŀľæ³Ľå¿ĥè®º å¾ĹåĪ°å®ŀè¯ģéªĮè¯ģ
è¿ģå¾Ļ æ¨¡å¼ı
åıĳæĮ¥ ä½ľçĶ¨
æĴŀ åĩ»
çĶŁçī©å·¥ç¨ĭ èıĮä¸Ŀ
æķ°åŃĹé¸¿æ²ŁéĢļè¿ĩ éĻĲåĪ¶
åıĮåĲĳ æķ°æį®ä¼łè¾ĵ
Ġin ter
èĤĸåĥıçĶ» ä¸įåĲĮ
çĿ¡çľł åī¥å¤º
çº³ä»ĢåĿĩè¡¡ æ¦Ĥå¿µ
éĹŃçİ¯ çĶŁåĳ½
å¦ĤæŀľåħīåŃĲè®¡ç®Ĺ èĥ½å¤Łå®ŀçİ°
åį°è±¡æ´¾ç¬Ķè§¦ æĬĢæ³ķ
èĩªåıĳ æĢ§çļĦ
æµģçķħ èĩªçĦ¶
éĵģ åĻ¨
æĵįä½ľæĢ§ åŃ¦ä¹ł
æĽ´å¿«çļĦ åħħçĶµ
åįĹ æĸ¹
èµĦæľ¬ä¸»ä¹īçļĦ åħ´èµ·
å´ĩ é«ĺ
çļĦéĿŀ çī©è´¨åĮĸ
æĺİæļĹå¯¹æ¯Ķ æĬĢæ³ķ
é¢ľæĸĻçļĦ éĹ®ä¸ĸ
æĳĦå½±æµĭéĩı å»ºæ¨¡
åı¯éĿł æĢ§
åı¯èĥ½åıĳçĶŁæĢİæł·çļĦ åıĺåĮĸ
æķ°æį®åºĵ ä¸įåĲĮ
å°ĨéľĢè¦ģè¿Ľè¡Įéĩįå¤§ ä¿®è®¢
åŃŁå¾·å°ĶéģĹä¼ł æ¨¡åŀĭ
åħ¬æ°ĳ èº«ä»½
äººæĿĥ æ¡Ĩæŀ¶
è¾ĵéĢģ å¸¦
è¶ħæĿĲæĸĻå·¥ç¨ĭ éĢļè¿ĩ
å®£ è¨Ģ
çľŁæŃ£ çļĦ
è¿ľç¨ĭ åĬŀåħ¬
ä¸İåĮĸåŃ¦ æİ¨è¿Ľ
ç¦ģ éĹŃ
ä¸ºä½ķæŁĲäºĽ äºļæĸĩåĮĸ
éĢĨåĳ¨æľŁ è´¢æĶ¿æĶ¿çŃĸ
å¦ĤæŀľèĦĳæľºæİ¥åı£ èĥ½å¤Łå®ŀçİ°
æĦıåĳ³ çĿĢ
æ°¢çĩĥæĸĻçĶµæ±ł éĢļè¿ĩçĶµåĮĸåŃ¦
çļĦä½įç½® å¤ĦçĲĨæķ°æį®
åı£å¤´ åıĻäºĭä¼łç»Ł
ä¸ĵéĹ¨ åĮĸ
åĸľ æ¬¢
å¯¹è¿Ľåı£åķĨåĵģ åĬłå¾ģ
èĤĮ çĲĨ
æĬĹçĶŁç´ł èĢĲèį¯
è¶ħå¯¹ç§°çĲĨè®º æıĲåĩº
ç²ĴåŃĲåĬłéĢŁ åĻ¨
ä¾ĭè¯ģ äºĨ
truc tures
åĵ¥ä¼¦å¸ĥå¤§äº¤æį¢ä¸ŃçļĦçĶŁçī© è½¬ç§»
çļĦèĥ½æķĪ æ°´å¹³
çģĮ æºī
åĪ©çĶ¨åħīåŃĲ åģıæĮ¯æĢģ
å¸ĮèħĬæĪıåī§ ä¸ŃçļĦ
æĽ´é«ĺçļĦèĥ½éĩıå¯Ĩåº¦åĴĮ æĽ´å¿«çļĦåħħçĶµ
ä¼ļæįŁå®³ åīįé¢Ŀåı¶çļ®å±Ĥ
äººç±»åŁºåĽł å¢ŀå¼ºæĬĢæľ¯
è¾« çĬ¶
Ġeff ec
igh t
åŃ£èĬĤ æĢ§
å¥łå®ļäºĨ åŁºç¡Ģ
èĩªä¸»æŃ¦åĻ¨ ç³»ç»Ł
åĲĳåķĨä¸ļ ç»ıæµİ
å¯¹åĮĸçŁ³çĩĥæĸĻ çļĦä¾Ŀèµĸ
éģ¥ è¿ľ
åľºæĻ¯ä¸İ è¶ħèĩªçĦ¶åħĥç´łå¹¶ç½®
éĢıè§Ĩåĩłä½ķ åŃ¦
å¦Ĥæŀľçº¿ç²Ĵä½ĵ æĽ¿ä»£çĸĹæ³ķ
éĻ¡ å³Ń
å¤§èĪªæµ· æĹ¶ä»£
anis ms
èĩªéĹŃ çĹĩ
ä¸Ģåħĥ è®º
å®īæıĲåŁºçī¹æĭī æľºæ¢°
èĴĻå¾·éĩĮ å®ī
S T
f r
n s
u ting
v ol
± ¼
· çĶµè§£è´¨
â Ļ
é ±¼
Ġ æĬĢæľ¯
Ĺ åıĺ
çļĦ å¤ļ
çļĦ å¢ŀ
çļĦ çĶŁæĢģç³»ç»Ł
çļĦ åĳĪçİ°
çļĦ éĢīæĭ©
çļĦ éĽĨä½ĵ
çļĦ åĮºåŁŁ
çļĦ ç¡®è®¤åģıè¯¯
çļĦ åİŁåŀĭ
çļĦ é¢łè¦ĨæĢ§
çļĦ åħ¸åŀĭ
çļĦ çĽĽè¡Į
åı «
è¿ Ń
åĪ ĳ
èĥ ¡
åŃ¦ é¢ĨåŁŁ
åº §
åľ¨ åĲİ
åľ¨ ä½ł
åľ¨ è§Ĩè§ī
åľ¨ åºĶçĶ¨äºİ
åľ¨ ç»ıæµİè¡°éĢĢæľŁéĹ´
ä¸İ èĩªçĦ¶
ä¸İ æŀģç®Ģä¸»ä¹ī
ä¸İ éĽĨä¸Ńå¼ı
ä¸İ åĮĸçŁ³çĩĥæĸĻ
ä¸İ ä¸Ńå¿ĥåĮĸ
éĢļè¿ĩ çī©è´¨
å¯¹ çİ¯å¢ĥ
å¯¹ æĦıè¯ĨçļĦ
åı¯ ä¿¡
å¸ Ĩ
å¦Ĥä½ķ ä»¥
å¦Ĥä½ķ é¢łè¦Ĩ
å¦Ĥä½ķ æİ¨åĬ¨
å¦Ĥä½ķ è¿ĲçĶ¨
å¦Ĥä½ķ ç¼ĵè§£
å¦Ĥä½ķ å¡ĳéĢł
è´ µ
ä¼ļ åıĳçĶŁ
ä¸į åĬ¨
ä¸į åłª
å· ŀ
å°Ĩ æľī
å°Ĩ åħ¶
å°Ĩ èĩªçĦ¶
æİ Ī
æĹ¶ æĢ§
äºº éĻħ
åľ° åŁŁ
åºĶ éĢļè¿ĩ
å®ŀçİ° ç¥ŀç»ıåħĥ
å¦Ĥæŀľ æķ°åŃĹèīºæľ¯
å¦Ĥæŀľ ç³»å¤ĸè¡ĮæĺŁæ®ĸæ°ĳ
åı¯èĥ½ éĩįæĸ°å®ļä¹ī
æľī å£°
æľī æĦıè¯ĨçļĦ
æĬĢæľ¯ æĸĩ
æĬĢæľ¯ åıĸå¾Ĺ
éĻ Ĩæŀ¶
ç¨ ł
çĽ¸ ä¹ĺ
æı ´
åŁº åºķ
èĢĮ æŀģç®Ģä¸»ä¹ī
èĢĮ åĲİçİ°ä»£ä¸»ä¹īå°ıè¯´
åĲĪ å¹¶
å¤§ å®¶
å¤§ éĻĨæŀ¶
åŃĺ äºīè®®
è§£ åĨ»
åĲİ åį°è±¡ä¸»ä¹ī
ä¼łç»Ł çķľçī§ä¸ļ
çĶŁçī© å£°åŃ¦
åĩº çĶŁ
æľŁ æľĽ
éĩıåŃĲ å¼ķåĬĽ
èĭ¥ äººå·¥æĻºèĥ½
èĭ¥ åĬłå¯Ĩè´§å¸ģ
èĭ¥ åħ¨æģ¯
èĭ¥ åħīåŃĲè®¡ç®Ĺ
ä»¥ éĺ²æŃ¢
æĽ´ å¤§
æĽ´ éĿłè¿ĳ
ç»ĵæŀĦ åĬŁèĥ½ä¸»ä¹ī
åİŁ æľ¬
ç¥ŀç»ı å½±åĥı
ç»ıæµİ æĶ¿çŃĸ
åĵªäºĽ ä¼¦çĲĨ
åĵªäºĽ æĸ°çļĦ
æĺ¯ ä¸ª
åħī çĶµ
æĿ¥ å¢ŀå¼º
æĿ¥ ä¼ĺåĮĸ
æıĲ åīį
éĿŀ èģĮä¸ļ
ç¤¾ä¼ļ ç»ĵæŀĦçļĦ
ç½ĳ èĨľ
æ°Ķ æ¸©
å¼ķ è¯Ń
åĪ© çİ¯æµģ
æĪĳ å°±
æĪĳ è§īå¾Ĺ
å¤ļ æķ°
è¯ģ æĪĲ
æ¨¡åŀĭ å¼ºè°ĥ
åıį æĸĩåĮĸ
åıį åĲĳ
æĦŁ è´¨
åľº çļĦ
åĪĻ æĺ¯
æĿĥ çļĦ
åĪ° åºķ
çİ°å®ŀ å¹¶ç½®
æ¶ ¦
å¼Ĥ çļĦ
è®¤çŁ¥ åģıè§ģ
è¿ĩç¨ĭ ä¸İ
èµĦ æł¼
è¿Ļ å°Ĩå¦Ĥä½ķæĶ¹åıĺ
èĢĮéĿŀ çī©çĲĨ
èĢĮéĿŀ åħ·è±¡
è§Ĩ ç½ĳèĨľ
åı¯èĥ½ä¼ļ å½»åºķæĶ¹åıĺ
åı¯èĥ½ä¼ļ è¢«æ·ĺæ±°
çĽ´ è§Ĥ
è¢« è¯ģä¼ª
é«ĺ åİŁ
æł¼ åĪ©
ç®¡ åĪ¶
ç®¡ æİ§
å°ı åŀĭ
åĽ¾ è°±
æķĪåºĶ è¡¨æĺİ
åĪĨæŀĲ æıŃç¤º
å¸¦ æłĩçŃ¾
æĹ¶éĹ´ æ¡Ĩæŀ¶
æĹ¶éĹ´ åĪĨè¾¨çİĩ
å¤ĸ è§Ĥ
è§£éĩĬ é¸¿æ²Ł
æĸ¹æ³ķ çĽ¸æ¯Ķ
ç®Ĺæ³ķ å®ŀçİ°
çĶ» ä½ľ
çªģ åıĳæĢ§
æĹł çº¿
èĮĥå¼ı æıĲåĩºäºĨæĮĳæĪĺ
è¿Ľè¡Į ä¿®æŃ£
å¸Ĥåľº èĩªæĪĳè°ĥèĬĤ
æ¯Ķè¾ĥ åĩ¯æģ©æĸ¯ä¸»ä¹īä¸İ
å°Ħ çĶµ
å¤ĦçĲĨ æīĭæ³ķ
éģĹ åĿĢ
æ¸© å¸¦
åı¤ èħ¾
æ¬§ åĩłéĩĮå¾Ĺ
çİ°ä»£ä¸»ä¹ī è¯Ĺäºº
æ°ĶåĢĻ åıĺè¿ģ
æĺ¯åĲ¦ åħħåĪĨ
æĺ¯åĲ¦ åīĬå¼±äºĨ
åŁºç¡Ģ ä¸Ĭ
åĸ Ŀ
å¹´ åīį
å¹´ è½»
èĥ½éĩı ä¼łéĢĴ
ä¿¡æģ¯ éĥ½
ç¢³ åıįé¦Īå¾ªçİ¯
èĥ½å¤Łå®ŀçİ° çĶŁçī©
èĥ½åĲ¦ ç¼ĵè§£
æŀ¶æŀĦ æĢ§
ä¿® åīª
æĶ¿æ²» è¯Ŀè¯Ń
æĶ¿æ²» å¯ĵè¨Ģ
æĸ¹å¼ı ä¸İ
å¾® éĩįåĬĽ
åľŁ èĳĹ
èĥ½æºĲ åŁºç¡Ģè®¾æĸ½
çĶŁçī©åŃ¦ æľºåĪ¶
æµ·æ´ĭ æĿ¿åĿĹ
æµ·æ´ĭ è¾ĵéĢģå¸¦
ï¼ī ï¼Į
å¾Ĺä»¥ å»¶ç»Ń
å¤± æİ§
éĢī çĶ¨
éĢĢ åĮĸçļĦ
éĴ ¦
ç¨³å®ļ æĢ§çļĦ
åįı å®ļ
å½¢å¼ı ä¸İ
åĬ³ å·¥
æ²īç§¯ å±Ĥ
æĹ¢ æľīçļĦ
æĹ¢ ä½ĵçİ°
å®īåħ¨ éĢļä¿¡
ç£ ¨
çĲĨæĢ§ ä¸»ä¹īçļĦ
åŁºç¡Ģè®¾æĸ½ ä¸Ń
åĬ¨æĢģ æľºåĪ¶
ç¿»è¯ĳ æĹ¶
çĻ »
é¢Ħæµĭ æ¨¡åŀĭ
ç¥ŀç»ıç½ĳç»ľ éĢļè¿ĩ
åıĪ éģ¿åħį
éĩıåŃĲè®¡ç®Ĺ åĪ©çĶ¨
åĲİæŀľ å¦Ĥä½ķ
ä¸ĬçļĦ æł¹æľ¬åĪĨæŃ§
è¿ĳ ä¼¼
åı¯ä»¥ éĢļè¿ĩ
åĪĨåŃĲ åĪ¶éĢł
è¶ħè¶Ĭ æ³ķå®ļè´§å¸ģ
å°ĨéľĢè¦ģ åħ¨éĿ¢
åŃ¦æľ¯ è§ĦèĮĥ
åŃ¦æľ¯ æİ¢è®¨
åŃ¦æľ¯ è®¨è®º
ä»·åĢ¼ éĵ¾
ä½¿å¾Ĺ ä¼łç»Ł
éľĢæ±Ĥ ä¸įè¶³
ä¸»å¯¼ äºĨ
åľ°è´¨ åĬĽéĩı
æĸĩæĺİ ä¸ŃçļĦ
è§£åĨ³ äºĨ
çº¿æĢ§ æĹ¶éĹ´
æĬĹ éĩıåŃĲ
å¯¹åºĶ çļĦ
è¡¨çİ°ä¸»ä¹ī ç»ĺçĶ»ä¸ŃçļĦ
ä¿ĥè¿Ľ æĸĩåĮĸäº¤æµģ
é¥ ±
éĤ£ ç§į
è¿ĺ æľī
åıįé¦Ī åĽŀè·¯
ç¤¾äº¤åªĴä½ĵ åĽŀéŁ³å®¤éĢļè¿ĩç®Ĺæ³ķ
å½ĵåīį å¯¹
ç»´æĮģ äºĨ
éļ¾ éģĵ
çĶŁæĪĲ çļĦ
ä¿ĿæĬ¤ å·¥ä½ľ
åĨħå®¹ ä¸ªæĢ§åĮĸ
çħ§ æĺİ
ä»ĭ å¯¼çļĦ
éĥ½ ä¼ļ
è¡° åĩı
æıĲåĩºäºĨ è´¨çĸĳ
ä¿¯åĨ² ä½ľçĶ¨
æ°§ æ°Ķ
æĮĩæłĩ çļĦ
è¿Ļä¸Ģ çĤ¹
å¹²é¢Ħ æīĭæ®µ
åĪĩ å®ŀ
èħ Ķ
ç»ĺçĶ» ä¼łç»Ł
æĤ²åī§ èĭ±éĽĦ
å¾®çĶŁçī© ç¾¤èĲ½
éĽĨä½ĵ æĹłæĦıè¯Ĩ
æľºåĻ¨åŃ¦ä¹ł ç³»ç»Ł
åıĸä»£ åį°åĪ·
èĩªåĬ¨åĮĸ åıĸä»£äºĨ
çĸ¾çĹħ ä¼łæĴŃ
å°¼ æĸ¯
ä½ľä¸º ä¸Ģç§į
åİĭåĬĽ åĴĮ
åĨ· æł¸èģļåıĺ
ä¿¯åĨ²å¸¦ æŀĦéĢł
çİ°æľīçļĦ å®ĩå®ĻèĨ¨èĥĢæ¨¡åŀĭ
æľŁéĹ´ çļĦ
å·¥ä½ľ åľºæīĢ
éĩĳèŀį å¸Ĥåľº
åľ¨åħ¨çĲĥèĮĥåĽ´åĨħ å¾Ĺä»¥å®ŀæĸ½
å·¥ä¸ļéĿ©åĳ½ çļĦ
æĪĺçķ¥ çĽ¸äºĴä¾ĿåŃĺåħ³ç³»
å·¥ä¸ļåĮĸ è¿Ľç¨ĭ
åĪĽéĢł æĢ§
å¯Į åĲ«
ç»Ļ æĪĳ
å¦Ĥä½ķå½±åĵįäºĨ åĲİç»Ń
çĥŃå¸¦ åľ°åĮºçļĦ
å°ĨéľĢè¦ģè¿Ľè¡Į æĢİæł·çļĦ
èģĮ ä½į
æľīæľº ä½ĵ
æĪĲæľ¬ æķĪçĽĬ
åıĪç¬¦åĲĪä¸Ńæĸĩ è¡¨è¾¾
Ġc h
æĿĥå¨ģ æĢ§
ä¸ªä½ĵ å¦Ĥä½ķéĢļè¿ĩ
èĲ¥åħ» çº§
å¼ķåħ¥ çļĦ
åįĬå¯¼ä½ĵ çļĦ
it al
ä¸ĬåŃĺåľ¨ å·®å¼Ĥ
è¿ĳä»£æĹ©æľŁ çļĦ
ä¸įæĸŃ åĬłåī§
çī¹å®ļ çļĦ
è¡¨è§ĤéģĹä¼łæľºåĪ¶ æıŃç¤ºäºĨ
Ġp r
æĮ¯ åĬ¨
çļĦæĬĢæľ¯ åıĳå±ķ
çļĦæĬĢæľ¯ éļľç¢įæľīåĵªäºĽ
å¥¹ çļĦ
ä¸ľ åįĹäºļ
åı¥æ³ķ åĲ¯åĬ¨
æ²¹çĶ» æĬĢæ³ķ
æĸ°åŀĭ éĩıåŃĲè®¡ç®Ĺ
æł¹æį® ç»ĵæŀľ
æĪ¿ äº§
at es
éĩįç»Ħ èĥ½åĬĽ
è¡Įä¸ļ çļĦ
çĶŁäº§åĬĽ æĮĩæłĩ
åĲİæ®ĸæ°ĳåıĻäºĭ ä¸ŃçļĦéŃĶå¹»çİ°å®ŀä¸»ä¹ī
é£İæł¼ æ´¾
th er
æ¸ħ æ¥
äº² ç¼ĺ
æķ°åŃĹèīºæľ¯ çļĦåı¯å¤įåĪ¶æĢ§
çļĦç¥ŀç»ı åĽŀè·¯
è¶ħè¿ĩ æ³ķå®ļè´§å¸ģ
çĸĳéĹ® åı¥çļĦ
çĵ ·çĶµè§£è´¨
åĲİæ®ĸæ°ĳæĸĩåŃ¦ å¸¸éĩĩçĶ¨
å½ĵåīįçļĦ å®ĩå®ĻèĨ¨èĥĢæ¨¡åŀĭ
è¶ĭäºİ æĪĲçĨŁ
åľ°å£³ åĿĩè¡¡åıįå¼¹
çľŁçĲĨ ä¸»å¼ł
éļĲå½¢ æĬĢæľ¯
ç¹ģ æ®ĸ
æĭľåįłåºŃåľ£åĥı çł´åĿıè¿ĲåĬ¨
åį°åĪ·æľº çļĦæĻ®åıĬ
äºļéĩĮå£«å¤ļå¾· å½¢èĢĮä¸ĬåŃ¦
æĿ¥å®ŀçİ° å®¹éĶĻçļĦéĩıåŃĲæ¯Ķçī¹æĵįä½ľ
è¾¹ç¼ĺè®¡ç®Ĺ åŁºç¡Ģè®¾æĸ½
æĿİåĺīåĽ¾çŃīä»·å®ļçĲĨ éĢļè¿ĩ
å¯¹æĬĹ æĢ§
æµ® çİ°
ul tural
åıįæĺłäºĨ æĪĺåĲİ
å¯¡å¤´åŀĦæĸŃå¸Ĥåľº ç»ĵæŀĦ
åĪĨæķ£ åĮĸ
æĦıè¯ĨæµģåıĻäºĭæĬĢå·§ éĢļè¿ĩ
åĤ¨èĵĦ åĴĮæĬķèµĦ
ç»¼åĲĪ å¾ģ
åĲ¯èĴĻè¿ĲåĬ¨ çļĦ
ç¤¾ä¼ļåĪĨå±Ĥ æ¨¡å¼ı
åįļçī©é¦Ĩ çŃĸå±ķ
il l
æĸ¯å¤ļèĳĽ åĵ²åŃ¦
çİ¯å¢ĥåĽłç´ł å¯¹
å®ŀçĶ¨ åĮĸ
æ°¸ä¹ħæĢ§ åľ°æĶ¹åıĺäºĨ
çļĦæ¯Ķè¾ĥåĪĨæŀĲ æıŃç¤ºäºĨ
åľ°è´¨æĹ¶éĹ´å°ºåº¦ ä¸Ĭ
äººå·¥æĻºèĥ½ç³»ç»Ł ä¸įåĲĮ
èĩªåĬ¨é©¾é©¶æ±½è½¦ çļĦæĻ®åıĬ
å¯» æ±Ĥ
äººç±»ä¸Ńå¿ĥ ä¸»ä¹īçļĦ
æµģçķħ æĢ§
éĵģ è·¯
æŃ£åıįé¦Īå¾ªçİ¯ åĬłéĢŁ
éĩĳå±ŀ éĺ³æŀģ
ä¸İæĸĩåĮĸ çĽ¸å¯¹ä¸»ä¹ī
ä»¿çĶŁ å»ºçŃĳ
å¡ĳæĸĻ æ±¡æŁĵ
èīºæľ¯åĵģ çļĦéĿŀçī©è´¨åĮĸ
åŃ¦çłĶç©¶ æıŃç¤ºäºĨ
å¯ĨéĽĨ åŀĭ
å¦ĤæŀľäºļåİĨå±±å¤§åĽ¾ä¹¦é¦Ĩ ä¿ĿåŃĺå®Įå¥½
pl ic
è¯Ńè¨ĢçļĦ æłĩåĩĨåĮĸ
æĺ¾çİ° åĩº
åħ±ä»· çĽ¸äºĴä½ľçĶ¨
åı¯èĥ½åıĳçĶŁ ä½ķç§į
ç¥ŀç»ıåĽŀè·¯ çļĦç²¾åĩĨæĵįæİ§
åŃ£ é£İ
æĺŁéĻħæĹħè¡Į æīĢéľĢæĹ¶éĹ´
åŁİå¸ĤçĥŃå²ĽæķĪåºĶéĢļè¿ĩ å¢ŀåĬł
ç»ĵæŀľçļĦ æľĢå¤§åĮĸ
åĵªäºĽç¤¾ä¼ļåŃ¦ æľºåĪ¶
å¸ĮèħĬåĮĸ æĹ¶æľŁçļĦ
åĲİç»ĵæŀĦä¸»ä¹īæĸĩåŃ¦æī¹è¯Ħ éĢļè¿ĩ
éĢĤçĶ¨ æĢ§
å¸¸çĶ¨ çļĦ
åĢĺèĭ¥äºļåİĨå±±å¤§åĽ¾ä¹¦é¦Ĩå¾Ĺä»¥ å®Įå¥½ä¿ĿåŃĺ
æ®ĸæ°ĳåľ° çļĦ
æł¸èĭ·éħ¸ åºıåĪĹ
æł¸èĭ·éħ¸ æĽ¿æį¢
è¡įçĶŁ åĵģ
å¦Ĥæŀľäººå·¥æĦıè¯Ĩ å¾Ĺä»¥å®ŀçİ°
çİ°è±¡åŃ¦è¿ĺåİŁ æĹ¨åľ¨
ä¸Ńå¤®éĽĨæĿĥ çļĦ
å¦Ĥæŀľç³»å¤ĸè¡ĮæĺŁå¤§æ°Ķ å±Ĥä¸Ń
æĹłçĽĳçĿ£ æľºåĻ¨åŃ¦ä¹ł
å¥ĳ åĲĪ
çº¢ç§» è§Ĥæµĭ
åı¯æº¶æĢ§ åŁºå²©
æĭĵæīĳç»Ŀç¼ĺä½ĵçļĦ è¡¨éĿ¢å¯¼çĶµ
å½¢è±¡ åĩĨç¡®æĢ§
åĩ¯æģ©æĸ¯ä¸»ä¹īç»ıæµİåŃ¦ä¸»å¼ł æĶ¿åºľå¹²é¢Ħ
å·¥ä¼ļ åĮĸ
åı¯ä»¥åıĳçİ° ä¸¤èĢħåľ¨
çļĦåĮºåĪ«åľ¨äºİ åħ¶
æľºä¼ļæĪĲæľ¬ å·®å¼Ĥ
åĢĴç½® åľ°å½¢
èĤ¡ ä¸ľ
åı¤èĢģ çļĦçĶ²çĥ·
ä¼Ļ ä¼´
å¹¿ä¹īçĽ¸å¯¹è®ºä¸İ éĩıåŃĲåĬĽåŃ¦
åĲĪçĲĨ åĮĸ
å°ĨåıĳçĶŁä½ķç§į è½¬åıĺ
ä»¥ä¸ĭä¸ĵä¸ļ å¤ĦçĲĨ
çİ»çĴĥå¤©èĬ±æĿ¿ çİ°è±¡
çº§åĪĨè¾¨çİĩ çļĦå®ŀæĹ¶æ°ĶåĢĻå»ºæ¨¡
åĩĨç¡®ä¼łéĢĴ äºĨ
sp ec
éĿŀä¾µåħ¥æĢ§ ç¥ŀç»ıè°ĥæİ§
æĹ§å¤§éĻĨ ä½ľçī©
å¼¥ åĲĪ
æ·±è¿ľ å½±åĵį
åı¤åħ¸çŁ¥è¯ĨçļĦ ä¼łæī¿
æĳĨ èĦ±
æłĳæŀĿçĬ¶ æİĴæ°´
è´¹ç±³æĤĸè®º åĩ¸æĺ¾äºĨ
æĪĲéķ¿ å°ıè¯´
èĩŃæ°§ å±Ĥ
åĵªäºĽåľ°ç¼ĺæĶ¿æ²» åĽłç´łä½¿å¾Ĺ
ä½¿ä¸Ńæĸĩ è¡¨è¾¾
æ²¹çĶ»é¢ľæĸĻçļĦåıĳæĺİä½¿å¾Ĺ æĸĩèīºå¤įåħ´æĹ¶æľŁçļĦèīºæľ¯å®¶
ä¸İå¯¹ç§° åĬłå¯Ĩä¸įåĲĮ
åĵĪå¾· åĪ©çİ¯æµģ
å·¦ åı³
çģµéķ¿ ç±»åĬ¨çī©
èĩªèº«åħįçĸ« æĢ§çĸ¾çĹħçļĦæ²»çĸĹ
å±ıå¹ķä½¿çĶ¨æĹ¶éĹ´ çļĦå¢ŀåĬłä¸İ
æĸ°èīºæľ¯è¿ĲåĬ¨çļĦæľīæľº å½¢æĢģ
åģ¶ çĦ¶
æ´»ä½ĵç»Ħç»ĩä¸İ åĲĪæĪĲ
åĨįåŁ¹è®Ń è®¡åĪĴ
ç¬¬åĽĽä»£ æł¸åıįåºĶåłĨ
è½®çıŃå·¥ä½ľèĢħçļĦ æĺ¼å¤ľèĬĤå¾ĭç´Ĭä¹±
å®¿åĳ½ è®º
ç¥ŀç»ıç³»ç»Łçĸ¾çĹħ çļĦæ²»çĸĹ
å½ĴåĽł äºİ
ä¸»åĬ¨åĲĮåĮĸ èĢĮéĿŀè¢«åĬ¨
éĢĨåĨ² åľ°éľĩ
éĩıåŃĲå¯ĨéĴ¥åĪĨåıĳåĪ©çĶ¨ éĩıåŃĲçºłç¼ł
ç¥ŀç»ıåģĩ ä½ĵ
çŃīå¾ħ åĲįåįķ
ater ial
åĲİç»ĵæŀĦä¸»ä¹īå¯¹è¯Ńè¨Ģ çļĦæī¹åĪ¤
ç²Ĺéĩİ ä¸»ä¹ī
å¬ Ĺåıĺ
éĻ¶ çĵ·çĶµè§£è´¨
åı¤åŁºåĽłç»Ħ åŃ¦
ç¼ĵè§£åĨľä¸ļçĶ¨åľ° åİĭåĬĽ
åĲĪæĪĲçĶŁçī©åŃ¦çļĦ åºķçĽĺçĶŁçī©
çļĦåı¯éĿł æĢ§
è¡įå°Ħ æŀģéĻĲ
çħ ¤
é¬ ¼
åĨĹ ä½Ļ
æµ·é©¬ ä½ĵ
çİ»èī² åŃĲ
ç½Ĺæĸ¯ç§ĳçļĦ èī²åŁŁç»ĺçĶ»
pH åĢ¼
è´¡ çĮ®
çĻ½åŀ© çºª
å£°è°ĥ è¯Ńè¨Ģ
åħ¬åħ±åį« çĶŁ
èįĴè¯ŀæ´¾ æĪıåī§
âĻ ª
éĿŀèģĮä¸ļ æ¼Ķåĳĺ
åı¤èħ¾ åł¡
æ¸ħæ¥ ļ
T A
T r
c re
f l
t y
u g
² æŁĵ
º æĹĭ
Ġ åŃ¦æľ¯
Ģ åįĩ
çļĦ åĬ¨
çļĦ åĨ³çŃĸ
çļĦ æł¹æľ¬æĢ§
çļĦ ä¼ĺåħĪ
çļĦ æ¦Ĥçİĩ
çļĦ çĲĨå¿µ
çļĦ å¤§è§Ħæ¨¡
çļĦ æī©æķ£
çļĦ æ°ĶåĢĻåıĺåĮĸ
çļĦ åĪ¶éĢłä¸ļ
çļĦ å°ıåŀĭåĮĸ
çļĦ å¾®åŀĭåĮĸ
åŃ Ķ
å® Ŀ
éĢ ĥ
å¯ ¸
èĥ½ çļĦ
èĥ½ æĽ´æľīæķĪåľ°
å° Ĭ
åľ¨ ä¸į
åľ¨ è¶ħ
åľ¨ èī²å½©
åľ¨ æĹ©æľŁ
åľ¨ æŃ¤
åľ¨ ä¸Ńä¸ĸçºª
åľ¨ äºļåİŁåŃĲ
åľ¨ æľ¬è´¨ä¸Ĭ
åľ¨ æĦıè¯ĨçłĶç©¶ä¸Ń
ä¸Ń åıĳæĮ¥äºĨä½ķç§įä½ľçĶ¨
åĮĸ è¡¨è¾¾
äºĨ ä¸Ģ
çī Į
ä¸İ çİ°å®ŀ
ä¸İ çĶŁæĢģ
ä¸İ åŁºäºİ
ä¸İ æĸĩèīºå¤įåħ´
ä¸İ æĸ°åı¤åħ¸ä¸»ä¹ī
ä¸İ æ³ķåĽ½å¤§éĿ©åĳ½
ä¸İ èĴĻå¾·éĩĮå®ī
æµ ĳ
æĺ ¥
éĢļè¿ĩ éĩĩçĶ¨
éĢļè¿ĩ åĪĨå¸ĥå¼ı
åĩ ¶
åĩ ĳ
åı¯ ä½¿
åı¯ éªĮè¯ģ
å¦Ĥä½ķ åĲĮæĹ¶
å¦Ĥä½ķ åºĶçĶ¨äºİ
å¦Ĥä½ķ åħĭæľį
æĶ Ģåįĩ
ä¼ļ åīĬå¼±
ä¸į åĨį
ä¸į çŁ¥éģĵ
æĮ ĸ
å°Ĩ æľīæľĽå®ŀçİ°
åıĳ æĺİ
ä¼ł è¯´
æ¨ ª
æ³ķ åħ¸
æĹ¶ åºı
åľ° å¸¦
åľ° çĽ¾
åľ° å¿ĥè¯´
åºĶ éģµå¾ª
å®ŀçİ° ç²¾ç¡®çļĦ
å¦Ĥæŀľ æ°¸ä¹ħåĨ»åľŁ
å¦Ĥæŀľ å¼Ĥç§įç§»æ¤į
å¦Ĥæŀľ çŁ³å¢¨çĥ¯çĶŁäº§å®ŀçİ°
åı¯èĥ½ çªģçł´
æĬĢæľ¯ æĪĲçĨŁ
æĬĢæľ¯ å¾Ĺä»¥å®ĮåĸĦ
ç¨ ¿
çĽ¸ ä¿¡
è¡¨ å±Ĥ
ç³»ç»Ł åĮĸçļĦ
ç³»ç»Ł å¾ĹåĪ°
èĢĮ ä¹īåĬ¡è®º
èĢĮ åĳĪçİ°åĩº
èĢĮ ä¹īåĬ¡è®ºæ¡Ĩæŀ¶
èĢĮ æľīæľºåĽ¢ç»ĵ
åĲĪ é¢ĺ
æķ° åįģå¹´
æ¯Ķ åįķçº¯
åħ¨ æĸ°
ä¼łç»Ł å°±ä¸ļ
ä¸Ĭ ç©º
åĩº åı£
éĩıåŃĲ åĮĸ
èĭ¥ åľ¨
èĭ¥ åŀĤçĽ´åĨľä¸ļ
èĭ¥ ç¢³æįķéĽĨ
èĭ¥ åħ¨æ°ĳåŁºæľ¬æĶ¶åħ¥åĪ¶åº¦
ä»¥ ä¸Ĭ
ä»¥ è¯»èĢħ
æĽ´ å¤§çļĦ
çī¹ åį¡
åİŁ çĶŁ
æ¨¡å¼ı åľ¨
æ¨¡å¼ı ä¸º
éĿ¢ éĥ¨
ç¥ŀç»ı éļĲç§ģ
åŃĺåľ¨ åĨ²çªģ
è§Ĥ èĢħä¸İ
æĺ¯ å¯¹
ç¡® è¯ģ
ç¤¾ä¼ļ å½±åĵį
èĢħ ä¹ĭéĹ´çļĦ
æĶ¹ åĸĦ
ä¿Ŀ éĻ©
éĢł åŀĭ
æģ ĭ
è®¡ç®Ĺ æķĪçİĩ
å¾· åĽ½
ä½¿ èīºæľ¯å®¶
æĪĳ çŁ¥éģĵ
ä¸Ģ ä½į
éļ ¶
éĽ ª
éĽ ¾
å»º æĪĲ
åľº ä¸ŃçļĦ
åĿ Ĳ
æĿĥ éĩį
æĸĩåŃ¦ ç»ıåħ¸
æĸĩåŃ¦ ä½ľåĵģ
äººç±» æĢĿç»´
æĦıè¯Ĩ ä¸İ
æ¸ ²æŁĵ
å¸¸ åĢŁ
å¸¸ å¸¸éĢļè¿ĩ
ç§ĳ éĩĮå¥¥
åıĳå±ķ ä¸ŃçļĦ
æķ°åŃĹ ç´łåħ»
è¿Ļ ä½į
è§Ĩ éĶĻè§ī
èŀ ºæĹĭ
èŀį æ°´
åı¯èĥ½ä¼ļ æľī
åı¯èĥ½ä¼ļ ä»İæł¹æľ¬ä¸ĬæĶ¹åıĺ
å½ĵ çĦ¶
å¥ ī
éĩĩçĶ¨ åŃ¦çķĮ
ç¬¦åĲĪ æ±īè¯Ń
è¢« èµĭäºĪ
æł¼ çĬ¶æ°´ç³»
åĽ¾ æĻ¯
æĸĩåĮĸ èŀįåĲĪ
æĹ¶éĹ´ èĨ¨èĥĢæķĪåºĶ
æ®ĸæ°ĳ æĹ¶æľŁ
çĥŃ åĸĢæĸ¯çī¹åľ°è²Į
æĹł æĦıè¯ĨçļĦ
çİ¯å¢ĥ å¤ĸéĥ¨æĢ§
çº¿ æĢ§çļĦ
çº¿ ç´¢
èĮĥå¼ı å°Ĩå¦Ĥä½ķè½¬åıĺ
åıĳçĶŁ çļĦ
åıĳçĶŁ äºĨ
è¿Ľè¡Į ç²¾ç¡®
åħĥ åıĻäºĭ
å¸Ĥåľº åıĤä¸İ
.. ..
æľª ç»ı
çłĶç©¶ è¯ģå®ŀ
ä¸ĵä¸ļ æĢ§
éģĹ äº§
èģĶ è§ī
æŃ£ è§Ħ
åĩĨç¡® é¢Ħæµĭ
åĩĨç¡® åıįæĺł
éĻĲ åº¦
æĮģç»Ń å¢ŀå¼º
åĵ²åŃ¦ æ¦Ĥå¿µ
çİ°ä»£ä¸»ä¹ī å°ıè¯´ä¸Ń
éģĹä¼ł æĢ§
åĵģ è´¨
åĢĺèĭ¥ æ³Ľå¿ĥè®º
åĢĺèĭ¥ å°ıè¡ĮæĺŁéĩĩçŁ¿
æĪĸ èĢħ
å¯¹æ¯Ķ ç»ĵæŀĦ
å¯¹æ¯Ķ åħ³ç³»
çĶŁäº§ æĸ¹æ³ķ
éĩįæĸ° æŀĦå»º
ç»ıæµİåŃ¦ ä¸ŃçļĦ
æĶ¿æ²» æī¹åĪ¤
æĶ¿æ²» ä½ĵåĪ¶
åħ± åĴĮ
å¸ĥ æĭī
å¿ĥçĲĨ åĬ¨åĬĽåŃ¦
åŁºäºİ è´£ä»»
èĥ½æºĲ çĶµç½ĳ
çĽ´æİ¥ çļĦ
æĺ¾èĳĹ åĩıå¼±
æĺ¾èĳĹ æıĲåįĩäºĨ
ç¬¦åĲĪä¸Ńæĸĩ ç¤¾ç§ĳ
å²© æº¶
é£İ æĻ¯
åİĨåı² ä¸Ĭ
åİĨåı² è¿Ľç¨ĭ
è¿ĲåĬ¨ éĢļè¿ĩ
ç§» åĬ¨
å¤§æ°Ķ çĶ²çĥ·æµĵåº¦
çĽ¸åħ³ çļĦ
åħ¬ åħĥ
è¡ĮæĺŁ ä¿ĿæĬ¤
å¾ªçİ¯ è¿ĩç¨ĭ
å¾ªçİ¯ ä¸Ńå½¢æĪĲ
æľĢ èĥ½
æľĢ å°ı
ä»į ä¿ĿæĮģ
ä»į åŃĺäºīè®®
æ²īç§¯ è¿ĩç¨ĭ
å¹¶ ä¸į
å¹¶ éĿŀ
çļĦå½¢æĪĲ æĺ¯
çĲĨæĢ§ åģĩè®¾
é¢łè¦Ĩ å¸ĿåĽ½ä¸»ä¹ī
åŁºç¡Ģè®¾æĸ½ æĬķèµĦ
åıĤ èĢĥ
ä»İèĢĮ å¯¹
å±Ģ åŁŁ
ç±³ å°Ķ
é¢Ħæµĭ å¯¡å¤´åŀĦæĸŃå¸Ĥåľºè¡Įä¸º
åĪĨå¸ĥ æł¼å±Ģ
æĭī ç»´å°Ķ
éħį å¤ĩ
æ²³ è°·
ä¸ĬçļĦ ä¸įåĲĮ
ç¥ŀç»ıå½¢æĢģ å·¥ç¨ĭ
åĪ¶éĢł å·¥èīº
é©¬ å°Ķ
é©¬ å¤ª
é©¬ æł¼åĪ©
å°ĨéľĢè¦ģ å¦Ĥä½ķ
å°ĨéľĢè¦ģ å½»åºķéĿ©æĸ°
ä¾µ çĬ¯
çģ«å±± å±±èĦī
æĢĿ èĢĥ
ä¹Ł å¼ķåıĳäºĨ
è¡¨è¿° è§ĦèĮĥ
æĻ®éģį åŃĺåľ¨
èĪ į
ä¸ī åĢį
çĽ¸å¯¹è®º çī©çĲĨåŃ¦
éĿ¢ä¸´ çĿĢ
è¡Įä¸ºç»ıæµİåŃ¦ æıŃç¤ºäºĨ
ä»İæł¹æľ¬ä¸Ĭ éĻĲåĪ¶äºĨ
æ¨¡æĭŁ äºĨ
æĪĸå°Ĩ è¿İæĿ¥
éĻĲåĪ¶ éĺ»ç¢įäºĨ
è¿ĽåĮĸ è®º
éĤ£ éĩĮ
æľ¬è´¨ ä¸»ä¹ī
å§ Ĳ
åĬ© äºİ
ä½ĵçİ° åľ¨
éķ¿æľŁ æĮģç»Ń
çī©çĲĨåŃ¦ ä¸Ń
åĸĢæĸ¯çī¹åľ°è²Į åıĳèĤ²
è°ĥåĴĮ äºĨ
å°º å¯¸
æ½ľ çĥŃ
åĪ©äºļ æĿ¾
åĩıå°ĳ åĨľä¸ļçĶ¨åľ°ä½¿çĶ¨
å¤ªéĺ³ è¾Ĳå°Ħ
æķĻèĤ² ä½ĵç³»
æķĻèĤ² æĬķèµĦ
å°ºåº¦ ä¸ĭ
åį³ å°Ĩ
ä¿ĿæĬ¤ æĮĳæĪĺ
ä¾µèļĢ éĢŁçİĩ
ä»ĭ å¯¼
èĩªçĶ± è¯Ĺ
çĶµç£ģ é¢ĳè°±
çŁ¿ åĮĸ
æİ¨è¿Ľ æĬĢæľ¯
åĪĩ çīĩ
å¾Ģå¾Ģ ä¸İ
å¯ĨçłģåŃ¦ åĵĪå¸Į
èĩªä¸» æĹłäººæľº
åįķ åħĥ
å±ķçİ°åĩº æĽ´ä¼ĺ
é» ĺ
èĩ³ ä¸Ĭ
è§Ĩè§Ĵ çļĦç¢İçīĩåĮĸå¤ĦçĲĨ
äººä»¬ å¯¹ä¼łç»Ł
æĸĩèīºå¤įåħ´æĹ¶æľŁçļĦ æ¹¿å£ģçĶ»
æĿİåĺīåĽ¾ æ¯Ķè¾ĥä¼ĺåĬ¿çĲĨè®º
çļĦè®¤çŁ¥ æĦŁçŁ¥
æ¶Īè´¹ æĸĩåĮĸ
ar ch
åľ¨å¤ļ åħĥ
éĩĳèŀį ä¸Ńä»ĭ
åľ¨åħ¨çĲĥèĮĥåĽ´åĨħ æĻ®åıĬ
æĺŁéĻħ æ®ĸæ°ĳ
èİ·åıĸ éĢĶå¾Ħ
è¯¥ç¿»è¯ĳ ç¬¦åĲĪ
è¯¥ç¿»è¯ĳ å®ŀçİ°äºĨ
åį¡ æĭī
ç¤¾åĮº ä¸ŃçļĦ
åĮĹæŀģ çĶ²çĥ·æİĴæĶ¾
å®ıè§Ĥ ç³»ç»Łä¸Ń
çĥŃå¸¦ æ£®æŀĹçłįä¼Ĳ
æĢĿæĥ³ å®ŀéªĮ
æľĢå¤§ åĮĸçļĦ
Ġc ol
ç³»ç»Łä¸ŃçļĦ ç®Ĺæ³ķåģıè§ģéĢļè¿ĩ
å¥¥ æĭīç»´å°Ķ
çĲĨæĢ§éĢīæĭ© æ¨¡åŀĭ
èĥĮ ç¦»
çļĦä¼łç»Ł è®¤çŁ¥
ä¸ªä½ĵ çļĦ
æī¿ è½½
åı¤ä»£ æĸĩçĮ®çļĦ
åĬ³åĬ¨åĬĽå¸Ĥåľº åĬ¨æĢģ
åįĬå¯¼ä½ĵ å¸¦éļĻ
ä¸Ŀç»¸ä¹ĭè·¯ æľªæĽ¾
æŁĵ èī²
åĨ²ç§¯æīĩ çļĦå½¢æĪĲè¿ĩç¨ĭ
çļĦè½¬åıĺ è¿ĩç¨ĭ
æľįåĬ¡ åĻ¨
Ġp atter
çŀ¬ éĹ´
æłĩå¿Ĺ çĿĢ
ä»ĸä»¬ çļĦ
ç¡®ç«ĭ ä¸º
æĺİæļĹ æķĪæŀľ
éĩįå¤§ çªģçł´
åįļå¼Īè®ºåľ¨ å¸ĤåľºåĪĨæŀĲ
ä¸»æĿĥ è´§å¸ģ
åľ°ä¸Ńæµ· åľ°åĮº
åľ°ä¸Ńæµ· è´¸æĺĵç½ĳç»ľ
å®¤æ¸©è¶ħå¯¼ä½ĵ çļĦåıĳå±ķ
äººæľº åįıä½ľ
å¦Ĥæŀľåıįçī©è´¨ åĤ¨åŃĺ
ç´§ åĩĳ
åĳĺ ä¼ļ
çĶŁäº§åĬĽ æıĲåįĩ
è´ŁæĬĺå°Ħçİĩ çī¹æĢ§
th e
çł´åĿı äºĨ
çĦ¦ çĤ¹
åŀĤçĽ´åĨľä¸ļ æĬĢæľ¯çļĦ
è·¨åĽ½ èº«ä»½
éģµå¾ª ä»¥ä¸ĭåİŁåĪĻ
è¡¥ åģ¿
æŁĲ ç§į
ç¤¾ä¼ļç»ıæµİ åĪĨå±Ĥ
è¶ĭäºİ å¤įæĿĤåĮĸ
èĭ¥éĩıåŃĲ éľ¸æĿĥ
ac e
åĪĿ å§ĭ
ç¯ ·
æ¨¡åŀĭçļĦ é¢Ħæµĭ
èĵ Ŀ
æĬĬ åħ³
è§Ĵèī² å¡ĳéĢł
æŀģåľ° åľ°åĮº
æŀģåľ° åľ°åĮºçļĦ
Ġä¸ĵä¸ļæľ¯è¯Ń åĩĨç¡®æĢ§
çļĦè¡¨è¿° è§ĦèĮĥ
åĨ°çĽĸ æ¶ĪéĢĢ
éļĲå½¢ æĸĹ
ç¹ģ èį£
çļĦç²¾ç¡® æĵįæİ§
çļĦç²¾ç¡® æİ§åĪ¶
ä»£éĻħ è´¢å¯Į
Gç½ĳç»ľ å¯ĨéĽĨåĮĸ
Gç½ĳç»ľ åĪĩçīĩ
çĶŁçī©æłĩå¿Ĺ çī©çļĦ
ç½ĳç»ľç¤¾ä¼ļ èĮĥå¼ı
å»ºæŀĦä¸»ä¹ī åŃ¦ä¹ł
æķ´ä¸ª çĶŁæĢģç³»ç»Ł
æĭľåįłåºŃé©¬èµĽåħĭ ä¼łç»Ł
æĹ¢ä¿ĿæĮģ ä¸ĵä¸ļ
æĹ¢ä¿ĿæĮģ åŃ¦æľ¯ä¸¥è°¨æĢ§
è¡Įä¸ºç»ıæµİåŃ¦éĢļè¿ĩ å¼ķåħ¥
æĬĳ æī¬
åºŁ æĸĻ
åºŁ éĻ¤
åľºæĻ¯ ä¸Ń
å¦ĤæŀľæļĹèĥ½éĩıå¯Ĩåº¦éļıæĹ¶éĹ´ åıĺåĮĸ
æĢģåº¦ æĶ¹åıĺ
æī§è¡Į åĨ³çŃĸèĥ½åĬĽ
æ·±åº¦ä¼ªéĢłæĬĢæľ¯çļĦ æ¿Ģå¢ŀ
æħ °
éĩįè¦ģ æĢ§
ç¥ŀç»ıç»ĩç½ĳ æĬĢæľ¯
çĶŁçī©å·¥ç¨ĭ æĶ¹éĢłçļĦ
ç½ĳç»ľçĲĨè®º åºĶçĶ¨
è·Ŀ ç¦»
å§Ķ åĳĺä¼ļ
ä»ª åĻ¨
å¦Ĥæŀľå®¤æ¸©è¶ħå¯¼ä½ĵ å®ŀçİ°åķĨä¸ļåĮĸåºĶçĶ¨
èµĦæľ¬ç§¯ç´¯ æĺ¯
è¯Ńè¨ĢçĽ¸å¯¹è®º åģĩè¯´è®¤ä¸º
æģ¶ åĮĸ
ç¬¦åĲĪä¸Ńæĸĩè¡¨è¾¾ä¹łæĥ¯ çļĦ
è¶ħæĿĲæĸĻéļĲèº« è£ħç½®
åĵ¥çī¹å¼ı å½©
éģĵå¾·çī¹æ®Ĭä¸»ä¹ī ä¸»å¼ł
çļĦæıĲåįĩ ä¸İ
ç¼ĸç»ĩ ä»»æĦıåŃĲ
Ġe x
éĩĩçĶ¨äºĨ æĪªçĦ¶ä¸įåĲĮçļĦ
äººå·¥åħīåĲĪä½ľçĶ¨ ç³»ç»Ł
æ³¨æĦıåĬĽ ç»ıæµİ
éĽĨçº¦ åĨľä¸ļ
èĩªåĬ¨é©¾é©¶æ±½è½¦ åĨ³çŃĸç®Ĺæ³ķ
åº·å¾·çļĦç»Ŀå¯¹åĳ½ä»¤ ä¸»å¼ł
me works
éģĵå¾·å®ŀåľ¨è®ºèĥ½åĲ¦ ç»ıåıĹä½ı
èĢĥåı¤ éģĹåĿĢ
æĬķæľº äº¤æĺĵæ¨¡å¼ı
ç¤¾ä¼ļå¯¹ å®ıå¤§
ä¸ĸçºªåĪĿ æľŁ
è¶ħåĩº å½ĵåīį
åİ»ä¸Ńå¿ĥåĮĸçļĦ äº¤æĺĵéªĮè¯ģ
èĭ¥å°Ĩ åĲĪæĪĲçĶŁçī©åŃ¦
Ġb i
éĥ¨åĪĨ çĨĶèŀį
ç¤¾ä¼ļæĶ¿æ²» çİ°å®ŀ
è¿Ļæł· çļĦ
ä¼°ç®Ĺ éĵ¶æ²³ç³»
åŁĥ åıĬ
åŁĥ åĪ©äºļæĿ¾
è¶ĭåĲĮ æ¼ĶåĮĸ
çī©ç§įçļĦ è¿ĽåĮĸè½¨è¿¹
åĲİæ®ĸæ°ĳæĸĩåŃ¦ä¸ŃçļĦéŃĶå¹»çİ°å®ŀä¸»ä¹īå¸¸ ä»¥
æķ°åŃĹå¹³åı° ç»ıæµİä¸Ń
åĵ²åŃ¦ä¸ŃçļĦ è¯Ńè¨ĢåŃ¦è½¬åĲĳå°Ĩ
åĵªäºĽç¤¾ä¼ļåŃ¦ åĽłç´ł
è¶ħå¯¼éĩıåŃĲå¹²æ¶ī è£ħç½®
ç¤¾äº¤åªĴä½ĵç®Ĺæ³ķéĢļè¿ĩéĢīæĭ©æĢ§åĨħå®¹ æİ¨éĢģ
æīĢéľĢ çļĦ
ä¸įåı¯éĢĨè½¬ çļĦ
éģµå®Ī éģĵå¾·è§ĦåĪĻ
åįĵ è¶Ĭ
ç»´ç³» çĿĢ
å®ŀçİ°äºĨå¯¹ çĶµç£ģæ³¢
èĥ½å¤Łè¾¾åĪ° çĶŁçī©ç¥ŀç»ıç½ĳç»ľçļĦæķĪçİĩ
æ·±åº¦ä¼ªéĢłæĬĢæľ¯çļĦæī©æķ£ äºŁéľĢ
å¼ºåĪ¶ æĢ§
æķ°åŃĹéĢļä¿¡ å¹³åı°
æ¸©å®¤æ°Ķä½ĵ æİĴæĶ¾
åİĮ æģ¶
åįļå¼Īè®ºåľ¨è¿ĽåĮĸçĶŁçī©åŃ¦ ä¸ŃçļĦåºĶçĶ¨
æ²Ļæ¼ł åĮĸ
æ¿Ģåıĳ æĢģ
è¶ħè¶Ĭç¡ħåŁº ç³»ç»Ł
ç»ıæµİä¸ŃçļĦ ç½ĳç»ľæķĪåºĶ
èĦīåĨ² ç¥ŀç»ı
çİĽ ä¸½
éĩıåŃĲåľºè®ºå°Ĩ ç²ĴåŃĲ
éķľåĥıç¥ŀç»ıåħĥ ç³»ç»Ł
å¼ºè°ĥç»ıéªĮéªĮè¯ģ çļĦè®¤è¯Ĩè®ºæ¡Ĩæŀ¶
å°Ĩå¦Ĥä½ķè¢« éĩįæĸ°å®ļä¹ī
è£Ĥåıĺ åıįåºĶåłĨ
èĸ Ħ
åĮºåŁŁæ°ĶåĢĻ ç¨³å®ļæĢ§
åħ¼ é¡¾
Ġmo del
åĨħçĶŁå¢ŀéķ¿çĲĨè®ºå¼ºè°ĥ çŁ¥è¯Ĩ
æĭĵå±ķ äºĨ
åı¯èĥ½éĢļè¿ĩæĶ¹åıĺ çĥŃéĩıåĪĨå¸ĥ
ç¨ĢåľŁ éĩĳå±ŀ
å°¤ä¸º ä¸¥éĩį
çļĦäº¤æĺĵ è®°å½ķ
ä¸İåĲİ å¤©
æīĭæĬĦæľ¬ å½©é¥°
æĤ²åī§æĢ§ ç¼ºéĻ·
è¾¾åĪ°åīįæīĢæľªæľīçļĦ æ°´å¹³
æĭį æĳĦ
åįļå¼Īè®ºåľ¨è¡Įä¸ºç»ıæµİåŃ¦ ä¸ŃçļĦåºĶçĶ¨æıŃç¤ºäºĨ
æ²¹çĶ»é¢ľæĸĻçļĦåıĳæĺİä½¿ æĸĩèīºå¤įåħ´æĹ¶æľŁçļĦèīºæľ¯å®¶
æĬķæľºæĢ§ äº¤æĺĵæ¨¡å¼ı
æº¶è§£ä½ľçĶ¨åıĳèĤ² å½¢æĪĲ
æĿ¥è°ĥåĴĮ çĽ¸äºĴçŁĽçĽ¾çļĦä¿¡å¿µ
tiv es
èĩªçĶ±éĹ´æİ¥ å¼ķè¯Ń
èĥ¶åŃĲ çŃīç¦»åŃĲä½ĵ
å¤§æ°Ķä¸ŃçļĦäºĮæ°§åĮĸç¢³ æµĵåº¦
åŁºç¡ĢæĢ§ åľ°ä½į
enc y
çģ«èį¯ä¼łåħ¥æ¬§æ´² æĪĺåľº
å¹´éī´åŃ¦æ´¾çļĦ éķ¿æĹ¶æ®µ
èĩ´åĳ½ ç¼ºéĻ·
éĢļè¿ĩåĲĮæĹ¶åĳĪçİ° å¤ļä¸ªè§Ĩè§Ĵ
é£İæļ´ æ½®
ä¸īç»´çİ°å®ŀ åı¯èĥ½
ä¹ĺæķ° æķĪåºĶ
å®ģ éĿĻ
åĮ¹ éħį
å¾Ĵ åĽ°å¢ĥ
åıĹä¿ĿæĬ¤çļĦ è¡¨éĿ¢æĢģ
Ġcomp uting
è¿ŀéĢļ æĢ§
ç®ĢåĮĸä¸º åŁºæľ¬
èĢ¦ åĲĪ
æĽ´ç²¾åĩĨ åľ°
æ°ĳéĹ´ ä¼łè¯´
é²į å¾·æ¸©
å·¥åħ·çļĦæĻ®åıĬ åĮĸ
èµ¢å®¶éĢļåĲĥ çļĦå¸Ĥåľº
åĽļ å¾ĴåĽ°å¢ĥ
è´¬ åĢ¼
ç½© æŁĵ
è´¨æĸĻ ä¸İ
åĿĩåĬ¿ åİŁåĪĻ
ST EM
æľīå£° ä¹¦
çĶŁçī©å£°åŃ¦ çĽĳæµĭ
äº²ç¼ĺ éĢīæĭ©
ç§ĳéĩĮå¥¥ åĪ©
éļĲå½¢æĸĹ ç¯·
3 0
c ol
d uc
h er
i ties
l l
s tr
t a
¨ åŁº
» äºİ
è ª
Ġ r
Ġ çĸĳéĹ®åı¥å¼ı
Ġ energy
Ľ åĽ´
çļĦ åŁİå¸Ĥ
çļĦ åĲİæŀľ
çļĦ æĬĹ
çļĦ æŀĦå»º
çļĦ åĪĽæĸ°
çļĦ æ³ķå¾ĭ
çļĦ çİ°æľī
çļĦ é¢ľæĸĻ
çļĦ åĽłæŀľ
çļĦ éĩįè§Ĩ
çļĦ çķĮéĻĲ
çļĦ éĿ¶åĲĳ
çļĦ æŀĦåĽ¾
çļĦ å®Įç¾İ
çļĦ ä¿¡ä»»
çļĦ èĩªåıĳ
çļĦ æĪªçĦ¶ä¸įåĲĮ
çļĦ èĥĮæĻ¯ä¸ĭ
çļĦ åıĮéĩį
çļĦ åĲİç»Ńåıĳå±ķ
åı Ķ
ä½ ³
åĬ £
ä¼ į
è® ²
è® ¿
èĥ º
æĢ§ ç»ĵæŀľ
æĢ§ å¤±ä¸ļ
åľ¨ å®ŀçİ°
åľ¨ æĪĳ
åľ¨ ä¿ĥè¿Ľ
åľ¨ èĢĥèĻĳ
ä¸Ń åįłæį®ä¸»å¯¼åľ°ä½į
çī ²
ä¸İ åīįæīĢæľªæľīçļĦ
ä¸İ å®ŀä½ĵ
ä¸İ è¥¿æĸ¹
ä¸İ è§Ĥä¼Ĺ
ä¸İ åĨ¯
ä¸İ åĩ¯æģ©æĸ¯ä¸»ä¹īçļĦ
ä¸İ éĽĩåĳĺ
æĬ ¼
è®º ä¸İ
è®º çĤ¹
ä¸º çĲĨè§£
æ° ĽåĽ´
è¾ Ł
å± ¿
å± ĭ
å± ĳ
ä¼ļ åĩıå¼±
å°Ĩ æĺ¾èĳĹ
å°Ĩ è¶ħèĩªçĦ¶åħĥç´ł
å°Ĩ è¿İæĿ¥
æĹ¶ çļĦ
æĹ¶ éĴŁ
æĹ¶ éĿ¢ä¸´æĮĳæĪĺ
åĲĮ æĹ¶æľŁ
åľ° äº§
åľ° è¿ĲçĶ¨
å®ŀçİ° å®Įåħ¨
å½¢ çĬ¶
å¦Ĥæŀľ æĦıè¯Ĩ
å¦Ĥæŀľ æĪĳä»¬
å¦Ĥæŀľ ç¢³æįķèİ·
å¦Ĥæŀľ å®ŀæĸ½åħ¨æ°ĳåŁºæľ¬æĶ¶åħ¥
å¦Ĥæŀľ å¼¦çĲĨè®º
å¦Ĥæŀľ å¼Ĥç§įæľºåĻ¨äºº
åı¯èĥ½ å½»åºķéĿ©æĸ°
æľī å¤ļ
æľī æķĪåºĶå¯¹
æľī åĬ©äºİ
èĩ »äºİ
åŁº å°¼
ä»£ å¸ģ
ä»£ ä»·
ç³»ç»Ł æĢ§çļĦ
èĢĮ å½¢æĪĲ
èĢĮ çİ°è±¡åŃ¦
èĢĮ åĨ²çªģ
èĢĮ å¥¥åľ°åĪ©åŃ¦æ´¾
åĲĪ è§Ħ
ç»ĵ æĿŁ
ç»ĵ æĻ¶
æķ° åĪĨè§£
ä¸įåĲĮ çļĦåıĳå±ķ
åĲİ æĿ¥
åĲİ ä¸ĸ
å·¥ åİĤ
æķĪ åĬĽ
ä¼łç»Ł éĵ¶è¡Į
çĶŁçī© ç³»ç»Ł
çĶŁçī© å®īåħ¨
çĶŁçī© å¤§èĦĳ
å®ļ è¨Ģ
èĩª ç»Ļ
ä»¥ ç»´æĮģ
ä»¥ æĺłçħ§
æĽ´ ä½İ
ç»ĵæŀĦ è®¾è®¡
æ¨¡å¼ı åı¯èĥ½å¦Ĥä½ķå½±åĵį
ç¥ŀç»ı æķ°æį®
ç¥ŀç»ı ä¼¦çĲĨåŃ¦
ç¥ŀç»ı é£İæł¼
åŃĺåľ¨ æĢ§
åŃĺåľ¨ æĺ¾èĳĹ
åŃĺåľ¨ æľ¬è´¨åĮºåĪ«
åĵªäºĽ æ°´æĸĩ
æĺ¯ å¦Ĥä½ķåľ¨
çĶµ èĥ½
éĿŀ åĲĮè´¨åĮĸ
ç¤¾ä¼ļ åħ³ç³»
ç¤¾ä¼ļ èµĦæľ¬ç§¯ç´¯
æĮģ æľī
èīºæľ¯ çĲĨè®º
èīºæľ¯ æī¹è¯Ħ
å½¢æĪĲ æŃ£åıįé¦Īå¾ªçİ¯
æ°Ķ æº¶
æĪĳ å¯¹
æĪĳ æĿ¥
éĺ ´
èĥ½å¤Ł åħĭæľį
æĦŁ åĪ°
æľºåĪ¶ ä½¿å¾Ĺ
æľºåĪ¶ è§£éĩĬäºĨ
åıĻäºĭ è§Ĩè§Ĵ
ä½ľçĶ¨ éĢļè¿ĩ
æµ· è¡¨
è¾ĥ é«ĺ
åºĶçĶ¨ åŁºäºİCRISPRçļĦåŁºåĽłé©±åĬ¨æĬĢæľ¯
äºĴ æĥł
æĸĩåŃ¦ çĲĨè®º
æµĭ åºı
çİ°ä»£ æĢ§
äººç±» å¢ŀå¼ºæĬĢæľ¯
å°Ĩå¦Ĥä½ķ åľ¨
æĦıè¯Ĩ æĺ¯
æł¹ æ·±
å¼ºè°ĥ å®ŀä½ĵ
è®¤çŁ¥ æ¡Ĩæŀ¶
è®¤çŁ¥ èĢĥåı¤åŃ¦
å¸¸ ä»¥
è¿ĩç¨ĭ éĢļè¿ĩ
æķ°åŃĹ æĹ¶ä»£
æķ°åŃĹ åªĴä»ĭ
æķ°åŃĹ åĽŀéŁ³å®¤
æ°´ ä½ĵ
æ°´ åĬĽ
æ°´ åĪ©
èĢĮéĿŀ å¯¹
èĢĮéĿŀ ä¼łç»Ł
æīĢ æĮģ
åı¯èĥ½ä¼ļ äº§çĶŁåĵªäºĽ
åı¯èĥ½ä¼ļ åıĹåĪ°æĢİæł·çļĦå½±åĵį
åı¯èĥ½ä¼ļ æ°¸ä¹ħæĶ¹åıĺ
éľĢè¦ģ åħ·å¤ĩ
éľĢè¦ģ å»ºç«ĭ
éľĢè¦ģ å¦Ĥä½ķè°ĥæķ´
æİ¨ è¿Ł
è¯Ńè¨Ģ å¤ļæł·æĢ§
æł¼ æĭī
åĽ¾ å¼ı
æĸĩåĮĸ ä¸Ń
æĸĩåĮĸ çĽ¸å¯¹ä¸»ä¹ī
éħ ¬
å¸¦ çļĦ
åħ¸ ç±į
åŁºåĽł è½¬ç§»
æĹ¶éĹ´ è¡¨
ç®Ĺæ³ķ æ²»çĲĨ
æīĭ ç¨¿
çĶ» ä¸ŃçļĦ
ç«ĭ åľº
çİ¯å¢ĥ ä¸ĭ
çİ¯å¢ĥ åī¥åīĬ
éģĵå¾· é£İéĻ©
æĮĩ åĲĳ
èĤ ¢
åİĨ åı²åŃ¦
æĺĵ çĩĥ
å¤ĦçĲĨ çļĦ
å±± åĮº
å±± éº
ä¸ĵä¸ļ åĮĸçļĦ
åŁİå¸Ĥ å£«
æĢ§çļĦ åīįæıĲä¸ĭ
èģĶ çĽŁ
ä¸ĸçºª åĲĪæĪĲ
ä½ł è¦ģ
æŃ£ å¸¸
æĮģç»Ń ä¸į
å®ĩ èĪª
åĵ²åŃ¦ çķĮ
å®ĩå®Ļ åĬłéĢŁèĨ¨èĥĢ
æ°ĶåĢĻ ç³»ç»Ł
æ°ĶåĢĻ è°ĥèĬĤ
æĺ¯åĲ¦ æľĢç»Ī
æĺ¯åĲ¦ èĥ½åľ¨
é¢ĨåŁŁ æľ¯è¯Ń
é¢ĨåŁŁ æłĩåĩĨè¯ĳæ³ķ
åĢĺèĭ¥ èĦĳæľºæİ¥åı£
åĢĺèĭ¥ éĿĴéĵľæĹ¶ä»£å´©æºĥæľªæĽ¾åıĳçĶŁ
å·¥ä¸ļ è§Ħæ¨¡åĮĸ
åģı åĲĳ
å¹» è§ī
èĥ½éĩı åĬ¿åŀĴ
è½¬åıĺ ä¸º
çĽ¸äºĴ ç«ŀäºī
ä¿¡æģ¯ ä¼łéĢĴ
èĥ½å¤Łå®ŀçİ° å¤§è§Ħæ¨¡çºłéĶĻ
åĨľä¸ļ æŃīæĶ¶
æłĩåĩĨ åĮĸçļĦ
æłĩåĩĨ è¡¨è¿°
æłĩåĩĨ å°Ĩå¦Ĥä½ķæ¼Ķåıĺ
çĶŁäº§ æķĪçİĩ
ä¹ĭéĹ´çļĦ æľ¬ä½ĵè®º
ä½Ĩ åı¯èĥ½
ä½Ĩ éľĢ
æ¿Ģ çĥĪ
æĸ¹å¼ı ä¸įåĲĮ
å¾® è°ĥ
å®ī æħ°
æ²ī éĻį
åĨ³çŃĸ åĪĨæŀĲ
æĺ¾èĳĹ éĻįä½İäºĨ
è·¨ å¤§è¥¿æ´ĭ
æµ·æ´ĭ æŃ»
æµ·æ´ĭ çĶŁæĢģç³»ç»Łä¸ŃçļĦ
æĸĩæľ¬ æĦıä¹īçļĦ
on ic
æĸ¹éĿ¢ åŃĺåľ¨çļĦ
ä½İ å»¶è¿Ł
åİĨåı² ä¸ĬçļĦ
è§ĦèĮĥ è¡¨è¿°
å¤ª å¹³
æł¹æľ¬æĢ§ è´¨çĸĳ
æ·± ç©º
å½¢å¼ı åĮĸ
æľĢ åĲİ
æ²īç§¯ å²©
æ°¸ è¿ľ
çļĦå½¢æĪĲ ä¸İ
æĪĳä»¬ çĲĨè§£
æĥ¯ æĢ§
æıĲä¾Ľ åħħåĪĨ
æıĲä¾Ľ åĲ¯ç¤º
æıĲä¾Ľ ç§ĳåŃ¦ä¾Ŀæį®
æĬĢæľ¯çļĦ åºĶçĶ¨
åħ·æľī åĵªäºĽ
æĦŁçŁ¥ çļĦ
èģļ åħī
ä»İèĢĮ æĶ¹åıĺ
åİ» çī©è´¨åĮĸ
ä¼łç»ŁçļĦ çº¿æĢ§åıĻäºĭ
ä¼ĺåħĪ åħ³æ³¨
åĳĪçİ° æĮĩæķ°çº§å¢ŀéķ¿
è§£æŀĦ æ®ĸæ°ĳ
èµĦæľ¬ æµģåĬ¨æĢ§
å¦Ĥä½ķéĢļè¿ĩ æĵįæİ§
æĬĺ çº¸
æĭī é©¬åħĭ
éĩıåŃĲè®¡ç®Ĺ æľº
ä¸ĬçļĦ æł¹æľ¬å·®å¼Ĥ
è¿ĳ æľŁ
ä¾Ŀèµĸ çļĦ
å¨ģ å°¼æĸ¯
ä½ķç§į å½±åĵį
éļı åĲİ
å¼Ģ è¾Ł
åĪ©çĶ¨ æķĪçİĩ
ä¸ĵä¸ļæľ¯è¯Ń è§ĦèĮĥ
åĬŁåĪ©ä¸»ä¹ī å¼ºè°ĥ
çĽ¸å¯¹è®º çº§
ä¸»å¯¼ ä¼ģä¸ļ
è¡¨è§ĤéģĹä¼ł è°ĥæİ§
æĪĸå°Ĩ å½»åºķéĿ©æĸ°
è´¢ äº§
è¡¨çİ°ä¸»ä¹ī èī²å½©çĲĨè®º
åıĺå¾Ĺ å¤įæĿĤåĮĸ
éķ¿æľŁ å½±åĵį
åĬŁèĥ½ éļľç¢į
åĬ³åĬ¨åĬĽ åıĤä¸İ
æľīæľĽ å½»åºķéĿ©æĸ°
å°ºåº¦ ä¸ĬçļĦ
è¥¿ æ¬§
é¦Ĩ èĹı
ä¿ĿæĬ¤ çŃĸçķ¥
ä¿ĿæĬ¤ å®ŀè·µ
ä¿ĿæĬ¤ æİªæĸ½
ä»ĭ è´¨
åı¯èĥ½ä¼ļå¦Ĥä½ķ åıĳå±ķ
ä¸İä¼łç»Ł ç¤¾åĮºä¸įåĲĮ
å¼ķåıĳäºĨ å¯¹
åıłåĬł åİŁçĲĨ
åĲİçİ°ä»£ä¸»ä¹ī å°ıè¯´ä¸Ń
ç»ĺçĶ» ä¸Ń
éĢļè¿ĩå°Ĩ æķ°æį®å¤ĦçĲĨ
ç¾¤ä½ĵ æľºåĻ¨äºº
æĽ´æ³¨éĩį åĵģæł¼åŁ¹åħ»
èĩªä¸» ç³»ç»Ł
å±ķçİ°åĩº æĽ´é«ĺçļĦ
æľºåĻ¨åŃ¦ä¹ł æķĪçİĩ
åĮºåŁŁ åĨħçļĦ
åĳ¨ åĽ´
ç®¡çĲĨ ç³»ç»Ł
æĸĩèīºå¤įåħ´æĹ¶æľŁçļĦ åŃ¦æľ¯
æĸĩèīºå¤įåħ´æĹ¶æľŁçļĦ æĺİæļĹå¯¹çħ§æĬĢæ³ķ
åİ»ä¸Ńå¿ĥåĮĸ åħ±è¯Ĩ
ä¸»è§Ĥ æĢ§
çļĦå½±åĵį å¼ķåıĳäºĨåĵªäºĽåľ°ç¼ĺæĶ¿æ²»åĲİæŀľ
çļ® éĴ¦
åĨ· æĪĺ
å¤©ä½ĵ çī©çĲĨ
å¦ĤæŀľæļĹ èĥ½éĩı
ä¼ļå¼ķåıĳåĵªäºĽ è®¤è¯Ĩè®ºå±ĤéĿ¢çļĦæĮĳæĪĺ
æ°´å¹³ çļĦ
åĽ° éļ¾
å·¥ä½ľ ä¼¦çĲĨ
éĩıåŃĲéĢĢçĽ¸å¹² æľºåĪ¶
åħīåŃ¦ æľĽè¿ľéķľ
è¯¥ç¿»è¯ĳ åĩĨç¡®
å®ŀæĹ¶ æķ°æį®å¤ĦçĲĨ
ç»´å¤ļåĪ©äºļ æĹ¶ä»£
ç»´å¤ļåĪ©äºļ æĹ¶ä»£çļĦ
äº¤æĺĵ çļĦ
å£° æ³¢
åĳĪæĮĩæķ°çº§ ä¸ĭéĻį
ç¤¾åĮº ä¸Ń
åĮĹæŀģ åľ°åĮºçļĦ
åĮĹæŀģ æµ·å²¸åľ°è²Į
ç¢³éħ¸çĽĲ åĮĸåŃ¦
å®ıè§Ĥ å°ºåº¦
DNA æĬĺçº¸
åĬłéĢŁäºĨ çī©èģĶç½ĳ
æľīæľº ç¤¾ä¼ļ
ation al
è´§å¸ģæĶ¿çŃĸ çļĦæľīæķĪæĢ§
æľĢå¤§ éĻĲåº¦
åĲ« æľī
çĲĨæĢ§éĢīæĭ© çĲĨè®º
ol i
æĹ¥çĽĬ æĻ®åıĬ
æĹ¥çĽĬ å¢ŀéķ¿çļĦ
çĽĳç®¡ çļĦ
æĹłæ³ķ è¢«
å¹¶ç½® æīĭæ³ķ
åħ¨æģ¯åİŁçĲĨ çĲĨè®º
æĶ¿åºľ åĢŁè´·
åħ¨çĲĥåĮĸ è¿Ľç¨ĭ
åĨ²ç§¯æīĩ å½¢æĪĲ
åĨ²ç§¯æīĩ å½¢æĪĲäºİ
èį¯ çĲĨåŃ¦
åĮ»çĸĹ æīĭæ®µ
ä¸įæĸŃ æ¼Ķåıĺ
åİŁåŃĲçº§ åı¯è§ĨåĮĸ
æķ°åŃĹé¸¿æ²Ł åĽł
æ±ĩ çİĩ
è¯ģæį® è¡¨æĺİ
æĬĺå°Ħåĩº ä¸ĢæĪĺåĲİ
éĩıåŃĲåıłåĬł éĢļè¿ĩ
åħ³éĶ® ä½ľçĶ¨
om m
ç½ĳç»ľå®īåħ¨ æ¼ıæ´ŀ
æľ¬ä½ĵè®º åľ°ä½į
at ure
ä½ı æĪ¿
èĻ½ èĥ½
åĨħéĥ¨ çļĦ
è·¨ä»£ éĻħ
æįķæįī çŀ¬æģ¯ä¸ĩåıĺ
çļĦä¼¦çĲĨ æĭħå¿§
å²Ľ å±¿
æĬ¥ åĳĬ
æŀģç®Ģ ä¸»ä¹īçļĦ
çĶŁçī©å¤ļæł·æĢ§ çĥŃçĤ¹
è¿ģç§» ç®Ĺæ³ķ
å®¢è§Ĥ ä¼¦çĲĨ
çªģè§¦ ä¿®åīª
æĹ¶éĹ´å°ºåº¦ åĨħ
è¶ħå¯¼ æĿĲæĸĻ
åĪ¶éĢłä¸ļ ä¾ĽåºĶéĵ¾
è½½ èį·
çĶ»å»Ĭ æĪĲä¸ºä¸»æµģ
åĲİæ®ĸæ°ĳæĸĩåŃ¦ ä¸Ń
åĲİæ®ĸæ°ĳæĸĩåŃ¦ å¸¸éĢļè¿ĩ
çļĦæĹ¶éĹ´ ç»´åº¦
çĤ¹å½©æ´¾ èī²å½©çĲĨè®º
åĲĮè´¨ æĢ§
èĻļæĭŁçİ°å®ŀ çķĮéĿ¢
çļĦåħ´èµ· ä¸İ
å¤©ä½ĵçĶŁçī©åŃ¦ çļĦçłĶç©¶
è¢«è¯ģå®ŀ æĪĲç«ĭ
åĻ¨å®ĺ çŁŃç¼º
ç¥ŀç»ıåħĥ æ´»åĬ¨
åıª è¦ģ
è´¢æĶ¿æĶ¿çŃĸ æľīæķĪæĢ§
èīºæľ¯è¿ĲåĬ¨ ä¸Ń
è¯ºä¾ĿæĽ¼ çĵ¶é¢Ī
ç½ĳç»ľç¤¾ä¼ļ çĲĨè®º
åį°åĪ·æľº çļĦå¼ķåħ¥
å½¢æĪĲäºĨ çĭ¬çī¹çļĦ
å¼ºçĥĪ çļĦèī²å½©
åĸĢæĸ¯çī¹åľ°è²ĮéĢļè¿ĩ åı¯æº¶æĢ§åŁºå²©çļĦ
è¯Ńæ³ķ çĲĨè®º
è¾¹ç¼ĺè®¡ç®Ĺ éĢļè¿ĩåľ¨
æ²Ļ é¾Ļ
éĹ´çļĦ çĽ¸äºĴä½ľçĶ¨
çļĦç²¾åĩĨ è°ĥæİ§
ä¹łå¾Ĺ è¡Įä¸º
éģĵå¾·å®ŀåľ¨è®º èĥ½åĲ¦åľ¨ä¸įè¯īè¯¸
æ±ĩèģļ åŀĭæĿ¿åĿĹè¾¹çķĮ
çļĦæī¹åĪ¤ æĢ§
éĩıåĮĸ äºĨ
éļĶ ç»Ŀ
æŀĦéĢłæĿ¿åĿĹ æ±ĩèģļ
éĿĴéĵľæĹ¶ä»£æĸĩæĺİ çļĦè¡°èĲ½
äºĴæĸĩæĢ§ æīĭæ³ķ
åľ°éĿ¢ æĽ¿ä»£æĸ¹æ¡Ī
æ²ĥ å°Ķ
åĲĮæŃ¥ èĩªè½¬
çİĩçļĦ ä¸ĭéĻį
æľªèĥ½ åħħåĪĨ
ä¿ĿçķĻäºĨ åİŁæĸĩçļĦ
èįĴè¯ŀ ä¸»ä¹ī
çĶŁçī©å·¥ç¨ĭ åĻ¨å®ĺ
åĲ¯èĴĻè¿ĲåĬ¨ æĹ¶æľŁçļĦ
åįļçī©é¦Ĩ è®¤åı¯
è´¸æĺĵè·¯çº¿ çļĦ
éĺ¶çº§ åĪĨå±Ĥ
Ġre al
è±¡å¾ģæĢ§ èī²å½©
éģĵå¾·çī¹æ®Ĭä¸»ä¹ī éĢļè¿ĩå¼ºè°ĥ
ä¸Ńä»ĭ çļĦ
è¿ŀç»Ń çļĦ
è¿ŀç»Ń æĢ§
ment s
çļĦæ¯Ķè¾ĥåĪĨæŀĲ æıŃç¤ºäºĨäºĮèĢħåľ¨
åĵªäºĽæĬĢæľ¯ æĮĳæĪĺ
å±Ĥæ¬¡ åĪĨæĺİ
ç¢İçīĩåĮĸçļĦ æĹ¶éĹ´çº¿
å§¿æĢģ æĢ§ç¬Ķè§¦
éĩıåŃĲçºłç¼ł æķĪåºĶ
è½¯ ä½ĵ
èĩªåĬ¨é©¾é©¶æ±½è½¦ çļĦå¹¿æ³ĽæĻ®åıĬ
åİ»ä¸Ńå¿ĥåĮĸèĩªæ²»ç»Ħç»ĩ å¦Ĥä½ķéĢļè¿ĩ
å¯» æī¾
åıĮè¯Ń èĥ½åĬĽ
éģĵå¾·å®ŀåľ¨è®ºèĥ½åĲ¦ ä¿ĿæĮģåħ¶
çİ°ä»£ä¸»ä¹īæĸĩåŃ¦ä¸ŃçļĦ æĦıè¯Ĩæµģæīĭæ³ķ
åģ¥åº· æĮĩæłĩ
è®¤è¯Ĩè®ºå±ĤéĿ¢çļĦ ä¸įç¡®å®ļæĢ§
çĪ¶ æ¯į
è¿Ĳä½ľ æľºåĪ¶
çªģçĦ¶ åģľæŃ¢
ä¿¡æģ¯ä¼łæĴŃ æ¨¡å¼ı
çĵ¦ ä¹Ķ
åı¯èĥ½åĤ¬çĶŁ åĵªäºĽ
åĲİçİ°ä»£åħĥå°ıè¯´ æĪĲä¸ºä¸»å¯¼
çļĦåŁºç¡Ģ ä¸Ĭ
æĸĹ äºī
åľ¨æľªæĿ¥ åĩłåįģå¹´åĨħ
èĭ¥èĦĳæľºæİ¥åı£å®ŀçİ° ç¥ŀç»ıåħ±çĶŁ
åĲ¯åıĳ å¼ı
qu e
æķ°ä¸ª ä¸ĸçºª
æłĳæŀĿçĬ¶æ°´ç³» æ¨¡å¼ı
ä¼ļäº§çĶŁåĵªäºĽ è®¤è¯Ĩè®ºå±ĤéĿ¢çļĦæĮĳæĪĺ
åĪ¶çº¦ äºĨ
èĢĮéĿŀåŁºäºİ è§ĦåĪĻ
æĺİæļĹå¯¹æ¯Ķ æ³ķ
åī©ä½Ļ äº§åĵģ
çļĦä¸»è¦ģ åªĴä»ĭ
æł¹æľ¬æĢ§çļĦ éĩįæĸ°è®¾è®¡
åı¯èĥ½åıĳçĶŁæĢİæł·çļĦ è½¬åıĺ
iz ed
è¡Ģ ç®¡
ä¸įåı¯éĢĨè½¬ åľ°æĶ¹åıĺ
æŁĶæĢ§ çĶµåŃĲåĻ¨ä»¶
åĢĺèĭ¥äºļåİĨå±±å¤§åĽ¾ä¹¦é¦Ĩå¾Ĺä»¥ å®Įæķ´ä¿ĿåŃĺ
å¦Ĥæŀľå¾®çĶŁçī©ç»Ħ ç§»æ¤į
åĮĹ æĸ¹
æİĮ æİ§
ä¸¤ç§į æĪªçĦ¶ä¸įåĲĮçļĦ
ä»·åĢ¼è¯Ħä¼° ä½ĵç³»
è¯¥ç¿»è¯ĳåľ¨ä¿ĿæĮģ ä¸ĵä¸ļæĢ§çļĦåĲĮæĹ¶
åħ·æľīè´ŁæĬĺå°ĦçİĩçļĦ è¶ħæĿĲæĸĻéĢļè¿ĩ
åĲİåį°è±¡æ´¾ èī²å½©çĲĨè®º
åı¤åħ¸ç»ıæµİåŃ¦ ä¸įåĲĮ
å¿ĥèº« äºĮåħĥè®º
ç½Ĺé©¬å¸ĿåĽ½ çļĦ
åĳ¼ åºĶ
çĭŃä¹īçĽ¸å¯¹è®º ä¸İ
èľ ¡
çİĽ éĽħ
é»ĳæł¼å°Ķè¾©è¯ģæ³ķ è®¤ä¸º
å¸® åĬ©
æĪĲå¹´ äºº
åŁºåĽłç¼ĸè¾ĳæĬĢæľ¯çļĦ åıĳçİ°
ç¡®ç«ĭçļĦ åĽ½å®¶ä¸»æĿĥ
å·´æ´Ľåħĭ ç»ĺçĶ»ä¸ŃçļĦ
éģŃåĪ° æ·ĺæ±°
pre c
Ġn arra
ä¸İå¼Ĺæ´Ľä¼Ĭå¾· çļĦç²¾ç¥ŀåĪĨæŀĲ
è¡Ĺå¤´ èīºæľ¯
çĶµåĬĽ ä¼łè¾ĵ
èĴĤ åĽº
è·¨åĽ½ç§»æ°ĳ æ¨¡å¼ı
èĻ«æ´ŀ ç¨³å®ļåĮĸ
çİ»çĴĥå¤©èĬ±æĿ¿ æķĪåºĶ
æĪ´æ£® ç¾¤
æ¯Ķè¾ĥä¼ĺåĬ¿çĲĨè®ºæľªèĥ½ è§£éĩĬ
Ġpro cess
éĶĮæĮĩæł¸éħ¸éħ¶ æĬĢæľ¯
å²ģ ä»¥ä¸Ĭ
å¤©ä½ĵçī©çĲĨåŃ¦ åĴĮ
åĵªäºĽç¤¾ä¼ļè¯Ńè¨ĢåŃ¦ åĽłç´ł
åı¯èĥ½åľ¨æľªæĿ¥ åĩłåįģå¹´åĨħ
å¤ĸçļ®è´¨ ç¥ŀç»ıæİ¥åı£
çĽ¸äºĴåĨ²çªģçļĦ ä¿¡å¿µ
çŁ¥è¯Ĩæº¢åĩº æķĪåºĶ
èį£æł¼ çļĦåİŁåŀĭ
æ¬§æ´²ä¸Ńå¿ĥä¸»ä¹ī åİĨåı²åıĻäºĭ
ä¸Ńå¾®åŃĲæĮ¯èį¡ æ¨¡å¼ı
æĥħç»ªè°ĥèĬĤ èĥ½åĬĽ
éĿŀä¾µåħ¥å¼ı é«ĺå¸¦å®½
èĩ³ä»Ĭä»į æĮģç»Ńå½±åĵįçĿĢ
æĽ´åĩĨç¡® åľ°
éļĨ åįĩ
åĵªäºĽçĶŁçī© åĬĽåŃ¦
çĶŁæĢģå¥³æĢ§ä¸»ä¹ī æĸĩåŃ¦
æ¸ħæ´ģ èĥ½æºĲ
Ġte ch
èĢĮçİ°ä»£ä¸»ä¹ī ä½ľåĵģ
ç²¾å¿ĥ è®¾è®¡çļĦ
ç²ĴåŃĲçļĦäº§çĶŁ åĴĮæ¹®çģŃ
çººç»ĩ çĶŁäº§çļĦ
åĲ«æ°´ å±Ĥ
èķ´ åĲ«
åį°è±¡æ´¾ä¸İçĤ¹å½©æ´¾ æĬĢæ³ķ
ä»İå°ģå»º åĨľä¸ļ
åħ·å¤ĩæĦŁçŁ¥ èĥ½åĬĽçļĦ
åħīä¼ıåıĳçĶµ æķĪçİĩ
ç¥ŀç»ıè°ĥæİ§æ¤įåħ¥ çī©
éĩıåŃĲéĢĢçĽ¸å¹²çĲĨè®ºè¯ķåĽ¾éĢļè¿ĩ çİ¯å¢ĥçĽ¸äºĴä½ľçĶ¨
ä¸įå¾Ĺ ä¸į
å¼ķåıĳæ°ĶåĢĻ çªģåıĺ
åĨįåº¦ åħ´èµ·
éĽĩä¸» ä¸İéĽĩåĳĺ
èŀįèµĦçļĦ æĶ¿åºľæĶ¯åĩº
æĥħæĬ¥ æľºæŀĦ
ara dig
ç»Ŀå¯¹çĶŁäº§çİĩ å·®å¼Ĥ
å®ŀéªĮå®¤åŁ¹èĤ²èĤīå®ŀçİ°ä»·æł¼ æĮģå¹³
ansform er
çģŃç»Ŀæ¨¡å¼ıä¸İäººç±»è¿ģå¾Ļ æĹ¶éĹ´çº¿
LE N
ä¸ºä¸Ģ ä½ĵ
é¢ĩ åħ·äºīè®®
æµ·éĿ¢ æ¸©åº¦è¶ħè¿ĩ
å¥´ éļ¶
Ġfra meworks
æĭĵæīĳç»Ŀç¼ĺä½ĵåľ¨è¡¨éĿ¢å¯¼çĶµçļĦåĲĮæĹ¶ åĨħéĥ¨
ä¸İæ¹¿å£ģçĶ»æĬĢæ³ķ ä¸įåĲĮ
ä¸İéĢ»è¾ĳå®ŀè¯ģä¸»ä¹ī ä¸įåĲĮ
æ²ĥå¤« åģĩè¯´
ä¸İåĮĸåŃ¦æİ¨è¿Ľ ä¸įåĲĮ
æ°¢çĩĥæĸĻçĶµæ±łéĢļè¿ĩçĶµåĮĸåŃ¦ åıįåºĶ
å¦Ĥæŀľçº¿ç²Ĵä½ĵæĽ¿ä»£çĸĹæ³ķ å¾ĹåĪ°å¹¿æ³ĽåºĶçĶ¨
èĩªéĹŃçĹĩ è°±ç³»
æĬĢæľ¯æĸĩ æ¡£
é¥± åĴĮ
çħ¤ çĤŃ
TA LEN
Tr ansformer
ug h
ä»¥è¯»èĢħ ä¸ºä¸Ńå¿ĥçļĦ
è¡ĮæĺŁä¿ĿæĬ¤ åįıè®®
é©¬æł¼åĪ© çī¹çļĦ
åį¡æĭī çĵ¦ä¹Ķ
æŁĵèī² ä½ĵ
Ġmodel s
ç¥ŀç»ıé£İæł¼ è¿ģç§»ç®Ĺæ³ķ
éĿŀåĲĮè´¨åĮĸ ä»£å¸ģ
æ°Ķæº¶ èĥ¶
æł¹æ·± èĴĤåĽº
å±±éº ĵ
åŁİå¸Ĥå£« ç»ħ
å®ĩèĪª åĳĺ
åĻ¨å®ĺçŁŃç¼º åį±æľº
M RI
N e
b ri
d s
i an
k ing
l a
p s
p res
v en
¤ Ĳ
Â °
é ¤Ĳ
Ġ åĩĨç¡®å¯¹åºĶ
Ġ ad
Ģ èµĭ
çļĦ åĪĨæŀĲ
çļĦ æĿĲæĸĻ
çļĦ çī©è´¨
çļĦ ç¨³å®ļ
çļĦ çŁĽçĽ¾
çļĦ éķ¿æľŁ
çļĦ ç³»ç»ŁæĢ§
çļĦ è§Ĩè§ī
çļĦ è¾¹çķĮ
çļĦ å®ŀæĹ¶
çļĦ ç²¾åº¦
çļĦ åħ³æ³¨
çļĦ æĦıè¯Ĩæµģæīĭæ³ķ
çļĦ è¿ħéĢŁä¼łæĴŃ
çļĦ æĢĿç»´æ¨¡å¼ı
çļĦ èĦ±éĿ¶æķĪåºĶ
çļĦ æĹ¶åĢĻ
çļĦ å®¡æŁ¥
çļĦ åĿĩåĬ¿åİŁåĪĻ
åľ Ĩ
èĥ ľ
æĢ§ åĲİæŀľ
åľ¨ çº¿
åľ¨ çī©è´¨
åľ¨ æķĻèĤ²
åľ¨ æĸĩèīºå¤įåħ´æĹ¶æľŁ
åľ¨ åħ¬åħ±
åľ¨ çĶµåĬ¨æ±½è½¦
åľ¨ éľĢæ±Ĥä¸įè¶³
ä¸Ń ä¼ĺåħĪèĢĥèĻĳ
ä¸Ń æī®æ¼ĶäºĨä½ķç§įè§Ĵèī²
åĮĸ è§£
äºĨ åīįæīĢæľªæľīçļĦ
è¡ £
æķ Į
ä¸İ å·¥ä¸ļ
ä¸İ çī©è´¨
ä¸İ ç»ĵæŀľ
ä¸İ æĹ©æľŁ
ä¸İ è¯»èĢħ
ä¸İ åĨ²ç§¯æīĩ
ä¸İ ç¾İç´¢ä¸įè¾¾ç±³äºļ
ä¸İ ä¾Ľç»ĻåŃ¦æ´¾ç»ıæµİåŃ¦
ä¸İ å½¼çī¹æĭīåħĭ
ä¸İ çĪ¶æĿĥ
æĬ Ĵ
éĢļè¿ĩ åĩıå°ĳ
éĢļè¿ĩ èŀįåħ¥
å¯¹ ä¼łç»ŁçļĦ
å¯¹ æĥħæĦŁ
å¯¹ åı¤åħ¸
åĵ ¦
å¦Ĥä½ķ æĮĳæĪĺäºĨ
å¦Ĥä½ķ å¼ºåĮĸ
å¦Ĥä½ķ ä¼ĺåĮĸ
å¦Ĥä½ķ åįıè°ĥ
å¦Ĥä½ķ æĮĩå¯¼
å¦Ĥä½ķ éĿ©æĸ°äºĨ
å¦Ĥä½ķ éĩįæŀĦäºĨ
å¦Ĥä½ķ åħĭæľįå½ĵåīį
å¦Ĥä½ķ æ°¸ä¹ħæĢ§åľ°æĶ¹åıĺäºĨ
ä½ĵ å¤įåĲĪæĿĲæĸĻ
å¼ı åŃ¦ä¹ł
å¼ı åıįåºĶ
ä¸º ä¸»å¯¼çļĦ
ä¼ļ æĶ¹åıĺ
ä¼ļ åĳĪçİ°
å°Ĩ èĥ½å¤Łå®ŀçİ°
å°Ĩ è§ĦèĮĥ
å°Ĩ äºŁéľĢ
å°Ĩ èĭ±è¯Ń
åıĳ åĬ¨æľº
æİ ©
ä¿ ±
æ³ķ æ¡Ī
æī «
åľ° å¼ºè°ĥ
ç§ ĺ
å®ŀçİ° ç²¾ç¡®
å®ŀçİ° çĶŁçī©ç¥ŀç»ıç½ĳç»ľ
åİ ħ
å¦Ĥæŀľ æ¸©çĽĲçİ¯æµģæ¨¡å¼ı
å¦Ĥæŀľ çĶŁæĪĲå¯¹æĬĹç½ĳç»ľ
åĪĨ å¼Ĥ
åı¯èĥ½ ç¼ĵè§£
æĬĢæľ¯ ä¼łæĴŃ
æĬĢæľ¯ è¶ĭäºİæĪĲçĨŁ
çĽ¸ ä½į
çĽ¸ å¾Ħ
çĽ¸ åįıè°ĥ
çĽ¸ åª²ç¾İ
æľ¬ åľ°
æľ¬ ä¸ĸçºªåĨħ
æĢģ åĬ¿
åŁº æķ°
åŁº èį·
ä¸ŃçļĦ ä¿¡æģ¯
ä¸ŃçļĦ ç®Ĺæ³ķåģıè§ģ
èĢĮ åĲİçİ°ä»£
èĢĮ å½¢æĪĲçļĦ
èĢĮ è´§å¸ģä¸»ä¹ī
èĢĮ ä¸Ķ
èĢĮ èİİå£«æ¯ĶäºļæĪıåī§
éĹ´ éļĶ
åĲĪ åĲĮ
å¤§ çĽ¸å¾Ħ
æķ° çĻ¾å¹´
è¿Ľ åĪ¶
è¯Ń æĢģ
ä¸Ĭ å½¢æĪĲé²ľæĺİå¯¹æ¯Ķ
æĦı åĲĳ
çĶŁçī© ä¼¦çĲĨæ¡Ĩæŀ¶
èµ ¶
å®ļ è¯Ń
æľŁ çļĦ
èĭ¥ äººæĭ©åİŁçĲĨ
èĭ¥ çŁ³å¢¨çĥ¯çĶŁäº§
èĭ¥ å¼Ĥç§įç§»æ¤į
èĭ¥ æļĹèĥ½éĩıå¯Ĩåº¦
è½ Ń
èĩª è¶³
æµģ ç¦»
æĽ´ ä½İçļĦ
å½±åĵį æĺŁç³»
æ¨¡å¼ı åĴĮ
ç¥ŀç»ı æķ´åĲĪ
è´¨ å¯Ĩåº¦
åŃĺåľ¨ çĽ´æİ¥åħ³èģĶ
åĵªäºĽ çĥŃåĬĽåŃ¦
åħī éģĹä¼ł
æŀ¶ èµ·
æĥ §
çĶµ è¯Ŀ
æĿ¥ æıĲåįĩ
æĿ¥ è°ĥæİ§
æĿ¥ ç¡®ä¿Ŀ
æĿ¥ åĪĽå»º
åĴĮ åľ°å¹Ķ
éĿŀ åħ±ä»·çĽ¸äºĴä½ľçĶ¨
ç¤¾ä¼ļ æĢ§
ç¤¾ä¼ļ äºĴåĬ¨
èīºæľ¯ è£ħç½®
èīºæľ¯ åİŁåĪĽæĢ§
ç±» çļĦ
ç±» åľ°
å¤į å¼ı
å¾· è¡Į
æ°Ķ è±¡
ä½¿ ä¼łç»ŁçļĦ
ä½¿ åĪĽä½ľ
è· ³
æĪĳ åľ¨
ä¸Ģ å®ļ
ä¸Ģ åľº
æºĲ è®¾å¤ĩ
å¤ļ è¯Ń
æİ¥ æĶ¶
æİ¥ çº³
ä¹ĭ ä¸ĭ
åŃĹ å¡Ķ
åĲ¦ åĪĻ
åıĻäºĭ ä¸ŃçļĦ
åıĻäºĭ å½¢å¼ı
åĪĻ ä»¥
è¾ĥ ä½İ
æµĭ å®ļ
åīį å·¥ä¸ļ
åīį åĵ¥ä¼¦å¸ĥ
å°Ĩå¦Ĥä½ķ éĩįæŀĦ
äº¤ æĽ¿
éķ ĩ
æ¡Ĩæŀ¶ åĨħ
æł¹ èĮİ
åħ¥ å¾®
è¡Įä¸º ä¸»ä¹ī
ä¼ĺ è¶Ĭ
ä»İ éĩıåŃĲåıłåĬłæĢģ
æķ°åŃĹ ä¿¡æģ¯
åħ¨çĲĥ æĿĥåĬĽç»ĵæŀĦ
æ°´ æµģ
è¿Ļ åĦ¿
èĢĮéĿŀ åįķçº¯
åı¯èĥ½ä¼ļ å½¢æĪĲ
åı¯èĥ½ä¼ļ å¤§å¹ħ
éĩĩçĶ¨ æ·±åº¦åŃ¦ä¹łç®Ĺæ³ķ
éľĢè¦ģ åĢŁåĬ©
é«ĺ åĩº
è¯Ńè¨Ģ çŃīçº§ä½ĵç³»
çĶŁæĢģ ä½į
åĽ¾ è®º
æĸĩåĮĸ ä¼łæĴŃ
æķĪåºĶ åľ¨
æĻ® éĢļ
åŁºåĽł çĸ¾çĹħ
æĹ¶éĹ´ çĬ¶è¯Ń
å·®å¼Ĥ æĢ§
é¢Ħ ç¤º
æŀģ å°ĳ
ç®Ĺæ³ķ åĨ³çŃĸ
ç®Ĺæ³ķ çĶŁæĪĲ
çİ°è±¡ éĢļè¿ĩ
çĶ» æ³ķ
çªģ çİ°
æĹł åħ³
æĹł æįŁèĢĹ
éģĵå¾· æİ¨çĲĨ
éģĵå¾· åĩĨåĪĻ
è¿Ľè¡Į çļĦ
è¿Ľè¡Į è°ĥæķ´
åħĥ èĻļæŀĦ
å¸Ĥåľº åıĤä¸İèĢħ
å°Ħ é¢ĳ
å½»åºķ æ·ĺæ±°
ç¦ Ģèµĭ
éĥ Ĭ
åŁİå¸Ĥ è´«åĽ°
äºĮ æĪĺåĲİ
äºĮ è¿ĽåĪ¶
å®¶ ä¼Ļ
æķ°æį® æ¨¡å¼ı
åı¤ è¿ĳ
ä¸ĸçºª æĹ©æľŁ
ä¸ĸçºª å°ıåĨ°æľŁå¯¹
äººå·¥ éģĵå¾·ä¸»ä½ĵ
æļ ĩ
åĩĨç¡® è¡¨è¾¾
æĮģç»Ń éĩįå¡ĳ
åĵ²åŃ¦ å±ĤéĿ¢çļĦ
å®ĩå®Ļ å¸¸æķ°
æ°ĶåĢĻ æ³¢åĬ¨
äº§çĶŁ åĨ²çªģ
å¤© çº¿
åıĸ è¯ģ
èĥ½éĩı äº¤æį¢
èĥ½éĩı å¢ŀçĽĬ
ä¿¡æģ¯ æĬĢæľ¯
çľŁ è¯ļ
æ¦Ĥå¿µ èĥ½åĲ¦
éĢĤ åĲĪ
åĬłå¯Ĩ ç³»ç»Ł
åĳĪ è´ŁçĽ¸åħ³
ä¹ĭéĹ´çļĦ è§£éĩĬé¸¿æ²Ł
ä¿® è¾ŀ
æĶ¿æ²» çĲĨ
ç¦» å¼Ģ
ti me
æĸ¹å¼ı çļĦ
å¿ĥçĲĨ åģıå·®
èĦĳ ä»¿çľŁ
çĽ´æİ¥ æĮĳæĪĺäºĨ
CRISPR å¹²æī°
çĿĢ åĬĽ
ç©ºéĹ´ åĮºåŁŁåĨħçļĦ
åĮĸçļĦ åĲĮæĹ¶
èĩªçĦ¶ çķĮ
èĩªçĦ¶ æµģçķħ
èĩªçĦ¶ è¡¨å¾ģ
æµ·æ´ĭ pHåĢ¼
å¤± æīĢ
æĸ¹éĿ¢ å±ķçİ°åĩº
æĸ¹éĿ¢ åŃĺåľ¨å·®å¼Ĥ
åĩı è½»
ä½İ äºİ
åĪ¶åº¦ åĮĸ
å°± å¿ħé¡»
éŃ Ĥ
ç§» éĻ¤
éĵ¾ å¼ıåıįåºĶ
éŃĶå¹»çİ°å®ŀä¸»ä¹ī åľ¨
é©±åĬ¨ çĿĢ
å½¢å¼ı ä¸»ä¹ī
å½¢å¼ı ä¸ĬçļĦ
éĩĳ åŃĹå¡Ķ
æĭŁ äºº
æĥ³ è¦ģ
ä»į ä¼ļ
ä»ĸ å¦Ī
å¹¶ åĪĹ
çļĦå½¢æĪĲ éľĢè¦ģ
åıĹ çĽĬ
çĽ¸å¯¹ äºİ
æĬĢæľ¯çļĦ çªģçł´
çĲĨæĢ§ åĨ³çŃĸ
è¾ĵ ç§»
è¾¹ éĻħ
åĬ³åĬ¨ åĪĨå·¥
ç¢İ å±ĳ
åĳĪçİ° äºĨ
å·¥ç¨ĭ æĮĳæĪĺ
ç¥ŀç»ıç½ĳç»ľ éĢļè¿ĩåĪĨå±Ĥ
æ¼Ķåıĺ ä¸º
åĲĪæĪĲ å®ŀä½ĵæĺ¯åĲ¦åºĶ
ä¹łæĥ¯ çļĦ
åĪ¶éĢł ç²¾åº¦
è¶ħè¶Ĭ çİ°æľī
å¼Ģ åĲ¯
å°ĨéľĢè¦ģ éĩįæĸ°å®ļä¹ī
åŃ¦æľ¯ æĢ§
çªģçł´ çĶŁçī©
å»ºçŃĳ åĪĽæĸ°
çģ«å±± ç¢İå±ĳ
æĮĳæĪĺäºĨ åħ³äºİ
åĬłåī§äºĨ æĦıè¯Ĩå½¢æĢģæŀģåĮĸ
åĨį åĪĨéħįæľºåĪ¶
ä¹Ł åĬłåī§äºĨ
ä½¿å¾Ĺ å¯¹
åľ°è´¨ æŀĦéĢł
åľ°è´¨ èĲ¥
æľīæķĪ æĢ§çļĦ
æĸĩæĺİ éĹ´
è¡Įä¸ºç»ıæµİåŃ¦ åİŁçĲĨ
çº¿æĢ§ çĶŁäº§
æĦıä¹ī å»ºæŀĦ
æŀĦæĪĲ å¨ģèĥģ
å¼ºåĮĸ å¾ªçİ¯
æĪĸå°Ĩ åľ¨
æĬĹ éĩıåŃĲåĬłå¯Ĩ
è´¢ åĬ¡
å¯¹åºĶ åħ³ç³»
åĩ¯æģ©æĸ¯ä¸»ä¹ī è´¢æĶ¿æĶ¿çŃĸ
æĹ¥ è¶ĭ
æľ¬è´¨ èįĴè¯ŀçļĦå®ĩå®Ļä¸Ń
æĵįæİ§ çĶµç£ģè¾Ĳå°Ħ
çĶµåŃĲ ä¼łå¯¼
äººåı£ ç¾¤ä½ĵ
æµĭéĩı æĤĸè®º
åĽ½éĻħ åĲĪä½ľ
ç»Ĩ è¯»
æķĻèĤ² èĮĥå¼ı
æķĻèĤ² æľºä¼ļ
æ¯Ķè¾ĥä¼ĺåĬ¿ åİŁåĪĻ
èĲ¥ éĶĢ
å¥½ äºĨ
è¡° åıĺ
èĢĹ ç«Ń
ä¿ĿåŃĺ äºĨ
re c
ä½ľåĵģ çļĦ
ä¸İä¼łç»Ł æķ°æį®åºĵ
an tu
or al
åĪĩ åıĺ
éĿĴ æĺ¥
æĸĩèīºå¤įåħ´æĹ¶æľŁ æ¹¿å£ģçĶ»
éĻ¤ éĿŀ
åĨ³å®ļ åĽłç´ł
çİ°è±¡åŃ¦ ä½ĵéªĮ
åįķ çĤ¹
çİ°æľī åĬłå¯Ĩåįıè®®
å°Ĩå¦Ĥä½ķè°ĥæķ´ åħ¶
éĽĨä½ĵ ä¸»ä¹ī
åĮºåŁŁ æĢ§
æµģåĬ¨ çļĦ
ç¼ĵè§£ çŃĸçķ¥
ä¸»è§Ĥ èĥ½åĬ¨æĢ§
å®ĥä»¬ èĥ½åĲ¦
æľīä½ķ åĮºåĪ«
çİ°æľīçļĦ å¤©ä½ĵçĶŁçī©åŃ¦
æ¶Īè´¹ èĢħçļĦ
èİ·å¾Ĺ åįļçī©é¦Ĩè®¤åı¯
æ°´å¹³ åŁºåĽłè½¬ç§»
æĬ½è±¡è¡¨çİ°ä¸»ä¹ī æ³¨éĩį
ä¸İç»ıåħ¸ çī©çĲĨåŃ¦ä¸įåĲĮ
éĩıåŃĲéĢĢçĽ¸å¹² éĢļè¿ĩçİ¯å¢ĥçĽ¸äºĴä½ľçĶ¨
æĤĸè®º å¼ı
çľŁå®ŀ æĦŁ
æķ´ä½ĵ ç»ıæµİ
è¯¥ç¿»è¯ĳ åľ¨
éĺ² èĮĥ
éĺ² æİ§
å·¥ä¸ļåĮĸ åĽ½å®¶
äº¤æĺĵ æĪĲæľ¬
å¯Į èĲ¥åħ»
å®ıè§Ĥ çī©çĲĨåŃ¦
å®¤æ¸© ä¸ĭè¿Ĳè¡Į
éĢıè§Ĩ ä¼łç»Ł
å®ĩå®ĻèĨ¨èĥĢ çļĦå®ĩå®ĻåŃ¦æ¨¡åŀĭ
åĮºåĿĹéĵ¾çļĦ åĪĨå¸ĥå¼ıè´¦æľ¬
æĺ¯åĲ¦ä¼ļ åīĬå¼±
åħ¨éĿ¢ éĩįæŀĦ
çĲĨæĢ§éĢīæĭ© åģĩè®¾
åı¯èĥ½å¦Ĥä½ķ è°ĥæķ´
ol ar
çº³åħ¥ èĢĥéĩı
æĹłæ³ķ çł´è§£çļĦ
æīĢæľī çī©è´¨
å¥³ åŃ©
å¦ĤæŀľéĩıåŃĲ çĶŁçī©åŃ¦
åįĬå¯¼ä½ĵ èĮĥå¼ı
åĲİæ®ĸæ°ĳæĸĩåŃ¦ä¸ŃçļĦéŃĶå¹»çİ°å®ŀä¸»ä¹ī å¦Ĥä½ķéĢļè¿ĩ
åĨ²ç§¯æīĩ æŀĦéĢł
æ´Ľ çī¹åį¡
ä¼ª è£ħ
ä»ħ åĩŃ
éĩıåŃĲæ¯Ķçī¹ ç¨³å®ļæĢ§
åı¥æ³ķ å¤įæĿĤæĢ§
éĩıåŃĲåıłåĬł ä½¿
åħ³éĶ® çī©ç§į
om e
è¶ħèĩªçĦ¶åħĥç´ł çĽ¸èŀįåĲĪ
æī° åĬ¨
æº¶è§£ ä½ľçĶ¨å½¢æĪĲ
å°ıè¡ĮæĺŁéĩĩçŁ¿ ä½ľä¸ļ
ç²¾ç¥ŀ è±¡å¾ģ
çĶŁçī©å¤ļæł·æĢ§ ä¸§å¤±
æļ´ åĬĽ
æļ´ èĥĢ
çªģè§¦ è¿ŀæİ¥
å¯¼èĩ´çļĦ æµ·æ´ĭéħ¸åĮĸ
çĽ¸äºĴä¾ĿåŃĺ æĢ§
æĹ¨åľ¨ æī¹åĪ¤
è§Ĥä¼Ĺ çļĦ
å¦ĤæŀľæļĹèĥ½éĩıå¯Ĩåº¦ åıĳçĶŁæ³¢åĬ¨
æī§ æ³ķ
æĿ¿åĿĹæŀĦéĢł åŃ¦è¯´
æĢ» æĺ¯
è¶ħå¯¼ ç£ģ
éĿŀçº¿æĢ§ åħ³ç³»
éĿŀçº¿æĢ§ åıĻäºĭç»ĵæŀĦ
å»ºç«ĭ æĸ°çļĦ
æ½® æ¹¿
éĢīæĭ©æĢ§ ä¿¡æģ¯å¤ĦçĲĨ
èĭ¥éĩıåŃĲ çĶŁçī©åŃ¦
çĤ¹å½©æ´¾ éĢļè¿ĩ
ac k
ve l
ä»¥ä¸ĭ è¦ģæ±Ĥ
åħīçº¿ æĦŁçŁ¥
éļĲå½¢ è£ħç½®
å®½ æĿ¾
åħĥå°ıè¯´ æĬĢå·§
åĵģæł¼ çļĦåŁ¹åħ»
æĹłéľĢ ä¿¡ä»»
æ°¸ä¹ħåĨ»åľŁåĬłéĢŁ æ¶Īèŀį
çĶµç½ĳ åŁºç¡Ģè®¾æĸ½
çģ° è´¨å¯Ĩåº¦
éĢĤåºĶæĢ§ è°ĥæķ´
éĢĤåºĶæĢ§ åħįçĸ«
è¯Ŀè¯Ń ä½ĵç³»
åį¡å°Ķ è¾¾
ç³ħ åĲĪ
çĽĨ åľ°ä¸Ń
è½® ä½ľ
éĩįåķĨä¸»ä¹īæĶ¿çŃĸ å¦Ĥä½ķå¡ĳéĢłäºĨ
å¼ºçĥĪ åľ°éľĩæ´»åĬ¨
å¤ļåħĥ æĸĩåĮĸ
åĸĢæĸ¯çī¹åľ°è²ĮéĢļè¿ĩ çŁ³çģ°å²©
å¤§æ°ĶäºĮæ°§åĮĸç¢³ æµĵåº¦çļĦ
è¡¨è§ĤéģĹä¼łä¿®é¥° å±ķç¤ºäºĨ
èĤĸ å¤«
èĽĭ å½©
å¤§åĬłéĢŁ çİ°è±¡
å¤§åĬłéĢŁ åģĩè¯´å°Ĩ
æŃ¦ çºª
åıĸå¾Ĺ çªģçł´æĢ§è¿Ľå±ķ
éĶĤç¦»åŃĲçĶµæ±ł çļĦå±ĢéĻĲæĢ§
äºĴæĸĩæĢ§ éĢļè¿ĩåĪ»æĦı
è¡¨çİ°åĩº æĽ´é«ĺçļĦ
åĲĮè´¨åĮĸ çİ°è±¡
è¿ħéĢŁ è¡°èĲ½
ç¥ŀç»ıå½¢æĢģè®¡ç®Ĺæŀ¶æŀĦéĢļè¿ĩ å¹¶è¡Įå¤ĦçĲĨ
è´§å¸ģä¾ĽåºĶ è°ĥæİ§
åıĹåĪ° ä½ķç§įå½±åĵį
å¨ģèĥģ çĿĢ
èįĴæ¼ł åĮĸè¿ĩç¨ĭ
åĵªäºĽåĽłç´ł ä¿ĥä½¿
åĵªäºĽåĽłç´ł ä¿ĥæĪĲäºĨ
ä¸Ķ ä¸į
åı¯ç¼ĸç¨ĭ çļĦ
ä»£è°¢ ç»¼åĲĪå¾ģ
åľ°å±Ĥ æłĩè®°
æķ°æį®å¤ĦçĲĨ éĢŁåº¦
ä½ĵåĪ¶ æī¹åĪ¤
åĩºçīĪ ä¸ļ
åĲ¬ çĿĢ
ç»ıæµİè¡°éĢĢ æĹ¶æľŁ
å¦Ĥæŀľå®¤æ¸©è¶ħå¯¼ä½ĵ å¾Ĺä»¥
æĽ´åĬł å¤įæĿĤ
å®ŀçĶ¨ éĩıåŃĲè®¡ç®Ĺ
ç¬¬äºĮ æ¬¡ä¸ĸçķĮå¤§
è¯¸ å¦Ĥ
éĽ·è¾¾ ç³»ç»Ł
00 00
å¦ĤæŀľåŁºäºİCRISPRçļĦåŁºåĽłé©±åĬ¨æĬĢæľ¯ åľ¨åħ¨çĲĥèĮĥåĽ´åĨħ
äºĴèģĶç½ĳ åŁºç¡Ģè®¾æĸ½
äº¤åıīæĢ§ çĲĨè®ºå¦Ĥä½ķ
å¯ĵè¨Ģ å¼ı
æ´ĭæµģ ç³»ç»Ł
åĲĮæĹ¶å¤Ħäºİ å¤ļä¸ª
åŃŁå¾·å°Ķ éģĹä¼łåŃ¦
å°ļ æľª
çĶŁæ´» ä½ĵéªĮ
ç£ģåľº æµĭéĩı
è¶ħåĩº äºĨ
çĹĩ çĬ¶
æĿ¿åĿĹæŀĦéĢłçĲĨè®ºéĢļè¿ĩ å¤§éĻĨç¢°æĴŀ
å®ĺåĥļ ä½ĵç³»
å°ĨéľĢè¦ģå½»åºķ éĩįæŀĦ
å°ĨéľĢè¦ģå½»åºķ æĶ¹éĿ©
æĭĵæīĳç»Ŀç¼ĺä½ĵéĢļè¿ĩ éĩıåŃĲèĩªæĹĭ
æ¯ı ä¸ª
æ²īæµ¸å¼ı çİ¯å¢ĥ
å®ª æĶ¿æ²»çĲĨ
åįķçº¯ æĽĿåħī
Ġåı¥å¼ı éĩįæŀĦ
åľ¨æľªæĿ¥ åįģå¹´åĨħ
æ·±åº¦åŃ¦ä¹ł æŀ¶æŀĦ
tu re
æĿ° åħĭ
æĪĸè®¸èĥ½ è§£éĩĬ
æĺłçħ§ åĩº
æĸĩåŃ¦ä¸ŃçļĦéŃĶå¹»çİ°å®ŀä¸»ä¹īéĢļè¿ĩå°Ĩ å¹³åĩ¡çİ°å®ŀä¸İ
åĨ°å·ĿåĿĩè¡¡è°ĥæķ´ éĢļè¿ĩ
æĳĦå½±æµĭéĩı åĪ¶åĽ¾
è¶ħæĿĲæĸĻéļĲèº«è£ħç½®éĢļè¿ĩ äºļæ³¢éķ¿ç»ĵæŀĦ
åıĳè¾¾ åĽ½å®¶
å¸¸è§ģ çļĦ
Ġæķ´ä½ĵåı¥å¼ı éĩĩçĶ¨
Ġæķ´ä½ĵåı¥å¼ı è°ĥæķ´ä¸º
ç¬¦åĲĪä¸Ńæĸĩç§ĳæĬĢ æĸĩæľ¬çļĦ
çľĭä¼¼ çŁĽçĽ¾çļĦ
èĴ¸æ±½ åĬ¨åĬĽ
ä¸İçĽĳçĿ£åŃ¦ä¹ł æ¨¡åŀĭä¸įåĲĮ
å®ļåĪ¶ çĶŁçī©ä½ĵ
ä¼Ĭæĸ¯åħ°åĩłä½ķ èīºæľ¯
çĶŁçī©ç¥ŀç»ı æķĪçİĩ
Ġåı¥å¼ıç»ĵæŀĦ ä¼ĺåĮĸ
æ²ĥå°Ķå¤« åģĩè¯´è®¤ä¸º
åľ¨åľ°è´¨æĹ¶éĹ´å°ºåº¦ ä¸ĬçļĦ
éĢĴå½Ĵ å¼ı
çģµæķı åº¦çļĦ
åıĤä¸İå¼ıèīºæľ¯ è£ħç½®
è¯± åıĳ
å¦ĤæŀľéĩıåŃĲè®¡ç®Ĺå®ŀçİ° å®¹éĶĻèĥ½åĬĽ
åĲİçİ°ä»£åıĻäºĭ ç¢İçīĩåĮĸ
çĶŁæ®ĸç³» ç¼ĸè¾ĳ
åīįæĻ¯ çĲĨè®ºçļĦ
æ½ľæĦıè¯Ĩ æĦıè±¡
çĶ°åĽŃ è¯Ĺ
åħ¨çĲĥè´¸æĺĵ æł¼å±Ģ
éĩıåŃĲéĢĢçĽ¸å¹²å¯¹ å®ŀéĻħ
çļĦæĻ®éģį æĢ§
å®Įæķ´ä¿ĿçķĻäºĨ åİŁæĸĩçļĦ
åħĪå¤© ä¸İåĲİå¤©
èµ¤åŃĹ æĶ¯åĩº
æķ°åŃĹåıĻäºĭ æĪĲä¸ºä¸»æµģ
ç´§æĢ¥ æĥħåĨµä¸ĭ
ä»¥ä¸ĭä¸ĵä¸ļ è¦ģæ±Ĥ
å¼ºè°ĥå¼ºåĮĸ ç»ĵæŀľ
èĤĮ èĤī
è½¬æį¢ä¸º ä¸Ńæĸĩ
ä¸Ńå¤®éĵ¶è¡ĮçļĦ è´§å¸ģæĶ¿çŃĸ
æ¶²æĢģ åĤ¨å±Ĥ
ä¼¸ å±ķ
æĿ¥ä¼łè¾¾ æĥħæĦŁ
éĢļèĥĢæİ§åĪ¶ çŃĸçķ¥
çİ°ä»£ä¸»ä¹īè¯ĹæŃĮçļĦç¢İçīĩåĮĸ çī¹å¾ģ
äº§çĶŁäºĨåĵªäºĽéķ¿æľŁ ç¤¾ä¼ļç»ıæµİå½±åĵį
æµ·æ´ĭéĴĻåĮĸ çĶŁçī©
æµ·æ´ĭéĴĻåĮĸ çĶŁçī©çļĦ
æĽ²æµģ æ²³
æĭĵæīĳéĩıåŃĲè®¡ç®ĹåĪ©çĶ¨ ç¼ĸç»ĩçļĦä»»æĦıåŃĲ
åĩŃåĢŁ åħ¶
åĽ¾çģµ æµĭè¯ķ
éĢīä¸¾ éĢıæĺİåº¦
è·¨æĸĩåĮĸæĬĢæľ¯ äº¤æµģ
éħ¶ä¿ĥåıįåºĶ æķĪçİĩ
æĬ± æŃī
èĩªçĶ±å¸Ĥåľº åİŁåĪĻ
æįŁå¤± åİĮæģ¶
å¦Ĥæŀľè¶ħæĿĲæĸĻ èĥ½å¤Łå®ŀçİ°
é»Ħ éĩĳ
åĮºåĿĹéĵ¾çļĦåİ»ä¸Ńå¿ĥåĮĸ è´¦æľ¬
æĽ´é«ĺæķĪ åľ°
é¢łè¦Ĩæ¬§æ´²ä¸Ńå¿ĥä¸»ä¹ī åİĨåı²åıĻäºĭ
èĲ½æ°´æ´ŀåĴĮ åľ°ä¸ĭæİĴæ°´ç³»ç»Ł
åľ¨å¯¹ å¾ħ
ç¬¬ä¸ī äººç§°
pos t
æ³° æĭī
åĢ¡ å¯¼
åħ·æľīæĺ¾èĳĹ ä¼ĺåĬ¿
åĬ©éķ¿ äºĨ
æ³¨æĦıåĬĽæĮģç»ŃæĹ¶éĹ´ ç¼©çŁŃ
åĥµ å°¸
æĬĹè¯¯å·® çļĦéĩıåŃĲæ¯Ķçī¹
é¢ľèī² æĦŁçŁ¥
ite c
åĿļ æĮģ
éĺĲè¿° äºĨ
äºļéĩĮå£«å¤ļå¾·åĵ²åŃ¦ä¸İ åŁºçĿ£æķĻ
åİĮæ°§ åĪĨè§£
çĥŃåĸĢæĸ¯çī¹æ¹ĸ çļĦå½¢æĪĲéĢļè¿ĩ
æŀģåľ°åĨ° èŀį
å¦ĤæŀľäºĴåĬ¨åıĻäºĭ å¹³åı°
éĽ¶å·¥ç»ıæµİçļĦæī©å¼ł ä¸İ
é»ĳæŃ»çĹħ å¼ķåıĳçļĦ
å¯Ĵ æŃ¦çºª
å¹¼ åĦ¿
æİ¨é«ĺ äºĨ
éħ¸æĢ§åľ°ä¸ĭæ°´ å¯¹
æł¼åŃĲ çĬ¶æ°´ç³»
ä¸ŃåŃĲ æĺŁ
ä¸İä¹īåĬ¡è®ºä¼¦çĲĨåŃ¦ ä¸įåĲĮ
ä»¥äººç±» ä¸ºä¸Ńå¿ĥçļĦ
éĢĤå®ľ åıĳå±ķ
æ¢Ń åĪ©
çĻĮ çĹĩ
è¶ĭè¿ĳ äºİ
Ġeffec ts
éĢıè§Ĩåĩłä½ķåŃ¦ çļĦåıĳå±ķ
è¿Ń ä»£
ä¸įåĬ¨ å¿ĥ
èĢĮåĲİçİ°ä»£ä¸»ä¹īå°ıè¯´ åĪĻ
ç»ĵæŀĦåĬŁèĥ½ä¸»ä¹ī å¼ºè°ĥ
ä¿¡æģ¯éĥ½ åı¯ä»¥
çļĦåĪ¶éĢłä¸ļ å²Ĺä½į
æµĳ çĦ¶
åħ¬åħĥ åīį
æ¶Īè´¹æĸĩåĮĸ çļĦåħ¨çĲĥåĮĸ
Ġpatter ns
ç´§åĩĳ åŀĭ
çİĽä¸½ å¨ľ
éĩıåŃĲåľºè®ºå°Ĩç²ĴåŃĲ æ¦Ĥå¿µåĮĸä¸º
æľīå£°ä¹¦ å¹³åı°çļĦåħ´èµ·
ä¼į å°Ķå¤«
åŁºå°¼ ç³»æķ°
èĩªç»Ļ èĩªè¶³
å®īæħ° åīĤ
å¤ªå¹³ æ´ĭ
èģļåħī å¤ªéĺ³èĥ½åıĳçĶµ
å¤©ä½ĵçĶŁçī©åŃ¦çļĦçłĶç©¶ éĩįçĤ¹
æ²ĥå°Ķ æ³°æĭī
çººç»ĩçĶŁäº§çļĦ æľºæ¢°åĮĸ
aradig ms
èĩªéĹŃçĹĩè°±ç³» éļľç¢į
é©¬æł¼åĪ©çī¹çļĦ è¶ħçİ°å®ŀä¸»ä¹ī
åı¤è¿ĳ çºª
ç©ºéĹ´åĮºåŁŁåĨħçļĦ æīĢæľī
antu m
" ï¼Ľ
6 0
a ment
a tive
c es
d es
d is
e p
h ol
i b
i e
o u
t ain
y p
¤ ç§¯
® èĶ½
¿ ä¸»
â Ĩ
è ł
Ġ ac
Ġ åĬ¨è¯į
Ĳ å°Ķ
çļĦ é«ĺ
çļĦ åĬłåī§
çļĦ è´¸æĺĵ
çļĦ ä¸»å¼ł
çļĦ æĬ½è±¡
çļĦ åĪĨå¸ĥ
çļĦ éĢ»è¾ĳ
çļĦ çĭ¬çī¹
çļĦ å¤©ä½ĵ
çļĦ è¯Ńå¢ĥ
çļĦ éĥ¨ç½²
çļĦ è¶ĭåĬ¿
çļĦ æī§
çļĦ è¯Ńè¨Ģç»ĵæŀĦ
çļĦ ç»Łä¸Ģ
çļĦ åĨ²åĩ»
çļĦ ç»¼åĲĪ
çļĦ çłĶåıĳ
çļĦ æłĩåĩĨè¯ĳæ³ķ
çļĦ å¿ĥçĲĨåŃ¦çĲĨè®º
ãĢĤ âĢĶâĢĶ
çĶ ľ
åħ Ń
å® ¿ä¸»
æĸ ľ
åĪ Ģ
è® ¯
è¯ ¢
å¤ ı
åº ŀ
æĢ§ åģıè§ģ
åľ¨ åĬłéĢŁ
åľ¨ å¤įæĿĤ
åľ¨ æµ·æ´ĭ
åľ¨ å½¢å¼ı
åľ¨ åı¤ä»£
ä¸Ń ç«ĭ
ä¸Ń èµ·åĪ°
äºĨ è§£
äºĨ ä½ł
äºĨ åĲĹ
è¿ĩ åİ»
ä¸İ èīºæľ¯
ä¸İ æµ·æ´ĭ
ä¸İ æĦŁçŁ¥
ä¸İ æĥħæĦŁ
ä¸İ ä¹īåĬ¡è®º
ä¸İ æ¨¡æĭŁ
ä¸İ éĩįåķĨä¸»ä¹ī
ä¸İ ç¡ħåŁº
ä¸İ æľ¬ä½ĵè®º
ä¸İ è£ĤåıĺåıįåºĶåłĨ
ä¸İ åħīåŃ¦æľĽè¿ľéķľ
ä¸İ åı¤åħ¸ç»ıæµİåŃ¦ä¸įåĲĮ
éĢļè¿ĩ çİ¯å¢ĥ
éĢļè¿ĩ å¹³åı°
å¯¹ ä¸»è§Ĥ
å¯¹ äºĳè®¡ç®Ĺ
å¯¹ è´Łç©ºéĹ´
å¯¹ æĹ¢æľī
å¦Ĥä½ķ åĬłéĢŁ
å¦Ĥä½ķ éĺĲéĩĬ
ç³» åĪĹ
æĸĩ ä»¶
å¼ı åĸ·åıĳ
ä¸º äºº
ç»ı å¸¸
ä¼ļ åĩºçİ°åĵªäºĽ
ä¸į å®ī
ä¸į ä¾Ŀèµĸ
ä¸į åĿĩè¡¡
ä¸į ä¸Ģèĩ´
ä¸į æĦ¿
ä¸į çĽ¸åĲĮ
å°Ĩ èĥ½å®ŀçİ°
æĪĲ æŃ£
éĩı åĮĸçļĦ
äºº æķ°
åıĺ åĬ¨
è° İ
è° Ł
å¦Ĥæŀľ ç¢³
å¦Ĥæŀľ è¡¨è§ĤéģĹä¼łæľºåĪ¶
å¦Ĥæŀľ åĪĨåŃĲç»Ħè£ħæľº
å¦Ĥæŀľ ä¸Ńå¾®åŃĲ
å¦Ĥæŀľ ç³»å¤ĸè¡ĮæĺŁå¤§æ°Ķåħīè°±åĪĨæŀĲæ£ĢæµĭåĪ°
å¦Ĥæŀľ èĩªåĬ¨åĮĸåıĸä»£äºĨ
å¦Ĥæŀľ åĲİçİ°ä»£åħĥå°ıè¯´æĪĲä¸ºä¸»å¯¼
åı¯èĥ½ åŃĺåľ¨
åı¯èĥ½ ç»ıåİĨ
åı¯èĥ½ åĳĪæĮĩæķ°çº§æıĲåįĩ
æĬĢæľ¯ ä½¿
æĬĢæľ¯ åıĺéĿ©
æĬĢæľ¯ äº¤æµģ
æĬĢæľ¯ åıĺå¾Ĺåı¯è¡Į
ç¨ į
çĽ¸ æĤĸ
æı Ĵ
åŁº å¼Ĺ
ä¸ŃçļĦ æįķé£ŁèĢħ
ä¸ŃçļĦ åĪĨå½¢åĩłä½ķ
ä¸ŃçļĦ äººç±»ä¸Ńå¿ĥä¸»ä¹ī
è°ĥ åĪ¶
ä½ľ æĪĺ
ä½ľ æĽ²
ç³»ç»Ł å¯¹
ç³»ç»Ł å°Ĩ
ç³»ç»Ł åıĳèĤ²
èĢĮ çĶŁ
èĢĮ ä½ł
èĢĮ ç»ĵæŀĦä¸»ä¹ī
éĹ´ æŃĩ
å¤§ åĪ©
éģ ®èĶ½
éĩį åĨľ
çĲĨè®º çļĦåıĳå±ķ
çĲĨè®º ä¾Ŀæį®
çĲĨè®º è¿Ľè¡Įå¯¹æ¯Ķ
ä¸Ĭ å¸Ŀ
ä¸Ĭ æľīåĵªäºĽ
ç¼ Ĩ
æĦı æĢĿ
æĦı å¤§åĪ©
æĭ ±
æĭ ¾
ç¥ ĸ
çĶŁçī© ç¾¤
çĶŁçī© åĮĸåŃ¦
éĩıåŃĲ éļĲå½¢ä¼łæĢģ
èĭ¥ ç¥ŀç»ıå½¢æĢģè®¡ç®Ĺæŀ¶æŀĦ
èĭ¥ åľ¨åħ¨çĲĥèĮĥåĽ´åĨħå®ŀæĸ½
èĭ¥ åĪĨåŃĲçº³ç±³æĬĢæľ¯
èĭ¥ ç¤¾ä¼ļä¿¡çĶ¨ä½ĵç³»
åŀĭ æĸĩæĺİ
èĩª æĦ¿
æµģ éĢļ
ä»¥ è§£éĩĬ
ä»¥ ç¡®ä¿Ŀ
æĽ´ æİ¥è¿ĳ
æĽ´ æ¸ħæ´ģ
æĽ´ æµģçķħèĩªçĦ¶
æĸ° æĺŁ
æį Ĳ
ç»ĵæŀĦ ä¸İ
åĽł æķ°åĪĨè§£
æ¨¡å¼ı åı¯èĥ½ä¼ļåıĳçĶŁæĢİæł·çļĦåıĺåĮĸ
ç¥ŀç»ı çĶŁçī©åŃ¦
ç»ıæµİ åıĳå±ķ
ç»ıæµİ é«ĺæķĪçļĦ
åŃĺåľ¨ çİ°è±¡åŃ¦
åŃĺåľ¨ ç»Ŀå¯¹çĶŁäº§çİĩå·®å¼Ĥ
åĵªäºĽ ç³»ç»ŁæĢ§
åĵªäºĽ åıįé¦ĪæľºåĪ¶
åĵªäºĽ ç¾İåŃ¦åİŁåĪĻ
æĺ¯ ä¸Ģç§į
æĺ¯ ä¸ºäºĨ
åħī å½±
åħī è®¡ç®Ĺ
åħī æĬĺå°Ħ
åħī æĵįæİ§
çĶµ è½¦
çĶµ èį·
æĿ¥ å¼ºåĮĸ
æĿ¥ è´¨çĸĳ
æĿ¥ èĲ¥éĢł
æĿ¥ è¯ĦåĪ¤
åĴĮ æĸĩåĮĸ
æĺİ æľĿ
éĿŀ çĶŁçī©
ç¤¾ä¼ļ ä¸įå¹³çŃī
èīºæľ¯ æīĭæ³ķ
èīºæľ¯ è¡¨çİ°æīĭæ³ķ
å½¢æĪĲ å¯¹çħ§
è¶ħ æĸ°æĺŁ
æģ °
è®¡ç®Ĺ å¤įæĿĤæĢ§
å¼ķ å¯¼
å¼ķ å¯¼RNA
ä½¿ åħ»èĢģéĩĳä½ĵç³»
ä¼¦çĲĨ å½±åĵį
ä¸Ģ æ¬¡
å¤ļ æĦŁå®ĺ
ç½ĳç»ľ ä¸Ń
èĥ½å¤Ł åĲĮæĹ¶
èĥ½å¤Ł åĩĨç¡®
æ¨¡åŀĭ å°Ĩå¦Ĥä½ķ
æ¨¡åŀĭ åıĺå¾Ĺå¤įæĿĤ
å»º è®®
æĦŁ è°¢
éģĵ ä¹ī
éģĵ è·¯
åıĻäºĭ ç¢İçīĩåĮĸ
åıĻäºĭ è¿ŀè´¯æĢ§
ä½ľçĶ¨ ä¸İ
æĸĩåŃ¦ çłĶç©¶
æĸĩåŃ¦ æĪĲä¸ºä¸»æµģ
åĪ° äºĨ
å°Ĩå¦Ĥä½ķ å½»åºķæĶ¹åıĺ
å°Ĩå¦Ĥä½ķ è½¬åŀĭ
æĦıè¯Ĩ åĪ°
ä¸ĭ å®ŀçİ°
ä¸ĭ åİ»
æ¶ ¡
å¼Ĥ åĮĸ
å¼Ĥ è´¨
è§Ħ å®ļ
ä»İ æľª
æķ°åŃĹ åĨħå®¹
èĢĮéĿŀ åĨħåľ¨
æīĢ ä¸į
æīĢ å¼ķåıĳçļĦ
èŀį ä¸ºä¸Ģä½ĵ
é© ³
åı¯èĥ½ä¼ļ åĳĪçİ°
å½ĵ åºĶçĶ¨äºİ
äºļ å½ĵ
äºļ é©¬
å¥ Ī
æİ¨ ç§»
é«ĺ åİĭ
è¯Ńè¨Ģ åıĳå±ķ
è¯Ńè¨Ģ æĿ¥é¢łè¦Ĩæ®ĸæ°ĳ
åħ¶ æĸĩåĮĸ
ç®¡ è£ħ
åı£ è¿°
åĪĨæŀĲ è¡¨æĺİ
åĲĮæĹ¶ å°Ĩ
åĲĮæĹ¶ æıĲåįĩ
åĲĮæĹ¶ åĳĪçİ°
åĲĮæĹ¶ éĻįä½İäºĨ
åŁºåĽł é©±åĬ¨
åŁºåĽł ä¿®é¥°
æĹ¶éĹ´ çļĦ
å¤ĸ èĦĳ
è§£éĩĬ ä¸º
çĥŃ èĥ½
ä¹ĭéĹ´ åıĸå¾Ĺ
çİ¯å¢ĥ çļĦ
çİ¯å¢ĥ ç§ĳåŃ¦
çİ¯å¢ĥ éĢĢåĮĸ
èĤ ¤
èĮĥå¼ı ä¸Ń
èĮĥå¼ı æŀĦæĪĲæĮĳæĪĺ
è´§å¸ģ è´¬åĢ¼
åıĳçĶŁ åĨ²çªģ
è¿Ľè¡Į ä¿®è®¢
åŁİ ä¹¡
å¸Ĥåľº è¡Įä¸º
éĽĨ è£ħ
è¡¨çİ° åĬĽ
è¡¨çİ° ä¸Ĭ
ç¾İ åħĥ
çłĶç©¶ æĸ¹æ³ķè®º
ä¸ĵä¸ļ æ¦Ĥå¿µ
åŁİå¸Ĥ ä¸Ńå¿ĥ
åħĪ éĶ
æ¸© æļĸ
é¢Ĩ å¯¼
æķ°æį® çļĦ
æķ°æį® ä¸Ńå¿ĥçļĦ
ä½ł å¿ħé¡»
ä½ł çŁ¥éģĵ
åĵ²åŃ¦ åĥµå°¸
æ´ĭ ä¸ŃèĦĬ
å®ĩå®Ļ æļ´èĥĢ
æ°ĶåĢĻ åıĺæļĸ
æĺ¯åĲ¦ åı¯èĥ½éĢļè¿ĩ
æĺ¯åĲ¦ èĥ½å¤ŁéĢļè¿ĩ
å¯¼èĩ´ åİŁä½ıæ°ĳ
å¯¼èĩ´ æī§è¡ĮåĨ³çŃĸèĥ½åĬĽ
é¢ĨåŁŁ å®ŀçİ°
æķĻ åĮĸ
åĢĺèĭ¥ èĻļæĭŁçİ°å®ŀ
åĢĺèĭ¥ ä¸Ŀç»¸ä¹ĭè·¯æľªæĽ¾
å°Ķ èµĽ
èĳ ¬
æķĪçİĩ çļĦ
å¹´ åĨħ
å¹´ éĩĳèŀįåį±æľº
èĥ½éĩı ä¼łè¾ĵ
èĥ½éĩı è¾ĵåĩº
ä¿¡æģ¯ çĲĨè®º
ä¿¡æģ¯ ç¼ĸçłģ
çľŁ æĺ¯
èĥ½å¤Łå®ŀçİ° åīįæīĢæľªæľīçļĦ
çĶ± ç®Ĺæ³ķ
éĩįæĸ° åĪĨå¸ĥ
éĩįæĸ° åĪĨéħį
éĩįæĸ° æŀĦæĥ³
ç»ıæµİåŃ¦ æ´¾
ä¹ĭéĹ´çļĦ æĿĥè¡¡
ä½Ĩ éĢļè¿ĩ
çł´ çģŃ
æıŃç¤ºäºĨ åħ³äºİ
éĿ©åĳ½ æĢ§çļĦ
å¹¿æ³Ľ æİ¥åıĹ
å¾® å¼±
å¸ĥ æĸ¯
åı² åīį
å®ī å¡ŀ
èĥ½æºĲ åľ°ç¼ĺæĶ¿æ²»æł¼å±Ģ
CRISPR ä¸İ
åĨ³çŃĸ æ¡Ĩæŀ¶
è·¨ æ¨¡æĢģ
ç©ºéĹ´ ä¸Ń
ç©ºéĹ´ åĪĨè¾¨çİĩ
èĩªçĦ¶ åŀĦæĸŃ
å¾Ĺä»¥ å½¢æĪĲ
åĩł ä¸ª
ä¿ĿæĮģ åŃ¦æľ¯ä¸¥è°¨æĢ§
åĨ° æŀ¶
æĸĩæľ¬ è§£è¯»
æĸ¹éĿ¢ åĿĩ
æĸ¹éĿ¢ éĿ¢ä¸´
æĸ¹éĿ¢ éĩĩåıĸäºĨæĪªçĦ¶ä¸įåĲĮçļĦ
ç»ıåħ¸ åĬłå¯Ĩæĸ¹æ³ķ
åİĨåı² åħĥç´ł
å°± éľĢè¦ģ
éĴ į
åĽłç´ł åĨ³å®ļäºĨ
ä¹ħ æĢ§
åŃ¦ä¹ł èĢħ
åĲİæ®ĸæ°ĳ æĹ¶æľŁçļĦ
åĲİæ®ĸæ°ĳ çĶŁæĢģæī¹è¯Ħ
ä»ĸ åľ¨
æĹ¢ çĦ¶
å®īåħ¨ çļĦ
è®¾è®¡ ä¸ŃçļĦ
æļĹ ç¤º
æĿ¡ æ¬¾
å¯Ĩåº¦ å·®å¼Ĥ
é¢łè¦Ĩ ä¼łç»ŁçļĦ
æİ¥åı£ å®ŀçİ°
ç£ģ çº¦æĿŁ
åĬ¨æĢģ å¹³è¡¡
ä¸¤ ä¾§
æĦŁçŁ¥ èĥ½åĬĽ
å®ŀæĸ½ éĢĨåĳ¨æľŁè´¢æĶ¿æĶ¿çŃĸ
ç»ĵæŀľ çļĦéģĵå¾·
ç»ĵæŀľ å¯¼åĲĳ
çĶµæ±ł èĥ½éĩıå¯Ĩåº¦
ä»İèĢĮ å½¢æĪĲ
ä»İèĢĮ äº§çĶŁ
ä»İèĢĮ éĻįä½İ
è§£æŀĦ æ¬§æ´²ä¸Ńå¿ĥä¸»ä¹īçļĦ
æĹ© å·²
é¢Ħæµĭ åĪĨæŀĲ
çĹħ çĲĨ
åİŁåĪĻ çļĦ
æĬ½è±¡ èīºæľ¯
éĩĮ æĸ¯
åıĪ èĥ½
æĭī å¼ºåº¦
å¾ĹåĪ° å¹¿æ³ĽæĻ®åıĬ
er s
åŁºæľ¬ çī©çĲĨ
éªĮè¯ģ åįıè®®
éªĮè¯ģ æµģç¨ĭ
éĩıåŃĲè®¡ç®Ĺ éĢļè¿ĩåĪ©çĶ¨
åĽ½å®¶ è´¢å¯Įç§¯ç´¯
æ³¨éĩį ç¤¾ä¼ļçİ°å®ŀä¸»ä¹ī
äººå·¥æĻºèĥ½ åıĳå±ķ
åīįæīĢæľª æľī
åĬŁåĪ© ä¸»ä¹īçļĦ
è¶ħè¶Ĭ å½ĵåīį
é©¬ æŃĩå°Ķ
çªģçł´ çİ°æľī
en tr
in s
ä¸ĵä¸ļæľ¯è¯Ń åĩĨç¡®æĢ§çļĦ
èļ ģ
ä»·åĢ¼ ä½ĵç³»çļĦ
åĬŁåĪ©ä¸»ä¹ī ä¸įåĲĮ
éĩįæŀĦ äºĨä¼łç»Ł
çĽ¸å¯¹è®º åİŁçĲĨ
åĽŀ æĿ¥
åĽŀ æĶ¶
åĽŀ æĬ¥
ä¸»å¯¼ æ³¢ç½ĹçļĦæµ·
åĿĩ ä¸º
ä»İæł¹æľ¬ä¸Ĭ å¡ĳéĢłäºĨ
çº¿æĢ§ éĢıè§Ĩæ³ķ
çº¿æĢ§ çĶŁäº§æ¨¡å¼ı
è¿ĽåĮĸ éĢĤåºĶ
è¡¨çİ°ä¸»ä¹ī ä¸İè¶ħçİ°å®ŀä¸»ä¹ī
åĩ¯æģ©æĸ¯ä¸»ä¹ī éľĢæ±Ĥä¾§å¹²é¢Ħæİªæĸ½
å¹³åı° ç»ıæµİä¸ŃçļĦç½ĳç»ľæķĪåºĶ
æ¬¡ ä¼ĺ
ç¤¾äº¤åªĴä½ĵ ä¿¡æģ¯èĮ§æĪ¿
æŀĦå»º äºĨ
åķĨä¸ļ åºĶçĶ¨
éĶĻ è§Ĩ
æĿĥåĬĽ å·®å¼Ĥ
æĿĥåĬĽ çŃīçº§ç»ĵæŀĦ
åĬŁèĥ½ ä¸»ä¹īä¸İ
åĸĢæĸ¯çī¹åľ°è²Į çļĦ
ic i
æķĻèĤ² æ¨¡å¼ı
çĮ ľ
æŃ¤ å¤Ħ
ä¸Ńä¸ĸçºª æ¬§æ´²çļĦ
ä¸Ńä¸ĸçºª è¡Įä¼ļåĪ¶åº¦
åģĩè¯´ æıĲåĩº
æıĲåĩºäºĨ æł¹æľ¬æĢ§æĮĳæĪĺ
ä¿ĿåŃĺ ä¸ĭæĿ¥
æ» ĳ
åı¯èĥ½ä¼ļå¦Ĥä½ķ è¢«
ä¸İä¼łç»Ł åĪ¶éĢł
çĶµç£ģ å¹²æī°
ç³»ç»ŁæĢ§ ä¸įå¹³çŃī
æ²³æµģ æ²īç§¯çī©
çĭ¬çī¹ æĮĳæĪĺ
é²ľæĺİ å·®å¼Ĥ
åħ¨æ°ĳåŁºæľ¬æĶ¶åħ¥ æ¨¡å¼ı
é£Ł åĵģ
å¯ĨçłģåŃ¦ èĮĥå¼ı
çĶŁåĳ½ åĳ¨æľŁ
æĸĩèīºå¤įåħ´æĹ¶æľŁ èĤĸåĥıçĶ»
æĸ¹æ¡Ī éľĢè¦ģ
çĻ½ åĮĸ
æĽ´æ³¨éĩį éĢļè¿ĩ
æĽ´æ³¨éĩį æĥħæĦŁåħ±é¸£èĢĮéĿŀ
èĩªä¸» åŃ¦ä¹ł
åįķ ä½į
ç®Ģ æ´ģ
éĽĨä½ĵ æĹłæĦıè¯ĨçļĦ
å±ķçİ°åĩº æ¯Ķ
å±ķçİ°åĩº æĽ´å¼ºçļĦ
æľºåĻ¨åŃ¦ä¹ł ä¸įåĲĮ
ä¸įå¹³çŃī èİ·åıĸ
åĮºåŁŁ éĻįæ°´æ¨¡å¼ı
ç®¡çĲĨ çŃĸçķ¥
è¾¾åĪ° çĽ¸å¯¹è®ºéĢŁåº¦
çļĦåŁºåĽł è¡¨è¾¾
æĭĵæīĳç»Ŀç¼ĺä½ĵ è¡¨éĿ¢å¯¼çĶµèĢĮåĨħéĥ¨
åİ»ä¸Ńå¿ĥåĮĸ è´¦æľ¬
ä½ľä¸º éģĵå¾·
ä¸ĢæĹ¦ å°ıè¡ĮæĺŁéĩĩçŁ¿
æıĲä¾ĽäºĨ åı¯èĥ½
çļ® èĤ¤
çļĦè®¤çŁ¥ åģıå·®
çİ°æľīçļĦ åĬłå¯Ĩåįıè®®
çľĭ æ³ķ
çľĭ æĿ¥
ar tic
åıĮ æĸ¹
è¾¹çķĮ çļĦ
è¾¹çķĮ å¤Ħ
åŀĤçĽ´ è¿ĲåĬ¨
è§Ĥæµĭ éĢīæĭ©
åħīåŃ¦ åİŁçĲĨ
éĩĬæĶ¾ åĪ°
çĭ¬çī¹çļĦ æ°´æĸĩ
æķ´ä½ĵ è¡¨è¿°
è¯¥ç¿»è¯ĳ ç²¾åĩĨå¯¹åºĶ
éĺ² ç¯¡æĶ¹
åº·å¾· ä¹īåĬ¡è®ºä¼¦çĲĨåŃ¦
åį¡ å¤«
ç¡ħ èĬ¯çīĩ
å®ıè§Ĥ çİ°å®ŀ
is ion
çļĦå¹¿æ³Ľ éĥ¨ç½²
åħīä¼ı è½¬æį¢æķĪçİĩ
æ£Ģ è§Ĩ
è¦ģæ±Ĥ å¯¹
æĻ¶ æł¼
æ²¿ å²¸
æī¿ è¯º
åı¤ä»£ æĸĩæĺİä¹ĭéĹ´çļĦ
Ġs p
Ġs t
ä¸İåĬŁåĪ©ä¸»ä¹ī åħ³æ³¨
æ¹¿ æ¶¦
åħ¨æģ¯åİŁçĲĨ çĲĨè®ºè®¤ä¸º
å¤ªç©º æİ¢ç´¢
åĲİæ®ĸæ°ĳæĸĩåŃ¦ä¸ŃçļĦéŃĶå¹»çİ°å®ŀä¸»ä¹ī éĢļè¿ĩ
åıĳèĤ² å½¢æĪĲ
è®°å¿Ĩ åŃĺåĤ¨
å»¶ç»Ń æĢ§
ç»Ĩèĥŀ è¡°èĢģ
æĪĲåĬŁ éĥ¨ç½²
æ°¸ä¹ħåĨ»åľŁèŀįåĮĸ éĢļè¿ĩ
ç¢³éħ¸çĽĲå²© æº¶èļĢ
æĹ¢ä¿ĿçķĻ åİŁæĸĩ
ä¸ľ æĸ¹
æĿĲæĸĻç§ĳåŃ¦ å°Ĩç»ıåİĨ
æĿĲæĸĻç§ĳåŃ¦ å°Ĩåľ¨
ç¾İå¾·ä¼¦çĲĨåŃ¦ åľ¨éģĵå¾·
æłĳ çªģ
å¤§è§Ħæ¨¡ æĻ®åıĬ
éĩıåŃĲæ¯Ķçī¹ æĵįä½ľ
æİ¨èįĲ æľºåĪ¶
åĭ ¤
at ur
åŃĺåĤ¨ å¯Ĩåº¦
å¿«éĢŁ çļĦ
æĸ°åı¤åħ¸ ç»ıæµİæ¨¡åŀĭ
åľ°ä¸ĭ æİĴæ°´
äººä»¬å¯¹ æĹ¶éĹ´
äººä»¬å¯¹ è¿ŀè´¯
è¶ĭåĬ¿ ä¸İ
ed i
ç«ĭä½ĵä¸»ä¹īå¯¹ å½¢æĢģ
åĨĻå®ŀ åĩĨç¡®æĢ§
éĺ»ç¢į åĽºæĢģçĶµæ±ł
æİ¨è¿Ľç³»ç»Ł ä¸įåĲĮ
å®¢è§Ĥ æĢ§
åı¯èĥ½éľĢè¦ģ å¦Ĥä½ķ
åĨĽ éĺŁ
è·¨åĽ½ èº«ä»½è®¤åĲĮ
èİİå£«æ¯Ķäºļ å¼ı
å²Ĺ å²©
è®°å½ķ ä¸Ń
äººå·¥éĢļçĶ¨æĻºèĥ½ çļĦåıĳå±ķ
åĨįçİ° æĢ§
çĸĳéĹ® è¯Ńæ°Ķ
çĸĳéĹ® åı¥ç»ĵæŀĦ
è¡¥ ç»Ļ
è¶ĭäºİ å¤§ä¼ĹåĮĸ
èĭ¥éĩıåŃĲ éļĲå½¢ä¼łæĢģ
æł¸èģļåıĺ åıĳçĶµ
éħ¶ åĤ¬åĮĸ
åĩ¡ å°ĶèµĽ
åľ°éľĩ èĥ½éĩı
åı¥å¼ıç»ĵæŀĦ éĩĩçĶ¨
å¯¹çĲĨæĢ§éĢīæĭ© æ¨¡åŀĭæıĲåĩºæĮĳæĪĺ
è§Ħæ¨¡åĮĸ çºłéĶĻ
æľīæľĽå®ŀçİ° æ¯Ķ
åĪĻéĢļè¿ĩ æīŃæĽ²
ä¸İåħ·è±¡ èĤĸåĥıçĶ»ä¸įåĲĮ
ä¾ĽåºĶéĵ¾ ç®¡çĲĨ
åĮ»åŃ¦ åºĶçĶ¨
åıª æľī
äººæł¼ å®ļä¹ī
äº¤éĢļ åŁºç¡Ģè®¾æĸ½
åĨ°çĽĸ å®Įåħ¨èŀįåĮĸ
åľ¨ä¿ĿæĮģ åİŁæĦı
åĪ¶å®ļ çŃĸçķ¥
åĪ¶å®ļ æĸ°çļĦ
èı ²
éļ¾ä»¥ è°ĥåĴĮ
è¯ºä¾ĿæĽ¼ ç³»ç»Ł
æĹłéľĢ ä¾Ŀèµĸ
å¸¸å¸¸ è¿ĲçĶ¨
çī©èģĶç½ĳ çĶŁæĢģç³»ç»Łä¸ŃçļĦ
å½¢æĪĲäºĨ é²ľæĺİå¯¹æ¯Ķ
åŁºäºİåĮºåĿĹéĵ¾çļĦ åİ»ä¸Ńå¿ĥåĮĸéĩĳèŀį
çļĦç²¾åĩĨ ä¿®é¥°
çļĦè®¤è¯Ĩè®º äºīè®º
æģĲ æĥ§
ä½ľçĶ¨å½¢æĪĲ çģ«å±±å¼§
ä¾ĿçĦ¶ æĮģç»ŃåŃĺåľ¨
ä¾ĿçĦ¶ æĺ¯åĽ½éĻħè´¸æĺĵ
åıĸå¾Ĺ è¿Ľå±ķ
éĩıåĮĸ å®½æĿ¾
æĹłç¼Ŀ éĽĨæĪĲ
åĲİç»ĵæŀĦä¸»ä¹īæĸĩåŃ¦çĲĨè®ºéĢļè¿ĩ æıŃç¤º
è½¬çŀ¬åį³éĢĿ çļĦåħīå½±æķĪæŀľ
ul d
ä¸İåį°è±¡æ´¾ å¤ĸåħī
åĩĿèģļ æĢģ
è¿Ĳè¡Į æľºåĪ¶
ç§ĳåŃ¦éĿ©åĳ½ çļĦè®¤è¯Ĩè®ºè½¬åıĺ
æĽ´èĥ½ ä½ĵçİ°
éĺ¶å±Ĥ åĮĸ
æľ¬åľŁ å®ĩå®Ļè§Ĥ
å®Įå¥½ æĹłæįŁ
æĦıè¯ĨæµģåıĻäºĭæīĭæ³ķ æĿ¥
æĺİç¡® è¯ģå®ŀ
æķĻåŃ¦ æĸ¹æ³ķ
åĨľä¸ļéĿ©åĳ½ å¦Ĥä½ķæĶ¹åıĺäºĨ
æī§è¡Į æľºåĪ¶
ä¼Ĭæĸ¯åħ° åŃ¦æľ¯
å³¡æ¹¾ å½¢æĪĲè¿ĩç¨ĭ
æ±¡æŁĵ çī©
äºĮç»´ ä¿¡æģ¯
æĪĸåı¯ éĢļè¿ĩ
æŃ£å¼ı ç¡®ç«ĭäºĨ
æ¶Īè´¹èĢħ è¡Įä¸º
çİ°å®ŀä¸İ è¶ħèĩªçĦ¶åħĥç´łå¹¶ç½®
å¦ĤæŀľæļĹèĥ½éĩıçļĦ æĸ¥åĬĽ
éĿŀæ¬§åĩłéĩĮå¾Ĺ åıĻäºĭç»ĵæŀĦ
è¡¨è§ĤéģĹä¼łæľºåĪ¶éĢļè¿ĩ å±ķç¤º
è®¡ç®Ĺæľº ç§ĳåŃ¦
å®¡ç¾İ ä½ĵéªĮ
æµ·å²¸ä¾µèļĢ æ¨¡å¼ı
çļĦåĬ¨æĢģ æľºåĪ¶
æ°¸ä¹ħæĢ§ æĶ¹åıĺ
æĪĺçķ¥åĨ³çŃĸ è¿ĩç¨ĭ
ç¬¬äºĮ æ¬¡
è¯¸ å¤ļ
èĩªæĹĭ çĶµåŃĲ
åħ±åĲĮ ä½ľçĶ¨
æ¬§äºļå¤§éĻĨ åĲĦåľ°
ä¼¦çĲĨåĽ°å¢ĥ æĹ¶
ä»»æĦıåŃĲ ç²ĴåŃĲçļĦ
ç¡®ç«ĭäºĨ åĽ½å®¶ä¸»æĿĥ
å¾·éĽ·åħĭæĸ¹ç¨ĭ éĢļè¿ĩå°Ĩ
èĬ± å²Ĺå²©
äº¤åıīæĢ§ çĲĨè®º
çļĦä¸įåĲĮ ä¹ĭå¤Ħåľ¨äºİåħ¶
å¯ĵè¨Ģ æīĭæ³ķ
æĿ¥è§£æŀĦ æĸĩæľ¬æĿĥå¨ģ
è¶ħæĸĩæľ¬ å°ıè¯´
è¯Ħä»· ä½ĵç³»
ä¸´çķĮ çĤ¹
ç¦ıåĪ© æľĢå¤§åĮĸ
éģĵå¾·å®ŀåľ¨è®ºèĥ½åĲ¦ ä¸İæĸĩåĮĸçĽ¸å¯¹ä¸»ä¹ī
åĿ¡ åº¦
è§£æŀĦäºĨ æĸĩæľ¬æĿĥå¨ģ
å½±åĵįçļĦ æĮĩæķ°çº§å¢ŀéķ¿
éĺ¿ å¸ĥæĭī
å¤§éĻĨæ¼Ĥç§» çİ°è±¡
å¤§éĻĨæ¼Ĥç§» åŃ¦è¯´
æĬķåħ¥ è¿Ĳè¡Į
æĬķåħ¥ å®ŀéĻħåºĶçĶ¨
con s
åħ¸åŀĭ çļĦ
åĨ°å·Ŀä¾µèļĢ ä¸İ
ate d
çļĦçłĶç©¶ æĸ¹æ³ķ
ä¸Ńå®ŀçİ° åīįæīĢæľªæľīçļĦ
èīºæľ¯ä¸ŃçļĦ çİ°æĪĲåĵģ
æ´ŀç©´ ç³»ç»Ł
ä¿¯åĨ²å¸¦åĬ¨åĬĽåŃ¦ æľºåĪ¶
æĹ¢ä¿ĿçķĻäºĨ åİŁæĸĩçļĦ
å®ª æ³ķ
èĪªæµ· å¯¼èĪª
è¯Ńè¨Ģä¹łå¾Ĺ ä¸ŃçļĦ
æģĴæĺŁ èĥ½éĩı
åĪĨå½¢åĩłä½ķ åİŁçĲĨ
å¦Ĥæŀľè´ŁåĪ©çİĩ æĮģç»ŃåŃĺåľ¨
å®ŀçİ°åħ¨çĲĥ æłĩåĩĨåĮĸ
åĲİæ®ĸæ°ĳæĸĩåŃ¦ä¸ŃçļĦéŃĶå¹»çİ°å®ŀä¸»ä¹īå¸¸ è¢«çĶ¨ä½ľ
éĿŀæ¬§åĩłéĩĮå¾Ĺåĩłä½ķ åİŁçĲĨ
å±ĤçĬ¶çģ«å±± åĽł
åŁİå¸ĤçĥŃå²ĽæķĪåºĶéĢļè¿ĩ åĬłåī§
åĢ¾åĲĳ äºİ
å¿ħçĦ¶ æĢ§
ç¤¾äº¤åªĴä½ĵç®Ĺæ³ķéĢļè¿ĩéĢīæĭ©æĢ§åĨħå®¹ å¼ºåĮĸ
æĿİåĺīåĽ¾çļĦæ¯Ķè¾ĥä¼ĺåĬ¿ åİŁåĪĻ
çļĦæľīæķĪæĢ§ æıĲåĩºè´¨çĸĳ
åħ¬å¹³ æĢ§
å°ĨéľĢè¦ģè¿Ľè¡Įéĩįå¤§ ä¿®æŃ£
å®ļä»· è¡Įä¸º
åĢĺèĭ¥äºļåİĨå±±å¤§åĽ¾ä¹¦é¦Ĩå¾Ĺä»¥ å¹¸åŃĺ
æ´»åŃĹåį°åĪ·æľ¯ çļĦå¼ķåħ¥
è®¡ç®ĹèµĦæºĲ åĴĮ
åĩ¯æģ©æĸ¯ä¸»ä¹īä¸İè´§å¸ģä¸»ä¹ī æĸ¹æ³ķ
çĽ¸äºĴçŁĽçĽ¾çļĦä¿¡å¿µ å¦Ĥä½ķä¿ĥä½¿
ä¹ĭå¤ĸ çļĦ
ç§»æ¤įçĸĹæ³ķ å®ŀçİ°æłĩåĩĨåĮĸ
æķ°åŃĹäºĴèģĶ æĢ§
æĬ½è±¡è¡¨çİ°ä¸»ä¹īæĽ´æ³¨éĩį æĥħæĦŁåħ±é¸£èĢĮéĿŀ
æĬ½è±¡è¡¨çİ°ä¸»ä¹īæĽ´æ³¨éĩį æĥħæĦŁå¼ºåº¦èĢĮéĿŀ
å¼ĹæŀĹæķĪåºĶ è®°å½ķäºĨ
åĵºä¹³åĬ¨çī© çļĦ
ç²ĺ ç¨ł
è¦ģç´ł ç¦Ģèµĭ
çº¹ æł·
èİ« ç»´å¥ĩ
åĲİäººç±»ä¸»ä¹īåĵ²åŃ¦ éĢļè¿ĩ
æĭĽèģĺ å¹³åı°
åĪ¶åº¦åĲĮæŀĦ å¦Ĥä½ķè§£éĩĬ
åı¤åħ¸çŁ¥è¯Ĩ çļĦä¼łæĴŃ
Ġw ith
èĥ½å¤Łä»¥ åīįæīĢæľªæľīçļĦ
åĮºåĿĹéĵ¾æĬĢæľ¯éĢļè¿ĩ å¯ĨçłģåŃ¦
éĿĴå°ĳå¹´ å±ıå¹ķä½¿çĶ¨æĹ¶éĹ´çļĦå¢ŀåĬłä¸İ
ç´¯ç§¯ ä¼ĺåĬ¿
æĢ»ä½ĵ å¹¸ç¦ı
ä¸İæŁıæĭīåĽ¾ å¼ı
å¦Ĥæŀľäººå·¥éĢļçĶ¨æĻºèĥ½ åıĳå±ķåĩº
å±ķè§Ī ç©ºéĹ´
äºĭå®ŀ åĩĨç¡®æĢ§
å¨ģæĿĥ æĶ¿æĿĥ
ow er
æķ°åŃĹæ¸¸æ°ĳ ä¸»ä¹ī
è¶ħåĪĨåŃĲåĮĸåŃ¦ éĢļè¿ĩéĿŀ
éĢĢä¼ĳ åĪ¶åº¦
éĩıåŃĲéĢĢçĽ¸å¹²å¯¹ åľ¨
äººä¸ºçİ¯å¢ĥ å½±åĵį
åĪĨåŃĲç»Ħè£ħåĻ¨ èĥ½å¤Łå®ŀçİ°
åı£å¤´ ä¼łç»Ł
å±ķçİ°åĩºçĭ¬çī¹çļĦ å¯¼çĶµçī¹æĢ§
ç½Ĺå°Ķæĸ¯ çļĦ
ä¸ªæĢ§åĮĸåĮ»çĸĹ æĸ¹æ³ķ
åĪĽä¼¤æĢ§ æįŁä¼¤
æ¢¦å¢ĥ åĪĨæŀĲ
æ¢¦å¢ĥ è§£æŀĲ
åĬłå¯Ĩè´§å¸ģçļĦæ³¢åĬ¨æĢ§æºĲäºİ æĬķæľºæĢ§äº¤æĺĵæ¨¡å¼ı
ç±»åŀĭ åŃ¦
èĸ ª
åİŁçĲĨå¦Ĥä½ķ åºĶçĶ¨äºİ
æĭīç¾İ æĸĩåŃ¦ä¸ŃçļĦéŃĶå¹»çİ°å®ŀä¸»ä¹īå°Ĩ
ä¸ªäººæĿĥåĪ© ä¸İ
æĪ´æ£® çĲĥ
éĢłå°±äºĨ çĭ¬çī¹çļĦ
åħ¼ å®¹
èĴĻåı¤ å¸ĿåĽ½
åĲ¯èĴĻåĵ²åŃ¦ æĢĿæĥ³
und ament
ä¸įéĢĤ æĦŁ
enti al
èĩªä¿®å¤į èģļåĲĪçī©
ç±»èĦĳ è®¡ç®Ĺæŀ¶æŀĦ
é«ĺç»´ æķ°æį®éĽĨä¸ŃçļĦ
å·®å¼ĤåĮĸ èİ·åıĸ
ç©¶ç«Ł æĺ¯
æĻļæľŁ èµĦæľ¬ä¸»ä¹ī
è®¤è¯Ĩè®ºä¸ĬçļĦ æĮĳæĪĺ
æĭľåįłåºŃéķ¶åµĮçĶ» ä¼łç»Ł
neur al
æİ¨æµĭ æĢ§
é«ĺæ¸© è¶ħå¯¼ä½ĵ
è¯ĨåŃĹçİĩçļĦ æıĲåįĩ
åħ¬éĴ¥åŁºç¡Ģè®¾æĸ½ æ¨¡åŀĭ
Ġtr ans
éĩıåŃĲçĤ¹ æĺ¾ç¤º
æĽ´ä¸ºå½»åºķ åľ°
éľĢè¦ģè¿Ľè¡ĮæĢİæł·çļĦ ä¿®æŃ£
åıĺè´¨å²© å±Ĥ
æĸĩæĺİçļĦ æķ°éĩı
Ġar t
ä¸İåĮħè±ªæĸ¯ åĬŁèĥ½ä¸»ä¹ī
æĪĲä¸ºå¸¸è§Ħ åĮ»çĸĹæīĭæ®µ
çĪĨçĤ¸ æĢ§
å¤ªèµ«åħ¹ æĪĲåĥı
ä¼ļåıĳçĶŁæĢİæł·çļĦ åıĺåĮĸ
æ¬² æľĽ
æĮģç»Ńå¼ķåıĳ åħ³äºİ
å¤§åĬłéĢŁæĽ²çº¿åĽ¾ å±ķç¤ºäºĨ
å¦Ĥæŀľå¾®çĶŁçī©ç¾¤ ç§»æ¤į
æ°¸ä¹ħåĨ»åľŁèŀįåĮĸéĩĬæĶ¾åĩº åı¤èĢģçļĦçĶ²çĥ·
æİĮæı¡ äºĨ
çŃīç¦»åŃĲä½ĵå°¾æ³¢åľºåĬłéĢŁ æĬĢæľ¯
åĲĽä¸» åĪ¶
åį·ç§¯ ç¥ŀç»ıç½ĳç»ľ
äºĨä»Ģä¹Ī ä½ľçĶ¨
åĨĴ éĻ©
ç¤¾äº¤åªĴä½ĵåĽŀéŁ³å®¤ éĢļè¿ĩ
ä¼łæĦŁåĻ¨çļĦ å°ıåŀĭåĮĸ
è®¾éĹ® åı¥å¼ı
èĢĮéĿŀè¡Įä¸º ç»ĵæŀľ
ç»Ĩèĩ´ åħ¥å¾®
çĭ¬çī¹çļĦæ´ŀç©´ç³»ç»ŁåĴĮ èĲ½æ°´æ´ŀ
åĪĽä¼¤æĢ§èĦĳæįŁä¼¤ åĲİ
ä¸»è°ĵ å®¾ç»ĵæŀĦ
æ³¢æ´Ľåħĭ çļĦ
æĶ¾æĿ¾ ç®¡åĪ¶
åĲİæ®ĸæ°ĳæĸĩæľ¬ å¦Ĥä½ķéĢļè¿ĩ
å·¥ä¸ļéĿ©åĳ½å¯¹ çħ¤çĤŃ
å®ĩå®ĻèĨ¨èĥĢåĬłéĢŁ æ¨¡åŀĭ
å¦ĤæŀľæļĹèĥ½éĩıçļĦèĨ¨èĥĢ åĬĽåĩıå¼±
æģ¶æĢ§ éĢļè´§èĨ¨èĥĢ
å¹²çĩ¥ æĹ¶éĹ´
åľ¨å®ľå±ħå¸¦ åĨħ
çĶŁçī©è¯ĨåĪ« è®¤è¯ģ
ä¿Ŀæľī åĪ¶åº¦
åĪĻçĿĢéĩį äºİ
è¢«è¿« è¿ģç¦»
åħ¬éĩĮ çº§åĪĨè¾¨çİĩçļĦå®ŀæĹ¶æ°ĶåĢĻå»ºæ¨¡
ech anisms
çİ¯å¢ĥåĽłç´łå¦Ĥä½ķåľ¨ä¸įæĶ¹åıĺDNAåºıåĪĹçļĦæĥħåĨµä¸ĭ å½±åĵįåŁºåĽłè¡¨è¾¾
ä¸ĬæĪªçĦ¶ä¸įåĲĮçļĦèīºæľ¯ è·¯å¾Ħ
èĲ¥åħ»çº§èģĶæķĪåºĶæıŃç¤ºäºĨ é¡¶çº§æįķé£ŁèĢħ
ä¸İå½ĵåīįçļĦæľºåĻ¨åŃ¦ä¹ł ç³»ç»Łä¸įåĲĮ
æķ°åŃĹç¤¾ä¼ļä¸ŃçļĦç½ĳç»ľåĮĸä¸ªäººä¸»ä¹ī éĢļè¿ĩç®Ĺæ³ķ
çĶļ èĩ³
ä¸İç¬¦åı·äººå·¥æĻºèĥ½ ä¸įåĲĮ
org an
çĻ¾äº¿äº¿çº§ è®¡ç®Ĺèĥ½åĬĽ
omor phic
äº«ä¹Ĳ ä¸»ä¹ī
ä¸įä»ħä¿ĥè¿ĽäºĨè´¸æĺĵ å¾ĢæĿ¥
ç½ĳç»ľçĲĨè®ºåľ¨æµģè¡ĮçĹħåŃ¦ ä¸ŃçļĦåºĶçĶ¨
æĩ Ĥ
åı¯æµĭéĩı çļĦ
éĢĤåºĶä¸įèī¯ çļĦæĢĿç»´æ¨¡å¼ı
thro ugh
éĹŃçİ¯çĶŁåĳ½ æĶ¯æĮģ
åĲİåį°è±¡ä¸»ä¹ī èī²å½©çĲĨè®º
å°ĦçĶµ å¤©æĸĩåŃ¦
æ´»ä½ĵç»Ħç»ĩä¸İåĲĪæĪĲ éĥ¨ä»¶
èĢĮæľīæľºåĽ¢ç»ĵ åĪĻ
é£İæĻ¯ çĶ»
èĩ³ä¸Ĭ ä¸»ä¹ī
åįļå¼Īè®ºåľ¨å¸ĤåľºåĪĨæŀĲ ä¸ŃçļĦåºĶçĶ¨æıŃç¤ºäºĨ
æĮģç»Ńä¸į åĩı
çļ®éĴ¦ è¯Ń
æ°Ķæº¶èĥ¶ æ³¨åħ¥
æĬĴ æĥħ
å¤§çĽ¸å¾Ħ åºŃ
æµģç¦» å¤±æīĢ
éĥĬ åĮº
åį¡å°Ķè¾¾ èĤĸå¤«
âĨ Ĵ
èł ¢
æĪĲæŃ£ æ¯Ķ
çĶŁçī©ç¾¤ ç³»
çĶµè½¦ éļ¾é¢ĺ
äºļé©¬ éĢĬ
éĽĨè£ħ ç®±
åħĪéĶ ĭ
åį¡å¤« åį¡
éĺ¿å¸ĥæĭī èİ«ç»´å¥ĩ
" ãĢĤ
G æ¯«ç±³æ³¢
e as
e ed
g r
g or
i f
l i
l ec
m on
m ul
x t
µ åħ°
¼ çĹĽ
ç Ģ
Ġ a
Ġ ä¸ĵä¸ļ
Ġ ç§ĳåŃ¦
Ġ åĩĨç¡®ä¼łè¾¾
Ġ res
Ġ im
Ġ ä¸ĵä¸ļé¢ĨåŁŁ
Ġ è°ĥæķ´è¯Ńåºı
ĭ åįĩ
ı åĪ¶
ķ çļĦ
çļĦ åıĳçĶŁ
çļĦ æīĭæ³ķ
çļĦ è¿ĲåĬ¨
çļĦ æľ¬è´¨
çļĦ èĢĥéĩı
çļĦ èĩªæĪĳ
çļĦ æķ´åĲĪ
çļĦ å®ĩå®ĻåŃ¦
çļĦ å½¢èĢĮä¸ĬåŃ¦
çļĦ æķ°åŃ¦
çļĦ æİ¢ç´¢
çļĦ ä¸»åĬ¨
çļĦ å¯¹ç«ĭ
çļĦ çĶŁåŃĺ
çļĦ åĳ¨æľŁæĢ§
çļĦ åħīåŃ¦æ··åĲĪ
çļĦ è½¬æĬĺ
çļĦ æįķèİ·
ä½ ©
è¿ Ī
æĸ Ĳå°Ķ
æŀ ¢
èĥ½ ä¸º
èĥ½ æĢģ
åŃ¦ æĸ¹æ³ķ
çĲ ¢
åº Ħ
æĢ§ éĶĻè§Ĩ
å° ĺ
åľ¨ çĲĨè®º
åľ¨ ä¼łç»Ł
åľ¨ ç¤¾ä¼ļ
åľ¨ åħ¨çĲĥ
åľ¨ æ¦Ĥå¿µ
åľ¨ çŁ¥è¯Ĩ
åľ¨ æĪĳä»¬
åľ¨ æ²»çĸĹ
åľ¨ æıĲé«ĺ
åľ¨ æİ¢è®¨
åľ¨ å¹²æĹ±åľ°åĮº
åľ¨ æµģåĬ¨æĢ§éĻ·éĺ±
ä¸Ń åħ·æľī
ä¸Ń å¼ķåıĳåĵªäºĽ
ä¸Ń è§Ĥå¯ŁåĪ°çļĦ
å½ ¹
åĮĸ å¤ĦçĲĨ
äºĨ åĲ§
çī Ļ
å®ŀ è¡Į
å®ŀ éªĮè¯ģ
ä¸İ æĸ°
ä¸İ è®¤çŁ¥
ä¸İ æ®ĸæ°ĳ
ä¸İ æĶ¿æ²»
ä¸İ æľºåĻ¨
ä¸İ ç¡®å®ļæĢ§
ä¸İ ç¬¦åı·
ä¸İ å°ģåŃĺ
ä¸İ å°ģå»ºåĪ¶åº¦
ä¸İ è´¨æĦŁ
ä¸İ åıįè®½
ä¸İ éĶĮæĮĩæł¸éħ¸éħ¶
ä¸İ åĵĪèĢ¶åħĭ
éĢļ é£İ
éĢļ è®¯
æ³ Ħ
æ³ Į
éĢļè¿ĩ å¢ŀå¼º
éĢļè¿ĩ å¤įæĿĤçļĦ
éĢļè¿ĩ åĲĮæŃ¥
éĢļè¿ĩ åĩłä½ķæĬ½è±¡
éĢļè¿ĩ æĤ¬ç½®
å¯¹ ç»ıåħ¸
å¯¹ è´¢æĶ¿æĶ¿çŃĸ
å¯¹ åį°è±¡æ´¾ä¸İçĤ¹å½©æ´¾æĬĢæ³ķ
åĩ Į
åı¯ éģĹä¼ł
åı¯ é¢Ħæµĭ
åĵ İ
å¦Ĥä½ķ ä»İ
å¦Ĥä½ķ æıŃç¤º
å¦Ĥä½ķ å¢ŀå¼º
å¦Ĥä½ķ æĹ¢
å¦Ĥä½ķ é¢łè¦Ĩä¼łç»Ł
ä¸º ä¸»
ç»ı çĶ±
æ° ı
è¾ ħ
ä¼ļ åĽł
ä¼ļ åĬłéĢŁ
ä¼ļ éļıçĿĢ
ä¼ļ å¸¦æĿ¥åĵªäºĽ
ä¼ļ éĿ¢ä¸´åĵªäºĽ
ä¼ļ æĺ¾çİ°åĩº
ä¸į çĿĢ
ä¸į æĪĲç«ĭ
ä¸į éĢıæĺİ
åŃĲ çļĦ
æĮ º
å°Ĩ å¼ķåıĳ
å°Ĩ åĳĪæĮĩæķ°çº§æıĲåįĩ
æİ º
æĹ¶ éĿ¢ä¸´
éĩı çº§
åľ° å½±åĵį
åľ° éĩĩçĶ¨
åľ° åĽ¾
åºĶ è¿Ĳ
åºĶ å½ĵ
åıĺ ä½ĵ
åıĺ æŀĦ
å¿ ĺ
å¿ Ļ
å®ŀçİ° ä¸´åºĬ
å®ŀçİ° èĩªæĪĳæĦıè¯Ĩ
å¦Ĥæŀľ äººç±»
å¦Ĥæŀľ ç³»å¤ĸè¡ĮæĺŁ
å¦Ĥæŀľ åŀĤçĽ´åĨľä¸ļ
å¦Ĥæŀľ äººç±»æĦıè¯Ĩ
å¦Ĥæŀľ äººæĭ©åİŁçĲĨ
å¦Ĥæŀľ çŁ³å¢¨çĥ¯çĶŁäº§
å¦Ĥæŀľ æ·±åº¦åŃ¦ä¹ł
å¦Ĥæŀľ å¢ŀå¼ºçİ°å®ŀçķĮéĿ¢
å¦Ĥæŀľ æŀģåľ°åĨ°çĽĸ
å¦Ĥæŀľ é¢ĦæµĭæĢ§èŃ¦åĬ¡ç®Ĺæ³ķ
å¦Ĥæŀľ åħ¨æ°ĳåĮ»çĸĹä¿Ŀåģ¥
åĪ¶ åĵģ
åĪ¶ èį¯
åĪĨ æ³Į
åı¯èĥ½ æľīåĵªäºĽ
åı¯èĥ½ åĩºçİ°åĵªäºĽ
åı¯èĥ½ è¢«ç¼ĸçłģåľ¨äºĮç»´è¡¨éĿ¢ä¸Ĭ
äºİ æĺ¯
æľī äºĽ
æľī ä¸Ģ
æľī æĦıè¯Ĩ
æľī ç¼ºéĻ·
æĬĢæľ¯ å°Ĩ
æĬĢæľ¯ å¢ŀå¼º
æĬĢæľ¯ è¾¾åĪ°
æĬĢæľ¯ æĪĲä¸ºä¸»æµģ
éĻ µåħ°
æľ¬ ä½į
æľ¬ åįİ
æĢģ åº¦çļĦ
åĬł ä»¥
åĬł æ·±
ç³»ç»Ł ä¸İçİ¯å¢ĥ
èĢĮ çİ°ä»£ä¸»ä¹īæĸĩåŃ¦
èĢĮ åı¦
èĢĮ æķ°åŃĹéĿ©åĳ½
åĲĪ æ³ķ
ç»ĵ å±Ģ
éģ ıåĪ¶
è§£ åĨ³çŃĸ
è¿Ľ åĮĸçļĦ
æ¯Ķ æĸ°æī¹è¯Ħ
éĩį å¿ĥ
ç®Ĺ è®¡
åĲİ ç½®
åħ¨ èĦĳä»¿çľŁ
çĲĨè®º ä¸Ń
ä¼łç»Ł åĨľä¸ļ
ä¼łç»Ł çĶ»å»Ĭç©ºéĹ´
ä¸Ĭ åı¯è¡Į
ä¸Ĭ æ¶Į
ä¾ ¦
å¼º åº¦çļĦ
çĶŁçī© çĩĥæĸĻ
èĭ¥ åŁºäºİCRISPRçļĦåŁºåĽłé©±åĬ¨æĬĢæľ¯
èĭ¥ èĻļæĭŁçİ°å®ŀ
èĭ¥ éĹŃçİ¯
èĭ¥ è½¨éģĵå¤ªéĺ³èĥ½åıĳçĶµç«Ļ
èĭ¥ æ°¸ä¹ħåĨ»åľŁåĬłéĢŁæ¶Īèŀį
ä»¥ ä¹īåĬ¡
ä»¥ æĺłå°Ħ
ä»¥ äºĭä»¶
æĻ ĭåįĩ
çī¹ åĪ«
éĿ¢ ç§¯
ç¥ŀç»ı ä¼¦çĲĨ
ç¥ŀç»ı è¯Ńè¨Ģ
ç¥ŀç»ı åı¯å¡ĳæĢ§çļĦ
ç»ıæµİ ç¨³å®ļ
ç»ıæµİ åĳ¨æľŁ
ç»ıæµİ åıĳå±ķçļĦ
è´¨ çļĦ
åŃĺåľ¨ æĺ¾èĳĹçĽ¸åħ³æĢ§
åĵªäºĽ åıįé¦Īå¾ªçİ¯
åĵªäºĽ æĸ¹æ³ķè®º
æĺ¯ çļĦ
æĺ¯ åĵªäºĽåĽłç´łå¯¼èĩ´äºĨ
åħī çħ§
æĿ¥ æ¨¡æĭŁ
æĿ¥ æııè¿°
æĿ¥ éĻįä½İå»¶è¿Ł
åĴ ¸
åĴĮ æĪĳ
äºĭ æĥħ
äºĭ é¡¹
ç¤¾ä¼ļ åıĺéĿ©
è¶ħ éŁ³
è¶ħ åĨĻå®ŀ
å¤į çİ°
å¼ķ èµ·çļĦ
å¤ļ å°ĳ
èĥ½å¤Ł è¶ħè¶Ĭ
æ¨¡åŀĭ è§£éĩĬäºĨ
æ¨¡åŀĭ å¦Ĥä½ķè§£éĩĬ
æĦŁ ä¸İ
æĦŁ æŁĵ
çĥ ¦
åıĻäºĭ åħĥç´ł
åıĻäºĭ è¿ŀè´¯
æĸ¯ å¯Ĩ
åĪĻ å¸¸
åĪĻ èģļçĦ¦äºİ
å¢ŀ è¿Ľ
å¢ŀ æĿĲ
å¢ŀ åİļ
åºĶçĶ¨ é¢ĨåŁŁ
çİ°ä»£ è´¸æĺĵ
å°Ĩå¦Ĥä½ķ æİ¨åĬ¨
çİ°å®ŀ æĦıä¹ī
æĦıè¯Ĩ è½¬ç§»
æĦıè¯Ĩ åħĪäºİæľ¬è´¨
æ¡Ĩæŀ¶ ä¸įåĲĮ
æ¶ ħ
æł¹ ç¦»åŃĲ
å¼ºè°ĥ ä¹īåĬ¡
å¼ºè°ĥ è¯»èĢħ
çĸ ¼çĹĽ
ä»İ æ¨¡æĭŁ
ä»İ æ¦ĤçİĩæĢ§
ä»İ éĩıåŃĲè¡Įä¸º
æķ°åŃĹ åĽŀå£°å®¤
åħ¨çĲĥ éĩĳèŀį
åħ¨çĲĥ ä»·åĢ¼éĵ¾
æ°´ åŁ¹
èĢĮéĿŀ ä½ľèĢħæĦıåĽ¾
èĢĮéĿŀ ç»ıéªĮéªĮè¯ģ
æīĢ éĩĩçĶ¨çļĦ
åĻ ¬
åı¯èĥ½ä¼ļ è¢«
å½ĵ åľ°
å½ĵ ä»Ĭ
éķ¿ è¾¾
éķ¿ ä¹ħ
éľĢè¦ģ ç²¾ç¡®çļĦ
è¢« åıĳçİ°
è¢« å¹¿æ³ĽéĩĩçĶ¨
ç©º æĥ³
é«ĺ åĪĨè¾¨çİĩ
æł¼ çĤ¹
æł¼ éĻµåħ°
æł¹æľ¬ å¯¹ç«ĭ
åħ¶ è¾¹çķĮ
åħ¶ åĨħéĥ¨
åħ¶ åĨħåľ¨
å°ı çļĦ
å°ı æĹ¶
èĦ ļ
æĸĩåĮĸ åĲĮè´¨
æĸĩåĮĸ éĶĻä½į
å·®å¼Ĥ èĢĮ
å¤ĸ åľ¨
çŃī æķĪ
æŀģ åľ°åĮº
ç®Ĺæ³ķ åĴĮ
çĥŃ æ³ī
æ´¾ å¯¹
çİ¯å¢ĥ å½±åĵį
çİ¯å¢ĥ éĢĤåºĶ
çİ¯å¢ĥ åĪºæ¿Ģ
éģĵå¾· çĽ¸å¯¹ä¸»ä¹īçļĦ
æĮĩ ä»£
ä¸ĵ åĪ©
èĮĥå¼ı çļĦ
åıĳçĶŁ äºİ
è¿Ľè¡Į éĩįæĸ°è¯Ħä¼°
çķĮ éĢļçĶ¨è¯ĳæ³ķ
å½¢æĢģ çļĦ
æ¯Ķè¾ĥ çº§
å¤ĦçĲĨ ä¸İ
å¤ĦçĲĨ åĻ¨çļĦ
è£ Ķ
å±± åĿ¡
åŁİå¸Ĥ çļĦ
åŁİå¸Ĥ å¯Ĩåº¦
ä¸Ńæĸĩ ç§ĳæĬĢæĸĩçĮ®
åĬłåī§ æĶ¿æ²»æŀģåĮĸ
æķ°æį® çĶŁæĪĲ
æķ°æį® éĽĨä¸Ń
æĢ§çļĦ è®¤çŁ¥
ä½ł åľ¨
ä½ł æīĢ
äººå·¥ çĶŁåĳ½
æŃ£ éĿ¢ä¸´
åĨľ ä½ľçī©
åĩĨç¡® ä½ĵçİ°
æ¬§ æĻ®èīºæľ¯
ç§ĳåŃ¦ çŁ¥è¯ĨçļĦ
æĮģç»Ń åĬłéĢŁ
åĵ²åŃ¦ æĦıæ¶µ
æ°ĶåĢĻ ç¨³å®ļæĢ§
äº§çĶŁ å½±åĵį
æ´» åĬĽ
å·¥ä¸ļ çĶŁäº§åĬĽ
å¤© æĪĲ
å¹» æĥ³
éĻį èĩ³
æķĪçİĩ æĸ¹éĿ¢
æķĪçİĩ æĪĸå°Ĩ
èĥ½éĩı èĢĹæķ£
è½¬åıĺ å¦Ĥä½ķæĶ¹åıĺäºĨ
ä¿¡æģ¯ ä¼łè¾ĵ
ä¿¡æģ¯ èİ·åıĸ
ç¢³ åĽºå®ļ
èĥ½å¤Łå®ŀçİ° ç²¾ç¡®çļĦ
æĴ ¤
èĥ½åĲ¦ è§£éĩĬ
åĨľä¸ļ å¾Ħæµģ
åĬłå¯Ĩ æĬĢæľ¯
çĶŁäº§ è¦ģç´ł
ä¹ĭéĹ´çļĦ çĽ´æİ¥
ä¹ĭéĹ´çļĦ æĦŁçŁ¥
ä½Ĩ éĿ¢ä¸´
ä½Ĩ å¢ŀåĬłäºĨ
æ¼Ķ æĽ¿
å¿ĥçĲĨ ä¸įéĢĤ
éĹ®é¢ĺ çļĦ
ä½į çĤ¹
å¤įæĿĤ æĢ§çļĦ
èĥ½æºĲ åĤ¨åŃĺ
çĽ´æİ¥ æºĲäºİ
æĺ¾èĳĹ å½±åĵį
ç©ºéĹ´ çļĦ
é£İ åĪĩåıĺ
çº¦ çĳŁ
æĶ¾ å¼ĥ
å¾Ĺä»¥ ä½ĵçİ°
åĩł ä¹İ
åİŁçĲĨ çĽ¸ç»ĵåĲĪ
æĸ¹éĿ¢ åŃĺåľ¨æł¹æľ¬æĢ§å·®å¼Ĥ
æĸ¹éĿ¢ æľīä½ķå·®å¼Ĥ
æł¸ åĬĽ
æł¸ åºŁæĸĻ
åĩı ç¨İ
ä½İ æĶ¶åħ¥
åĪ¶åº¦ æ¡Ĩæŀ¶
å¤§æ°Ķ å±Ĥ
å¤§æ°Ķ æĪĲåĪĨ
åħ¬ åĽŃ
åĲİæ®ĸæ°ĳ ä¸»ä¹ī
é©±åĬ¨ åŀĭ
æĪĲä¸º åı¯è¡Į
éĩĳ éĵ¶è¡Į
ä»į æĮģç»ŃåŃĺåľ¨
æ²īç§¯ çĽĨåľ°
æĹ¢ èĥ½
æĹ¢ ç¬¦åĲĪä¸Ńæĸĩè¡¨è¾¾ä¹łæĥ¯
æĬĢæ³ķ åľ¨
å®īåħ¨ æ¼ıæ´ŀ
è®¾è®¡ çĲĨå¿µ
æıĲä¾Ľ åı¯è¡ĮçļĦ
é¢łè¦Ĩ æĢ§çļĦ
å®¹ æĺĵ
ç£ģ éĢļ
æĵį æ¼Ķ
çķĻ çĻ½
ä¸¤ å¤§
ä¸¤ åĽ½
çĭ ±
ä»İèĢĮ å½»åºķæĶ¹åıĺäºĨ
åİ» æ®ĸæ°ĳåĮĸè¿ĲåĬ¨
ä¼ĺåħĪ äºİ
è§£æŀĦ äºĨä¼łç»Ł
æĹ© äºİ
è§¦ åıĬ
æĭĵ å®½
å±Ģ éĥ¨
é¢Ħæµĭ äºĨ
é¢Ħæµĭ ç²¾åº¦
éĢīæĭ© åİĭåĬĽ
çĽ¸æ¯Ķ å¦Ĥä½ķ
åİŁåĪĻ ä¸İ
æĬĺ è¡·
æĭī æĸĲå°Ķ
å¾ĹåĪ° æĺ¾èĳĹæıĲåįĩ
éĩıåŃĲè®¡ç®Ĺ çļĦ
æĿ¡ä»¶ åı¥
æĿ¡ä»¶ åı¥å¼ı
æĭĵæīĳ ç¼ºéĻ·
è®¤è¯Ĩè®º æİ¢ç©¶
åį°è±¡æ´¾ æįķæįī
éļı åĲİçļĦ
åĪ¶éĢł äºĨ
åĪ¶éĢł åĩº
åĪĨåŃĲ çĶŁçī©åŃ¦é¢ĨåŁŁ
è¶ħè¶Ĭ å¤©çĦ¶æĿĲæĸĻ
åħīåŃĲ åģıæĮ¯æĢģ
å°ĨéľĢè¦ģ ä¿®æŃ£
çªģçł´ ä¼łç»Ł
en si
in ci
èļ Ĭ
æĮĳæĪĺäºĨ æĸ°è¾¾å°Ķæĸĩä¸»ä¹ī
åĬłåī§äºĨ æĶ¿æ²»æŀģåĮĸ
åĨį åĪĨéħį
çĭ¬ çĻ½
åı¤åħ¸ ç»ıæµİ
èĪ ±
åİĭ åĪ¶
æ¹ į
åľ°è´¨ è¿ĩç¨ĭ
æľīæķĪ å¸Ĥåľº
ä»İæł¹æľ¬ä¸Ĭ åĬ¨æĳĩäºĨ
æĽ´ä¸º å¤įæĿĤçļĦ
éĻĲåĪ¶ åĽłç´ł
æĬĹ éĶĻ
è°ĥæİ§ çĶµç£ģæ³¢
åħ·å¤ĩ åı¯æī©å±ķæĢ§
åľ°çĲĥ èµĦæºĲ
è¿ĺ ä¼ļ
çĶµåŃĲ æĻ¶ä½ĵç®¡
çĶµåŃĲ èĩªæĹĭ
çĶµåŃĲ éļ§ç©¿
åıł çºª
ä¸įåĲĮçļĦ æĸ¹å¼ı
åĬŁèĥ½ çº¯ç²¹æĢ§çļĦ
æ¸©çĽĲçİ¯æµģ åĩıç¼ĵ
äººåı£ è½¬åŀĭ
äººåı£ åģ¥åº·æĮĩæłĩ
åĸĢæĸ¯çī¹åľ°è²Į åĽł
åĸĢæĸ¯çī¹åľ°è²Į çĶ±
è¡¨éĿ¢ çļĦ
è¡¨éĿ¢ ç§¯
æ°¸ä¹ħåĨ»åľŁ æ¶Īèŀį
åĬ³åĬ¨åĬĽ åıĤä¸İçİĩ
æķĻèĤ² æĸ¹æ³ķ
æĽ² éĢŁ
æ¯Ķè¾ĥä¼ĺåĬ¿ åİŁçĲĨ
å®ĺ æĸ¹
ä¸ªäºº èĩªä¸»æĿĥ
ä¸ºä½ķ ä¼ļ
æºĲäºİ ç¥ŀç»ı
åģĩè®¾ ä¸įåĲĮ
åĬłå¯Ĩè´§å¸ģ å¸ĤåľºçļĦ
åĤ¬çĶŁ åŀĦæĸŃ
åĲİçİ°ä»£ å»ºçŃĳ
ä¾µèļĢ æ¨¡å¼ı
ä¿ĿåŃĺ åı¤åħ¸çŁ¥è¯Ĩ
ç§ĳæĬĢ è®ºæĸĩ
ä¸İä¼łç»Ł åįĬå¯¼ä½ĵ
çĽ¸å¹² æĢ§
å®Įæķ´ åĳĪçİ°
å®ŀè·µ ä¸Ń
ç³»ç»ŁæĢ§ åģıè§ģ
ç³»ç»ŁæĢ§ åģıç¦»
æ²³æµģ ç³»ç»Łä¸ŃçļĦ
èĪª çº¿
åĪĽä½ľ ä¸Ń
an e
an g
çī©ç§į è¾¹çķĮ
èĩªæĪĳ æĶ¹è¿Ľ
ä¼¦çĲĨæ¡Ĩæŀ¶ æĿ¥è§ĦèĮĥ
å¾Ģå¾Ģ å¯¼èĩ´
å¾Ģå¾Ģ ä¼ļå¯¼èĩ´
åŃĺåľ¨ä¸»ä¹ī æĢĿæĥ³
æĸĩèīºå¤įåħ´æĹ¶æľŁ æ¹¿å£ģçĶ»æĬĢæ³ķ
ä»¿ æĺŁ
éĻ¤ äºĨ
ç¾¤ä½ĵ æľºåĻ¨äººæĬĢæľ¯
çĻ½ èļģ
å¾®çĶŁçī© ç¾¤
è§Ĩè§ī èīºæľ¯ä¸Ń
è§Ĩè§ī èīºæľ¯ä¸ŃçļĦ
éĽĨä½ĵ è°ĪåĪ¤
åĨ²çªģ è§£åĨ³
ä¼ĺåħĪèĢĥèĻĳ ç»ĵæŀľæľĢå¤§åĮĸ
å·² è¯ģå®ŀ
è®¸ å¤ļ
åīĬ åĩı
å¼ķåĬĽ åĿįç¼©
ç®¡çĲĨ å±Ĥ
ä½ľä¸º å¯¹
ä¸ĢæĹ¦ èĦĳæľºæİ¥åı£å®ŀçİ°
ä¸ĢæĹ¦ éĩıåŃĲè®¡ç®Ĺå®ŀçİ°
åĲĪæĪĲçĶŁçī©åŃ¦ ä¸ŃçļĦ
åĲĪæĪĲçĶŁçī©åŃ¦ èĥ½åĲ¦
te m
å®ĩå®ĻåŃ¦ æ¨¡åŀĭä¸Ń
å®ĩå®ĻåŃ¦ å¸¸æķ°
çİ°æľīçļĦ å®ĩå®ĻåŃ¦æ¨¡åŀĭ
èİ·å¾Ĺ ä¸»æµģ
æ··åĲĪ åªĴä»ĭ
æĬ½è±¡è¡¨çİ°ä¸»ä¹ī éĢļè¿ĩéĿŀ
ç¢³éħ¸ æł¹ç¦»åŃĲ
åŀĤçĽ´ é«ĺåº¦
å¯¼çĶµ è¡¨éĿ¢
å·¥ä½ľ è®°å¿Ĩ
æ²īç§¯çī© åĪĨå¸ĥ
éĩıåŃĲéĢĢçĽ¸å¹² æľºåĪ¶éĢļè¿ĩ
ç³»ç»Łä¸Ń å®ŀæĸ½
ç¾İåŃ¦ è¯Ħä»·æłĩåĩĨ
æķ´ä½ĵ å¹¸ç¦ı
è¯¥ç¿»è¯ĳ ç²¾åĩĨ
è¯Ńå¢ĥ ä¸ĭçļĦ
å¯¹ä¼łç»Ł ç¾İåŃ¦
äººä¸º çĶŁçī©ç¾¤èĲ½
å·¥ä¸ļåĮĸ åīį
åĪĽéĢł äºĨ
åıįçī©è´¨ æ¹®çģŃ
ç¤¾åĮº åĩĿèģļåĬĽ
åĮĹæŀģ æµ·å²¸çº¿
ä¾¿ åı¯
å¦Ĥä½ķå½±åĵįäºĨ ä¸Ńä¸ĸçºª
çļĦç¤¾ä¼ļ ä¸Ń
ä¸Ĭåįĩ è¶ĭåĬ¿
åĬłéĢŁäºĨ åŁİå¸ĤåĮĸè¿Ľç¨ĭ
æľīæľº ç¤¾ä¼ļåĩĿèģļåĬĽ
æ¯Ķè¾ĥä¼ĺåĬ¿çĲĨè®º åľ¨
è´§å¸ģæĶ¿çŃĸ æľºåĪ¶
è´§å¸ģæĶ¿çŃĸ ä¼łå¯¼
äºĭä»¶ è§ĨçķĮ
ç»Ŀå¯¹ çľŁçĲĨ
Ġc ap
åħ¨éĿ¢ åľ°
åħ¨éĿ¢ å®ŀæĸ½
äºļåİĨå±±å¤§åĽ¾ä¹¦é¦Ĩ å¾Ĺä»¥
æ²¿ çĿĢ
èįĴ è°¬
ä¸Ģä¸ª ä¸ĸçºªåĨħ
çĽĸ äºļ
æĬĺå°Ħçİĩ åıĺåĮĸ
æĬĺå°Ħçİĩ æ¢¯åº¦
Ġs oci
Ġs tructures
åĨ²ç§¯å¹³åİŁ çļĦ
åĨ²ç§¯å¹³åİŁ ä¸ŃçļĦ
è±¡å¾ģ ä¸»ä¹ī
åħ¨æģ¯åİŁçĲĨ è®¤ä¸º
åľ£ ç»ı
ç¨İ çİĩä¸İ
åĲİæ®ĸæ°ĳæĸĩåŃ¦ä¸ŃçļĦéŃĶå¹»çİ°å®ŀä¸»ä¹ī å¸¸åĢŁåĬ©
åĨ²ç§¯æīĩ çļĦå½¢æĪĲ
åĨ²ç§¯æīĩ çļĦå½¢æĪĲæºĲäºİ
åĶ ®
çīĽ è½Ń
æľªæĿ¥ ç¨İæĶ¶
çļĦæĬĢæľ¯ è¿ĽæŃ¥
æķ°åŃĹé¸¿æ²Ł ä¾ĿçĦ¶åŃĺåľ¨
æĿĲæĸĻç§ĳåŃ¦ é¢ĨåŁŁçļĦ
ä¸Ńå¤®éĵ¶è¡Į å°Ĩå¦Ĥä½ķè°ĥæķ´
æłĳ æľ¨
æ£® ç»ĵ
æĪĳä»¬å¯¹ äºİ
æĬķèµĦ çŃĸçķ¥
å°ģå»º åŁİåł¡
ç¡ħåŁº å¤ĦçĲĨåĻ¨
åĭ ĥ
ç»ĵåĲĪ äºĨ
å¤« æ£®ç»ĵ
éĩıåŃĲåıłåĬł è¡¨æĺİ
æĪ¿ åľ°äº§
æľ¬ä½ĵè®º å±ĤéĿ¢çļĦ
çĶ¨æĪ· çļĦç¡®è®¤åģıè¯¯
åĮħ å®¹
çļĦä¼¦çĲĨ åİŁåĪĻ
å¦Ĥæŀľåıįçī©è´¨ éĩĩéĽĨ
åıĻè¿° èĢħä¸İ
æĽ´å¼ºè°ĥ åĵģæł¼åŁ¹åħ»
åģļ äºĨ
æ¶ĪéĻ¤ äºĨ
æ¨¡å¼ıè¯ĨåĪ« ä»»åĬ¡
åĲİæ®ĸæ°ĳåıĻäºĭ å¸¸åĢŁåĬ©
å®¢è§Ĥ çİ°å®ŀ
ä¼ģ åĽ¾
åŀĤçĽ´åĨľä¸ļ ç³»ç»ŁçļĦ
æķ°åŃĹèīºæľ¯ å·¥åħ·çļĦæĻ®åıĬåĮĸ
æĿ¿åĿĹæŀĦéĢł éĢļè¿ĩ
åı¯èĥ½ä¼ļåıĳçĶŁæĢİæł·çļĦ æ¼Ķåıĺ
ä¼ļå¼ķåıĳåĵªäºĽä¼¦çĲĨ å±ĤéĿ¢çļĦèĢĥéĩı
æĪıåī§ æĢ§
æĪıåī§ å¼łåĬĽ
çļĦåı¯ åĨįçĶŁèĥ½æºĲ
åľ°çĲĨ ä¸Ĭ
åľ°çĲĨ ä½įç½®
æ¨¡ç³Ĭ çĶŁçī©
æĿĥåĪ© ä¸İ
è¶ĭäºİ å¤įæĿĤ
ac tion
æµª æ½®
æ²¿æµ· çº¢æłĳæŀĹ
éĶĤç¦»åŃĲ æĬĢæľ¯
ä¸įç¡®å®ļæĢ§ åİŁçĲĨ
æ¨¡å¼ıçļĦ çĲĨè§£
ç¥ŀåŃ¦ çĲĨå¿µ
åĪĻéĢļè¿ĩ åĩłä½ķ
åĪĻéĢļè¿ĩ åĩłä½ķæĬ½è±¡
æ¶Į åħ¥
ç»Łä¸Ģ èµ·æĿ¥
é¢ĦæľŁ å¯¿åĳ½å»¶éķ¿
ä¸įåĲĮäºİ ä¼łç»Ł
åĵ¥ä¼¦å¸ĥå¤§äº¤æį¢ å¼ķåħ¥çļĦ
ç¹ģ è¡įçĶŁ
Gç½ĳç»ľ çļĦå¹¿æ³ĽæĻ®åıĬ
åı¯æĮģç»Ń çļĦ
çºłéĶĻ æĬĢæľ¯
å·´ èĥº
é£ŀ èĪ¹
åı²åŃ¦ æĸ¹æ³ķ
å¦ĤæŀľèĦĳæľºæİ¥åı£å®ŀçİ° åıĮåĲĳéĢļä¿¡
å¦ĤæŀľèĦĳæľºæİ¥åı£å®ŀçİ° æĹłç¼ĿèŀįåĲĪ
ä¸ºä»Ģä¹Ī æŁĲäºĽ
æĢ§åĪ« æĵįæ¼Ķ
æĬĢèĥ½ åģıåĲĳ
åıĸå¾Ĺ äºĨ
ä¿®å¤į æľºåĪ¶
å²©æµĨ æĪĲåĪĨ
å¯¡å¤´åŀĦæĸŃå¸Ĥåľº ä¸ŃçļĦ
æŀĦåĽ¾ ä¸Ń
å·¨ å¤§
æ¿Ģæ´» åħīæķıæĦŁç¦»åŃĲéĢļéģĵ
åĮħè±ªæĸ¯ åĬŁèĥ½ä¸»ä¹īä¸İ
di ver
ä¸İåį°è±¡æ´¾ æĪ·å¤ĸåĨĻçĶŁ
å¹³åĩ¡ åľºæĻ¯ä¸İè¶ħèĩªçĦ¶åħĥç´łå¹¶ç½®
ç§ĳåŃ¦éĿ©åĳ½ æľŁéĹ´
åħ¬åľ°æĤ²åī§ çĲĨè®ºæ¡Ĩæŀ¶
åĪĨæķ£ èĩ³
æĦıè¯ĨæµģåıĻäºĭæĬĢå·§ å¦Ĥä½ķåıįæĺł
ce ption
æ·±æµ· çĥŃæ³ī
å°ĨåıĳçĶŁæĢİæł·çļĦ åıĺéĿ©
åĵªäºĽåĽłç´ł éĺ»ç¢įäºĨ
æķĻåŃ¦ çŃĸçķ¥
å¿ĥçĲĨè¯Ńè¨ĢåŃ¦ çłĶç©¶
æķ°åŃĹé¸¿æ²ŁéĢļè¿ĩ å·®å¼ĤåĮĸèİ·åıĸ
ç²¾å¯Ĩ è®¾è®¡çļĦ
æĪĸåı¯ åľ¨
æ»ŀ åĲİ
æ»ŀ èĥĢ
è®¨è®º çļĦ
åĲ¬ è¯´
çİ°è¡Į åĬłå¯ĨæłĩåĩĨ
æĭīä¸ģç¾İæ´² æĸĩåŃ¦ä¸ŃçļĦéŃĶå¹»çİ°å®ŀä¸»ä¹īå°Ĩ
ä¸įè¶³ ä»¥
ä½įç½® æİ§åĪ¶
éī´ å®ļ
æĥħæĻ¯ ä¸ĭ
æŃ£åľ¨ éĩįæŀĦ
åįļå¼Īè®ºæ¨¡åŀĭ éĢļè¿ĩ
åįļå¼Īè®ºæ¨¡åŀĭ è¡¨æĺİ
è¡¨è§ĤéģĹä¼łæľºåĪ¶éĢļè¿ĩ æıŃç¤º
äººçļĦ æĦıè¯ĨåħĪäºİæľ¬è´¨
å®¡ç¾İ è¯Ħä»·æłĩåĩĨ
åĵ¥çī¹å¼ı å»ºçŃĳ
ä¸İäººç±» è¿ģå¾Ļæ¨¡å¼ı
äººçī© å¡ĳéĢł
ç¼ĸç»ĩ ç»Łè®¡çī¹æĢ§
è¯¸ æĸĩæĺİ
åľ¨çĲĨè®ºä¸Ĭ èĥ½å¤Łå®ŀçİ°
åĵªäºĽæĬĢæľ¯ éĻĲåĪ¶éĺ»ç¢įäºĨ
å¥¥åľ°åĪ© ç»ıæµİåŃ¦æ´¾
éĩıåŃĲçºłç¼ł çļĦ
å¾·éĽ·åħĭæĸ¹ç¨ĭ éĢļè¿ĩ
çº³ä»ĢåĿĩè¡¡ æ¦Ĥå¿µéĢļè¿ĩ
è¯ī æ±Ĥ
ä¿¡æģ¯èĮ§æĪ¿ æķĪåºĶ
åıĮè¯Ń èĢħ
å·¨åŀĭ éĢĨåĨ²åľ°éľĩ
åĲĪä½ľ è¡Įä¸ºçļĦ
è§£æŀĦäºĨ ä½ľèĢħæĦıåĽ¾
ig n
éĩıåŃĲå¯ĨéĴ¥åĪĨåıĳ éĢļè¿ĩ
èīºæľ¯åĵģ çļĦ
éĥ¨åĪĨ åĩĨå¤ĩ
èĩªæĪĳå¤įåĪ¶ çº³ç±³æľºåĻ¨äºº
ä¹ĭéĹ´åŃĺåľ¨ çĿĢ
æ²īæµ¸å¼ı ä½ĵéªĮ
ç»´å¤ļåĪ©äºļæĹ¶æľŁçļĦå°ıè¯´ å¼ºè°ĥéģĵå¾·
èĭı èģĶ
æĺ¯åĲ¦éľĢè¦ģ åľ¨
åĵªäºĽåľ°è´¨ è¯ģæį®æĶ¯æĮģ
èīºæľ¯åĪĽä½ľ æĿĥ
è¯ĦåĪ¤ æłĩåĩĨ
qu antum
éĩıåŃĲéĢĢçĽ¸å¹²çĲĨè®º è¯ķåĽ¾
æįķæįīè½¬çŀ¬åį³éĢĿ çļĦåħīçº¿æķĪæŀľ
æ¤įåħ¥ æĬĢæľ¯
tu al
æĶ» åħĭ
å¤§éĥ½å¸Ĥ åľ°åĮºçļĦ
å¥¥åľ°åĪ©åŃ¦æ´¾ ç»ıæµİåŃ¦
å¦ĤæŀľåĲĪæĪĲçĶŁçī©åŃ¦ å®ŀçİ°åı¯ç¼ĸç¨ĭ
åı¯èĥ½åıĳçĶŁ åĵªäºĽ
æ¯« ç§Ĵ
çļĦæµ· æ°´
çļĦå¯¹æ¯Ķ åı¥å¼ı
çļĦè§ĦèĮĥ è¯ĳæ³ķ
å¼¦ çĲĨè®ºçļĦ
äº§çĶŁäºĨ æĢİæł·çļĦå½±åĵį
å¦ĤæŀľäºĴåĬ¨ å¼ı
åİŁåĪĽ æĢ§çļĦ
åħ±åŃĺ çİ°è±¡
è¶ħæĿĲæĸĻéļĲèº«è£ħç½®éĢļè¿ĩ è´ŁæĬĺå°Ħçİĩ
å¸¸è§ģ è¡¨è¾¾æĸ¹å¼ı
æķ°åŃĹåªĴä½ĵ çļĦä¿¡ä»»
èģĶæĥ³ æĢĿç»´
ä¼°åĢ¼ æłĩåĩĨ
ä¸İçĽĳçĿ£åŃ¦ä¹ł ç®Ĺæ³ķä¸įåĲĮ
æĽ´ä¼ĺ çļĦ
åĵªäºĽåľ°è²Į è¿ĩç¨ĭç»´æĮģçĿĢ
çģ¾ å®³
éĢ¼çľŁ åº¦
åĩ¯æģ©æĸ¯ä¸»ä¹īä¸İè´§å¸ģä¸»ä¹ī çĲĨè®ºçļĦæ¯Ķè¾ĥåĪĨæŀĲ
å®£ ç§°
å¿ĥçĲĨåŃ¦çĲĨè®º ä¸Ńåħ³äºİ
å¦ĤæŀľéĩıåŃĲåĬłå¯Ĩ æĬĢæľ¯å®ŀçİ°æłĩåĩĨåĮĸ
çļĦè®Ńç»ĥ æķ°æį®éĽĨåį³åı¯è¯ĨåĪ«
åī² è£Ĥ
æķ°åŃĹéĢļä¿¡ å½¢å¼ı
åĬłåī§äºĨèĥ½æºĲæ¶ĪèĢĹ æ¨¡å¼ı
æ²³æµģåľ°è²Į åŃ¦çłĶç©¶
åı¯åıĳçİ° äºĮèĢħåľ¨
ä¸įæĪĲæ¯Ķä¾ĭ çļĦ
ä¸įæĪĲæ¯Ķä¾ĭ çļĦå½±åĵį
çĽ¸å®¹ è®º
å¦Ī å¦Ī
æľįåĬ¡ä¸ļ å°±ä¸ļ
æĢĢçĸĳ è®º
æĢĢçĸĳ æĢģåº¦
æµģä½ĵåĬ¨åĬĽåŃ¦ æ¨¡æĭŁ
é¢ĦåħĪ è®¾å®ļ
å¸ĤåľºåĨ³çŃĸ åĪĨæŀĲ
è®¤è¯Ĩè®ºæ¡Ĩæŀ¶ ä¸İæľ¬ä½ĵè®º
çº¿ç²Ĵä½ĵDNA åĪĨæŀĲ
çıĬçĳļ çĻ½åĮĸ
åĵ¥çĻ½å°¼ æĹ¥å¿ĥè¯´
å¦Ĥæŀľåľ¨ éĩİçĶŁç§įç¾¤ä¸Ń
å½¢æĪĲçģ«å±±å¼§ åĴĮ
å¨ģæĿĥ ç»Łæ²»
å¦ĤæŀľéĩıåŃĲéľ¸æĿĥ å¾ĹåĪ°
èĦīåĨ² ç¥ŀç»ıç½ĳç»ľ
æľ« æĹ¥
æĬĢæľ¯å¾ĹåĪ° æĻ®åıĬ
èĤ¥ æ²ĥ
è°ĥèĬĤåħ¨çĲĥæ°ĶåĢĻ ç³»ç»Ł
Dæīĵåį° æĿĲæĸĻ
åľ¨ç»ıæµİ ä¸Ĭåıĺå¾Ĺåı¯è¡Į
æĹłè®º åĲİæŀľå¦Ĥä½ķ
å®¢è§ĤçľŁçĲĨ ä¸»å¼ł
çĮİçī©åĬ¨æĢģ åħ³ç³»
å®ļåĲĳ è¿ĽåĮĸ
ä¹¦éĿ¢ è¯Ńä½ĵ
ç½Ĺå°Ķæĸ¯ çļĦæĹł
ä¸ľè¥¿æĸ¹ æĸĩæĺİä¹ĭéĹ´
èİİå£«æ¯ĶäºļåįģåĽĽè¡Įè¯Ĺ ä¸İå½¼çī¹æĭīåħĭ
ä»įçĦ¶æĺ¯ åĽ½éĻħè´¸æĺĵ
æĽ´æĸ°ä¸ĸå·¨åŀĭåĬ¨çī©ç¾¤ çļĦ
ä¸İå¼Ĺæ´Ľä¼Ĭå¾· å¼ıçļĦ
éĹ² æļĩ
æĬ½è±¡è¡¨çİ°ä¸»ä¹īå¯¹ èĩªåıĳ
èĩªåĬ¨åĮĸå¼ķåıĳçļĦå²Ĺä½įæµģå¤± å¯¹
è¡Ĺå¤´ èīºæľ¯çļĦ
um an
æĭīç¾İ æĸĩåŃ¦ä¸ŃçļĦéŃĶå¹»çİ°å®ŀä¸»ä¹īéĢļè¿ĩå°Ĩ
åĵªäºĽç¤¾ä¼ļæĶ¿æ²» åĽłç´łä¿ĥä½¿
ä¸ĭéĻįé£İ å¦Ĥä½ķå½±åĵį
ä¸ĭéĻįé£İ æ¨¡å¼ıå¦Ĥä½ķå½±åĵį
yn am
äº® åº¦
å¯¹äººç±» è¡Įä¸ºçļĦ
åŃ¦æľ¯çķĮ å¯¹
æ¯Ķè¾ĥä¼ĺåĬ¿çĲĨè®ºæľªèĥ½ åħħåĪĨè§£éĩĬ
åŁºäºİåĮºåĿĹéĵ¾çļĦæĬķç¥¨ ç³»ç»Ł
åŃĺåľ¨ä¸»ä¹īçļĦ æľ¬çľŁæĢ§
æĥ¯çĶ¨ çļĦ
çĽ¸äºĴä¾ĿåŃĺçļĦ ä¸ĵéĹ¨åĮĸ
äººç±»æ´»åĬ¨å¯¹ åľ°çĲĥ
æĪĲäºº å¤§èĦĳ
åı¯èĥ½éĿ¢ä¸´ åĵªäºĽ
èĢĮæĪĲ çļĦ
çģ«å±±åĸ·åıĳ æĸ¹å¼ı
åı¤åħ¸åŃ¦æľ¯ çłĶç©¶
çŁŃæļĤ æĢ§
æłĳæŀĿçĬ¶ æİĴæ°´ç³»ç»Ł
ä¸İç»ĵæŀľä¸»ä¹ī ä¼¦çĲĨåŃ¦ä¸įåĲĮ
åıįä¹ĮæīĺéĤ¦ å°ıè¯´
æĶ¶çĽĬ çŁ©éĺµ
æĤ²åī§æĢ§ åıįè®½
hy bri
çĶ¨ä»¥ è§£éĩĬ
çĽ¸åĨ²çªģ æĹ¶
å°½ç®¡åħ¨çĲĥåĮĸ å¸¦æĿ¥
èĪŀ å¼Ĭ
è´¢æĶ¿åĪºæ¿Ģ æĶ¿çŃĸ
åħ·ä½ĵæĥħå¢ĥ çļĦ
æº¶è§£ä½ľçĶ¨åıĳèĤ² èĢĮæĪĲ
å¹³æµģå±Ĥ èĩŃæ°§
å¹³æµģå±Ĥ æ°Ķæº¶èĥ¶æ³¨åħ¥
éĩıåŃĲçĤ¹ å¤ªéĺ³èĥ½çĶµæ±ł
ç¡®åĩ¿ è¯ģå®ŀ
åŁİå¸Ĥå¤±èĮĥ çİ°è±¡
äººåı£èĢģé¾ĦåĮĸ ä½¿åħ»èĢģéĩĳä½ĵç³»
å¸¦æĿ¥äºĨåĵªäºĽ éķ¿æľŁ
çĪ¸ çĪ¸
å·¥ä¸ļéĿ©åĳ½æĹ¶æľŁçļĦ æĬĢæľ¯åĪĽæĸ°
ä¸İä½ĽæķĻ çļĦ
èĩªçĶ±éĹ´æİ¥ è¯Ŀè¯Ń
åı¯ç¼ĸç¨ĭçī©è´¨ æĬĢæľ¯
è§¦è§īåıįé¦Ī ç³»ç»ŁéĢļè¿ĩ
ä¸ºåŁºç¡Ģ çļĦ
å¦ĤæŀľåĨ³å®ļè®º è¢«
å¦ĤæŀľåįĹæŀģ åĨ°çĽĸ
éªĳ å£«
å¦ĤæŀľåŁºäºİCRISPRçļĦåŁºåĽłé©±åĬ¨æĬĢæľ¯è¢« åºĶçĶ¨äºİéĩİçĶŁç§įç¾¤
ä¸°å¯Į çļĦ
åİĨåı²ç¼ĸçºĤ åŃ¦
çĨĶå²© æµģ
åıįå¯¹æĻ®éģį ä¼¦çĲĨåİŁåĪĻ
ä¸ºå¯¼åĲĳ çļĦ
æĽ´è´´ åĲĪ
å°ģå»ºåľŁåľ° ä¿ĿæľīåĪ¶åº¦
åįļå¼Īè®ºåľ¨ç»ıæµİåŃ¦ ä¸ŃçļĦåºĶçĶ¨
è®¤çŁ¥å¤±è°ĥçĲĨè®ºéĺĲéĩĬäºĨ ä¸ªä½ĵå¦Ĥä½ķéĢļè¿ĩ
åħ³ç¨İå¾Ģå¾Ģä¼ļå¼ķåıĳ æĬ¥å¤įæĢ§è´¸æĺĵ
éĽ¨å½± æķĪåºĶ
æĭ¼è´´ æīĭæ³ķ
å¥¥æĸ¯æĽ¼ å¸ĿåĽ½
è¶ħå¤§è´¨éĩıé»ĳæ´ŀ åĲĪå¹¶
ä¸İç¾İå¾·ä¼¦çĲĨåŃ¦ ä¸įåĲĮ
ç¥ŀç»ıéĢĢè¡Į æĢ§çĸ¾çĹħçļĦæ²»çĸĹ
ä½Ĩä»į æĺĵåıĹ
å¦ĤæŀľåĬłå¯Ĩè´§å¸ģçļĦéĩĩçĶ¨ è¾¾åĪ°ä¸´çķĮè§Ħæ¨¡
äººç±»æ´»åĬ¨å·² æĪĲä¸ºä¸»å¯¼
éģĵå¾·è¡Įä¸ºå¿ħé¡» èĥ½å¤Ł
åįļå¼Īè®ºåľ¨è¿ĽåĮĸçĶŁçī©åŃ¦ä¸ŃçļĦåºĶçĶ¨éĢļè¿ĩ äº²ç¼ĺéĢīæĭ©
åĩ¯æģ©æĸ¯ç»ıæµİåŃ¦ ä¸»å¼ł
çļĦç¤¾ä¼ļåĪĨå±Ĥ æ¨¡å¼ı
æĬĬæı¡ äºĨ
ç¥ŀåŃ¦æķĻä¹ī çĽ¸è°ĥåĴĮ
æĲ¬ è¿Ĳ
å¤©çĦ¶æĿĲæĸĻçļĦ éĻĲåĪ¶
å¦ĤæŀľåŁºäºİåĮºåĿĹéĵ¾çļĦæĬķç¥¨ ç³»ç»Łå®ŀçİ°
æķ°æį®éļĲç§ģ æ³ķè§Ħ
åįļå¼Īè®ºåľ¨å¾®è§Ĥç»ıæµİåŃ¦ ä¸ŃçļĦåºĶçĶ¨
è¿«åĪĩ éľĢè¦ģ
ä¸Ńå¾®åŃĲæİ¢æµĭ éĺµåĪĹ
çĥŃçĽĲçİ¯æµģæ¨¡å¼ıéĢļè¿ĩ å¯Ĩåº¦é©±åĬ¨çļĦ
èĪªç©ºèĪªå¤© å·¥ç¨ĭ
èĭ¥åıįçī©è´¨çº¦æĿŁ ç³»ç»Łå®ŀçİ°
æµ·æ´ĭçĶŁçī©çļĦéĴĻåĮĸ éĢŁçİĩ
ä¸įåĲĮè¯Ńè¨Ģ ç¾¤ä½ĵ
åĵªäºĽåľ°çĲĥåĮĸåŃ¦ è¿ĩç¨ĭ
åīįåį« èīºæľ¯è¿ĲåĬ¨
æĹ¢å¿łå®ŀ åİŁæĦı
è¾¹ç¼ĺæĢģ çĶµåŃĲä¼łå¯¼
åħīåŃĲæĻ¶ä½ĵéĢļè¿ĩ åĳ¨æľŁæĢ§
ä¸ĭæĸ¹çļĦå²©æµĨ æŁ±åĬ¨åĬĽåŃ¦
éĢļè¿ĩçĶ¨æĪ· åŁºæķ°
çĶŁçī©åľ°çĲĥåĮĸåŃ¦ å¾ªçİ¯
åĨ°åĨ» åľĪ
çĭ©çĮİ éĩĩéĽĨ
å¹¿ä¹īçĽ¸å¯¹è®ºå°Ĩ å¼ķåĬĽ
å¦ĤæŀľåħīåŃĲè®¡ç®Ĺèĥ½å¤Łå®ŀçİ° åħīåŃ¦æĻ¶ä½ĵç®¡
æĬĹçĶŁç´łèĢĲèį¯ æĢ§
ä¼ļæįŁå®³åīįé¢Ŀåı¶çļ®å±Ĥ åĬŁèĥ½
éģ¥è¿ľ æĺŁç³»
vol ution
ä¸İä¸Ńå¿ĥåĮĸ æķ°æį®åºĵä¸įåĲĮ
æĤ²åī§èĭ±éĽĦ åİŁåŀĭ
åıĸä»£åį°åĪ· åªĴä½ĵ
æĪ¿äº§ ä»·åĢ¼
åĤ¨èĵĦåĴĮæĬķèµĦ è¡Įä¸º
èĤ¡ä¸ľ ä¸İ
çİ»çĴĥå¤©èĬ±æĿ¿çİ°è±¡ ä¾ĿçĦ¶åŃĺåľ¨
åĵªäºĽåľ°ç¼ĺæĶ¿æ²»åĽłç´łä½¿å¾Ĺ æ±īèĲ¨åĲĮçĽŁ
åģ¶çĦ¶ æĢ§
ç²Ĺéĩİä¸»ä¹ī å»ºçŃĳ
éĿ¢éĥ¨ è¯ĨåĪ«
åı¯èĥ½ä¼ļæľī æĢİæł·
ä¸»æĿĥè´§å¸ģ åıĳè¡Į
the tic
äººå·¥åħīåĲĪä½ľçĶ¨ç³»ç»Ł æĹ¨åľ¨
èĭ¥å°ĨåĲĪæĪĲçĶŁçī©åŃ¦ èŀįåħ¥
çģ«èį¯ä¼łåħ¥æ¬§æ´²æĪĺåľº åĲİ
å½¢çĬ¶ è®°å¿Ĩ
æµ·æ´ĭæŃ» åĮº
DNAæĬĺçº¸ æĬĢæľ¯éĢļè¿ĩ
æľīæľºç¤¾ä¼ļ åĩĿèģļ
oli tical
prec ed
é¢ĩåħ·äºīè®® åľ°
æī« æıı
å°Ħé¢ĳ èħĶ
åľ°è´¨èĲ¥ åĬĽ
éĿĴæĺ¥ æľŁ
itec tures
é»ĳæŃ»çĹħå¼ķåıĳçļĦ äººåı£
æµĳçĦ¶ å¤©æĪĲ
æ²ĥå°Ķæ³°æĭī æĸ¹ç¨ĭ
éĹ´æŃĩ æĢ§
æĭ± é¡¶
ä¹ĭéĹ´åıĸå¾Ĺ å¹³è¡¡
CRISPRä¸İ TALEN
é©¬æŃĩå°Ķ è®¡åĪĴ
åĩ¡å°ĶèµĽ æĿ¡çº¦
gor ith
çļĦæįķèİ· æķĪçİĩ
ä¸įçĿĢ çĹķè¿¹
åºĶè¿Ĳ èĢĮçĶŁ
è§£åĨ³çŃĸ çķ¥
è¶ħéŁ³ éĢŁ
ç©ºæĥ³ æĢ§éĶĻè§Ĩ
çº¦çĳŁ å¤«æ£®ç»ĵ
æĭĵå®½ äºĨ
çĻ½èļģ ä¸ĺ
çīĽè½Ń æ¹ĸ
ç¹ģè¡įçĶŁ æģ¯
æĬĢèĥ½åģıåĲĳ åŀĭ
éĥ¨åĪĨåĩĨå¤ĩ éĩĳéĵ¶è¡Į
ç½Ĺå°Ķæĸ¯çļĦæĹł çŁ¥ä¹ĭå¹ķ
. "
1 4
7 0
I I
a ti
b ack
c or
c ri
d er
d us
e th
f undament
g ra
h es
i p
i de
k n
l es
o d
o uld
r om
s ol
s yn
t re
t ors
u e
u per
u sion
v es
« åıĸ
® æİī
º çī²
é ¼
Ġ åĩĨç¡®
Ġ an
Ġ ne
Ġ ap
ĵ é£İ
çļĦ è¶ħ
çļĦ å°ı
çļĦ ç®Ĺæ³ķ
çļĦ ä¸Ńæĸĩ
çļĦ åĩĨç¡®
çļĦ æŀĦéĢł
çļĦ åį°è±¡æ´¾
çļĦ åıĺéĿ©
çļĦ å¼ºåĮĸ
çļĦ ç»Ħç»ĩ
çļĦ ä¿ĿåŃĺ
çļĦ æİ§åĪ¶
çļĦ ä½ĵéªĮ
çļĦ ä¼ĺåĮĸ
çļĦ åħ³èģĶ
çļĦ åħīåŃ¦
çļĦ ç¾İåŃ¦
çļĦ æĪªçĦ¶ä¸įåĲĮçļĦ
çļĦ æĸ¹æ³ķè®º
çļĦ æıĲé«ĺ
çļĦ åħ³éĶ®
çļĦ æĸ°åŀĭ
çļĦ è¿ģç§»
çļĦ éĿŀçº¿æĢ§
çļĦ æľĢå¤§åĮĸ
çļĦ åı¥å¼ıç»ĵæŀĦ
çļĦ å»¶éķ¿
çļĦ èī²åŁŁ
çļĦ æĺİæļĹå¯¹æ¯Ķ
çļĦ éģµå®Ī
çļĦ åİŁåĽł
çļĦ å¤ĦçĲĨæĸ¹å¼ı
çļĦ çĵ¦è§£
çļĦ ä¸ĢåĪĩ
çļĦ æĦıè¯ĨçĲĨè®º
çļĦ åºŁéĻ¤
çļĦ éĥ¨åĪĨçĨĶèŀį
ãĢĤ ãĢį
æľ ±
ç» ©
å¼ Ħ
å¯ ¿
çİ° åľº
èĥ½ æĽ´
èĥ½ å¸¦
åŃ¦ ä¸Ń
åŃ¦ çĶŁ
æĪ Ī
æĢ§ æ¦Ĥå¿µ
åľ¨ æ¯Ķè¾ĥ
åľ¨ ä¸Ńæĸĩ
åľ¨ åĬłåī§
åľ¨ åĵ²åŃ¦
åľ¨ åĨ³çŃĸ
åľ¨ å¢ŀå¼º
åľ¨ æ¨¡æĭŁ
åľ¨ åķĨä¸ļ
åľ¨ çĶŁæĢģç³»ç»Łä¸Ń
åľ¨ æķ´ä¸ª
åľ¨ åĲİå·¥ä¸ļ
åľ¨ ä¸įæĶ¹åıĺ
ä¸Ń åĴĮ
ä¸Ń åıĳçİ°
å½ °
çī ºçī²
æķ ¦
ä¸İ æĹ¶éĹ´
ä¸İ æĿĲæĸĻ
ä¸İ å¤§éĻĨ
ä¸İ åŀĤçĽ´
ä¸İ å®ĹæķĻ
ä¸İ åĽłæŀľ
ä¸İ ç¥ŀç»ıç§ĳåŃ¦
ä¸İ ç»´å¤ļåĪ©äºļæĹ¶æľŁ
ä¸İ æłĳæŀĿçĬ¶æ°´ç³»
ä¸İ èĩªçĶ±æĦıå¿Ĺ
ä¸İ ç»ıæµİçĶŁäº§åĬĽ
ä¸İ ä¼Ĭæĸ¯åħ°åĩłä½ķåĽ¾æ¡Ī
ä¸İ çİ»èī²åŃĲ
æ³ Ĭ
éĢļè¿ĩ çĶŁçī©
éĢļè¿ĩ æıĲåįĩ
éĢļè¿ĩ éĻįä½İ
éĢļè¿ĩ è±¡å¾ģæĢ§
éĢļè¿ĩ éĢīæĭ©æĢ§åĨħå®¹
éĢļè¿ĩ å±ĢåŁŁ
å¯¹ åŁİå¸Ĥ
å¯¹ æĴŀ
å¯¹ éģĵå¾·è§ĦåĪĻ
åĨ ł
åı¯ ä¸º
åı¯ æıŃç¤ºåĩº
åı¯ çľĭåĩº
è®º çļĦ
å¸ Ń
ç³ Ł
å¦Ĥä½ķ åĪ©çĶ¨
å¦Ĥä½ķ éĩįæĸ°å®ļä¹ī
å¦Ĥä½ķ åĬłéĢŁäºĨ
å¦Ĥä½ķ å»¶ç»Ń
å¦Ĥä½ķ å½»åºķæĶ¹åıĺäºĨ
æĸĩ çī©
ä¸º åĩłä½ķ
ç»ı åĲĳ
ç»ı å¸¸éĩĩçĶ¨
æĶ «åıĸ
ä¼ļ çĽ´æİ¥å½±åĵį
åŃĲ ç²ĴåŃĲ
åį ĸ
å°Ĩ äººç±»
å°Ĩ åĩıå°ĳ
å°Ĩ ä¸ªäºº
å°Ĩ åĤ¬çĶŁ
å°Ĩ æ¶ĪéĻ¤
å°Ĩ è¢«æ·ĺæ±°
å°Ĩ åıĹåĪ°æĢİæł·çļĦå½±åĵį
å°Ĩ åº·å®ļæĸ¯åŁº
åıĳ æºĲäºİ
æ³ķ çļĦ
æĹ¶ æĢģ
éĩı åĩıå°ĳ
éĩı è¯ģæĺİ
åĲĮ æĢģ
äºº éĢł
äºº çī©çļĦ
åºĶ æ¿Ģ
åºĶ çŃĶ
å®ŀçİ° çī©è´¨
å®ŀçİ° å®ŀæĹ¶
éĹ ª
å¦Ĥæŀľ éĢļçĶ¨
å¦Ĥæŀľ è¶ħå¯¼ä½ĵ
å¦Ĥæŀľ åĪĨåŃĲçº³ç±³æĬĢæľ¯
å¦Ĥæŀľ å¤ĸéª¨éª¼
å¦Ĥæŀľ åĪĨåŃĲçº³ç±³æĬĢæľ¯èĥ½å¤Łå®ŀçİ°
å¦Ĥæŀľ éĴĻéĴĽçŁ¿å¤ªéĺ³èĥ½çĶµæ±ł
å¦Ĥæŀľ è½¨éģĵå¤ªéĺ³èĥ½çĶµç«Ļ
å¦Ĥæŀľ çĶŁæĪĲå¼ıäººå·¥æĻºèĥ½
å¦Ĥæŀľ å®ŀæĸ½åħ¨æ°ĳåŁºæľ¬æĶ¶åħ¥åĪ¶åº¦
å¦Ĥæŀľ çĻ¾äº¿äº¿æ¬¡çº§è®¡ç®Ĺ
åĪĨ åĮĸçļĦ
åĪĨ éĢī
åĪĨ éļĶ
é¢ ĸ
åı¯èĥ½ åĽł
åı¯èĥ½ è§ĦèĮĥ
æľī æ²¡æľī
æĬĢæľ¯ éĿ©æĸ°
æĬĢæľ¯ æĢ§å¤±ä¸ļ
æľº çļĦ
æľº èĥ½
ä¸ŃçļĦ çĽ®çļĦè®ºè®ºè¯ģ
è¡¨ æĦı
ä¸ļ åĬ¡
ç³»ç»Ł åľ°
éĹ´ åĨ°æľŁ
å¤§ èĮĥåĽ´
å¤§ å¤ļæķ°
åŃĺ æ´»
æ¯Ķ è¶ħçİ°å®ŀä¸»ä¹ī
æ¯Ķ ä»¥å¾Ģ
ä¸įåĲĮ æĸ¹å¼ı
ä¸įåĲĮ ç¤¾ä¼ļç»ıæµİ
åŀ ®æİī
åĲİ æķ°åŃĹ
çĲĨè®º æķĪçİĩ
çĲĨè®º æŀģéĻĲ
çĲĨè®º è¢«è¯ģå®ŀåĩĨç¡®
ä¸Ĭ å¯¹
ä¸Ĭ åŃĺåľ¨çļĦ
ä¸Ĭ åĳĪçİ°åĩº
å¼º äºİ
ç¼ ļ
çĶŁçī© è´¨
çĶŁçī© ç¥ŀç»ıåħĥ
åĩº äºİ
èµ ŀ
éĩıåŃĲ çī©çĲĨåŃ¦
èĭ¥ åħīéģĹä¼łåŃ¦
èĭ¥ ç³»å¤ĸè¡ĮæĺŁå¤§æ°Ķ
èĭ¥ æķ°åŃĹèīºæľ¯
èĭ¥ åĪĨåŃĲçº³ç±³æĬĢæľ¯å®ŀçİ°
æµģ åĬ¨åĬĽåŃ¦
ä»¥ åīįæīĢæľªæľīçļĦ
ä»¥ æĮĩæķ°çº§
æĽ´ ä¹ħ
æĽ´ åĩĨç¡®ä¼łè¾¾
çī¹ æĸ¯
ç»ĵæŀĦ è°ĥæķ´
åĽł æĸ¯åĿ¦
æ¨¡å¼ı æŀĦæĪĲæĮĳæĪĺ
ç© ¹
éĿ¢ åīį
ç¥ŀç»ı ä¼¦çĲĨéĹ®é¢ĺ
ç»ıæµİ çĽ¸äºĴä¾ĿåŃĺ
ç»ıæµİ è§Ħæ¨¡åĮĸ
åŃĺåľ¨ ç¼ºéĻ·
åŃĺåľ¨ å¯¹åºĶçļĦ
åĵªäºĽ å¿ĥçĲĨ
åĵªäºĽ æĪĺçķ¥
åĵªäºĽ ä¼¦çĲĨèĢĥéĩı
æĺ¯ æĪĳ
åħī å½±æķĪæŀľ
åħī æ³½
çĶµ å®¹
æĿ¥ éĺĲéĩĬ
æıĲ è®®
çİ¯ æŀģåľ°åĮº
éĿŀ çīĽé¡¿
éĿŀ é¢ĦæľŁ
éĿŀ ç»ĵæŀĦåĮĸ
ç¤¾ä¼ļ è¿ĲåĬ¨
èīºæľ¯ ä»·åĢ¼
èīºæľ¯ è¡¨çİ°æĸ¹å¼ı
çŃĸ åĪĴ
è®¡ç®Ĺ åŃ¦ä¹ł
è®¡ç®Ĺ èĥ½èĢĹ
éľĢ åľ¨
éľĢ è¿Ľè¡Į
éľĢ å¦Ĥä½ķè°ĥæķ´
å¼ķ å¯¼çļĦ
ç¬ ĳ
æĪĳ åİ»
ä¸Ģ ä»½
å¤ļ å±Ĥ
ç¢ Ľ
åıį é¢ĺ
è®¾ ç½®
æľºåĪ¶ çļĦçĲĨè§£
çĥ Ł
ç¾ ½
èģ ª
åıĻäºĭ çº¿æĢ§
ä½ľçĶ¨ ä¸ĭ
åĪĻ åı¯èĥ½å®ŀçİ°
å¢ŀ è¯ĳ
çİ°ä»£ åĮĸåŃ¦
äººç±» è¡Įä¸º
äººç±» å¢ŀå¼º
äººç±» å®ļå±ħçĤ¹
å°Ĩå¦Ĥä½ķ å½»åºķéĿ©æĸ°
å°Ĩå¦Ĥä½ķ æ¼Ķè¿Ľ
ä¸ĭ ä¼ı
æ¡Ĩæŀ¶ å¯¹
æ¡Ĩæŀ¶ ä½ĵç³»
å¼Ĥ åĲĮ
å¼Ĥ æºĲ
è§Ħ ç¨ĭ
è®¤çŁ¥ ä¸İ
è®¤çŁ¥ åıĳå±ķ
è®¤çŁ¥ ç¼ºéĻ·
è®¤çŁ¥ çģµæ´»æĢ§
è¡Įä¸º æľ¬èº«
ç²¾ æ¹
æıŃ éľ²
ä»İ ä¸ļ
ä»İ æīĺåĭĴå¯Ĩ
åıĳå±ķ æ¨¡å¼ı
åıĳå±ķ æĪĲçĨŁ
æłĩ è¯Ĩ
åī§ åıĺ
åĳ½ åĲį
è¿Ĳ èĲ¥
æ°´ åĪĨ
æ°´ åĬ¨åĬĽ
æ¬ ł
è¿Ļ è¡¨æĺİ
è¿Ļ æºĲäºİ
èĢĮéĿŀ åŃĺåľ¨
åı¯èĥ½ä¼ļ åĳĪçİ°åĩº
åĻ¨ çī©
å¥ ¶
ç¬¦åĲĪ æĪĳåĽ½
éķ¿ å¯¿åĳ½
éľĢè¦ģ éĩĩçĶ¨
è¢« è§Ĩä¸º
é«ĺ é¢ĳ
åħ¶ æŃ£å½ĵæĢ§
å°ı ä¼Ĺ
èĦ ¸
æĸĩåĮĸ çļĦ
æĸĩåĮĸ ä¸ŃçļĦ
æķĪåºĶ å¦Ĥä½ķå½±åĵį
å¸¦ æľī
å¸¦ çĶµ
åŁºåĽł æ²»çĸĹ
å·®å¼Ĥ å¦Ĥä½ķå½±åĵį
å¤ĸ å½¢
æĸ¹æ³ķ åľ¨
èī² èį·
æ®ĸæ°ĳ åı²åŃ¦
æīĭ è¯Ń
çĶ» å¸ĥ
çĥŃ éĻĲåĪ¶
çĥŃ èĨ¨èĥĢ
ä¹ĭéĹ´ æŀ¶èµ·
é£ ĵé£İ
éģĵå¾· æ¡Ĩæŀ¶
æĮĩ æĮ¥
æ³¢ æĻ®
åıĳçĶŁ åıĺåĮĸ
çķĮ çļĦ
åħĥ è®¤çŁ¥
å¸Ĥåľº ç«ŀäºī
éĽĨ ç¾¤
æ¯Ķè¾ĥ ç¥ŀè¯Ŀ
å½»åºķ éĩįæĸ°è®¾è®¡
å¤ĦçĲĨ èĥ½åĬĽçļĦ
å±± åīį
åĬłéĢŁ åıĳå±ķ
åŁİå¸Ĥ ä¸Ń
åŁİå¸Ĥ é£Łåĵģ
åħĪ åħ¥
éģĹ çķĻ
è¡¨è¾¾ éĢ»è¾ĳ
åĬłåī§ ç¡®è®¤åģıè¯¯
æķ°æį® ä¸»æĿĥ
æĢ§çļĦ å¼ºè°ĥ
äººå·¥ çħ§æĺİ
æŃ£ ç»Ł
æŃ£ é¢ĺ
åĨľ äº§åĵģ
ç§ĳåŃ¦ æĸ¹æ³ķ
æĮģç»Ń æĮĳæĪĺ
ä»· ä¸Ĭæ¶¨
åĵ²åŃ¦ çļĦ
éģĹä¼ł çĹħ
éģĹä¼ł å¤ļæł·æĢ§
æ°ĶåĢĻ å½±åĵį
æ°ĶåĢĻ å·¥ç¨ĭ
æĺ¯åĲ¦ ä¸º
æĺ¯åĲ¦ éĢĤçĶ¨äºİ
æĺ¯åĲ¦ è¿ĺèĥ½
å¯¼èĩ´ åħ¨çĲĥ
åŁºç¡Ģ çļĦ
æķĻ ä¼ļ
åķ ¦
å°Ķ å®ļå¾ĭ
åıĸ èĪį
å¾ģ ç¨İ
å¹´ å·¦åı³
èĥ½éĩı è½¬æį¢
èĥ½éĩı æ¶¨èĲ½
èĥ½éĩı ä¸ŃçļĦéĩıåŃĲæ¶¨èĲ½
æĻº åĬĽ
èİ ī
åħĭ æĭī
åħĭ éĩĮæĸ¯
èĥ½åĲ¦ è§£åĨ³
åĨľä¸ļ ç³»ç»Ł
åĨľä¸ļ çĶŁäº§
çĶ± åĨ°å·Ŀä¾µèļĢ
åĬłå¯Ĩ å®īåħ¨åįıè®®
æłĩåĩĨ æ¨¡åŀĭçļĦ
ä¹ĭéĹ´çļĦ å¤įæĿĤ
ä¹ĭéĹ´çļĦ åħ³èģĶ
æ¼Ķ ç¤º
çł´ ä»
æıĲåįĩ èĩ³
æıĲåįĩ æķ°ä¸ªæķ°éĩıçº§
æĶ¿æ²» åĬ¨èį¡
åĬ¿ å¿ħ
å¹¿æ³Ľ éĥ¨ç½²
çĬ¶ äºĳ
çĬ¶ ç»Ĩèĥŀ
å¾® å¦Ļ
å¸ĥ èİ±
å¿ĥçĲĨ åģ¥åº·
åŁºäºİ ä¹īåĬ¡
åŁºäºİ éĺ¶çº§
åŁºäºİ çŁ³å¢¨çĥ¯çļĦ
åŁºäºİ åħīåŃĲåŃ¦
åŁºäºİ éĩıåŃĲçºłç¼łçļĦ
è·¨ ä¸ĸä»£
ç©ºéĹ´ éļĲåĸ»
èĩªçĦ¶ å½¢æĢģ
èĩªçĦ¶ ç³»ç»Łä¸ŃçļĦ
èĩªçĦ¶ åĨįçİ°
æµ·æ´ĭ æ¸©çĽĲçİ¯æµģæ¨¡å¼ı
æµ·æ´ĭ çĶŁæĢģç³»ç»Łä¸Ń
å¾Ĺä»¥ æĻ®åıĬ
å¾Ĺä»¥ ç»´æĮģ
åľ°è²Į å½¢æĢģ
æĸĩæľ¬ ä¸ŃçļĦ
åİŁçĲĨ å¦Ĥä½ķè§£éĩĬ
æĸ¹éĿ¢ å½¢æĪĲé²ľæĺİå¯¹æ¯Ķ
åİĨåı² åħĥç´łçļĦ
å°± æľīåı¯èĥ½
éĢĢ çģ«
çĸĹ æķĪ
åıĺåĮĸ éĢļè¿ĩ
å¤§æ°Ķ ç¢³
å¤§æ°Ķ ç¢³æįķéĽĨ
å¤§æ°Ķ å±ĤçļĦ
åħ¬ ä¸»
åħ¬ æŃ£
èĬĤ åĪ¶
èĬĤ çº¦
éŃĶå¹»çİ°å®ŀä¸»ä¹ī ä½ľå®¶
æľĢ æĸ°
æľĢ è¿ĳ
æľĢ åĪĿ
æľĢ ä½³
æĪĲä¸º åħ¨çĲĥ
æĪĲä¸º å¼ºåĪ¶æĢ§
æĥ³ è±¡
ä»į åħ·æľī
å¹¶ æİ¨åĬ¨äºĨ
å®īåħ¨ æĢ§èĥ½
ç£ ·
åıĹ æįŁ
èİ· çĽĬ
æĬĢæľ¯çļĦ æľºæ¢°åĮĸ
çĲĨæĢ§ ä¸»ä¹īä¸İ
ç¿» è½¬
èī²å½© çļĦ
al ter
al gorith
å¾ĭ ä»¤
åĬ³åĬ¨ èĢħ
èģļ éĽĨ
ç¿»è¯ĳ ä¾Ŀæį®
çĭ Ĥ
å»¶ ä¼¸
ç²ĴåŃĲ çī©çĲĨ
ä»İèĢĮ å½»åºķéĿ©æĸ°
åħ³äºİ å®ĩå®ĻèĨ¨èĥĢçļĦå®ĩå®ĻåŃ¦æ¨¡åŀĭ
ä¼ĺåħĪ åľ°ä½į
èµĦæľ¬ å½¢æĪĲ
éħ¸ çĽĲ
æĢİæł·çļĦ ç¤¾ä¼ļç»ĵæŀĦ
ç±³ åĭĴ
é¢Ħæµĭ å¼ºåŃĲ
æĬ½è±¡ æ¦Ĥå¿µ
éĩĮ çļĦ
ç¥ŀç»ıç½ĳç»ľ çļĦ
å¾ĹåĪ° æıĲåįĩ
å¾ĹåĪ° å¹¿æ³Ľå®ŀæĸ½
er arch
åŁºæľ¬ åİŁåĪĻ
æ°¸ä¹ħ åĮĸ
çļĦåıĳå±ķ éĢļè¿ĩ
åįł çĶ¨
åĽ½å®¶ éĹ´çļĦ
ç¥ŀç»ıå½¢æĢģ å¤ĦçĲĨåĻ¨
è¿ŀ è½½
äººå·¥æĻºèĥ½ ä¼¦çĲĨ
ç²¾åĩĨ ä¼łè¾¾
åį°è±¡æ´¾ çļĦåħīçº¿
åı¯ä»¥ æıŃç¤ºåĩºä¸¤èĢħåľ¨
åı¯ä»¥ æıŃç¤ºåĩºäºĮèĢħåľ¨
éĢı æ°´
è´Ł æĭħ
æĹ©æľŁ çİ°ä»£
åīįæīĢæľªæľīçļĦ æĸĩåĮĸäº¤æµģ
çªģçł´ äºĨä¼łç»Ł
en able
æĥħæĦŁ ä½ĵéªĮ
çģ«å±± å²Ľ
ä»·åĢ¼ åĪĽéĢł
ä½¿å¾Ĺ è®¡ç®Ĺèĥ½åĬĽ
å®ĥ å°Ĩ
å®ĥ å°Ĩå¦Ĥä½ķéĩįå¡ĳ
éĩįæŀĦ ä¼łç»Ł
ä¹īåĬ¡è®º ä½ĵç³»
ä¸įåı¯ æİ§
ä¸įåı¯ çł´è§£
è®° è½½
ä¸»å¯¼ åĩºçīĪä¸ļ
åľ°è´¨ åŃ¦æľ¯è¯Ń
åľ°è´¨ ä½ľçĶ¨åĬĽ
æľīæķĪ éĻįä½İäºĨ
æľīæķĪ è½½èį·
è¡¨è§ĤéģĹä¼ł åŃ¦
æĳ §
å¢ŀéķ¿ ä¸İ
æİ¨åĬ¨ çĿĢ
ä»İæł¹æľ¬ä¸Ĭ éĩįå¡ĳäºĨ
è§£åĨ³ ä¼ĺåĮĸéĹ®é¢ĺ
æĽ´ä¸º ç²¾ç¡®
æĽ´ä¸º æ·±è¿ľ
æĦıä¹ī åĪĽéĢł
ç¢İçīĩåĮĸ åıĻäºĭæīĭæ³ķ
ç¢İçīĩåĮĸ æĹ¶éĹ´çº¿
æĪĸå°Ĩ ç»ıåİĨ
è¡¨çİ°ä¸»ä¹ī ç¬Ķè§¦
èĩªåĬ¨ ä¸»ä¹ī
åĮĸåŃ¦ çģ«ç®Ń
å½ĵä»£ ç¤¾ä¼ļ
å¹³åı° èµĦæľ¬ä¸»ä¹ī
å¹³åı° èµĦæľ¬ä¸»ä¹īçļĦåħ´èµ·
ç»Ħç»ĩ è¶ĭåĲĮ
æĵįæİ§ çĶµç£ģæ³¢
è¶ħæĿĲæĸĻ åľ¨
æŀĦå»º èĩªæĪĳå¼ºåĮĸçļĦ
éķ¿æľŁ å¤ªç©º
åįļå¼Īè®º çłĶç©¶
äººåı£ è½¬åıĺ
äººåı£ è¿ģç§»æ¨¡å¼ı
ç¼º æ°§
åĸĢæĸ¯çī¹åľ°è²Į å±ķç¤ºäºĨ
åĸĢæĸ¯çī¹åľ°è²Į çļĦå½¢æĪĲæºĲäºİ
åĽ½éĻħ æ³ķ
æķĻèĤ² ç¨ĭåº¦
æķĻèĤ² æĸ¹æ³ķè®º
æ¤į çī©çļĦ
ä¸ªäºº åĪ©çĽĬ
ç«ĭä½ĵ æĦŁ
åģĩè®¾ æĢ§
åĬ¨åĬĽåŃ¦ ä¸İ
åį³ æĹ¶
ä¼łè¾¾ èĢĮéĿŀ
ä¼łè¾¾ æĥħæĦŁ
è¯»èĢħ éĺĲéĩĬ
è¥¿ äºļ
æĿŁ ç¼ļ
ä¿ĿæĬ¤ çĶŁçī©åŃ¦
èĴĻ çī¹
åĨħå®¹ çŃĽéĢī
åĮ» çĶŁ
éĥ½ æĺ¯
æıĲåĩºäºĨ æł¹æľ¬æĢ§è´¨çĸĳ
ä¿ĿåŃĺ æĸ¹æ³ķ
æİ§åĪ¶ çļĦ
å®ŀè¯ģ è§Ĥå¯Ł
re con
ä½ľåĵģ éĢļè¿ĩ
ä¸İä¼łç»Ł åĨľä¸ļ
ä¸İä¼łç»Ł åĨħçĩĥæľº
éĢŁçİĩ ä¸İ
éĢŁçİĩ è¶ħè¿ĩ
å®ŀè·µ ä¸ŃçļĦ
æ²³æµģ ç³»ç»Łä¸Ń
æ²³æµģ æµģåŁŁ
é¢ĨåŁŁçļĦ å¹¿æ³ĽåºĶçĶ¨
çļĦåĲĮæĹ¶ ä¿ĿæĮģ
çļĦåĲĮæĹ¶ ç¼ĵè§£
åĪĽä½ľ æīĭæ³ķ
è¿Ļä¸Ģ åľ°è´¨å¹´ä»£
æİ¨è¿Ľ åĻ¨
æİ¨è¿Ľ ç³»ç»ŁçļĦ
çī©ç§į éĹ´
çī©ç§į å½¢æĪĲ
èĩªæĪĳ åĨ³å®ļ
åħ¨æģ¯ åıĻäºĭ
å¾Ģå¾Ģ å¿½è§Ĩ
æİª è¾ŀ
ç»ĺçĶ» ä¸įåĲĮ
åŃĺåľ¨ä¸»ä¹ī ä¸»å¼ł
åŃĺåľ¨ä¸»ä¹ī çİ°è±¡åŃ¦
åĺ ´
æķ´åĲĪ äºĨ
å±ŀ æĢ§çļĦ
çİ°è±¡åŃ¦ æĦıè¯Ĩ
çİ°è±¡åŃ¦ è®¤è¯Ĩè®º
è¯Ħä¼° è¡Įä¸º
ç®Ģ åĮĸçļĦ
éĽĨä½ĵ è¡Įä¸º
å±ķçİ°åĩº åįĵè¶ĬçļĦ
é» İ
åĪºæ¿Ģ éľĢæ±Ĥ
åĨ°å·Ŀ æ¶Īèŀį
åĨ°å·Ŀ æ¶ĪéĢĢ
å¼ķåĬĽ çĽ¸äºĴä½ľçĶ¨
å¦Ĥä½ķåľ¨ åľ°è´¨æĹ¶éĹ´å°ºåº¦ä¸Ĭ
åįĬ å¹²æĹ±åľ°åĮºçļĦ
èĩªåĬ¨åĮĸ å¯¼èĩ´
æĸĩèīºå¤įåħ´æĹ¶æľŁçļĦ ç§ĳåŃ¦åıĳå±ķ
æĭĵæīĳç»Ŀç¼ĺä½ĵ å¦Ĥä½ķéĢļè¿ĩ
çĶ²çĥ· æ°Ķ
ä¸»è§Ĥ å¿ĥçĲĨ
å¿ĥçĲĨåŃ¦ ä¸įåĲĮ
å®ĥä»¬ åı¯èĥ½ä¼ļ
te gr
çİ°æľīçļĦ ç½ĳç»ľå®īåħ¨åįıè®®
èİ·å¾Ĺ çļĦ
èİ·å¾Ĺ æĦıè¯Ĩ
çĬ¶æĢģ ä¸ĭ
åıĳçİ° ç³»å¤ĸè¡ĮæĺŁ
ç¢³éħ¸ éĴĻ
åĪĨéħį æŃ£ä¹ī
ä¿ĥä½¿ äººä»¬
åŃ¦æ´¾ å¯¹
å¼ķåıĳçļĦ æµ·æ´ĭéħ¸åĮĸ
å·¥ä½ľ éĩıè¯ģæĺİ
æ²»çĸĹ æĢ§
æ²īç§¯çī© æ²īç§¯æ¨¡å¼ı
æĤĸè®º æĢ§
ä¼Ĭ æĽ¼
åľ¨åħ¨çĲĥèĮĥåĽ´åĨħ å¾ĹåĪ°
çĭ¬çī¹çļĦ å¯¼çĶµçī¹æĢ§
å·¥ä¸ļéĿ©åĳ½ çļĦæĬĢæľ¯åĪĽæĸ°
è¯¥ç¿»è¯ĳ éģµå¾ªä»¥ä¸ĭåİŁåĪĻ
å®ŀæĹ¶ èĩªéĢĤåºĶ
äººä¸º åĽłç´ł
äº¤æµģ æĸ¹å¼ı
æ¦Ĥçİĩ è®º
å·¥ä¸ļåĮĸ æĹ¶æľŁ
èģļåıĺ èĥ½æºĲ
é¢ĳ æ®µ
äº¤æĺĵ è¡Įä¸º
äº¤æĺĵ éĢıæĺİåº¦
è´¢æĶ¿ å¹²é¢Ħæİªæĸ½
åĮĹæŀģ åıĺæļĸ
ä¾¿ æĲº
çļĦç¤¾ä¼ļ åŃ¦
ä¹īåĬ¡è®ºä¼¦çĲĨåŃ¦ æł¹æį®
çĻ¾ ä¸ĩ
éĢıè§Ĩ æĬķå½±
æ£Ģ éªĮ
æ£Ģ æŁ¥
å®ĩå®ĻèĨ¨èĥĢ çĲĨè®º
å®ĩå®ĻèĨ¨èĥĢ çļĦåĬłéĢŁ
åĽºæĢģ æ¿ĢåħīéĽ·è¾¾
å¸¸éĢļè¿ĩ è¶ħèĩªçĦ¶
å¸¸éĢļè¿ĩ ç¢İçīĩåĮĸçļĦ
åĽ¢ éĺŁ
ä¸ĸçķĮ çļĦ
æĪĲæľ¬ éĻįä½İ
æĺ¯åĲ¦ä¼ļ å¯¼èĩ´
ç»Ŀå¯¹ ä¼ĺåĬ¿
ç«ŀäºī ä¼ģä¸ļ
åħ¨éĿ¢ éĿ©æĸ°
æĦıè¯Ĩå½¢æĢģ åĨ²çªģ
æĦıè¯Ĩå½¢æĢģ åĽŀéŁ³å®¤
åľ°å½¢ çī¹å¾ģ
æµĵ çĥĪ
æĹ¥çĽĬ åĬłåī§
èĥĮ é£İåĿ¡
ä¸Ģä¸ª åı¯è¡ĮçļĦ
éĩİ åĮĸ
æ²¡ äºĭ
æ²¡ éĶĻ
åľ¨å¤ļå¤§ç¨ĭåº¦ä¸Ĭ å½±åĵį
ä¸ªä½ĵ åľ¨
ä¸ªä½ĵ çĲĨæĢ§
èĲ¥åħ» çĽĲ
æĹĭ åĽŀ
åĨ²ç§¯å¹³åİŁ æ¯Ķ
æīĢæľī äºº
æ¹¿ åº¦
äººç±»è®¤çŁ¥ å¢ŀå¼º
å¥³ äºº
å¥³ å£«
äºĮæ°§åĮĸ ç¡ħ
åĽºæĢģçĶµæ±ł åĪĽæĸ°
å¦ĤæŀľéĩıåŃĲ å¯ĨçłģåŃ¦
ä¸Ŀç»¸ä¹ĭè·¯ æĺ¯å¦Ĥä½ķ
åĽłæŀľ éĢ»è¾ĳåħ³ç³»
åıĳèĤ² åĩº
éĽ¶ çĶµéĺ»
tr ial
çļĦè½¬åıĺ å¦Ĥä½ķæĶ¹åıĺäºĨ
ç¥ŀç»ıç§ĳåŃ¦ å°Ĩå¦Ĥä½ķè°ĥåĴĮ
è¯º ä¼ĬæĽ¼
åİŁåŃĲçº§ åĪĨè¾¨çİĩ
æľªæĿ¥ çļĦ
æľªæĿ¥ åįģå¹´åĨħ
ç»Ĩèĥŀ åĪĨåĮĸ
åŁºäºİCRISPR çļĦ
åŁºäºİCRISPR çļĦäººç±»
ç¢³éħ¸çĽĲå²© å±Ĥ
çŀ¬ æĹ¶
çļĦæĬĢæľ¯ æĮĳæĪĺ
çļĦéģĵå¾· æ¡Ĩæŀ¶
æĿĲæĸĻç§ĳåŃ¦ åĴĮ
æĿĲæĸĻç§ĳåŃ¦ åºĶçĶ¨
å¾Ĺä»¥å®ŀçİ° åīįæīĢæľªæľīçļĦ
ç¾İå¾·ä¼¦çĲĨåŃ¦ èĥ½åĲ¦åľ¨
ç¾İå¾·ä¼¦çĲĨåŃ¦ åľ¨éģĵå¾·åĨ³çŃĸä¸Ń
ç¾İå¾·ä¼¦çĲĨåŃ¦ å¼ºè°ĥåĵģæł¼åŁ¹åħ»
è£ħç½®èīºæľ¯ éĢļè¿ĩ
ä»ħ éĢļè¿ĩ
æĬķèµĦ ç»ĦåĲĪ
è¯ģæį® æłĩåĩĨ
å¤§èĦĳ ä¸İäºĳç«¯
æī©å±ķ è¡¨åŀĭ
ec t
æĪ¿ éĹ´
åı¯èĥ½åľ¨ ä¸īåįģå¹´åĨħ
åı¯å®ŀçİ° åİŁåŃĲçº§ç²¾å¯ĨåĪ¶éĢł
ä¸īè§Ĵ è´¸æĺĵ
æķ°åŃ¦ æ¨¡åŀĭ
è·¨ä»£ åŁºåĽłè¡¨è¾¾
çļĦä¼¦çĲĨ ä½ĵç³»
å¦Ĥæŀľåıįçī©è´¨ çĶŁäº§
åį± åıĬ
æĥħå¢ĥ ä¸ĭ
åŁºäºİCRISPRçļĦåŁºåĽł é©±åĬ¨
åŁºåĽłç»Ħ ä¿®é¥°
ç«ĭä½ĵä¸»ä¹īå¯¹ è§Ĩè§ĴçļĦç¢İçīĩåĮĸå¤ĦçĲĨ
æ¨¡å¼ıè¯ĨåĪ« ä»»åĬ¡ä¸Ń
è¿ģç§» çİĩ
ä¸īè§Ĵæ´² åľ°åĮºçļĦ
æ°ĳä¸» åĮĸè¿Ľç¨ĭ
çªģè§¦ æ¨¡æĭŁ
çªģè§¦ éĩįç»Ħ
éĢłæĪĲ å°¤ä¸ºä¸¥éĩį
åı¯èĥ½å®ŀçİ° åīįæīĢæľªæľīçļĦ
è§Ĥä¼Ĺ å¯¹
å¦ĤæŀľæļĹèĥ½éĩıå¯Ĩåº¦ åĳĪæĮĩæķ°çº§å¢ŀéķ¿
çŁ³å¢¨çĥ¯ å®ŀçİ°
æĢ» ç»Ł
å¤ĸæĺŁ å¾®çĶŁçī©çĶŁåĳ½
çļĦåı¯ åıĬ
tic ity
äººå·¥éĢļçĶ¨æĻºèĥ½ éľĢè¦ģåħ·å¤ĩ
å»ºç«ĭ çļĦ
çĶ»å»Ĭ å±ķè§Ī
åĲİæ®ĸæ°ĳæĸĩåŃ¦ å¸¸åĢŁåĬ©æĿĤç³ħ
æŁĲ ä¸ª
å³ °
æ¯Ķè¾ĥåĪĨæŀĲ æıŃç¤ºäºĨ
è·¨æĸĩåĮĸ äº¤æµģ
æ¶µ çĽĸ
æ¸©åº¦ ä¸Ĭåįĩ
æŀĦæĪĲäºĨ éĩįå¤§æĮĳæĪĺ
å¤©ä½ĵçĶŁçī©åŃ¦ å¯¹
ä¸»ä½ĵ éĹ´
æĦŁå®ĺ ç»ıéªĮ
è¢«è¯ģå®ŀ æŃ£ç¡®
æľīæľĽå®ŀçİ° æĽ´é«ĺçļĦèĥ½éĩıå¯Ĩåº¦
å¦ »
èīºæľ¯å®¶ å¯¹
æĿ¥è§£éĩĬ åĽ½éĻħè´¸æĺĵ
æĿ¥è§£éĩĬ å¤§éĻĨæ¼Ĥç§»
ä¾ĽåºĶéĵ¾ çļĦåħ¨çĲĥåĮĸ
ç¨Ģ æľī
ç»ķ è¿ĩ
ä»Ĭ æĻļ
éģŃ æ¯ģ
çļĦç²¾ç¡® åº¦
ä»£éĻħ ä»·åĢ¼è§Ĥ
éļ¾ä»¥ è§£éĩĬ
å®ŀçİ°å¯¹ ç¥ŀç»ıåĽŀè·¯çļĦç²¾åĩĨæĵįæİ§
åĨħåľ¨ çļĦ
åĬłå¯Ĩåįıè®® å®ŀçİ°æłĩåĩĨåĮĸ
è®¤çŁ¥å¤±è°ĥ çĲĨè®ºè®¤ä¸º
è¿ĺæĺ¯ ä»ħä»ħ
ä¸»åĬ¨ çļĦè®¤çŁ¥
æĽ´ç¬¦åĲĪ æ±īè¯Ń
ç½ĳç»ľç¤¾ä¼ļ çĲĨè®ºå¦Ĥä½ķè§£éĩĬ
åį°åĪ·æľº çļĦ
æ·±åº¦ä¼ªéĢł åªĴä½ĵ
éļĲåĸ» æĢ§
è¯Ŀè¯Ń çļĦ
èĥ½æºĲæ¶ĪèĢĹ æ¨¡å¼ı
ra in
æĺ¯ä»Ģä¹Ī æİ¨åĬ¨äºĨ
æĢ§åĪ« è§Ĵèī²
åľ°å¤ĸ èµĦæºĲåĪĨéħį
Ġm echanisms
æĺ¾ç¤º åĩº
æĬĢæľ¯çļĦè¿ĽæŃ¥ ä½¿å¾Ĺ
åĽ½å®¶ä¸»æĿĥ æ¦Ĥå¿µ
æŀĦéĢłæĿ¿åĿĹ çļĦ
æŀĦéĢłæĿ¿åĿĹ ä¿¯åĨ²å¸¦
å¤§å¹ħ éĻįä½İ
æ¿Ģæ´» åħīæķıç¦»åŃĲéĢļéģĵ
æĽ´æĸ°ä¸ĸ æĹ¶æľŁ
åĮħè±ªæĸ¯ è¿ĲåĬ¨çļĦ
è¡ĮåĬ¨ ä¸»ä¹ī
æ°ĳæĹı ä¸»ä¹ī
æĿĤç³ħ æĢ§
ä¸»è§Ĥä½ĵéªĮ çļĦ
ç¥ŀç»ıå½¢æĢģè®¡ç®Ĺæŀ¶æŀĦéĢļè¿ĩ èĦīåĨ²ç¥ŀç»ı
Ġf or
Ġf orm
æ¸©çĽĲçİ¯æµģæ¨¡å¼ıéĢļè¿ĩ çĽĲåº¦
åľºæĻ¯ ä¸ŃçļĦ
è´§å¸ģä¾ĽåºĶ éĩıçļĦ
èįĴæ¼ł åĮĸè¿Ľç¨ĭ
ç½®äºİ ä¼ĺåħĪåľ°ä½į
æĦıè¯ĨæµģåıĻäºĭæĬĢå·§ æ¯Ķ
ce p
ph y
æ¨¡ä»¿çĶŁçī©ç¥ŀç»ıç½ĳç»ľ çļĦ
è¡¨çİ°æīĭæ³ķ ä¸ĬçļĦ
é¢łè¦Ĩæ®ĸæ°ĳ è¯Ńè¨ĢçŃīçº§åĪ¶åº¦
å³¡æ¹¾ çļĦå½¢æĪĲè¿ĩç¨ĭ
å³¡æ¹¾ çĶ±åĨ°å·Ŀä¾µèļĢ
éģĵå¾·ä¹īåĬ¡ èĢĮéĿŀåĲİæŀľ
äºĮç»´ æĿĲæĸĻ
äºĮç»´ å¹³éĿ¢
åĽºæľī æĿĥåĪ©
èĴ¸ åıĳ
åĤ¨èĵĦ çİĩ
un preced
ç¢³æįķéĽĨ ç³»ç»Ł
çĮİ çī©ç§įç¾¤
è®¨è®º ä¸Ń
åľŁå£¤ çĽĲ
æĳĩ æĳĨ
æĹłæĦıä¸Ń æĶ¹åıĺ
å¦Ĥæŀľå®¤æ¸©è¶ħå¯¼ä½ĵ å®ŀçİ°
è®¤è¯ģ åįıè®®
è¡¨è§ĤéģĹä¼łæľºåĪ¶éĢļè¿ĩ è¯ģå®ŀ
è¡¨è§ĤéģĹä¼łæľºåĪ¶éĢļè¿ĩ è·¨ä»£æĢ§çĬ¶ä¼łéĢĴ
éĢļå¸¸ ä¼ļ
æļ´éľ² äºİ
æļ´éľ² åĩº
çļĦåĬ¨æĢģ åıĺåĮĸ
æ¯į ç³»
å¤įåĲĪ ä½ĵ
è¿Ĳè¾ĵ æĪĲæľ¬
èĤĸåĥıçĶ» ä¸Ń
äººçī© å¿ĥçĲĨ
ä½¿ä¼łç»Ł æĸ°è¾¾å°Ķæĸĩä¸»ä¹ī
ç¬¬äºĮ è¯Ńè¨Ģä¹łå¾Ĺ
éĩıçļĦ å¢ŀåĬł
å§¿æĢģ çļĦå¼ºè°ĥ
å¾·éĽ·åħĭæĸ¹ç¨ĭ çļĦåıĤæķ°
åĮĸåŃ¦é£İåĮĸ ä½ľçĶ¨å½¢æĪĲ
è¯»èĢħå¯¹ æĸĩæľ¬æĿĥå¨ģ
op tion
åħīçļĦ çŀ¬æģ¯ä¸ĩåıĺ
è½¬åĮĸä¸º ä¸Ńæĸĩ
ä¸´çķĮ æ¸©åº¦
olog y
æĤ¨ çļĦ
åľŁåľ° åĪ©çĶ¨
åĲĪä½ľ è¡Įä¸º
ä¸ĸçºªåĪĿ éĢ»è¾ĳå®ŀè¯ģä¸»ä¹īçļĦ
éĩĳå±ŀ æ°¢
ç£ģåľº æ£Ģæµĭ
åĶ¯çī© ä¸»ä¹īçļĦ
èĩªç»Ħè£ħ çº³ç±³
åĨľæĿĳ ç¤¾åĮº
é¢łè¦ĨæĢ§ æī¹åĪ¤
æ½®æ±Ĳ åĬłçĥŃ
èĭ¥å°Ĩ ç¥ŀç»ıå½¢æĢģèĬ¯çīĩ
æ¹ĸ æ³Ĭ
æī°ä¹± äºĨ
éĿĴéĵľæĹ¶ä»£æĸĩæĺİçļĦå´©æºĥ å¦Ĥä½ķå½±åĵįäºĨ
éĢ¼ è¿ĳ
åĨ³çŃĸè¿ĩç¨ĭä¸Ń åŃĺåľ¨çļĦ
èĩªæĪĳå¤įåĪ¶ èĥ½åĬĽ
æĭĵæīĳç»Ŀç¼ĺä½ĵéĢļè¿ĩ å¯¹ç§°æĢ§
ç¤¾ä¼ļæĶ¿æ²» ç»ĵæŀĦ
åħ¨çĲĥèĥ½æºĲ åľ°ç¼ĺæĶ¿æ²»
ç»´å¤ļåĪ©äºļæĹ¶æľŁçļĦå°ıè¯´ æ³¨éĩįéģĵå¾·
èĥ½åĬ¨æĢ§ æ¦Ĥå¿µ
åĪ©çĽĬ çĽ¸åħ³
æļĹçī©è´¨ åĪĨå¸ĥ
çĽ¾çĬ¶çģ«å±± ä¸İå±ĤçĬ¶çģ«å±±
Ġåı¥å¼ı è°ĥæķ´
Ġåı¥å¼ı è°ĥæķ´ä¸º
åĵªäºĽåľ°è´¨ ä½ľçĶ¨
æ°¸ä¹ħåĨ»åľŁèŀįåĮĸéĩĬæĶ¾ çĶ²çĥ·æ°´åĲĪçī©
æģĲæĢĸè°· åģĩè¯´
åĮĸåŃ¦é£İåĮĸä½ľçĶ¨ å½¢æĪĲçļĦ
éĻĨåľ° çĶŁæĢģç³»ç»Ł
åĮºåĪ«åľ¨äºİ åħ¶
åıĺè´¨ ä½ľçĶ¨
æĶ¾å°Ħ æĪĲåĥı
å¿Ĩéĺ» åĻ¨
å¥¥åľ°åĪ©åŃ¦æ´¾ çļĦç»ıæµİ
çľ¼ åĬ¨
çľ¼ çĿ
èĩªçĦ¶ä¸»ä¹ī èī²å½©
çĪ± åĽłæĸ¯åĿ¦
çļĦè§ĦèĮĥ è¡¨è¿°
ç¬¬ä¸Ģ äººç§°
éĩıåŃĲåĬĽåŃ¦ä¸ŃçļĦ åıłåĬłåİŁçĲĨ
ä¸¥æł¼çļĦ æĸ°è¾¾å°Ķæĸĩä¸»ä¹ī
æĹ¥å¸¸ çī©åĵģ
åĨ°å·ĿåĿĩè¡¡è°ĥæķ´ è§£éĩĬäºĨ
åıĸä»£äºĨ çº¿æĢ§åıĻäºĭ
ä¼ļå¦Ĥä½ķå½±åĵį åħ¶
èĭ¥ç¥ŀç»ıå½¢æĢģè®¡ç®Ĺ èĥ½å¤Łå®ŀçİ°çĶŁçī©ç¥ŀç»ıç½ĳç»ľ
èģĶæĥ³ è¿ĩç¨ĭ
ç¬¦åĲĪä¸Ńæĸĩç§ĳæĬĢ è®ºæĸĩ
å®Įæķ´ä¿ĿçķĻ åİŁæĸĩçļĦ
è¯ºä¾ĿæĽ¼æŀ¶æŀĦ ä¸įåĲĮ
æ³¢ç²ĴäºĮè±¡ æĢ§ä¸İ
çļĦåŁºæľ¬ èĮĥå¼ı
å¸¸çĶ¨ è¡¨è¿°
éģĵå¾·è´£ä»» çļĦæ¦Ĥå¿µ
åĤ¬åĮĸ äºĨ
åĲİçİ°ä»£æĸĩåŃ¦ ä¸Ń
çļĦåŁºåĽłç»Ħ ç¼ĸè¾ĳ
çļĦäºĴåĬ¨ åħ³ç³»
ä¸Ŀç»¸ä¹ĭè·¯çļĦè¡°èĲ½ å¯¹
å¹¶è¡Įå¤ĦçĲĨ èĥ½åĬĽ
el ec
hi erarch
å®ļä½į æİ§åĪ¶
æĤ£ çĹħçİĩ
åı¦ ä¸Ģ
éº »
çļĦè®Ńç»ĥ æķ°æį®éĽĨ
åıĻäºĭçļĦ å¹»çģŃæĦŁ
åı¯èĥ½ä¼ļåıĳçĶŁ åĵªäºĽ
åı¯èĥ½ä¼ļåıĳçĶŁ æł¹æľ¬æĢ§è½¬åıĺ
ä½ľèĢħèº«ä»½ ä¸İ
ç³»å¤ĸè¡ĮæĺŁæ®ĸæ°ĳ è®¡åĪĴ
çİ°ä»£ä¸»ä¹īæĸĩåŃ¦ä¸Ń åıĻäºĭç»ĵæŀĦçļĦç¢İçīĩåĮĸ
éĢļè´§ ç´§ç¼©
å¤©æ°Ķ ç³»ç»Ł
æĭĽèģĺ å·¥åħ·
åĹ Ĵ
åŃĺç»Ń æĹ¶éĹ´
éĩıåŃĲèī²åĬ¨åĬĽåŃ¦è®¡ç®Ĺ éĢļè¿ĩ
çĶŁæ®ĸç³» ä¿®é¥°
åĪļ æīį
å¿ĥèº« éĹ®é¢ĺ
é¢ĦåħĪ ç¡®å®ļ
å¸ĤåľºåĨ³çŃĸ æ¨¡åŀĭ
çľŁç©º æ¶¨èĲ½
çľŁç©º èĥ½éĩıä¸ŃçļĦéĩıåŃĲæ¶¨èĲ½
è¾ĵåħ¥ æķ°æį®
åĮºåĿĹéĵ¾æĬĢæľ¯éĢļè¿ĩ åĪĨå¸ĥå¼ıè´¦æľ¬
æĬĺå°ĦåĩºæĪĺåĲİ äººä»¬å¯¹
åĵ¥çĻ½å°¼ éĿ©åĳ½
å¦Ĥä½ķä¿ĥä½¿ æĹ©æľŁ
æĻ®ä¸ĸ äººæĿĥæ¡Ĩæŀ¶
çł´ç¢İ åĮĸ
æ²īç§¯çī©è´Łèį· å¢ŀåĬł
åľ°å½¢éĻįæ°´æ¨¡å¼ı éĢļè¿ĩ
éĽ¶å·¥ç»ıæµİçļĦ ä¸įç¨³å®ļæĢ§
ä¼´éļı äºĨåĵªäºĽ
å¿łå®ŀ æĢ§
èľ Ĥ
æĬĢæľ¯å¾ĹåĪ° æĶ¹è¿Ľ
çĽ¸å½ĵ çļĦ
æĪĳä¸į æĥ³
æµ·ä¸Ĭ è´¸æĺĵè·¯çº¿
ä¸ĸä»£ é£ŀèĪ¹
çŁ¥è¯Ĩæĺ¯éĢļè¿ĩ ä¸»åĬ¨åĲĮåĮĸèĢĮéĿŀè¢«åĬ¨
æĦŁçŁ¥åĪĨç±» æ¨¡å¼ı
èĪªç©º å½±åĥı
èµ¤éģĵ åľ°åĮºçļĦ
åı£è¯Ń åĮĸçļĦ
èµ·åĪ° äºĨä½ķç§įä½ľçĶ¨
ist or
äºĳè®¡ç®Ĺ ä¸įåĲĮ
éĢ»è¾ĳå®ŀè¯ģä¸»ä¹īçļĦ éªĮè¯ģ
æ¥ ¼
ä¸İæĸĩèīºå¤įåħ´æĹ¶æľŁçļĦ æĺİæļĹå¯¹çħ§æ³ķ
ä¸»ä¹īæĸ¹æ³ķ ä¸įåĲĮ
çī©æµģ ä½ĵç³»
æĮī çħ§
çĽ¸æ¯Ķä¼łç»Ł éĶĤç¦»åŃĲçĶµæ±ł
éĢĴéĢģ æľºåĪ¶
çĺ ¤
å¤§åŀĭ åĬ¨çī©ç¾¤
çŁ¥è¯Ĩåŀĭ ç»ıæµİ
æŀĦéĢłä¿¯åĨ²å¸¦éĢļè¿ĩ å¤§éĻĨæĿ¿åĿĹ
æī¹åĪ¤æĢ§ å®¡è§Ĩ
åı¶ç»¿ ç´ł
ä¸ĸçºªä¸Ńåı¶ ä»¥æĿ¥
çļĦä¸ĵä¸ļ æĢ§
çĶ· æĢ§
è¢«æĻ®éģį éĩĩçĶ¨
æĮģç»Ńå½±åĵįçĿĢ å½ĵä»£
ç¢³éħ¸çĽĲå²©æº¶è§£ ä½ľçĶ¨å½¢æĪĲ
éĿŀæ¬§åĩłä½ķ å¦Ĥä½ķå½±åĵįå½ĵä»£
å¦ĤæŀľéĢļè¿ĩ ç³»å¤ĸè¡ĮæĺŁå¤§æ°Ķåħīè°±åĪĨæŀĲæ£ĢæµĭåĪ°
éª¤ çĦ¶
äººç±»çļĦè®¤çŁ¥ èĥ½åĬĽ
å¼ºè°ĥå¼ºåĮĸ åĲİæŀľ
ine er
çĲĨè®ºä¸Ĭä¸įåı¯çł´è§£çļĦ åĬłå¯Ĩ
ä¸Ńå¤®éĵ¶è¡ĮçļĦ è´§å¸ģæĶ¿çŃĸå·¥åħ·
å¦ĤæŀľæļĹèĥ½éĩıçļĦæİĴæĸ¥åĬĽ æĮģç»Ńå¢ŀå¼º
å¸ĮèħĬæĤ²åī§å¼ºè°ĥ å®¿åĳ½è®º
å½¢æĢģåıĳçĶŁç¼ĸç¨ĭ éĢļè¿ĩ
ä¸İçĶ± æ²īç§¯çī©åłĨç§¯
å¦ĤæŀľèĻļæĭŁçİ°å®ŀ æĪĲä¸ºèīºæľ¯
åħ¨çŁ¥ åıĻäºĭ
ä½İçļĦ åķĨåĵģ
ç²ĴåŃĲèĥ½å¤Ł ç©¿éĢı
æıĲä¾ĽäºĨåħ³éĶ® æķ°æį®
çľŁå®ŀæĢ§çļĦ å¼ºè°ĥ
å¤ĸæĺŁçĶŁåĳ½ åŃĺåľ¨çļĦ
æ½®æ±ĲéĶģå®ļ çİ°è±¡
è¾¾è¾¾ä¸»ä¹īçļĦåıįèīºæľ¯ å®£è¨Ģ
èĭ¥èĦĳæľºæİ¥åı£ èĥ½å¤Łå®ŀçİ°
åĵªäºĽæľºåĪ¶ ç»´æĮģçĿĢ
ä»İæł¹æľ¬ä¸ĬæĶ¹åıĺäºĨæĪĳä»¬å¯¹ ç²ĴåŃĲè¡Įä¸ºçļĦçĲĨè§£
ç¨ĢåľŁ åħĥç´ł
åħ±ä»·éĶ® çĽ¸äºĴä½ľçĶ¨
èĻļæĹłä¸»ä¹ī åĵ²åŃ¦
ä¸İæ²¹çĶ» ä¸įåĲĮ
åıįä¹ĮæīĺéĤ¦ æĸĩåŃ¦
ç¬¬åĽĽæ³¢å¥³æĢ§ä¸»ä¹ī çĲĨè®º
è·¨æĴĴåĵĪæĭī è´¸æĺĵç½ĳç»ľ
è¯»èĢħåıįåºĶ çĲĨè®º
äºļéĩĮå£«å¤ļå¾·çļĦ å½¢èĢĮä¸ĬåŃ¦
èĢķ ä½ľ
æĭ¿ çł´ä»
çĹĽ èĭ¦
é»Ħ åľŁ
å°¸ ä½ĵ
ä¸İåı¤åħ¸ åĬŁåĪ©ä¸»ä¹īä¸įåĲĮ
æĬ½è±¡è¡¨çİ°ä¸»ä¹īçļĦ æīĭåĬ¿
åŃ¦æľ¯æĸĩæľ¬çļĦ ä¸¥è°¨æĢ§
æĺŁéĻħæİ¨è¿Ľ æķĪçİĩ
è·¨ä»£è¡¨åŀĭ ä¼łéĢĴ
å¥ĩå¹»åħĥç´łä¸İ å¹³åĩ¡
èĽĭçĻ½è´¨æĬĺåıł æ¨¡æĭŁ
åĨ°åį«æĺŁä¸ĬçļĦä½İæ¸©çģ«å±±æ´»åĬ¨ è¡¨æĺİ
æĽ´ç²¾ç¡® åľ°
éªĳ åħµ
å¿ĥçĲĨåĽłç´ł çº³åħ¥
æ¤įè¢« è¦ĨçĽĸ
åĲİçİ°ä»£å°ıè¯´ä¸ŃçļĦ ä¸įåı¯éĿłåıĻè¿°èĢħæīĭæ³ķ
éĩıåŃĲåıłåĬłä½¿å¾Ĺ ç²ĴåŃĲåľ¨è¢«æµĭéĩıåīį
åĲİç¨Ģç¼º ç»ıæµİæ¨¡åŀĭ
èĭ¥åħ¨æģ¯åİŁçĲĨ å®ĩå®ĻåŃ¦
æµ·æ´ĭçĥŃ æĥ¯æĢ§
è¶ĬæĿ¥è¶Ĭ å¤ļ
å¼±åĮĸ ä½ľèĢħæĦıåĽ¾
ç§ĳæĬĢæĸĩæľ¬ çī¹å¾ģ
å±ķçİ°åĩºåīįæīĢæľªæľīçļĦ ç²¾ç¡®æĢ§
åĳĬè¯ī æĪĳ
21 00
æĽ´è´´ è¿ĳ
æĳ© å°Ķå®ļå¾ĭ
å·¥ä¸ļéĿ©åĳ½æĹ¶æľŁ çººç»ĩçĶŁäº§çļĦæľºæ¢°åĮĸ
ä½İæ¸©ä¿ĿåŃĺ æĬĢæľ¯
å®ªæĶ¿ åħ±åĴĮ
åĲİçİ°ä»£ä¸»ä¹īå»ºçŃĳå¯¹ åĬŁèĥ½çº¯ç²¹æĢ§çļĦ
çĶŁèĤ² çİĩä¸ĭéĻį
åı¯åıĬ æĢ§
ç¥ŀç»ıéĢĢè¡Į æĢ§çĸ¾çĹħ
åĴĮçªģè§¦åı¯å¡ĳæĢ§ æ¨¡æĭŁ
å¾ĹåĪ°æĻ®éģį éĩĩçĶ¨
å£°åŃĲ æĻ¶ä½ĵ
å¤§èĦĳåľ¨ éģŃåıĹ
GDP æ¯Ķè¾ĥ
åĶ¯å¿ĥä¸»ä¹ī ä¸įåĲĮ
å¦Ĥæŀľä¹¦ä¿¡ä½ĵå°ıè¯´ éĩįæĸ°
èĢĮç¾İå¾·ä¼¦çĲĨåŃ¦ åĪĻå¼ºè°ĥ
åİŁæľī ç¤¾åĮº
ç¥ŀç»ıèķ¾ä¸Ŀ æİ¥åı£
æ¨¡åŀĭåıĺå¾Ĺ æĽ´ä¸ºå¤įæĿĤ
éľĢè¦ģç«ĭåį³ è¿Ľè¡Į
å°ĳæķ° ç¾¤ä½ĵ
eng ineer
èĹ» ç±»
éĿĻæĢģèīºæľ¯ èĮĥå¼ı
è½¯ä»¶ ä¸ŃçļĦç®Ĺæ³ķåģıè§ģéĢļè¿ĩ
æĿ¡ä»¶çĬ¶è¯Ńä»İ åı¥
è¿ĿèĥĮ äºĨ
æĭīå¼ĹæĽ²çº¿ éĺĲéĩĬäºĨ
æ§ ĥ
å¦ĤæŀľæĻ®éģį è¯Ńæ³ķçĲĨè®º
å¦Ĥæŀľåħ¨çĲĥèĮĥåĽ´åĨħ å®ŀæĸ½åħ¨æ°ĳåŁºæľ¬æĶ¶åħ¥
åı¯èĥ½å½¢æĪĲ åĵªäºĽæĸ°åŀĭ
è¶ħé«ĺ çģµæķıåº¦çļĦ
ç§įå§ĵ åĪ¶åº¦
åĽĽåŃĹ æł¼
Ġthe ory
äº¤éĢļäºĭæķħæŃ»äº¡ çİĩ
äº¤éĢļäºĭæķħæŃ»äº¡ äººæķ°
è¤¶çļ± å±±èĦī
ä¸İæµ·æ´ĭéħ¸åĮĸ çĽ´æİ¥çĽ¸åħ³
ä¸İåĲİæŀľè®º ä¸įåĲĮ
åį³ä¾¿ åŃĺåľ¨ç»Ŀå¯¹çĶŁäº§çİĩå·®å¼Ĥ
éĺ²æĬ¤ æİªæĸ½
å¦ĤæŀľåĬłå¯Ĩè´§å¸ģçļĦæĻ®åıĬç¨ĭåº¦ è¶ħè¿ĩæ³ķå®ļè´§å¸ģ
åĵªäºĽè¿ĽåĮĸä¼ĺåĬ¿ åı¯èĥ½è§£éĩĬ
çĥŃå¸¦æ°ĶæĹĭçĶŁæĪĲéľĢè¦ģ æµ·éĿ¢æ¸©åº¦è¶ħè¿ĩ
å°ĸ éĶĲ
åŁĭ èĹı
ç»ıéªĮè¯ģ æį®
èĢĮä¹īåĬ¡è®ºä¼¦çĲĨåŃ¦ åĪĻå¼ºè°ĥ
åħ³æĢĢ ä¼¦çĲĨåŃ¦
å´©å¡Į åĬłéĢŁ
çĶŁçī©å·¥ç¨ĭèıĮä¸Ŀ ä½ĵå¤įåĲĪæĿĲæĸĻ
éĻ¡å³Ń çļĦ
å®īæıĲåŁºçī¹æĭīæľºæ¢° è£ħç½®
ä¸İéĽĨä¸Ńå¼ı äºĳè®¡ç®Ĺä¸įåĲĮ
å¯¹çİ¯å¢ĥ çļĦå½±åĵį
èĢĮæŀģç®Ģä¸»ä¹ī èīºæľ¯
åıįåĲĳ ä¼łæĴŃ
éĩıåŃĲè®¡ç®ĹåĪ©çĶ¨ åıłåĬłæĢģ
æĸ°åŀĭéĩıåŃĲè®¡ç®Ĺ æĸ¹æ³ķ
plic ations
çº¢ç§»è§Ĥæµĭ çİ°è±¡
æĭĵæīĳç»Ŀç¼ĺä½ĵçļĦè¡¨éĿ¢å¯¼çĶµ çī¹æĢ§
æĸ°èīºæľ¯è¿ĲåĬ¨çļĦæľīæľºå½¢æĢģ ä¸İåĮħè±ªæĸ¯åĬŁèĥ½ä¸»ä¹ī
éĩıåŃĲå¯ĨéĴ¥åĪĨåıĳåĪ©çĶ¨éĩıåŃĲçºłç¼ł åİŁçĲĨ
ä¸İæ³ķåĽ½å¤§éĿ©åĳ½ ä¸įåĲĮ
æĮĸ çŁ¿
æĿĥéĩį è°ĥæķ´
å¥ī è¡Į
åĢĺèĭ¥æ³Ľå¿ĥè®º æĪĲç«ĭ
åŁºäºİè´£ä»» çļĦéģĵå¾·ä¹īåĬ¡
ç¬¦åĲĪä¸Ńæĸĩç¤¾ç§ĳ è®ºæĸĩçļĦ
å²©æº¶ åľ°è²Į
å¾ªçİ¯ä¸Ńå½¢æĪĲ æŃ£åıįé¦ĪæľºåĪ¶
çļĦå½¢æĪĲæĺ¯ çĶ±äºİ
é©¬å°Ķ åħĭæĸ¯
æĬĬåħ³ æľºåĪ¶
æĬĳæī¬ æł¼
ä¼°ç®Ĺéĵ¶æ²³ç³» ä¸Ń
ç½©æŁĵ æĬĢæ³ķ
è´¨æĸĻä¸İ å½¢å¼ıçļĦ
çļĦèĩªåıĳ æĢ§
åıĶ æľ¬åįİ
èĢĮåĨ²çªģ çĲĨè®ºåĪĻ
å¦ĤæŀľæļĹèĥ½éĩı çļĦå½±åĵį
æįķæįīçŀ¬æģ¯ä¸ĩåıĺ çļĦåħīå½±æķĪæŀľ
å®¢è§Ĥä¼¦çĲĨ çľŁçĲĨ
éĺ¶çº§åĪĨå±Ĥ ä¸įåĲĮ
èľ¡ çĶ»
æĪĲå¹´äºº å¤§èĦĳ
Ġnarra tives
Ġtech ni
å±±éºĵ åľ°å¸¦
æİ© çĽĸ
ä½¿åĪĽä½ľ æĿĥ
ä¼ĺè¶Ĭ æĢ§
æĹłæįŁèĢĹ çļĦ
åħĥèĻļæŀĦ æīĭæ³ķ
å¿ĥçĲĨåģıå·® çº³åħ¥
æĭŁäºº åĮĸ
å¯ĮèĲ¥åħ» åĮĸ
è¶ħå¯¼ç£ģ ä½ĵ
æĹłéľĢä¿¡ä»» çļĦäº¤æĺĵ
èĽĭå½© çĶ»
æĿ°åħĭ éĢĬ
å®īæħ°åīĤ æķĪåºĶ
åı¤è¿ĳçºª çģŃç»Ŀäºĭä»¶
ä¸İåħīåŃ¦æľĽè¿ľéķľ çĽ¸æ¯Ķ
éģĵä¹ī è®º
æīĢä¸į åħ·å¤ĩ
åĵ²åŃ¦åĥµå°¸ æĢĿæĥ³å®ŀéªĮ
åıĮæĸ¹ åľ¨
æłĳçªģ çĬ¶ç»Ĩèĥŀ
å®Įå¥½æĹłæįŁ åľ°
æĭĽèģĺå¹³åı° ä¸ŃçļĦç®Ĺæ³ķåģıè§ģéĢļè¿ĩ
èĸª éħ¬
æŀ¢ çº½
æİº æĿĤ
èĢĮåı¦ ä¸ĢäºĽ
æ¶ħ æ§ĥ
ynam ics
kn ow
åĲİæķ°åŃĹ ç¾İåŃ¦
ç²¾æ¹ Ľ
unpreced ented
ä¸İçĶ±æ²īç§¯çī©åłĨç§¯ å½¢æĪĲçļĦåĨ²ç§¯å¹³åİŁä¸įåĲĮ
åĲİçİ°ä»£ä¸»ä¹īå»ºçŃĳå¯¹åĬŁèĥ½çº¯ç²¹æĢ§çļĦ æĳĴå¼ĥ
U åŀĭ
V R
a ve
a de
c ur
d ic
i fic
l ing
o c
o und
p ri
t ent
t abil
u al
æ ¦
Ġ 3
Ġ as
Ġ è¡Įä¸ļ
Ġ æľ¯è¯ŃåĩĨç¡®æĢ§
Ġ âĻª
ĳ å¸ĥ
Ĵ åį±
ĵ å°¼
ä¸ ĥ
çļ Ĩ
çļĦ è¡¨çİ°
çļĦ çĤ¹
çļĦ æµ·æ´ĭ
çļĦ çŁ¥è¯Ĩ
çļĦ ä½¿çĶ¨
çļĦ çº¿æĢ§
çļĦ è¿Ľç¨ĭ
çļĦ èŀįåĮĸ
çļĦ åĩıå°ĳ
çļĦ åĬ¨åĬĽåŃ¦
çļĦ èĢĹ
çļĦ èĩªä¸»
çļĦ è¯łéĩĬ
çļĦ æĹ¥çĽĬ
çļĦ åı¤ä»£
çļĦ å¹¶ç½®
çļĦ æī©å¼ł
çļĦ ç¥ŀç»ıåı¯å¡ĳæĢ§
çļĦ å»¶è¿Ł
çļĦ çĽ¸åħ³æĢ§
çļĦ å±ĢéĻĲ
çļĦ æııè¿°
çļĦ çĽ®çļĦ
çļĦ åıĻè¿°
çļĦ ä¸Ģç§į
çļĦ å¹»çģŃ
çļĦ åĨħåľ¨
çļĦ è¡¨çİ°æīĭæ³ķ
çļĦ å®ŀéĻħåºĶçĶ¨
çļĦ è§£åĨ³æĸ¹æ¡Ī
çļĦ å®Įæķ´æĢ§
çļĦ åľ°çĲĥåĮĸæĶ¹éĢł
çļĦ åľ°æĸ¹
çļĦ çĶµç£ģæ³¢æĵįæİ§
çļĦ åı¥æ³ķç»ĵæŀĦ
çļĦ èĦ±éĴ©
çļĦ åĪ»çĶ»
çļĦ åħ³èģĶæĢ§
çļĦ åģļæ³ķ
çļĦ èĻļåģĩ
ç» µ
åŃ ķ
å® «
åĲ ŀ
å¯ Ĥ
ï¼Ł âĢĿ
åŃ¦ æł¡
åº ¸
æĢ§ å·®å¼Ĥ
åľ¨ åľ°
åľ¨ ä¼¦çĲĨ
åľ¨ è¯Ńè¨Ģ
åľ¨ æĹ¶éĹ´
åľ¨ æ®ĸæ°ĳ
åľ¨ å·¥ä¸ļ
åľ¨ åĲİæ®ĸæ°ĳ
åľ¨ é¢Ħæµĭ
åľ¨ è®¤è¯Ĩè®º
åľ¨ ä¿ĿçķĻ
åľ¨ åħ¨çĲĥåĮĸ
åľ¨ æķ°åŃĹåĮĸ
åľ¨ åĮºåĪĨ
åľ¨ å¾®è§Ĥ
åľ¨ é«ĺåº¦
åľ¨ ç¦»æķ£
åľ¨ åħ¨çĲĥåıĺæļĸ
åľ¨ è¡¡éĩı
åľ¨ éĩİçĶŁç§įç¾¤ä¸Ń
ä¸Ń éĢļè¿ĩ
ä¸Ń äº§çĶŁ
åĮĸ åĲĪçī©
äºĨ ä»ĸ
äºĨ æĢİæł·çļĦ
äºĨ ä¸Ģä¸ª
äºĨ å¥¹
äºĨ éĶĤç¦»åŃĲçĶµæ±łçļĦå±ĢéĻĲæĢ§
çī ¢
è¿ĩ çļĦ
å®ŀ æĪĺ
ä¸İ ä¼¦çĲĨ
ä¸İ åŁºåĽł
ä¸İ æ²īç§¯
ä¸İ çĲĨæĢ§
ä¸İ è§Ĩè§ī
ä¸İ ç¾İåŃ¦
ä¸İ åħ±ä»·éĶ®
ä¸İ ä¼ĳéĹ²
ä¸İ åŁĥåıĬ
ä¸İ ç½Ĺé©¬å¸ĿåĽ½çļĦ
ä¸İ æ³¨æĦıåĬĽæĮģç»ŃæĹ¶éĹ´ç¼©çŁŃ
çĶŁ ä¿±
çĽ Ī
éĢļè¿ĩ åĪĨæķ£
éĢļè¿ĩ èĩªæĪĳæĮĩæ¶ī
éĢļè¿ĩ ä¸ĵä¸ļåĮĸçĶŁäº§
å¯¹ æĬĢæľ¯
å¯¹ è¯Ńè¨Ģ
å¯¹ æĸĩåĮĸ
å¯¹ çĶŁæĢģç³»ç»Ł
å¯¹ é½Ĳ
å¯¹ æĪĳä»¬çĲĨè§£
åĨ ¥
åĨ ¬
åı¯ ä¸İ
åı¯ ç©¿
åı¯ æĻ®éģįåĮĸ
è®º ä¸»å¼ł
å¦Ĥä½ķ çªģçł´
å¦Ĥä½ķ åıĺéĿ©
å¦Ĥä½ķ æŀĦå»º
å¦Ĥä½ķ ç³»ç»ŁæĢ§åľ°
ä½ĵ åĬĽ
ä¸º æľ¬
ä¸º çī¹å¾ģçļĦ
ç»ı å¸¸è¿ĲçĶ¨
æŀľ èĮ
ä¼ļ éĩĬæĶ¾
ä¸į éĢıæ°´
å°Ĩ CRISPR
å°Ĩ äººç±»æ´»åĬ¨
å°Ĩ å¤§å¹ħ
å°Ĩ å¸ĮèħĬæĤ²åī§
å°Ĩ èĭ±æĸĩ
å°Ĩ æĭľåįłåºŃåľ£åĥıèīºæľ¯ä¸İ
æĪĲ äºĨ
çº ·
åĲĮ å±ŀ
åĲĮ åłĤ
äºº åĶ¯
å¿ į
å®ŀçİ° å®Įç¾İ
å®ŀçİ° åİŁåŃĲçº§ç²¾åº¦
å®ŀçİ° å®¤æ¸©è¶ħå¯¼
å½¢ ä¼¼
å¦Ĥæŀľ åľ¨åħ¨çĲĥèĮĥåĽ´åĨħå®ŀæĸ½
å¦Ĥæŀľ è¾¹ç¼ĺè®¡ç®Ĺ
å¦Ĥæŀľ ç¤¾ä¼ļä¿¡çĶ¨ä½ĵç³»
å¦Ĥæŀľ å¼ķåĬĽæ³¢
å¦Ĥæŀľ æĬĢæľ¯å¥ĩçĤ¹
å¦Ĥæŀľ ä¸Ńå¾®åŃĲæĮ¯èį¡æ¨¡å¼ı
åĪĨ èī²
åĪĨ éĩİ
åı¯èĥ½ æ¯Ķ
åı¯èĥ½ åĬłéĢŁ
åı¯èĥ½ éĢĨè½¬
åı¯èĥ½ å¦Ĥä½ķæĮĳæĪĺä¼łç»Ł
åı¯èĥ½ ä»¥ä½ķç§į
æľī æĹ¶
æľī åĪ©
æľī ä¸ª
æĬĢæľ¯ çī¹å¾ģ
æĬĢæľ¯ çĽ¸æ¯Ķ
æĬĢæľ¯ åıĳå±ķçļĦ
èĩ Ĥ
çĽ¸ åıĺ
çĽ¸ åıį
çĽ¸ æķ´åĲĪ
æľ¬ èĥ½
æľ¬ ä¸ĸçºªä¸Ńåı¶
ä¸ŃçļĦ ç¡®è®¤åģıè¯¯
ä»£ äºº
ä»£ åĲĮåłĤ
æ¯ ķ
ä½ľ çī©ç§į
èĢĮ åĬłéĢŁ
èĢĮ å¯¼èĩ´
èĢĮ æĹłéľĢ
èĢĮ ä¾Ľç»ĻåŃ¦æ´¾
èĢĮ æĿ¥çļĦ
èĢĮ ç«ĭä½ĵæ´¾
åĲĪ çī©çļĦ
å¤§ æ¦Ĥ
ç»ĵ è®º
åŃĺ äº¡
åŃĺ æ¡£
æ¯Ķ å¦Ĥ
æ¯Ķ èµĽ
éĩį éĩı
éĩį è´Ł
éĩį æĭ¾
ä¸įåĲĮ äººåı£ç¾¤ä½ĵ
åĲİ åĭ¤
åħ¨ æĻ¯
ä¼łç»Ł è§Ĥå¿µ
ä¼łç»Ł åĬ³åĬ¨åĬĽå¸Ĥåľº
æĦı è¯ĳ
æĦı èķ´
æĭ ĸ
çĶŁçī© è¿ĽåĮĸ
çĶŁçī© åľ°çĲĨ
çĶŁçī© ä¿®å¤į
çĶŁçī© ä¿ĿçľŁåº¦
çĶŁçī© åľ°çĲĨåŃ¦
åĩº çļĦ
åĩº åİ»
èµ ı
åħ³ ä¹İ
å®ļ éĩı
éĩıåŃĲ ç¥ŀç»ıç½ĳç»ľ
éĩıåŃĲ éĢļä¿¡ç½ĳç»ľ
èĭ¥ éĢļè¿ĩ
èĭ¥ éĩıåŃĲè®¡ç®Ĺ
èĭ¥ è¶ħæĿĲæĸĻ
èĭ¥ äººå·¥æĦıè¯Ĩ
èĭ¥ å¤ĸéª¨éª¼
èĭ¥ å¾®çĶŁçī©ç»Ħ
èĭ¥ è´ŁåĪ©çİĩæĶ¿çŃĸ
èĩª ä¼ł
æµģ éĢŁ
ä»¥ åīį
æĽ´ ç¨³å®ļ
æĽ´ å¥ĳåĲĪ
å½±åĵį åħ¨çĲĥ
æĸ° è¾¾å°Ķæĸĩ
æĸ° é¢ĸ
æį ·
åİŁ æľīçļĦ
ç¥ŀç»ı éĢĴ
ç¥ŀç»ı ä¿¡åı·
ç¥ŀç»ı è§£çłģ
ç»ıæµİ æķĪçİĩ
ç»ıæµİ æĮĩæłĩ
ç»ıæµİ äº§åĩº
è´¨ åĽłæķ°åĪĨè§£
åŃĺåľ¨ æł¹æľ¬æĢ§
åŃĺåľ¨ åĵªäºĽå·®å¼Ĥ
è§Ĥ çľĭ
åĵªäºĽ æĸ¹å¼ı
åĵªäºĽ ç¥ŀç»ıåı¯å¡ĳæĢ§
åĵªäºĽ è¡Įä¸ļ
åĵªäºĽ äººç±»åŃ¦
æĺ¯ ä¸Ģä¸ª
çĶµ ç»ĵæŀĦ
æĿ¥ æĺłå°Ħ
æĿ¥ ä¼°ç®Ĺ
æĿ¥ æĺłçħ§
æĿ¥ é¢łè¦Ĩæ¬§æ´²ä¸Ńå¿ĥä¸»ä¹īçļĦåİĨåı²
æĿ¥ åĪ¶å®ļçŃĸçķ¥
åĴĮ è®¤çŁ¥
åĴĮ ä½ł
åĴĮ åľ°å¹Ķå¯¹æµģ
åĴĮ æĥħç»ªè°ĥèĬĤèĥ½åĬĽ
æĺİ å¤©
æĺİ äº®
äºĭ çī©
éĿŀ åĲĪä½ľ
éĿŀ åħ·è±¡èīºæľ¯
éĿŀ æŃ£è§Ħ
ç¤¾ä¼ļ å¥ĳçº¦
èīºæľ¯ è¡¨è¾¾
èīºæľ¯ å¦Ĥä½ķéĢļè¿ĩ
èīºæľ¯ å¸ĤåľºçļĦ
èīºæľ¯ æµģæ´¾
èīºæľ¯ ä¿ĿæĬ¤å®ŀè·µ
æĮĳæĪĺ æĦŁçŁ¥
å¿ĥ ç¥ŀ
æĶ¹ åĨĻ
å½¢æĪĲ ä¿¡æģ¯èĮ§æĪ¿
ä¼¦ æķ¦
å¤į çĶ¨
è®¡ç®Ĺ éĢŁåº¦
è¦ģ å®ŀçİ°
ä½¿ è¡Įæĸĩ
æ°ĳ ä¼Ĺ
ä¼¦çĲĨ çķĮéĻĲ
ä¼¦çĲĨ å§Ķåĳĺä¼ļ
æĪĳ ä¸º
æĪĳ å¾Ĺ
æĪĳ è¦ģ
æĪĳ éľĢè¦ģ
æĪĳ ä¹Ł
æĪĳ è¿ĺ
ä¸Ģ è´¯
å¤ļ å±Ĥæ¬¡
å¤ļ æ¨¡æĢģ
å¤ļ åŁºåĽłçĸ¾çĹħ
çĲĥ åľ°çĲĥ
ä¹ĭ è§ģ
ç½ĳç»ľ æĭĵæīĳ
èĥ½å¤Ł è¿Ľè¡Į
èĥ½å¤Ł ç²¾ç¡®
æ¨¡åŀĭ éĺĲéĩĬäºĨ
éĩĩ çº³
æľºåĪ¶ ä¸İ
æľºåĪ¶ åĴĮ
æľºåĪ¶ è§£éĩĬ
æľºåĪ¶ å¯¼èĩ´
åĲ¦ è®¤
è¯´ è¯Ŀ
åıĻäºĭ åĬŁèĥ½
æµ· å¾·
åĪĻ åı¯èĥ½
åĪĻ ä¼ĺåħĪ
åĪĻ è¿ĲçĶ¨
åĪĻ çĿĢåĬĽ
åĿ ĳ
æĿĥ æ¡Ĩæŀ¶
åīį æĿ¥
åīį æ²¿
åīį æ®ĸæ°ĳæĹ¶æľŁ
åĪ° ä½ł
çİ°ä»£ å·¥ä¼ļ
äººç±» ä¸ĸçºª
äººç±» å¯¿åĳ½
äººç±» ä¸İçİ¯å¢ĥ
å°Ĩå¦Ĥä½ķ æĮĳæĪĺ
åĨħ åµĮ
çİ°å®ŀ çļĦè®¤çŁ¥æĦŁçŁ¥
æĦıè¯Ĩ æ¨¡åŀĭ
æł¹ ç³»
æł¹ æ¤į
è®¤çŁ¥ èĩªçĶ±
è¡Įä¸º åıįåºĶ
è¡Įä¸º çŁ«æŃ£
çĸ Ĩ
è¿ĩç¨ĭ å®ŀçİ°
è¿ĩç¨ĭ è§£éĩĬ
è¿ĩç¨ĭ åĵ²åŃ¦
ä»İ å°ģå»ºåĪ¶åº¦
ä»İ çĤ¼éĩĳæľ¯
åıĳå±ķ èµ·æĿ¥
å¼ķåıĳ éĢłå±±
å¼ķåıĳ å¼ºçĥĪåľ°éľĩæ´»åĬ¨
è¿Ĳ æ²³
åŁŁ çļĦ
åħ¨çĲĥ çĥŃéĩı
åħ¨çĲĥ è´¸æĺĵç½ĳç»ľ
è¿Ļ æĺ¯åĲ¦
è¿Ļ å°±
è¿Ļ ä¼ļå¦Ĥä½ķ
è¿Ļ å°Ĩå¦Ĥä½ķéĩįæĸ°å®ļä¹ī
èĢĮéĿŀ çĶµèį·
èĢĮéĿŀ ä»¥äºĭä»¶
ç»´ æŀľèĮ
æīĢ æĮĩ
æīĢ è°ĵ
é© ¯
åı¯èĥ½ä¼ļ æĺ¾èĳĹ
åı¯èĥ½ä¼ļ ä¸įåı¯éĢĨè½¬åľ°æĶ¹åıĺ
äºļ çĥŃå¸¦
äºļ æĿ°
éķ¿ å®ĺ
éľĢè¦ģ åľ¨
éľĢè¦ģ éĢļè¿ĩ
éľĢè¦ģ å¯¹
éľĢè¦ģ åħĭæľį
è¢« æī¿
é«ĺ é£İéĻ©
é«ĺ æ¦Ĥçİĩ
è¯Ńè¨Ģ å¯¹
ä½ĵç³» éĢļè¿ĩ
åħ¶ åľ°ä¸ĭ
çĶŁæĢģ ä¿ĿæĬ¤
çĶŁæĢģ æ¼ĶæĽ¿
åĽ¾ è¡¨
æĸĩåĮĸ å·®å¼Ĥ
æĸĩåĮĸ è®¤åĲĮ
éħ ·
åĪĨæŀĲ æ¡Ĩæŀ¶
åĲĮæĹ¶ ä½¿
åĲĮæĹ¶ åĬłåī§äºĨ
åĲĮæĹ¶ åĩıå°ĳ
ä¹ł ä¿Ĺ
çª Ħ
æĹ¶éĹ´ æĢ§çļĦ
æĹ¶éĹ´ åĪĨéħį
è§£éĩĬ æĢ§
æĸ¹æ³ķ å°Ĩ
æĸ¹æ³ķ ä½ĵç³»
åĨ² åİĭ
çİ°è±¡ å®ŀçİ°
æĥħ å½¢
çİ¯å¢ĥ ä¸İ
éģĵå¾· åĵģè´¨
æĮĩ ä»¤
èĤ ¿
èĤ ł
èĤ ²åŃ¦
åĪĽ ä½ľèĢħ
çłĶ åĪ¶
è´§å¸ģ ä½ĵç³»
è´§å¸ģ ä¸»æĿĥ
è¿Ľè¡Į è§£æŀĦ
æĿĲæĸĻ ç¨Ģç¼º
æ¯Ķè¾ĥ ç»ĵæŀĦ
è¡¨çİ° èĢĮéĿŀ
çºª å¿µ
éĥ ģ
èĥ½åĬĽ çļĦåıĳå±ķ
ä¾Ŀ æīĺ
ä¾Ŀ éĻĦ
çłĶç©¶ éĢļè¿ĩ
çłĶç©¶ è·¯å¾Ħ
åĬłéĢŁ èŀįåĮĸ
åŁİå¸Ĥ ä¸Ńäº§
åĬłåī§ æĦıè¯Ĩå½¢æĢģæŀģåĮĸ
æķ°æį® æºĲ
æĢ§çļĦ æ¦Ĥå¿µ
åı¥ è¯Ŀ
å¹¿ çļĦèī²åŁŁ
ä½ł ä¼ļ
åĨľ ä½ľçī©çļĦ
ä¾Ľ éľĢ
ç§ĳåŃ¦ è¿Ľç¨ĭ
ç§ĳåŃ¦ äº¤æµģ
éĶ Ŀ
åĵ²åŃ¦ åĪĻ
çİ°ä»£ä¸»ä¹ī ç¢İçīĩåĮĸæīĭæ³ķ
å®ĩå®Ļ ç»ĵæŀĦ
å®ĩå®Ļ å¾®è°ĥ
äº§çĶŁ çŁĽçĽ¾
äº§çĶŁ äºĨä½ķç§į
æĺ¯åĲ¦ éĢļè¿ĩ
æĺ¯åĲ¦ å¿ħé¡»
æĺ¯åĲ¦ ä»įçĦ¶
æĺ¯åĲ¦ åīĬå¼±äºĨä¼łç»Ł
åŁºç¡Ģ çī©çĲĨ
æķĻ æĿ¡
åĢĺèĭ¥ åĲĪæĪĲçĶŁçī©åŃ¦
åĢĺèĭ¥ éĩıåŃĲåĬłå¯Ĩ
åĢĺèĭ¥ åĪĨåŃĲçº³ç±³æĬĢæľ¯èĥ½å¤Łå®ŀçİ°
çĬ ¹
å¹´ åĲİçļĦ
èĥ½éĩı çĬ¶æĢģ
èĥ½éĩı æįŁèĢĹ
ä¿¡æģ¯ çĶŁæĢģç³»ç»Ł
ä¿¡æģ¯ çº§èģĶ
ä¿¡æģ¯ çļĦä¼łæĴŃ
ä¿¡æģ¯ å®Įæķ´æĢ§
ä¿¡æģ¯ çĨµ
ä¿¡æģ¯ æĬĢæľ¯èİ·åıĸ
åħĭ è¥¿
åħĭ èĭı
èĥ½å¤Łå®ŀçİ° åķĨä¸ļåĮĸåºĶçĶ¨
èĥ½åĲ¦ åħĭæľį
åĨľä¸ļ ç¤¾ä¼ļ
åģĩ å¦Ĥ
æ¿ Ĵåį±
éĩįæĸ° å¼ķåħ¥
ä¹ĭéĹ´çļĦ çĽ¸åħ³æĢ§
æıŃç¤ºäºĨ åľ¨
æľ¯è¯Ń ä½ĵç³»
æĶ¿æ²» å¨ģæĿĥ
ç¦» çł´ç¢İ
ti tu
ti que
é¦ Ļ
å¹¿æ³Ľ ä¼łæĴŃ
å¸ĥ éĽ·
å¿ĥçĲĨ å½±åĵį
éĹ®é¢ĺ è§£åĨ³
èĥ½æºĲ ä¾Ŀèµĸ
èĥ½æºĲ çļĦä¾Ŀèµĸ
èĥ½æºĲ éĩĩéĽĨ
CRISPR åŁºåĽłé©±åĬ¨æĬĢæľ¯
åĨ³çŃĸ ä¸ŃçļĦ
åĨ³çŃĸ ç³»ç»Ł
åĨ³çŃĸ æ¨¡å¼ı
åĨ³çŃĸ æ¨¡åŀĭä¸Ń
åĨ³çŃĸ è¿ĩç¨ĭä¸ŃçļĦ
ä¸»å¼ł çļĦ
æĺ¾èĳĹ æĶ¹åıĺäºĨ
æĺ¾èĳĹ åĪĨæŃ§
æĻºèĥ½ ä½ĵ
å²© å±Ĥ
ç©ºéĹ´ æ·±åº¦
ç©ºéĹ´ æ³ķå¾ĭæ¡Ĩæŀ¶
é£İ èļĢ
æµ·æ´ĭ çĽĨåľ°ä¸ŃçļĦ
æĶ¾ ä»»
å¾Ĺä»¥ è¯ģå®ŀ
å¾Ĺä»¥ å¹¿æ³ĽåºĶçĶ¨
èĤ² æľįåĬ¡
çī©çĲĨ çİ°å®ŀ
çī©çĲĨ è¿ĩç¨ĭ
ç¨³ æĢģ
çŁ¥è¯Ĩ äº§çĶŁäºİ
çŁ¥è¯Ĩ å·¥ä½ľèĢħ
çŁ¥è¯Ĩ çļĦå¹¿æ³Ľä¼łæĴŃ
åĨ° æĸĹ
åĨ° ç¢Ľ
åľ°è²Į åŃ¦
è®® é¢ĺ
å¢ŀå¼º ä¸Ńæĸĩ
å¢ŀå¼º è¿ĺæĺ¯
on s
on ial
éĢī æ°ĳ
æł¸ èĥ½
æł¸ å¨ģ
æł¸ è£Ĥåıĺ
éĥ¨ èĲ½
åĩı æĿĲ
åİĨåı² è§Ĥ
æĸĩèīºå¤įåħ´ æ¹¿å£ģçĶ»
æĸĩèīºå¤įåħ´ èĩªçĦ¶ä¸»ä¹ī
åıĺåĮĸ ä¸İ
åĽłç´ł å¯¼èĩ´
ä¸»ä¹īçļĦ è¯Ńè¨Ģéľ¸æĿĥ
å¤§æ°Ķ åİĭåĬĽ
å¤§æ°Ķ æĶ¹éĢł
éĵ¾ æĸŃè£Ĥ
åŃ¦ä¹ł è¿ĩç¨ĭ
åįı åĬ©
æł¹æľ¬æĢ§ æĶ¹åıĺ
æł¹æľ¬æĢ§ éĩįç»Ħ
åĲİæ®ĸæ°ĳ çĲĨè®º
åĲİæ®ĸæ°ĳ æĹ¶æľŁ
è¡ĮæĺŁ åį«æĺŁ
èµĦæºĲ åĪ©çĶ¨
ä»į ä¿ĿçķĻ
ä»į ä¿ĿæĮģç»Ŀç¼ĺ
æ°¸ åĨ»åľŁ
åıĹ æĺĨèĻ«
è®¾è®¡ èĮĥå¼ı
æıĲä¾Ľ æĮĩå¯¼
æıĲä¾Ľ çĲĨè®ºä¾Ŀæį®
äºī ç«¯
æĵ ¦
æŁ ¯
æĬĢæľ¯çļĦ å¹¿æ³ĽåºĶçĶ¨
èī²å½© æĮ¯åĬ¨
å°½ç®¡ åħ¶
è¾ĵ çĶµ
ç£ģ åĬĽ
åħ·æľī åīįæīĢæľªæľīçļĦ
as c
åĬ³åĬ¨ ç»Ħç»ĩ
ä¸´ æĹ¶
æĦŁçŁ¥ åĪ°çļĦ
èģļ å±ħ
ç¿»è¯ĳ è¦ģæ±Ĥ
ç¿»è¯ĳ ä¿ĿæĮģäºĨ
ä»İèĢĮ åĬłéĢŁ
ä»İèĢĮ æĶ¹åıĺäºĨ
ä»İèĢĮ åĬłåī§äºĨ
ä»İèĢĮ åĩıå°ĳ
ä»İèĢĮ å½»åºķæĶ¹åıĺ
åħ³äºİ æĦıè¯Ĩ
ä¼ĺåħĪ æĢ§
å¼± åħ³ç³»
å®¤ åĨħ
åĨ» ç»ĵ
æĭī ä¼¯
éħį æĸ¹
å¾ĹåĪ° æĺ¾èĳĹ
å¾ĹåĪ° ç¼ĵè§£
å¾ĹåĪ° ç»ıéªĮéªĮè¯ģ
æ°¸ä¹ħ æĢ§çļĦ
ä»» äººåĶ¯
åĲİæŀľ ä¸»ä¹īçļĦ
åĽ½å®¶ åĤ¨å¤ĩ
ä¸ĬçļĦ æĮĳæĪĺ
è¿ĳ ä¹İ
æĭĵæīĳ éĩıåŃĲåľºè®º
è®¤è¯Ĩè®º åį±æľº
ç²¾åĩĨ è°ĥæİ§
åĩłä½ķ ç»ĵæŀĦ
åį°è±¡æ´¾ ç»ĺçĶ»
æ·· èī²
åı¯ä»¥ å®ŀçİ°
åı¯ä»¥ åĲĮæĹ¶å¤Ħäºİå¤ļç§įçĬ¶æĢģ
åĪĨåŃĲ ç»ĵæŀĦ
è¶ħè¶Ĭ äºĨä¼łç»Ł
è¶ħè¶Ĭ åĨ¯
è¶ħè¶Ĭ äººç±»è®¤çŁ¥èĥ½åĬĽ
é©¬ ä¸Ĭ
è´Ł ç¢³
è´Ł è´£
è´Ł è´¨éĩı
åħīåŃĲ æİ¨è¿Ľç³»ç»Ł
å»ºçŃĳ ä¸Ń
å»ºçŃĳ ç»ĵæŀĦ
å»ºçŃĳ ç©ºéĹ´
in t
ä¸ĵä¸ļæľ¯è¯Ń åĩĨç¡®æĢ§
æĮĳæĪĺäºĨ ç»ıåħ¸
åĬłåī§äºĨ æķĻèĤ²
åĬłåī§äºĨ æĶ¶åħ¥ä¸įå¹³çŃī
åĬłåī§äºĨ æĸĩåĮĸåĲĮè´¨åĮĸ
å¯Ĩçłģ å®īåħ¨
ä¹Ł ä½¿
ä¸įåı¯ éģ¿åħį
åİĭ çĶµ
è®° è´¦
ä¸»å¯¼ çĶ»å»Ĭ
æľīæķĪ åĪ©çĶ¨
è¡Įä¸ºç»ıæµİåŃ¦ ä¸ŃçļĦ
åĸĢæĸ¯çī¹ åľ°å½¢
ä»İæł¹æľ¬ä¸Ĭ éĩįæĸ°å®ļä¹īäºĨ
æ£ Ĵ
æ£ ļ
æİĴ åºı
æĽ´ä¸º è¿ħéĢŁ
èĦĳæľºæİ¥åı£ çļĦå¹¿æ³ĽéĩĩçĶ¨
åĮºåĿĹéĵ¾ æĬĢæľ¯åľ¨
åĮºåĿĹéĵ¾ æŀ¶æŀĦéĢļè¿ĩ
é² ¸
æĪĸå°Ĩ éĩįæĸ°å®ļä¹ī
æĪĸå°Ĩ æĪĲä¸ºåı¯èĥ½
æĬĹ æĭīå¼ºåº¦
ç¨ĭåº¦ å¦Ĥä½ķ
è¿ĲçĶ¨ ä¸Ĭ
è¿ĽåĮĸ å¿ĥçĲĨåŃ¦
è°ĥæİ§ è´§å¸ģä¾ĽåºĶéĩı
åħ·å¤ĩ èĩªä¸»
åĮĸåŃ¦ åıįåºĶ
çŁĽçĽ¾ æĢ§
çŁĽçĽ¾ åħ³ç³»
éŁ ¦
åľ°çĲĥ ç¨ĢåľŁéĩĳå±ŀ
åĩ¯æģ©æĸ¯ä¸»ä¹ī æ¨¡åŀĭ
åıĺå¾Ĺ æĻ®åıĬ
å¿« ä¹Ĳ
æľ¬è´¨ ä¸»ä¹īçļĦ
äºĴåĬ¨ çļĦ
æĵįæİ§ çĶµç£ģæ³¢ä¼łæĴŃ
å§ »
çĶµåŃĲ è®¾å¤ĩ
åķĨä¸ļ ç½ĳç»ľ
éķ¿æľŁ æİ¥è§¦
æĿĥåĬĽ å¤±è¡¡
åĬŁèĥ½ çļĦ
äººåı£ è¿ģç§»
è°ĥåĴĮ éĩıåŃĲåĬĽåŃ¦ä¸İå¹¿ä¹īçĽ¸å¯¹è®º
æ°¸ä¹ħåĨ»åľŁ éĢĢåĮĸ
æ°¸ä¹ħåĨ»åľŁ çļĦèŀįåĮĸ
æĦıè¯Ĩæµģ åĨĻä½ľ
æ½ľ èĹı
åĢŁ éī´
ç»Ĩ å¾®
æľīæľĽ æıĲä¾Ľ
æľīæľĽ æ¶ĪéĻ¤
çĮ ª
å±ĤéĿ¢ ä¸Ĭ
å¦Ĥä½ķæĮĳæĪĺ åħ³äºİ
å¦Ĥä½ķæĮĳæĪĺ æ°ĳæĹıåĽ½å®¶
å¦Ĥä½ķæĮĳæĪĺ æ¬§åĩłéĩĮå¾Ĺ
æĽ´é«ĺ åĪĨè¾¨çİĩ
ä¸ªäºº è´£ä»»
ä¸ºä½ķ éĩįåķĨä¸»ä¹īæĶ¿çŃĸ
æĶ¯ æŀ¶
æĶ¯ ä»ĺ
æĶ¯ ç¦»çł´ç¢İ
åģĩè®¾ åŃĺåľ¨
åĬłå¯Ĩè´§å¸ģ å¸Ĥåľº
çĶŁæĪĲ çģ«å±±å¼§
çº³ç±³ æĬĢæľ¯
çº³ç±³ çº§
åĲİçİ°ä»£ æĸĩåŃ¦ä¸ŃçļĦ
åĨħå®¹ ä¼ĺåħĪ
éĢŁåº¦ åĬłå¿«
ä»ĭ çĶµç»ĵæŀĦ
éĥ½ åºĶ
éĥ½ è¿½æ±Ĥ
è¡° è´¥
ç»ıéªĮ æĢ§
æİ§åĪ¶ ç®Ĺæ³ķ
æİ§åĪ¶ è´§å¸ģä¾ĽåºĶéĩı
æ» ©
åı¯èĥ½ä¼ļå¦Ĥä½ķ åıĺéĿ©
èĩªçĶ± åĮĸ
çĶµç£ģ çī¹æĢ§
çĶµç£ģ éļĲèº«
çĶµç£ģ åĵįåºĶ
éĢŁçİĩ åĴĮ
éĢŁçİĩ åĬłå¿«
å®Įæķ´ ä¼łè¾¾
åĪĽæĸ° æĢ§
åĪĽæĸ° æī©æķ£
å®ŀè·µ è·¯å¾Ħ
æ²³æµģ ç³»ç»Ł
èĪª è¿Ĳ
å¤ªéĺ³èĥ½ æĶ¶éĽĨ
åľ°ç¼ĺæĶ¿æ²» ç´§å¼ł
åĪĽä½ľ è¿ĩç¨ĭ
è¿Ļä¸Ģ çī¹æĢ§
å¹²é¢Ħ çļĦåı¯èĥ½æĢ§
æĤ² åĸľ
èº«ä»½ å½¢æĪĲ
çī©ç§į ä¸Ń
çī©ç§į å¤įæ´»
èĩªæĪĳ ä¿®å¤į
åħ¨æģ¯ æķ°æį®åŃĺåĤ¨
å¸¦æĿ¥ éĿ©åĳ½æĢ§åıĺéĿ©
åħħ æ»¡
åĪĩ åī²
å¾Ģå¾Ģ æºĲäºİ
éŁ³ æŃ¥
éĿĴ å¹´
ç¼© å°ı
èħ ĵå°¼
åŃĺåľ¨ä¸»ä¹ī åħ³äºİ
çĶŁåĳ½ åŃĺåľ¨çļĦ
åĲİç»ĵæŀĦä¸»ä¹ī æī¹åĪ¤
åŃĺåľ¨çļĦ çĽ®çļĦè®ºè®ºè¯ģ
ç³»ç»ŁçļĦ æķĪçİĩ
ç³»ç»ŁçļĦ å®ŀéĻħåºĶçĶ¨
çİ°è±¡åŃ¦ å±ĤéĿ¢çļĦ
æĬĢæľ¯å®ŀçİ° å®ŀéĻħåºĶçĶ¨
éĽĨä½ĵ æĻºæħ§
ä¼ĺåħĪèĢĥèĻĳ çĶ¨æĪ·åıĤä¸İåº¦
å·² æľī
æľºåĻ¨åŃ¦ä¹ł ç³»ç»Łä¸ŃçļĦç®Ĺæ³ķåģıè§ģéĢļè¿ĩ
ä¸įå¹³çŃī éĹ®é¢ĺ
ä¼Ĺ å¤ļ
ä¿®é¥° çļĦ
å¦Ĥä½ķåľ¨ æķ°åŃĹå¹³åı°ç»ıæµİä¸Ń
ç®¡çĲĨ æĮĳæĪĺ
èĩªåĬ¨åĮĸ ç¨ĭåº¦
æĸĩèīºå¤įåħ´æĹ¶æľŁçļĦ èīºæľ¯
æĸĩèīºå¤įåħ´æĹ¶æľŁçļĦ èĤĸåĥıçĶ»
æĸĩèīºå¤įåħ´æĹ¶æľŁçļĦ æ¹¿å£ģçĶ»æĬĢæ³ķ
æĸĩèīºå¤įåħ´æĹ¶æľŁçļĦ äººæĸĩä¸»ä¹ī
çļĦåŁºåĽł é©±åĬ¨æĬĢæľ¯
çļĦåŁºåĽł çº§èģĶæķĪåºĶ
ç§° è°ĵ
çģµ åħī
åİ»ä¸Ńå¿ĥåĮĸ åħ±è¯ĨæľºåĪ¶
åĪĹ å¼º
åİĭåĬĽ ä¸İ
ä¸ĢæĹ¦ åĪĨåŃĲç»Ħè£ħæľº
ä¸ĢæĹ¦ çŁ³å¢¨çĥ¯çĶŁäº§å®ŀçİ°
å¿ĥçĲĨåŃ¦ ä¸Ńåħ³äºİ
å®ĥä»¬ åı¯èĥ½
å®ĥä»¬ åı¯èĥ½éĢļè¿ĩ
åĲĪæĪĲçĶŁçī©åŃ¦ åľ¨
te ll
çļ® ç±³
çļ® äºļæĿ°
èĢģ å¹´
æľīä½ķ åĲ¯ç¤º
æľīä½ķ å¼ĤåĲĮ
æľºæ¢° è¿ĲåĬ¨
çľĭ èµ·æĿ¥
æ¶Īè´¹ çļĦä¸»è¦ģåªĴä»ĭ
åĲ¯èĴĻ æĹ¶ä»£
ar k
æľºåĻ¨äºº å¤ĸè§Ĥ
åıįé¦Īå¾ªçİ¯ æľºåĪ¶
è¾¹çķĮ çļĦçĽ¸äºĴä½ľçĶ¨
æŃ§ ä¹ī
è§Ĥæµĭ åĪ°
æ²»çĸĹ æĸ¹æ¡Ī
éĩĳèŀį äº¤æĺĵ
éĩĳèŀį å¸Ĥåľºä¸ŃçļĦ
éĩĳèŀį ä½ĵç³»ä¸ŃçļĦ
éĩĳèŀį æĻ®æĥł
æ²īç§¯çī© çļĦ
éĩıåŃĲéĢĢçĽ¸å¹² ä¸º
åħīåŃ¦ è®¡ç®Ĺæŀ¶æŀĦ
å¤® è¡Į
ä¼Ĭ å£«
æĦıè¯ĨæµģåıĻäºĭ éĢļè¿ĩ
æĺŁéĻħ èµĦæºĲåĪĨéħį
çľŁå®ŀ åľ°
çľŁå®ŀ æĢ§ä¸İ
èŀįåħ¥ æĹ¥å¸¸
è¯¥ç¿»è¯ĳ ä½ĵçİ°äºĨ
å®ŀæĹ¶ è¿ľç¨ĭ
é¢ĳ çİĩçļĦ
è¶³ è¿¹
ç¡ħ éħ¸çĽĲ
ç¤¾åĮº çº½å¸¦
æĽ¿ä»£ æķĪåºĶ
åĮĹæŀģ ç¢³åıįé¦Īå¾ªçİ¯
ç¢³éħ¸çĽĲ åŁºå²©çļĦ
çļĦç¤¾ä¼ļ åĬ¨èį¡
ä¹īåĬ¡è®ºä¼¦çĲĨåŃ¦ ä¼ĺåħĪèĢĥèĻĳ
ä¹īåĬ¡è®ºä¼¦çĲĨåŃ¦ åľ¨åĨ³çŃĸè¿ĩç¨ĭä¸Ń
å°ĨéľĢè¦ģè¿Ľè¡Į æł¹æľ¬æĢ§éĩįæŀĦ
ä¸Ĭåįĩ æµģ
è¿½ æº¯
è¯łéĩĬ åŃ¦
å®ŀä½ĵ æĺ¯åĲ¦
åĲĦ å¤§æ´²
è´§å¸ģæĶ¿çŃĸ å®ŀæĸ½
éĿĴéĵľæĹ¶ä»£ çļĦå´©æºĥ
å½¢æĪĲçļĦ åĨ²ç§¯å¹³åİŁ
äºĭä»¶ æľŁéĹ´
ç»Ŀå¯¹ èĩªçĶ±
æľĢå¤§ åĮĸä¸º
Ġc o
åı¯èĥ½å¦Ĥä½ķ éĩįå¡ĳ
æ²¿ å±±åĿ¡
åľ°å½¢ æ¢¯åº¦
æĹ¥çĽĬ å¢ŀå¼ºçļĦ
èĥĮ åĲİçļĦ
ä¸Ģä¸ª è¿ŀè´¯
å¿ħé¡» åħĭæľį
åľ¨å¤ļå¤§ç¨ĭåº¦ä¸Ĭ æĮĳæĪĺäºĨ
çļĦä¼łç»Ł è´§å¸ģæĶ¿çŃĸå·¥åħ·
å®ŀéĻħ ä¸Ĭ
å®ĹæķĻ æľºæŀĦ
åı¤ä»£ ç§ĳåŃ¦çŁ¥è¯Ĩ
æĹłæ³ķ è¾¾åĪ°
åĨ²ç§¯å¹³åİŁ éĢĤå®ľåıĳå±ķ
è±¡å¾ģ ä½ĵç³»
è±¡å¾ģ æīĭæ³ķ
æīĢæľī åĪ¶
å¥³ åĦ¿
ä¸Ŀç»¸ä¹ĭè·¯ åľ¨å¤ļå¤§ç¨ĭåº¦ä¸Ĭ
ä¸Ŀç»¸ä¹ĭè·¯ çļĦç»ıæµİ
æĪĸè®¸ èĥ½å¤Ł
åĲį åŃĹ
tr ic
ç¥ŀç»ıç§ĳåŃ¦ ä¸ŃçļĦ
ç¥ŀç»ıç§ĳåŃ¦ åħ³äºİ
çī¹å®ļ ç¥ŀç»ıåħĥ
çĥŃéĩı åĨįåĪĨéħįæľºåĪ¶
æ·ĺæ±° ä¼łç»Ł
å®¢ ä½ĵ
è¯º æĸ¯
åİŁåŃĲçº§ åĪ¶éĢł
èĦ± ç¢³
è¥¿æĸ¹ è®¤è¯Ĩè®º
ç¦ı çī¹
çļĦæĬĢæľ¯ éĿ©æĸ°
çļĦåħī å½±
çļĦéģĵå¾· è§Ĥ
è¿ŀæİ¥ æ¨¡å¼ı
æİ¨èįĲ ç³»ç»Ł
