{"<pad>":0,"<s>":1,"</s>":2,"<unk>":3,"!":4,"\"":5,"#":6,"$":7,"%":8,"&":9,"'":10,"(":11,")":12,"*":13,"+":14,",":15,"-":16,".":17,"/":18,"0":19,"1":20,"2":21,"3":22,"4":23,"5":24,"6":25,"7":26,"8":27,"9":28,":":29,";":30,"<":31,"=":32,">":33,"?":34,"@":35,"A":36,"B":37,"C":38,"D":39,"E":40,"F":41,"G":42,"H":43,"I":44,"J":45,"K":46,"L":47,"M":48,"N":49,"O":50,"P":51,"Q":52,"R":53,"S":54,"T":55,"U":56,"V":57,"W":58,"X":59,"Y":60,"Z":61,"[":62,"\\":63,"]":64,"^":65,"_":66,"`":67,"a":68,"b":69,"c":70,"d":71,"e":72,"f":73,"g":74,"h":75,"i":76,"j":77,"k":78,"l":79,"m":80,"n":81,"o":82,"p":83,"q":84,"r":85,"s":86,"t":87,"u":88,"v":89,"w":90,"x":91,"y":92,"z":93,"{":94,"|":95,"}":96,"~":97,"¡":98,"¢":99,"£":100,"¤":101,"¥":102,"¦":103,"§":104,"¨":105,"©":106,"ª":107,"«":108,"¬":109,"®":110,"¯":111,"°":112,"±":113,"²":114,"³":115,"´":116,"µ":117,"¶":118,"·":119,"¸":120,"¹":121,"º":122,"»":123,"¼":124,"½":125,"¾":126,"¿":127,"À":128,"Á":129,"Â":130,"Ã":131,"Ä":132,"Å":133,"Æ":134,"Ç":135,"È":136,"É":137,"Ê":138,"Ë":139,"Ì":140,"Í":141,"Î":142,"Ï":143,"Ð":144,"Ñ":145,"Ò":146,"Ó":147,"Ô":148,"Õ":149,"Ö":150,"×":151,"Ø":152,"Ù":153,"Ú":154,"Û":155,"Ü":156,"Ý":157,"Þ":158,"ß":159,"à":160,"á":161,"â":162,"ã":163,"ä":164,"å":165,"æ":166,"ç":167,"è":168,"é":169,"ê":170,"ë":171,"ì":172,"í":173,"î":174,"ï":175,"ð":176,"ñ":177,"ò":178,"ó":179,"ô":180,"õ":181,"ö":182,"÷":183,"ø":184,"ù":185,"ú":186,"û":187,"ü":188,"ý":189,"þ":190,"ÿ":191,"Ā":192,"ā":193,"Ă":194,"ă":195,"Ą":196,"ą":197,"Ć":198,"ć":199,"Ĉ":200,"ĉ":201,"Ċ":202,"ċ":203,"Č":204,"č":205,"Ď":206,"ď":207,"Đ":208,"đ":209,"Ē":210,"ē":211,"Ĕ":212,"ĕ":213,"Ė":214,"ė":215,"Ę":216,"ę":217,"Ě":218,"ě":219,"Ĝ":220,"ĝ":221,"Ğ":222,"ğ":223,"Ġ":224,"ġ":225,"Ģ":226,"ģ":227,"Ĥ":228,"ĥ":229,"Ħ":230,"ħ":231,"Ĩ":232,"ĩ":233,"Ī":234,"ī":235,"Ĭ":236,"ĭ":237,"Į":238,"į":239,"İ":240,"ı":241,"Ĳ":242,"ĳ":243,"Ĵ":244,"ĵ":245,"Ķ":246,"ķ":247,"ĸ":248,"Ĺ":249,"ĺ":250,"Ļ":251,"ļ":252,"Ľ":253,"ľ":254,"Ŀ":255,"ŀ":256,"Ł":257,"ł":258,"Ń":259,"ä¸":260,"çļ":261,"çļĦ":262,"ï¼":263,"äº":264,"åı":265,"ãĢ":266,"ãĢĤ":267,"ï¼Į":268,"æľ":269,"ç»":270,"ä½":271,"åŃ":272,"çĶ":273,"åħ":274,"å®":275,"è¿":276,"åľ":277,"æĸ":278,"åĪ":279,"çİ":280,"åĬ":281,"ä¼":282,"æĢ":283,"éĢ":284,"æŀ":285,"è®":286,"åĲ":287,"å¼":288,"è¯":289,"å¤":290,"ä»":291,"ä¹":292,"éĩ":293,"èĥ":294,"å¯":295,"çİ°":296,"åĮ":297,"ï¼Ł":298,"¦Ĥ":299,"èĥ½":300,"åŃ¦":301,"çĲ":302,"åº":303,"æĪ":304,"æĢ§":305,"å¦Ĥ":306,"å°":307,"åľ¨":308,"ä¸Ń":309,"å½":310,"è§":311,"çĲĨ":312,"åĮĸ":313,"äºĨ":314,"è¡":315,"çī":316,"è¿ĩ":317,"æķ":318,"ä¸»":319,"å®ŀ":320,"ä¸İ":321,"éĢļ":322,"æµ":323,"ä¹ī":324,"æĹ":325,"æĺ":326,"çĶŁ":327,"å¾":328,"æ³":329,"ä½ķ":330,"æĬ":331,"çĽ":332,"éĢļè¿ĩ":333,"æĿ":334,"æľ¯":335,"å¯¹":336,"åĨ":337,"åĩ":338,"åı¯":339,"åĵ":340,"åĽ":341,"éĿ":342,"èĢ":343,"ä¸»ä¹ī":344,"è®º":345,"å¸":346,"ç»Ł":347,"ç³":348,"çĶ¨":349,"å¦Ĥä½ķ":350,"ä½ĵ":351,"ç³»":352,"æĸĩ":353,"åŁ":354,"å¼ı":355,"ä¸º":356,"ç»ı":357,"æ°":358,"çī©":359,"å¹":360,"è¾":361,"è´":362,"å±":363,"æŀĦ":364,"æĶ":365,"æł":366,"æŀľ":367,"ä¼ļ":368,"ä¸į":369,"åĬ¨":370,"åŃĲ":371,"æĮ":372,"å·":373,"åį":374,"å°Ĩ":375,"åıĳ":376,"ä¼ł":377,"æ¨":378,"æ¨¡":379,"æİ":380,"ä¿":381,"æĪĲ":382,"çº":383,"æ³ķ":384,"æĹ¶":385,"æī":386,"æĬĢ":387,"éĩı":388,"åĲĮ":389,"äºº":390,"åľ°":391,"ç§":392,"åºĶ":393,"è¡Į":394,"åıĺ":395,"å¿":396,"å®ŀçİ°":397,"æĦ":398,"éĹ":399,"ç¤":400,"ç®":401,"è°":402,"åİ":403,"å½¢":404,"å¦Ĥæŀľ":405,"æ´":406,"åĬĽ":407,"åº¦":408,"åĪ¶":409,"åĪĨ":410,"çŁ":411,"é¢":412,"åı¯èĥ½":413,"äºİ":414,"æľī":415,"æĬĢæľ¯":416,"æľº":417,"éĻ":418,"ç¨":419,"èĩ":420,"çĽ¸":421,"èī":422,"æľ¬":423,"æĢģ":424,"æı":425,"åŁº":426,"ä¸ŃçļĦ":427,"ä»£":428,"è¡¨":429,"æ¯":430,"è°ĥ":431,"æĽ":432,"ä¸ļ":433,"ä½ľ":434,"çŃ":435,"åĬł":436,"ç³»ç»Ł":437,"èĢĮ":438,"ç½":439,"æ²":440,"åī":441,"å¢":442,"éĹ´":443,"åĲĪ":444,"å¤§":445,"ç»ĵ":446,"åŃĺ":447,"éģ":448,"æķ°":449,"è§£":450,"è¿Ľ":451,"æ¯Ķ":452,"ç¡":453,"è¶":454,"æĸ¹":455,"éĩį":456,"ä¸įåĲĮ":457,"ç®Ĺ":458,"åŀ":459,"åĲİ":460,"è¯Ń":461,"å·¥":462,"åħ¨":463,"è¯Ĩ":464,"çĲĨè®º":465,"ç¨ĭ":466,"èĭ":467,"å½±":468,"æķĪ":469,"ä¼łç»Ł":470,"ä¸Ĭ":471,"ä¾":472,"å¼º":473,"ç¼":474,"æĦı":475,"æĭ":476,"è®¤":477,"ç¥":478,"çĶŁçī©":479,"åĢ":480,"ç¤¾":481,"èīº":482,"åĩº":483,"èµ":484,"çŁ¥":485,"åħ³":486,"è®¡":487,"å®ļ":488,"æľŁ":489,"ç¥ŀ":490,"éĩıåŃĲ":491,"è±":492,"èĭ¥":493,"æĪĺ":494,"è½":495,"åŀĭ":496,"åĳ":497,"åĵį":498,"äºĽ":499,"èĩª":500,"æµģ":501,"ä»¥":502,"æĽ´":503,"è±¡":504,"æĻ":505,"å¾Ĺ":506,"å½±åĵį":507,"æĸ°":508,"æį":509,"çī¹":510,"ç±":511,"ç»ĵæŀĦ":512,"è¦":513,"åİŁ":514,"æŃ":515,"åĽł":516,"æ¨¡å¼ı":517,"å±ķ":518,"éľ":519,"ç©":520,"éĿ¢":521,"çł":522,"ç¥ŀç»ı":523,"æµİ":524,"ç»ıæµİ":525,"è´¨":526,"åĵª":527,"æº":528,"åŃĺåľ¨":529,"è§Ĥ":530,"åĵªäºĽ":531,"æĺ¯":532,"çİĩ":533,"çķ":534,"å¯¼":535,"å»":536,"åħī":537,"æŀ¶":538,"æĥ":539,"çĶµ":540,"æĿ¥":541,"åĴ":542,"æıĲ":543,"åĩĨ":544,"ç²":545,"èĮ":546,"åĴĮ":547,"æĺİ":548,"çİ¯":549,"ç¡®":550,"äºĭ":551,"éĿŀ":552,"å¯Ĩ":553,"ç¤¾ä¼ļ":554,"ĳæĪĺ":555,"æĮģ":556,"èīºæľ¯":557,"èĮĥ":558,"æĮĳæĪĺ":559,"å¿ĥ":560,"ç½ĳ":561,"èĢħ":562,"æĶ¹":563,"ä¿Ŀ":564,"ç±»":565,"å½¢æĪĲ":566,"è¶ħ":567,"æ¡":568,"éĢł":569,"æ±":570,"å¸Ĥ":571,"æģ":572,"äº§":573,"æĶ¿":574,"ä¼¦":575,"çŃĸ":576,"å¤į":577,"è®¡ç®Ĺ":578,"éľĢ":579,"è¯ĳ":580,"å¾·":581,"è¾¾":582,"æ°Ķ":583,"è¦ģ":584,"å¼ķ":585,"ä½¿":586,"åģ":587,"è·":588,"ç¬":589,"ç´":590,"æ°ĳ":591,"ä¼¦çĲĨ":592,"éĢŁ":593,"åĪ©":594,"æĪĳ":595,"éĩĬ":596,"ä¸Ģ":597,"éļ":598,"åĮº":599,"æºĲ":600,"éĽ":601,"å¤ļ":602,"çĲĥ":603,"éĿ©":604,"æİ¥":605,"ä¹ĭ":606,"åıĻ":607,"ç¤º":608,"éĺ":609,"å¹³":610,"è½¬":611,"è¯ģ":612,"å¤Ł":613,"ç«":614,"ç»ľ":615,"ç½ĳç»ľ":616,"èĥ½å¤Ł":617,"ç¢":618,"çĦ":619,"æ¨¡åŀĭ":620,"å»º":621,"å¢ĥ":622,"æķ´":623,"åıį":624,"éĩĩ":625,"æĦŁ":626,"è®¾":627,"æľºåĪ¶":628,"çĥ":629,"åŃĹ":630,"åĲ¦":631,"ç¾":632,"èģ":633,"è¯´":634,"éģĵ":635,"åıĻäºĭ":636,"åľº":637,"æĸ¯":638,"åĽ½":639,"ä½ľçĶ¨":640,"æµ·":641,"åĪĻ":642,"å¢ŀ":643,"éª":644,"è¾ĥ":645,"åĿ":646,"æĿĥ":647,"åºĶçĶ¨":648,"äºĴ":649,"æĸĩåŃ¦":650,"æµĭ":651,"åīį":652,"çĦ¶":653,"æ®":654,"åĪ°":655,"çİ°ä»£":656,"äººç±»":657,"å°Ĩå¦Ĥä½ķ":658,"åĨħ":659,"çİ°å®ŀ":660,"æĸĻ":661,"Ĩæŀ¶":662,"äº¤":663,"éķ":664,"æĦıè¯Ĩ":665,"ä¸ĭ":666,"å±Ĥ":667,"æ¡Ĩæŀ¶":668,"åħ·":669,"å·®":670,"æ¶":671,"ä¸ĸ":672,"ä¿¡":673,"æ¸":674,"å¼Ĥ":675,"æł¹":676,"å¼ºè°ĥ":677,"è§Ħ":678,"è®¤çŁ¥":679,"åħ¥":680,"è¡Įä¸º":681,"å¸¸":682,"æį®":683,"æĶ¹åıĺ":684,"çĸ":685,"ç²¾":686,"ä¸ª":687,"è¨":688,"è¨Ģ":689,"ç§ĳ":690,"è¿ĩç¨ĭ":691,"å¿µ":692,"åĨ³":693,"éªĮ":694,"çº§":695,"æıŃ":696,"ä¼ĺ":697,"ä»İ":698,"èµĦ":699,"åıĳå±ķ":700,"æıŃç¤º":701,"å¼ķåıĳ":702,"æłĩ":703,"æ²»":704,"åī§":705,"åĳ½":706,"æĺŁ":707,"è¿Ĳ":708,"ç¬¦":709,"æķ°åŃĹ":710,"åŁŁ":711,"åħ¨çĲĥ":712,"çģ":713,"æ°´":714,"ç§į":715,"æ·":716,"æ¬":717,"æĸ½":718,"è¿Ļ":719,"èĢĮéĿŀ":720,"è§Ĩ":721,"ç»Ń":722,"ä»¬":723,"ç§¯":724,"ç»´":725,"æīĢ":726,"åĻ":727,"èŀ":728,"æİ§":729,"èŀį":730,"é©":731,"åı¯èĥ½ä¼ļ":732,"åĻ¨":733,"è¢":734,"ï¼ļ":735,"æŀĲ":736,"å¤Ħ":737,"å½ĵ":738,"äºļ":739,"å¥":740,"éĩĩçĶ¨":741,"ç¬¦åĲĪ":742,"éķ¿":743,"çĽ´":744,"éľĢè¦ģ":745,"è¢«":746,"ç©º":747,"æİ¨":748,"é«":749,"å¡":750,"é«ĺ":751,"æ®ĸ":752,"è¯Ńè¨Ģ":753,"æł¼":754,"ç´ł":755,"æģ¯":756,"å²":757,"æĹ¶æľŁ":758,"ä½ĵç³»":759,"æł¹æľ¬":760,"åħ¶":761,"çľ":762,"éĵ":763,"ç®¡":764,"çĶŁæĢģ":765,"åı£":766,"åıĬ":767,"å°ı":768,"åĽ¾":769,"èĦ":770,"æĸĩåĮĸ":771,"éħ":772,"æķĪåºĶ":773,"æĻ®":774,"åįĩ":775,"åĪĨæŀĲ":776,"åĲĮæĹ¶":777,"ä¹ł":778,"å¸¦":779,"åħ¸":780,"æ¼":781,"åŁºåĽł":782,"çª":783,"æĹ¶éĹ´":784,"å·®å¼Ĥ":785,"å¤ĸ":786,"é¢Ħ":787,"çŃī":788,"è§£éĩĬ":789,"æĸ¹æ³ķ":790,"åºķ":791,"æĺ¾":792,"æŀģ":793,"èī²":794,"ç®Ĺæ³ķ":795,"å¡ĳ":796,"åĨ²":797,"çİ°è±¡":798,"ç»Ħ":799,"æ®ĸæ°ĳ":800,"æīĭ":801,"æĥħ":802,"çĶ»":803,"ç«ĭ":804,"çªģ":805,"è´§":806,"ç©¶":807,"æĿĲ":808,"çĥŃ":809,"ä¹ĭéĹ´":810,"æ´¾":811,"é£":812,"æĹł":813,"å¸ģ":814,"çİ¯å¢ĥ":815,"éģĵå¾·":816,"æĮĩ":817,"èĤ":818,"åĪĽ":819,"èĩ´":820,"æ³¢":821,"çº¿":822,"ä¸ĵ":823,"çłĶ":824,"èĮĥå¼ı":825,"è´§å¸ģ":826,"åıĳçĶŁ":827,"è¿Ľè¡Į":828,"æĿĲæĸĻ":829,"æ¦Ĥ":830,"å¼ł":831,"åİĨ":832,"åŁİ":833,"çķĮ":834,"åħĥ":835,"å¸Ĥåľº":836,"åħ³ç³»":837,"..":838,"éĽĨ":839,"å£":840,"å½¢æĢģ":841,"æĺĵ":842,"æ¯Ķè¾ĥ":843,"å°Ħ":844,"é¢ĺ":845,"å½»":846,"å¦Ĥä½ķå½±åĵį":847,"è¡¨çİ°":848,"å½»åºķ":849,"²åŃ¦":850,"çºª":851,"åħ´":852,"æ´²":853,"å¤ĦçĲĨ":854,"ç½®":855,"éĹ®":856,"ç¦":857,"æ³Ľ":858,"æĿĤ":859,"éĥ":860,"ç¾İ":861,"è£":862,"è¯ĳä¸º":863,"åĬŁ":864,"åĲĳ":865,"åĬ¡":866,"èĥ½åĬĽ":867,"æľª":868,"å±±":869,"æł·":870,"ä¾Ŀ":871,"çłĶç©¶":872,"åĬłéĢŁ":873,"ä¸ĵä¸ļ":874,"âĢ":875,"åŁİå¸Ĥ":876,"äºĮ":877,"åħĪ":878,"éģĹ":879,"ä¸Ńæĸĩ":880,"å®¶":881,"è¡¨è¾¾":882,"çĿ":883,"æ¸©":884,"èĻ":885,"é¢Ĩ":886,"åĬłåī§":887,"æķ°æį®":888,"åı¤":889,"éĻħ":890,"æĢ§çļĦ":891,"èģĶ":892,"ä¸ĸçºª":893,"åı¥":894,"å¹¿":895,"ä½ł":896,"äººå·¥":897,"ç¼ĺ":898,"åĢĻ":899,"æŃ£":900,"åĨľ":901,"å¹²":902,"ä¾Ľ":903,"æļ":904,"åĩĨç¡®":905,"ç¼ĸ":906,"æ¬§":907,"ç§ĳåŃ¦":908,"éĶ":909,"èĬ":910,"ä»¶":911,"éĻĲ":912,"æĮģç»Ń":913,"å®ĩ":914,"ä»·":915,"åĵ²åŃ¦":916,"è¾ĳ":917,"åĬĽåŃ¦":918,"æ´ĭ":919,"çİ°ä»£ä¸»ä¹ī":920,"éģĹä¼ł":921,"å®Ļ":922,"åĵģ":923,"å®ĩå®Ļ":924,"æ°ĶåĢĻ":925,"æ³¨":926,"å®Į":927,"äº§çĶŁ":928,"æĺ¯åĲ¦":929,"çĤ":930,"å¯¼èĩ´":931,"åŁºç¡":932,"åĿĹ":933,"åŁºç¡Ģ":934,"æ´»":935,"é¢ĨåŁŁ":936,"æķĻ":937,"åį°":938,"åĸ":939,"ĺèĭ¥":940,"åĢĺèĭ¥":941,"åķ":942,"å°Ķ":943,"å·¥ä¸ļ":944,"çĬ":945,"ä¿ĥ":946,"åģı":947,"è¿°":948,"å¤©":949,"å¹»":950,"èĳ":951,"åıĸ":952,"éĻį":953,"çİ°å®ŀä¸»ä¹ī":954,"å¾ģ":955,"æķĪçİĩ":956,"å¹´":957,"èĥ½éĩı":958,"æĪĸ":959,"è½¬åıĺ":960,"æĻº":961,"çĽ¸äºĴ":962,"èİ":963,"ä¿¡æģ¯":964,"è°ĥæķ´":965,"èį":966,"çľŁ":967,"æ¦Ĥå¿µ":968,"åħĭ":969,"ç¢³":970,"æľīçļĦ":971,"æ±Ĥ":972,"èĥ½å¤Łå®ŀçİ°":973,"è·¯":974,"æĴ":975,"èĥ½åĲ¦":976,"åĨľä¸ļ":977,"çĶ±":978,"éĢĤ":979,"åĬłå¯Ĩ":980,"åģĩ":981,"åĳĪ":982,"åķĨ":983,"æ¿":984,"æłĩåĩĨ":985,"å¯¹æ¯Ķ":986,"çĶŁäº§":987,"éĩįæĸ°":988,"ç»ıæµİåŃ¦":989,"èĢĥ":990,"æĶ¿çŃĸ":991,"ä¹ĭéĹ´çļĦ":992,"æ¶Ī":993,"ä½Ĩ":994,"æŀ¶æŀĦ":995,"æ¼Ķ":996,"æ¿Ģ":997,"ä¿®":998,"çł´":999,"æıŃç¤ºäºĨ":1000,"æıĲåįĩ":1001,"åĤ":1002,"æĤ":1003,"æľ¯è¯Ń":1004,"æĶ¿æ²»":1005,"èĲ":1006,"éĿ©åĳ½":1007,"ç¦»":1008,"åĬ¿":1009,"ti":1010,"å°ıè¯´":1011,"æĸ¹å¼ı":1012,"çĤ¹":1013,"é¦":1014,"å½©":1015,"å¹¿æ³Ľ":1016,"åħ±":1017,"çĬ¶":1018,"å¾®":1019,"å¸ĥ":1020,"å¿ĥçĲĨ":1021,"æīĭæ³ķ":1022,"ç»Ŀ":1023,"éĹ®é¢ĺ":1024,"åı²":1025,"æĶ¶":1026,"ä½į":1027,"å®ī":1028,"åŁºäºİ":1029,"èĳĹ":1030,"RI":1031,"åĪ«":1032,"å¤įæĿĤ":1033,"èº":1034,"åľŁ":1035,"èĥ½æºĲ":1036,"è´¸":1037,"æ²ī":1038,"èĦĳ":1039,"å¾ª":1040,"è£ħ":1041,"PR":1042,"çĶŁçī©åŃ¦":1043,"çīĩ":1044,"CRI":1045,"SPR":1046,"çĽ´æİ¥":1047,"CRISPR":1048,"ç¾¤":1049,"çĽĲ":1050,"è´¸æĺĵ":1051,"èº«":1052,"è¯Ħ":1053,"åĨ³çŃĸ":1054,"çī©è´¨":1055,"çķ¥":1056,"ä¸»å¼ł":1057,"æī¹":1058,"ä¼¦çĲĨåŃ¦":1059,"æĺ¾èĳĹ":1060,"çĿĢ":1061,"æĻºèĥ½":1062,"ç¬¦åĲĪä¸Ńæĸĩ":1063,"åª":1064,"è·¨":1065,"å²©":1066,"ç©ºéĹ´":1067,"é£İ":1068,"åĮĸçļĦ":1069,"ä¸Ńå¿ĥ":1070,"èĩªçĦ¶":1071,"å¤įåħ´":1072,"æµ·æ´ĭ":1073,"ï¼ī":1074,"çº¦":1075,"æĶ¾":1076,"å¾Ĺä»¥":1077,"\"ï¼Į":1078,"åªĴ":1079,"çº³":1080,"èĤ²":1081,"åĩł":1082,"²Į":1083,"è²Į":1084,"çī©çĲĨ":1085,"ç²Ĵ":1086,"çĶŁæĢģç³»ç»Ł":1087,"ç¨³":1088,"å¾Ģ":1089,"çŁ¥è¯Ĩ":1090,"ä¿ĿæĮģ":1091,"å¤±":1092,"åĨ°":1093,"åľ°è²Į":1094,"è®®":1095,"æĸĩæľ¬":1096,"çģ«":1097,"ï¼Ī":1098,"å¢ŀå¼º":1099,"åĢ¼":1100,"on":1101,"åİŁçĲĨ":1102,"æĸ¹éĿ¢":1103,"éĢī":1104,"è¶Ĭ":1105,"é¡":1106,"æĸŃ":1107,"ç»ıåħ¸":1108,"æł¸":1109,"éĥ¨":1110,"åĩı":1111,"ä½İ":1112,"åİĨåı²":1113,"åĪ¶åº¦":1114,"èīºå¤įåħ´":1115,"è§ĦèĮĥ":1116,"è¿ĲåĬ¨":1117,"çĹ":1118,"å°±":1119,"æĸĩèīºå¤įåħ´":1120,"æ¬§æ´²":1121,"éĢĢ":1122,"éŃ":1123,"ç§»":1124,"åĪ¤":1125,"çĸĹ":1126,"å¤ª":1127,"éĴ":1128,"åıĺåĮĸ":1129,"åĽłç´ł":1130,"ä¸»ä¹īçļĦ":1131,"å¤§æ°Ķ":1132,"Ġ\"":1133,"±åĬ¨":1134,"çĽ¸åħ³":1135,"åħ¬":1136,"ä¹ħ":1137,"ä¹īåĬ¡":1138,"èĬĤ":1139,"éĵ¾":1140,"ç¨³å®ļ":1141,"çłģ":1142,"æıĲåĩº":1143,"éŃĶ":1144,"åŃ¦ä¹ł":1145,"åįı":1146,"è¦Ĩ":1147,"æł¹æľ¬æĢ§":1148,"åĲİæ®ĸæ°ĳ":1149,"æ·±":1150,"è¡¡":1151,"è¡ĮæĺŁ":1152,"éŃĶå¹»":1153,"èµĦæºĲ":1154,"éŃĶå¹»çİ°å®ŀä¸»ä¹ī":1155,"é©±åĬ¨":1156,"å¾ªçİ¯":1157,"å½¢å¼ı":1158,"æľĢ":1159,"æĢİ":1160,"æĪĲä¸º":1161,"éĩĳ":1162,"æĭŁ":1163,"æĥ³":1164,"æĴŃ":1165,"æĭ©":1166,"åĬ³":1167,"ä»į":1168,"å°½":1169,"ä»ĸ":1170,"æ²īç§¯":1171,"ç¿":1172,"å¹¶":1173,"æ°¸":1174,"å¤ĩ":1175,"æĹ¢":1176,"æĬĢæ³ķ":1177,"å®īåħ¨":1178,"ç£":1179,"çļĦå½¢æĪĲ":1180,"æĪĳä»¬":1181,"åıĹ":1182,"ä¼łæĴŃ":1183,"è®¾è®¡":1184,"æĹ¶æľŁçļĦ":1185,"æļĹ":1186,"æĿ¡":1187,"å¯Ĩåº¦":1188,"åĥ":1189,"æĥ¯":1190,"æıĲä¾Ľ":1191,"äºī":1192,"çĽ¸å¯¹":1193,"ç»ĩ":1194,"æĵ":1195,"èİ·":1196,"æŁ":1197,"éĢĤåºĶ":1198,"è§Ĵ":1199,"æľºåĻ¨":1200,"æĬĢæľ¯çļĦ":1201,"łè¦Ĩ":1202,"çĲĨæĢ§":1203,"é¢łè¦Ĩ":1204,"æĻ®åıĬ":1205,"è§ī":1206,"ç¿»":1207,"å®¹":1208,"è®¾æĸ½":1209,"èī²å½©":1210,"å°½ç®¡":1211,"éļĲ":1212,"è¾ĵ":1213,"æİ¥åı£":1214,"ç£ģ":1215,"æİ¢":1216,"al":1217,"æĵį":1218,"åŁºç¡Ģè®¾æĸ½":1219,"åĬ¨æĢģ":1220,"åħ·æľī":1221,"å¾ĭ":1222,"è¾¹":1223,"èµ·":1224,"as":1225,"çķĻ":1226,"åĬ³åĬ¨":1227,"æĢİæł·":1228,"åıĤ":1229,"ä¸¤":1230,"æ¢":1231,"ä¸´":1232,"æ±ł":1233,"æĦŁçŁ¥":1234,"èģļ":1235,"ç¿»è¯ĳ":1236,"æī©":1237,"å®ŀæĸ½":1238,"çĭ":1239,"ç»ĵæŀľ":1240,"çĶµæ±ł":1241,"ç¢İ":1242,"å»¶":1243,"ç²ĴåŃĲ":1244,"åĽ´":1245,"ä»İèĢĮ":1246,"è¯»":1247,"åľ°åĮº":1248,"åİ»":1249,"ä¼łç»ŁçļĦ":1250,"åħ³äºİ":1251,"çĽ¸è¾ĥ":1252,"ä¼ĺåħĪ":1253,"åĳĪçİ°":1254,"å·¥ç¨ĭ":1255,"è§£æŀĦ":1256,"åħ»":1257,"æĸ¯çī¹":1258,"èµĦæľ¬":1259,"éĤ":1260,"åı¥å¼ı":1261,"çĻ":1262,"å¼±":1263,"çĽĳ":1264,"æĹ©":1265,"éħ¸":1266,"è§¦":1267,"æĭĵ":1268,"èĢħåľ¨":1269,"åªĴä½ĵ":1270,"çĽ¸è¾ĥäºİ":1271,"åĽº":1272,"æĢİæł·çļĦ":1273,"æĬ½":1274,"å¨":1275,"å±Ģ":1276,"çī¹å¾ģ":1277,"ç±³":1278,"é¢Ħæµĭ":1279,"éĢīæĭ©":1280,"å®¤":1281,"çĽ¸æ¯Ķ":1282,"çĹħ":1283,"æĿ¿":1284,"å¦Ĥä½ķéĢļè¿ĩ":1285,"æĺł":1286,"åİŁåĪĻ":1287,"æĬ½è±¡":1288,"å®ŀçİ°äºĨ":1289,"...":1290,"åĨ»":1291,"åĪĨå¸ĥ":1292,"éĻĨ":1293,"éĩĮ":1294,"æĬĺ":1295,"ç¥ŀç»ıç½ĳç»ľ":1296,"ç¼ĸè¾ĳ":1297,"åıĪ":1298,"æĭī":1299,"ä¼ĺåĬ¿":1300,"éħį":1301,"âĢ¦":1302,"åį°è±¡":1303,"åĥı":1304,"å¾ĹåĪ°":1305,"er":1306,"åŁºæľ¬":1307,"éªĮè¯ģ":1308,"æ¼Ķåıĺ":1309,"éĿ©æĸ°":1310,"æ°¸ä¹ħ":1311,"ä»»":1312,"æĶ¹åıĺäºĨ":1313,"è®¤è¯Ĩ":1314,"éĩıåŃĲè®¡ç®Ĺ":1315,"çļĦåıĳå±ķ":1316,"åįł":1317,"çŁ³":1318,"æĿ¡ä»¶":1319,"æ²³":1320,"è®¤ä¸º":1321,"åĲİæŀľ":1322,"æŃ¥":1323,"èµĸ":1324,"åĽ½å®¶":1325,"æ½":1326,"ä¸ĬçļĦ":1327,"ç¤¾äº¤":1328,"ç¢İçīĩ":1329,"è¿ĳ":1330,"å®ļä¹ī":1331,"çĽ¸äºĴä½ľçĶ¨":1332,"æīĳ":1333,"åĲĪæĪĲ":1334,"æģ©":1335,"ä¾Ŀèµĸ":1336,"ç¥ŀç»ıå½¢æĢģ":1337,"æ¡Ī":1338,"æĭĵæīĳ":1339,"èĥĢ":1340,"è§Ħæ¨¡":1341,"æ³¨éĩį":1342,"åįļ":1343,"è¿ŀ":1344,"å¨ģ":1345,"å°ĳ":1346,"è®¤è¯Ĩè®º":1347,"åĩ¯":1348,"æŀĦéĢł":1349,"äººå·¥æĻºèĥ½":1350,"ç²¾åĩĨ":1351,"åĩłä½ķ":1352,"çİ¯æµģ":1353,"åı¯è¡Į":1354,"ä½¿çĶ¨":1355,"åīįæīĢ":1356,"åį°è±¡æ´¾":1357,"æģ©æĸ¯":1358,"ä½ķç§į":1359,"åīįæīĢæľª":1360,"éļı":1361,"æ´»åĬ¨":1362,"æĬ¤":1363,"æ··":1364,"åĩ¯æģ©æĸ¯":1365,"çŃĸçķ¥":1366,"ä¹łæĥ¯":1367,"è§ģ":1368,"çĽ¾":1369,"åı¯ä»¥":1370,"åĪ¶éĢł":1371,"åĬŁåĪ©":1372,"èĻĳ":1373,"æķ£":1374,"åºŃ":1375,"åĪĨåŃĲ":1376,"è½¨":1377,"è¶ħè¶Ĭ":1378,"é©¬":1379,"å¼Ģ":1380,"ä¿ĿçķĻ":1381,"éĢı":1382,"è´Ł":1383,"åħīåŃĲ":1384,"æĹ©æľŁ":1385,"åīįæīĢæľªæľīçļĦ":1386,"å°ĨéľĢè¦ģ":1387,"åŃ¦æľ¯":1388,"çŃĳ":1389,"åĪ©çĶ¨":1390,"èĴ":1391,"ä¾µ":1392,"ç²¾ç¡®":1393,"çªģçł´":1394,"en":1395,"æĹ¶ä»£":1396,"æĸĩåŃ¦ä¸ŃçļĦ":1397,"æĥħæĦŁ":1398,"æľĽ":1399,"æįķ":1400,"å»ºçŃĳ":1401,"çģ«å±±":1402,"in":1403,"éģį":1404,"ä¸ĵä¸ļæľ¯è¯Ń":1405,"æī¹åĪ¤":1406,"èļ":1407,"æĢĿ":1408,"æĮĳæĪĺäºĨ":1409,"åĬłåī§äºĨ":1410,"ä¼°":1411,"å¯Ĩçłģ":1412,"åĨį":1413,"å¼ķåıĳåĵªäºĽ":1414,"ä»·åĢ¼":1415,"ä¹Ł":1416,"è¡¨è¿°":1417,"å¤§éĻĨ":1418,"çĭ¬":1419,"åĬŁåĪ©ä¸»ä¹ī":1420,"es":1421,"ä¹Ī":1422,"ä½¿å¾Ĺ":1423,"æĻ®éģį":1424,"å®ĥ":1425,"éĩįæŀĦ":1426,"åı¤åħ¸":1427,"èĪ":1428,"ä¸¥":1429,"ä¸ī":1430,"ä¹īåĬ¡è®º":1431,"æĿ¿åĿĹ":1432,"çĽ¸å¯¹è®º":1433,"åĽŀ":1434,"è¡¨æĺİ":1435,"Cas":1436,"èĦĳæľº":1437,"ä¸įåı¯":1438,"åİĭ":1439,"èļĢ":1440,"åı°":1441,"è®°":1442,"èĮĥåĽ´":1443,"æ¹":1444,"è¡¨è§Ĥ":1445,"éľĢæ±Ĥ":1446,"èĨ":1447,"ä¸»å¯¼":1448,"åľ°è´¨":1449,"æľīæķĪ":1450,"åıĺéĿ©":1451,"è¡¨è§ĤéģĹä¼ł":1452,"åĿĩ":1453,"çĽĲçİ¯æµģ":1454,"æĳ":1455,"å¢ŀéķ¿":1456,"æł¹æľ¬ä¸Ĭ":1457,"éĢ»":1458,"æĻ¯":1459,"ç¦»åŃĲ":1460,"ä¹¦":1461,"è£ħç½®":1462,"éĢ»è¾ĳ":1463,"åĲ¯":1464,"æİ¨åĬ¨":1465,"Ģæĸ¯çī¹":1466,"æĸĩæĺİ":1467,"éĿ¢ä¸´":1468,"éĺĲ":1469,"è¡Įä¸ºç»ıæµİåŃ¦":1470,"åĸĢæĸ¯çī¹":1471,"ä»İæł¹æľ¬ä¸Ĭ":1472,"æĬĺå°Ħ":1473,"æ£":1474,"åıįåºĶ":1475,"æİĴ":1476,"è§£åĨ³":1477,"æĽ´ä¸º":1478,"æį¢":1479,"çº¿æĢ§":1480,"èĦĳæľºæİ¥åı£":1481,"è¯¥":1482,"æĦıä¹ī":1483,"åĮºåĿĹ":1484,"åĤ¨":1485,"çī¹æĢ§":1486,"åĮºåĿĹéĵ¾":1487,"ç»ĺ":1488,"æ¨¡æĭŁ":1489,"æĮĩæķ°":1490,"é²":1491,"æĬķ":1492,"åħĥç´ł":1493,"æŀĦæĪĲ":1494,"ç¢İçīĩåĮĸ":1495,"å¼ºåĮĸ":1496,"æĪĸå°Ĩ":1497,"éĻĲåĪ¶":1498,"æĬĹ":1499,"è´¢":1500,"ç¨ĭåº¦":1501,"è¿ĲçĶ¨":1502,"å¯¹åºĶ":1503,"è¿ĽåĮĸ":1504,"æĭľ":1505,"åįıè®®":1506,"åıĤä¸İ":1507,"è°ĥæİ§":1508,"åħ·å¤ĩ":1509,"è¡¨çİ°ä¸»ä¹ī":1510,"ä¿ĥè¿Ľ":1511,"é¥":1512,"ħ§":1513,"åįģ":1514,"çŁĽ":1515,"èĩªåĬ¨":1516,"æĶ¶åħ¥":1517,"åĮĸåŃ¦":1518,"å½ĵä»£":1519,"åĨ»åľŁ":1520,"çŁĽçĽ¾":1521,"éŁ":1522,"åľ°çĲĥ":1523,"åŁºåĽłç¼ĸè¾ĳ":1524,"åĩ¯æģ©æĸ¯ä¸»ä¹ī":1525,"å¯¼ä½ĵ":1526,"éĺ³":1527,"å¹³åı°":1528,"åĨ²ç§¯":1529,"æĹ¥":1530,"éĤ£":1531,"åıĺå¾Ĺ":1532,"å¿«":1533,"æľ¬è´¨":1534,"æ¬¡":1535,"ç»Ħç»ĩ":1536,"åĤ¬":1537,"è¿ĺ":1538,"å¼Ī":1539,"åºı":1540,"çĽĬ":1541,"äºĴåĬ¨":1542,"é¦Ī":1543,"æĵįæİ§":1544,"åįļå¼Ī":1545,"å§":1546,"é¸":1547,"çĶµåŃĲ":1548,"åıįé¦Ī":1549,"åĬ©":1550,"å£«":1551,"åįłåºŃ":1552,"æĭľåįłåºŃ":1553,"è¶ħæĿĲæĸĻ":1554,"ç¤¾äº¤åªĴä½ĵ":1555,"æŀĦå»º":1556,"åķĨä¸ļ":1557,"ç»Ŀç¼ĺ":1558,"åıł":1559,"è¶ĭ":1560,"ä¸įåĲĮçļĦ":1561,"éĻįä½İ":1562,"éĢĴ":1563,"æľį":1564,"å¾Ħ":1565,"ä½ĵçİ°":1566,"éĶĻ":1567,"éķ¿æľŁ":1568,"åįļå¼Īè®º":1569,"æĿĥåĬĽ":1570,"åĬŁèĥ½":1571,"æ¸©çĽĲçİ¯æµģ":1572,"æĮĩæķ°çº§":1573,"äººåı£":1574,"ç¼º":1575,"çĸĳ":1576,"çī©çĲĨåŃ¦":1577,"åĸĢæĸ¯çī¹åľ°è²Į":1578,"æµĭéĩı":1579,"¨èĥĢ":1580,"è¡¨éĿ¢":1581,"è°ĥåĴĮ":1582,"æ°¸ä¹ħåĨ»åľŁ":1583,"èĨ¨èĥĢ":1584,"è¿Ľç¨ĭ":1585,"æ³¢åĬ¨":1586,"èĢĥèĻĳ":1587,"å°º":1588,"åĬ³åĬ¨åĬĽ":1589,"è¯Ĺ":1590,"ic":1591,"å±ķçİ°":1592,"æĦıè¯Ĩæµģ":1593,"å½ĵåīį":1594,"æ½ľ":1595,"åĪ©äºļ":1596,"åĽ½éĻħ":1597,"èŀįåĮĸ":1598,"åĢŁ":1599,"å¢ŀåĬł":1600,"tion":1601,"ç»Ĩ":1602,"ä»Ģ":1603,"æ¤":1604,"æľīæľĽ":1605,"ç»´æĮģ":1606,"åĩıå°ĳ":1607,"å¤ªéĺ³":1608,"å´":1609,"çļĦåıĳ":1610,"æķĻèĤ²":1611,"çĮ":1612,"æĽ²":1613,"æŃ¤":1614,"éļ¾":1615,"æ¯Ķè¾ĥä¼ĺåĬ¿":1616,"ä¸Ńä¸ĸçºª":1617,"å±ĤéĿ¢":1618,"åģĩè¯´":1619,"åł":1620,"èĥ½éĩıå¯Ĩåº¦":1621,"å¦Ĥä½ķæĮĳæĪĺ":1622,"å®ĺ":1623,"æĽ´é«ĺ":1624,"åº·":1625,"æ¤į":1626,"åħ¨æ°ĳ":1627,"ç¼ĵ":1628,"å¹³çŃī":1629,"ä¸ªäºº":1630,"ç«ĭä½ĵ":1631,"ä¸ºä½ķ":1632,"ä¼łè¾ĵ":1633,"æºĲäºİ":1634,"å°ºåº¦":1635,"æĶ¯":1636,"æĸĩåŃ¦ä¸ŃçļĦéŃĶå¹»çİ°å®ŀä¸»ä¹ī":1637,"åºĶå¯¹":1638,"åģĩè®¾":1639,"äº¿":1640,"åĬ¨åĬĽåŃ¦":1641,"åį³":1642,"ä¼łè¾¾":1643,"é¥°":1644,"è¯»èĢħ":1645,"¥¿":1646,"è¥¿":1647,"èĲ¥":1648,"æĿŁ":1649,"åĬłå¯Ĩè´§å¸ģ":1650,"é¦Ĩ":1651,"éĩįæĸ°å®ļä¹ī":1652,"åĤ¬çĶŁ":1653,"çĶŁæĪĲ":1654,"ä¿ĿæĬ¤":1655,"çº³ç±³":1656,"èĴĻ":1657,"éĻ©":1658,"åĲİçİ°ä»£":1659,"åĨħå®¹":1660,"éĺĲéĩĬ":1661,"çħ§":1662,"è§Ĥå¿µ":1663,"è®¡ç®Ĺæŀ¶æŀĦ":1664,"éĢŁåº¦":1665,"å¥½":1666,"è¡¨è¾¾ä¹łæĥ¯":1667,"ä¾µèļĢ":1668,"èĮĥåĽ´åĨħ":1669,"ä»ĭ":1670,"åĮ»":1671,"å¿ħ":1672,"éĥ½":1673,"è¿ģ":1674,"âĢĶ":1675,"æ´ŀ":1676,"è¡°":1677,"èĢĹ":1678,"ç»ıéªĮ":1679,"èĲ½":1680,"æıĲåĩºäºĨ":1681,"åİ»ä¸Ńå¿ĥ":1682,"é²ľ":1683,"åİŁåŃĲ":1684,"ä¿ĿåŃĺ":1685,"ç§ĳæĬĢ":1686,"æİ§åĪ¶":1687,"ä»½":1688,"å°ģ":1689,"åĵ¥":1690,"æ»":1691,"å®ŀè¯ģ":1692,"çĽ®":1693,"ä½ľèĢħ":1694,"re":1695,"è´¹":1696,"ä½ľåĵģ":1697,"ç¢į":1698,"åı¯èĥ½ä¼ļå¦Ĥä½ķ":1699,"è¯ģå®ŀ":1700,"ä¸İä¼łç»Ł":1701,"ç³»å¤ĸ":1702,"èĩªçĶ±":1703,"è¿ĽæŃ¥":1704,"æº¶":1705,"çĶµç£ģ":1706,"Â·":1707,"ä¿¯":1708,"çĽ¸å¹²":1709,"éĢŁçİĩ":1710,"æĪª":1711,"éĢļçĶ¨":1712,"ä½ĵéªĮ":1713,"çŁ¿":1714,"è·µ":1715,"ä¿¯åĨ²":1716,"å¼ķåıĳäºĨ":1717,"å®Įæķ´":1718,"åĪĽæĸ°":1719,"å®ŀè·µ":1720,"æ°§":1721,"ç³»ç»ŁæĢ§":1722,"æ²³æµģ":1723,"ç³»å¤ĸè¡ĮæĺŁ":1724,"éļľ":1725,"è¯¯":1726,"åľ°ç¼ĺ":1727,"è¯ĨåĪ«":1728,"ç»ĵæŀĦä¸»ä¹ī":1729,"é¢ĨåŁŁçļĦ":1730,"çĭ¬çī¹":1731,"èĪª":1732,"å¤ªéĺ³èĥ½":1733,"é²ľæĺİ":1734,"æĪªçĦ¶":1735,"éĩįå¡ĳ":1736,"çĲĨè®ºéĢļè¿ĩ":1737,"ä¾§":1738,"åıĳçĶŁæĢİæł·çļĦ":1739,"åŁºæľ¬æĶ¶åħ¥":1740,"åľ°ç¼ĺæĶ¿æ²»":1741,"çļĦåĲĮæĹ¶":1742,"æĮĩæłĩ":1743,"åĪĽä½ľ":1744,"åıłåĬł":1745,"an":1746,"ä¼ĺåĮĸ":1747,"åħ¨çĲĥèĮĥåĽ´åĨħ":1748,"çģŃ":1749,"è¿Ļä¸Ģ":1750,"æİ¨è¿Ľ":1751,"NA":1752,"èŀįåĲĪ":1753,"èĢĥéĩı":1754,"åĪº":1755,"æ³ķå¾ĭ":1756,"å¹²é¢Ħ":1757,"æĤ²":1758,"å¹¿æ³ĽåºĶçĶ¨":1759,"èº«ä»½":1760,"or":1761,"çī©ç§į":1762,"åĲİçİ°ä»£ä¸»ä¹ī":1763,"èĩªæĪĳ":1764,"è¯´æĺİ":1765,"è°ĥèĬĤ":1766,"ä¼¦çĲĨæ¡Ĩæŀ¶":1767,"ç¨³å®ļæĢ§":1768,"åħ¨æģ¯":1769,"å¸¦æĿ¥":1770,"åħħ":1771,"åĪĩ":1772,"åŁ¹":1773,"å¾Ģå¾Ģ":1774,"åħ¨æ°ĳåŁºæľ¬æĶ¶åħ¥":1775,"æİª":1776,"é£Ł":1777,"éŁ³":1778,"åĨĻ":1779,"éĿĴ":1780,"ç¼©":1781,"èħ":1782,"çĶ²":1783,"å¯ĨçłģåŃ¦":1784,"ç»ĺçĶ»":1785,"å¤´":1786,"åı¯å¡ĳ":1787,"åŃĺåľ¨ä¸»ä¹ī":1788,"åĺ":1789,"éĢļè¿ĩå°Ĩ":1790,"æķĪæŀľ":1791,"éĵ¶":1792,"å¯Ł":1793,"çĶŁåĳ½":1794,"åĲİç»ĵæŀĦä¸»ä¹ī":1795,"æķ´åĲĪ":1796,"èĻļ":1797,"æĸĩèīºå¤įåħ´æĹ¶æľŁ":1798,"å½»åºķéĿ©æĸ°":1799,"çº¦æĿŁ":1800,"åħ·è±¡":1801,"é£İéĻ©":1802,"ä»¿":1803,"éĻ¤":1804,"åĪĴ":1805,"å±ŀ":1806,"é¢ľ":1807,"ç¾¤ä½ĵ":1808,"ä»Ģä¹Ī":1809,"æĸ¹æ¡Ī":1810,"åŃĺåľ¨çļĦ":1811,"çĻ½":1812,"æĤ²åī§":1813,"ãĢģ":1814,"å¿Ĺ":1815,"å¤ļæł·":1816,"åĨ³å®ļ":1817,"å¾®çĶŁçī©":1818,"éĢĢçĽ¸å¹²":1819,"æĽ¿":1820,"ç³»ç»ŁçļĦ":1821,"å´©":1822,"20":1823,"åĪ·":1824,"å¸Į":1825,"æĽ´æ³¨éĩį":1826,"ç¡®è®¤":1827,"è§Ĩè§ī":1828,"æī¹è¯Ħ":1829,"åı·":1830,"èĩªä¸»":1831,"çİ°è±¡åŃ¦":1832,"Ĺæŀģ":1833,"åįķ":1834,"åĪĨå±Ĥ":1835,"æĬĢæľ¯å®ŀçİ°":1836,"è¯Ħä¼°":1837,"çİ°æľī":1838,"ç®Ģ":1839,"å°Ĩå¦Ĥä½ķè°ĥæķ´":1840,"éĽĨä½ĵ":1841,"åį°åĪ·":1842,"å±ķçİ°åĩº":1843,"åĨ²çªģ":1844,"é»":1845,"æ®µ":1846,"åĪºæ¿Ģ":1847,"å·Ŀ":1848,"åı¯å¡ĳæĢ§":1849,"èĩ³":1850,"éĽķ":1851,"ä¼ĺåħĪèĢĥèĻĳ":1852,"å·²":1853,"æ²Ł":1854,"çĸ¾":1855,"è§Ĩè§Ĵ":1856,"æ·±åº¦":1857,"æľºåĻ¨åŃ¦ä¹ł":1858,"åĢŁåĬ©":1859,"å®¡":1860,"è®¸":1861,"çĲĨè§£":1862,"åĨ°å·Ŀ":1863,"å®ŀéªĮ":1864,"ä¸įå¹³çŃī":1865,"ä¸ŃçļĦåºĶçĶ¨":1866,"åīĬ":1867,"åĮºåŁŁ":1868,"ä¼Ĺ":1869,"æĿİ":1870,"åĳ¨":1871,"ä¿®é¥°":1872,"é²ľæĺİå¯¹æ¯Ķ":1873,"å®ı":1874,"ä¾ĭ":1875,"å¼ķåĬĽ":1876,"å¦Ĥä½ķåľ¨":1877,"åįĬ":1878,"åľ°ä½į":1879,"æł¼å±Ģ":1880,"ç®¡çĲĨ":1881,"åĿĩè¡¡":1882,"åıĸä»£":1883,"ä¸¤èĢħåľ¨":1884,"èĩªåĬ¨åĮĸ":1885,"ç»Ŀç¼ĺä½ĵ":1886,"īåĽ¾":1887,"äººä»¬":1888,"åĩºçİ°":1889,"è¾¾åĪ°":1890,"æĸĩèīºå¤įåħ´æĹ¶æľŁçļĦ":1891,"çļĦåŁºåĽł":1892,"åĪ»":1893,"ç§°":1894,"çģµ":1895,"å®Įåħ¨":1896,"æłĩåĩĨåĮĸ":1897,"ç»Ī":1898,"åĨµ":1899,"åģıå·®":1900,"æĭĵæīĳç»Ŀç¼ĺä½ĵ":1901,"ç«ĭä½ĵä¸»ä¹ī":1902,"åİ»ä¸Ńå¿ĥåĮĸ":1903,"é¢ľæĸĻ":1904,"è°±":1905,"æµģåĬ¨":1906,"ç¼ĵè§£":1907,"çĸ¾çĹħ":1908,"åĪĹ":1909,"å°¼":1910,"æĹ¦":1911,"ä½ľä¸º":1912,"çĶŁçī©ç¥ŀç»ıç½ĳç»ľ":1913,"çĥ·":1914,"åİĭåĬĽ":1915,"çĶ²çĥ·":1916,"åĺīåĽ¾":1917,"æĿİåĺīåĽ¾":1918,"ä¸»è§Ĥ":1919,"ä¸ĢæĹ¦":1920,"æ²»çĲĨ":1921,"æĽ´é«ĺçļĦ":1922,"éĽķå¡ĳ":1923,"çļĦå½±åĵį":1924,"æĤĸ":1925,"å¿ĥçĲĨåŃ¦":1926,"æıĲä¾ĽäºĨ":1927,"å®ĥä»¬":1928,"æŀĹ":1929,"åĲĪæĪĲçĶŁçī©åŃ¦":1930,"te":1931,"è¯Ŀ":1932,"åħ³èģĶ":1933,"åıįæĺł":1934,"æ¢°":1935,"ä¸Ŀ":1936,"çļ®":1937,"çļĦè®¤çŁ¥":1938,"éĢļä¿¡":1939,"åĨ·":1940,"èĢģ":1941,"å®ĩå®ĻåŃ¦":1942,"è½¨éģĵ":1943,"è¿ľ":1944,"ä¼łéĢĴ":1945,"æľīä½ķ":1946,"æľºæ¢°":1947,"å¤©ä½ĵ":1948,"ä¿¯åĨ²å¸¦":1949,"çİ°æľīçļĦ":1950,"æºĥ":1951,"çľĭ":1952,"æ¶Īè´¹":1953,"èİ·å¾Ĺ":1954,"åĲ¯èĴĻ":1955,"å¦ĤæŀľæļĹ":1956,"æįŁ":1957,"çĬ¶æĢģ":1958,"æ··åĲĪ":1959,"æİªæĸ½":1960,"å´©æºĥ":1961,"ar":1962,"è¿¹":1963,"ä¼ļå¼ķåıĳåĵªäºĽ":1964,"çºł":1965,"æľŁéĹ´":1966,"å½¢æĪĲé²ľæĺİå¯¹æ¯Ķ":1967,"æ°´å¹³":1968,"ï¼ļ\"":1969,"çŃīçº§":1970,"åĩĨç¡®æĢ§":1971,"æĬ½è±¡è¡¨çİ°ä¸»ä¹ī":1972,"åľ¨å¤ļ":1973,"åĽ°":1974,"åıĳçİ°":1975,"åŀĤ":1976,"è¯Ńè¨ĢåŃ¦":1977,"è§£éĩĬäºĨ":1978,"ç¢³éħ¸":1979,"æľºåĻ¨äºº":1980,"åıįé¦Īå¾ªçİ¯":1981,"åıĮ":1982,"ä¸İç»ıåħ¸":1983,"åĪĨéħį":1984,"ä¿ĥä½¿":1985,"è¾¹çķĮ":1986,"æİ¨åĬ¨äºĨ":1987,"åŀĤçĽ´":1988,"åŃ¦æ´¾":1989,"å¸Ŀ":1990,"æŃ§":1991,"å¯¼çĶµ":1992,"å¼ķåıĳçļĦ":1993,"å·¥ä½ľ":1994,"è§Ĥæµĭ":1995,"æ²»çĸĹ":1996,"å°ıè¯´ä¸ŃçļĦ":1997,"éĩĳèŀį":1998,"æ²īç§¯çī©":1999,"éĩıåŃĲéĢĢçĽ¸å¹²":2000,"æĪĺåĲİ":2001,"åħīåŃ¦":2002,"éĺ¶":2003,"éĵ¶è¡Į":2004,"éľ¸":2005,"åŁºåĽłç¼ĸè¾ĳæĬĢæľ¯":2006,"æĤĸè®º":2007,"çĪ":2008,"å¤®":2009,"å¿Ĩ":2010,"éĺ»":2011,"âĢ¦âĢ¦":2012,"éľ¸æĿĥ":2013,"ä¼Ĭ":2014,"æĦıè¯ĨæµģåıĻäºĭ":2015,"æıĲåĩºäºĨæĮĳæĪĺ":2016,"èĥ½å®ŀçİ°":2017,"åľ¨åħ¨çĲĥèĮĥåĽ´åĨħ":2018,"ç³»ç»Łä¸Ń":2019,"éĩĬæĶ¾":2020,"ç¾İåŃ¦":2021,"è¾¹ç¼ĺ":2022,"ä¼ı":2023,"å·§":2024,"è¶ħèĩªçĦ¶":2025,"ç´¯":2026,"ç«¯":2027,"æĺŁéĻħ":2028,"çĭ¬çī¹çļĦ":2029,"è§Ĥå¯Ł":2030,"å»ºæ¨¡":2031,"å·¥ä¸ļéĿ©åĳ½":2032,"çľŁå®ŀ":2033,"ç½Ĺ":2034,"æ¶ī":2035,"åį´":2036,"æķ´ä½ĵ":2037,"è¿ĩç¨ĭä¸Ń":2038,"å£ģ":2039,"èİ·åıĸ":2040,"åħīåĲĪ":2041,"èŀįåħ¥":2042,"æĺ¾èĳĹå·®å¼Ĥ":2043,"è¯¥ç¿»è¯ĳ":2044,"çĮ®":2045,"çĩ":2046,"è¯Ńå¢ĥ":2047,"æĪĺçķ¥":2048,"ç¬¬":2049,"éĺ²":2050,"æł¸å¿ĥ":2051,"åįģå¹´":2052,"åº·å¾·":2053,"æĪªçĦ¶ä¸įåĲĮçļĦ":2054,"ä¸Ńå¤®":2055,"å¯¹ä¼łç»Ł":2056,"åį¡":2057,"æıı":2058,"ç¡®å®ļ":2059,"äºĮèĢħåľ¨":2060,"ç¨ĭåº¦ä¸Ĭ":2061,"å®ŀæĹ¶":2062,"å¡ĳéĢł":2063,"è·¯å¾Ħ":2064,"ç¤¾äº¤åªĴä½ĵç®Ĺæ³ķ":2065,"åīĬå¼±":2066,"äººä¸º":2067,"å»ºæŀĦ":2068,"äº¤æµģ":2069,"éĵľ":2070,"æ¦Ĥçİĩ":2071,"ä¾ĽåºĶ":2072,"å·¥ä¸ļåĮĸ":2073,"è´£":2074,"æīĺ":2075,"å¤ļåĪ©äºļ":2076,"ç»´å¤ļåĪ©äºļ":2077,"èģļåıĺ":2078,"å¸ĿåĽ½":2079,"éĿł":2080,"é¢ĳ":2081,"ç¬Ķ":2082,"äº¤æĺĵ":2083,"ç»Ħè£ħ":2084,"åĪĽéĢł":2085,"åı¯è¡ĮæĢ§":2086,"è´¢æĶ¿":2087,"å¯Į":2088,"è¶³":2089,"åĵªäºĽç¤¾ä¼ļ":2090,"æĥħåĨµ":2091,"å£°":2092,"ç»Ļ":2093,"éĢĨ":2094,"ç»ĵæŀĦçļĦ":2095,"ç´¢":2096,"ç²¾åº¦":2097,"åĳĪæĮĩæķ°çº§":2098,"å±ĤéĿ¢çļĦ":2099,"å¤ļæł·æĢ§":2100,"çĨ":2101,"ä¸»æµģ":2102,"æĬĢå·§":2103,"åıįçī©è´¨":2104,"ç¡ħ":2105,"ç¤¾åĮº":2106,"æĽ¿ä»£":2107,"åĮĹæŀģ":2108,"ç¢³éħ¸çĽĲ":2109,"ãĢĬ":2110,"ãĢĭ":2111,"ãĢĤï¼ī":2112,"ä¾¿":2113,"åİŁæĸĩ":2114,"å¹³è¡¡":2115,"ä¸ĭéĻį":2116,"å¦Ĥä½ķå½±åĵįäºĨ":2117,"åĳ¨æľŁ":2118,"å®ıè§Ĥ":2119,"is":2120,"çļĦç¤¾ä¼ļ":2121,"çļĦå¹¿æ³Ľ":2122,"ä¼ļå¦Ĥä½ķ":2123,"æĶ¹éĢł":2124,"è¯ĳæ³ķ":2125,"ç«ŀ":2126,"å²¸":2127,"å®¤æ¸©":2128,"éĿĴéĵľ":2129,"ï¼Ľ":2130,"å±ķç¤º":2131,"åħīä¼ı":2132,"ä¹īåĬ¡è®ºä¼¦çĲĨåŃ¦":2133,"DNA":2134,"æĶ¹éĿ©":2135,"éķľ":2136,"æĸ¹æ³ķè®º":2137,"çĥŃå¸¦":2138,"è£Ĥ":2139,"çĸĹæ³ķ":2140,"çĻ¾":2141,"å°ĨéľĢè¦ģè¿Ľè¡Į":2142,"åĮºåĪ«":2143,"åħ´èµ·":2144,"åģıè¯¯":2145,"éĢıè§Ĩ":2146,"æ£Ģ":2147,"ä¸Ĭåįĩ":2148,"èģĮ":2149,"åĬłéĢŁäºĨ":2150,"å®ĩå®ĻèĨ¨èĥĢ":2151,"æĢĿæĥ³":2152,"æľīæľº":2153,"éģĹä¼łåŃ¦":2154,"ä¿ĥè¿ĽäºĨ":2155,"çĩĥ":2156,"ç¬Ķè§¦":2157,"è¦ģæ±Ĥ":2158,"åºĶçĶ¨äºİ":2159,"åĮºåĿĹéĵ¾çļĦ":2160,"łéĩĬ":2161,"è¿½":2162,"ä¼Ĳ":2163,"è¯łéĩĬ":2164,"å®ŀä½ĵ":2165,"æŃĮ":2166,"èĬ¯":2167,"æ¯Ķè¾ĥä¼ĺåĬ¿çĲĨè®º":2168,"åħīåĲĪä½ľçĶ¨":2169,"ation":2170,"çļĦæĻ®åıĬ":2171,"è®¨":2172,"åĲĦ":2173,"äºļåİĨ":2174,"è´§å¸ģæĶ¿çŃĸ":2175,"åĽºæĢģ":2176,"éĿĴéĵľæĹ¶ä»£":2177,"è°¨":2178,"æĻ¶":2179,"å¸¸éĢļè¿ĩ":2180,"éĶ®":2181,"æĺłå°Ħ":2182,"ç¡®è®¤åģıè¯¯":2183,"åĽ¢":2184,"å½¢æĪĲçļĦ":2185,"æ¸©çĽĲçİ¯æµģæ¨¡å¼ı":2186,"¿æ²Ł":2187,"å®Ĺ":2188,"æĸĩçĮ®":2189,"äºĭä»¶":2190,"ä¸ĸçķĮ":2191,"é¸¿æ²Ł":2192,"æĪĲæľ¬":2193,"éĩįåķĨ":2194,"æıŃç¤ºåĩº":2195,"å±±å¤§":2196,"æĺ¯åĲ¦ä¼ļ":2197,"ç»Ŀå¯¹":2198,"æľĢå¤§":2199,"åıĪç¬¦åĲĪä¸Ńæĸĩ":2200,"åłĨ":2201,"æ°§åĮĸ":2202,"ç«ŀäºī":2203,"äºļåİĨå±±å¤§":2204,"Ġc":2205,"ç³»ç»Łä¸ŃçļĦ":2206,"å¥¥":2207,"åĽ¾ä¹¦":2208,"äºīè®®":2209,"ä¸¥è°¨":2210,"åĽ¾ä¹¦é¦Ĩ":2211,"è¿Ł":2212,"åĲ«":2213,"å¤§ç¨ĭåº¦ä¸Ĭ":2214,"åħ¨éĿ¢":2215,"è½¬æį¢":2216,"æĿĥå¨ģ":2217,"çĲĨæĢ§éĢīæĭ©":2218,"çļĦåıĳæĺİ":2219,"äºļåİĨå±±å¤§åĽ¾ä¹¦é¦Ĩ":2220,"ä¹±":2221,"åı¯èĥ½å¦Ĥä½ķ":2222,"æ²¿":2223,"åŀĦ":2224,"è½¦":2225,"æĦıè¯Ĩå½¢æĢģ":2226,"é¡»":2227,"ol":2228,"ä¼¤":2229,"æĪ·":2230,"åľ°å½¢":2231,"è¶ħå¯¼ä½ĵ":2232,"åĩĨç¡®ä¼łè¾¾":2233,"èįĴ":2234,"é©±åĬ¨æĬĢæľ¯":2235,"èħĬ":2236,"æµĵ":2237,"åľ°åĮºçļĦ":2238,"èĦĳæľºæİ¥åı£å®ŀçİ°":2239,"æĹ¥çĽĬ":2240,"å¸ĮèħĬ":2241,"åŀĦæĸŃ":2242,"ä¼¼":2243,"èĥĮ":2244,"ä¸Ģä¸ª":2245,"å¹³åİŁ":2246,"ä¿ĥæĪĲ":2247,"å¿ħé¡»":2248,"ä¿®æŃ£":2249,"éļıçĿĢ":2250,"è½¨è¿¹":2251,"éĩįåķĨä¸»ä¹ī":2252,"éĩİ":2253,"çĽĸ":2254,"åĬ¨çī©":2255,"æ²¡":2256,"è¿Ľå±ķ":2257,"æµ·å²¸":2258,"åģıè§ģ":2259,"é¡¿":2260,"æĬĺå°Ħçİĩ":2261,"æĥħåĨµä¸ĭ":2262,"åĩ»":2263,"åĽĽ":2264,"çĽĳç®¡":2265,"åľ¨å¤ļå¤§ç¨ĭåº¦ä¸Ĭ":2266,"åįģå¹´åĨħ":2267,"æĽ¾":2268,"æ²¹":2269,"æĽ´ç¬¦åĲĪä¸Ńæĸĩ":2270,"çĥ¯":2271,"çº³åħ¥":2272,"çļĦä¼łç»Ł":2273,"æĢ§ä¸İ":2274,"è¾¨":2275,"æľīåĵªäºĽ":2276,"ä¸ªä½ĵ":2277,"èĲ¥åħ»":2278,"å®ŀéĻħ":2279,"åĽ°å¢ĥ":2280,"å®ĹæķĻ":2281,"ç»¸":2282,"è®Ń":2283,"è¯į":2284,"æī¿":2285,"ç½²":2286,"çĲĨè®ºä¸Ĭ":2287,"å¼ķåħ¥":2288,"éĽ·":2289,"åı¤ä»£":2290,"åĬ³åĬ¨åĬĽå¸Ĥåľº":2291,"19":2292,"Ġs":2293,"æĹĭ":2294,"æĹłæ³ķ":2295,"åĨ²ç§¯å¹³åİŁ":2296,"è¯ĹæŃĮ":2297,"åĲİç»ĵæŀĦä¸»ä¹īæĸĩåŃ¦":2298,"ä¸Ŀç»¸":2299,"ä¸İåĬŁåĪ©ä¸»ä¹ī":2300,"è±¡å¾ģ":2301,"æīĢæľī":2302,"å¹¶ç½®":2303,"æ¹¿":2304,"èĻļæĭŁ":2305,"åºľ":2306,"çĲĨå¿µ":2307,"äººç±»è®¤çŁ¥":2308,"å¥³":2309,"äºĮæ°§åĮĸ":2310,"éĥ¨ç½²":2311,"åħ¨æģ¯åİŁçĲĨ":2312,"åĽºæĢģçĶµæ±ł":2313,"çŀ":2314,"äºĳ":2315,"ç§ģ":2316,"å¦ĤæŀľéĩıåŃĲ":2317,"åº¦çļĦ":2318,"éĩıåŃĲåľº":2319,"å¸¸åĢŁåĬ©":2320,"æī©å¼ł":2321,"åįĬå¯¼ä½ĵ":2322,"it":2323,"åľ£":2324,"ä»¤":2325,"ç¨İ":2326,"æĶ¿åºľ":2327,"ä¹ĭè·¯":2328,"å¤ªç©º":2329,"æľĢç»Ī":2330,"è¿ĳä»£":2331,"ä¸Ŀç»¸ä¹ĭè·¯":2332,"æĦıåĽ¾":2333,"åĽłæŀľ":2334,"å°Ĩå¦Ĥä½ķæ¼Ķåıĺ":2335,"åħ¨çĲĥåĮĸ":2336,"æĶ¾å¤§":2337,"åĲİæ®ĸæ°ĳæĸĩåŃ¦ä¸ŃçļĦéŃĶå¹»çİ°å®ŀä¸»ä¹ī":2338,"éĩıåŃĲåľºè®º":2339,"æĪı":2340,"åıĳèĤ²":2341,"æīĩ":2342,"æĬĢæľ¯éĢļè¿ĩ":2343,"éģµ":2344,"éĽ¶":2345,"æ¢¯":2346,"åħīéģĹä¼łåŃ¦":2347,"æĪĸè®¸":2348,"æŁĵ":2349,"åĨ²ç§¯æīĩ":2350,"è´£ä»»":2351,"åĲį":2352,"ä¸ĬåŃĺåľ¨":2353,"èį¯":2354,"è®°å¿Ĩ":2355,"åĮ»çĸĹ":2356,"tr":2357,"åĶ":2358,"çļĦè½¬åıĺ":2359,"åıĳçĶµ":2360,"ç¥ŀç»ıç§ĳåŃ¦":2361,"ç¥ŀç»ıåı¯å¡ĳæĢ§":2362,"ç³»å¤ĸè¡ĮæĺŁå¤§æ°Ķ":2363,"è¿ĳä»£æĹ©æľŁ":2364,"èĥŀ":2365,"ä¸įæĸŃ":2366,"çī¹å®ļ":2367,"çĥŃéĩı":2368,"ç¾İå¾·":2369,"èģĶç½ĳ":2370,"ç¼ĸç¨ĭ":2371,"å»¶è¿Ł":2372,"è¡¨è§ĤéģĹä¼łæľºåĪ¶":2373,"æľįåĬ¡":2374,"é»ĳ":2375,"ĺæ±":2376,"çīĽ":2377,"æ·ĺæ±":2378,"çŃīç¦»åŃĲ":2379,"èī²å½©çĲĨè®º":2380,"éļľç¢į":2381,"äºĮæ°§åĮĸç¢³":2382,"æ·ĺæ±°":2383,"Ġp":2384,"å®¢":2385,"è¯º":2386,"æķı":2387,"æ´Ľ":2388,"çĶ±äºİ":2389,"ç¥ŀç»ıå½¢æĢģè®¡ç®Ĺæŀ¶æŀĦ":2390,"åİŁåŃĲçº§":2391,"å±ķç¤ºäºĨ":2392,"ä¹īçĽ¸å¯¹è®º":2393,"å¯¹ç§°":2394,"æ¯Ķçī¹":2395,"å¿ĥè®º":2396,"æ±½":2397,"æ¸¸":2398,"èĦ±":2399,"æľªæĿ¥":2400,"æİ¢æµĭ":2401,"å»¶ç»Ń":2402,"èµĦæľ¬ä¸»ä¹ī":2403,"ç»Ĩèĥŀ":2404,"è¥¿æĸ¹":2405,"ä¼ª":2406,"æĮ¯":2407,"æĪĲåĬŁ":2408,"è´¨çĸĳ":2409,"å¥ĩ":2410,"ç¦ı":2411,"åŁºäºİCRISPR":2412,"æ°¸ä¹ħåĨ»åľŁèŀįåĮĸ":2413,"çĶµç£ģæ³¢":2414,"ç¢³éħ¸çĽĲå²©":2415,"çŀ¬":2416,"è¯ķ":2417,"æľ¬ä½ĵ":2418,"æ³Ľå¿ĥè®º":2419,"æĹ¢ä¿ĿçķĻ":2420,"çļĦæĬĢæľ¯":2421,"å±ħ":2422,"éĻ·":2423,"ä»İæł¹æľ¬ä¸ĬæĶ¹åıĺäºĨ":2424,"æ£Ģæµĭ":2425,"çļĦåħī":2426,"åľ°ä¸Ń":2427,"éĹŃ":2428,"è®¤çŁ¥åģıå·®":2429,"æłĩå¿Ĺ":2430,"ç§¯ç´¯":2431,"å¥¹":2432,"éĴĻ":2433,"çĽ¸åħ³æĢ§":2434,"ä¸ľ":2435,"çļĦéģĵå¾·":2436,"æĽ¼":2437,"èĭ±":2438,"åıĻäºĭç»ĵæŀĦ":2439,"çĸ«":2440,"æķ°åŃĹé¸¿æ²Ł":2441,"æĿĲæĸĻç§ĳåŃ¦":2442,"å¾Ĺä»¥å®ŀçİ°":2443,"ä»ĸä»¬":2444,"æ½ľåľ¨":2445,"ä¸Ńå¤®éĵ¶è¡Į":2446,"èĬ¯çīĩ":2447,"ç¾İå¾·ä¼¦çĲĨåŃ¦":2448,"çŃīç¦»åŃĲä½ĵ":2449,"åħį":2450,"æłĳ":2451,"æıĲé«ĺ":2452,"èİİ":2453,"èįĲ":2454,"è¿ŀæİ¥":2455,"è£ħç½®èīºæľ¯":2456,"æ£®":2457,"ç¡®å®ļæĢ§":2458,"åľĪ":2459,"ä»ħ":2460,"çŁŃ":2461,"å¤§è§Ħæ¨¡":2462,"éĩıåŃĲæ¯Ķçī¹":2463,"ç¡®ç«ĭ":2464,"æ±ĩ":2465,"éĩĩçŁ¿":2466,"æİ¨èįĲ":2467,"å°ıè¡ĮæĺŁ":2468,"åħĭæľį":2469,"æĪĳä»¬å¯¹":2470,"æĬķèµĦ":2471,"åķĨä¸ļåĮĸ":2472,"æĶ¯æĮģ":2473,"å°ģå»º":2474,"çļĦæĥħåĨµä¸ĭ":2475,"éĢģ":2476,"åħīè°±":2477,"æĺİæļĹ":2478,"æ°´æĸĩ":2479,"çĥŃåĬĽåŃ¦":2480,"èĥ½åĲ¦åľ¨":2481,"æ¶ĪèĢĹ":2482,"åªĴä»ĭ":2483,"äº¿äº¿":2484,"çĻ¾äº¿äº¿":2485,"å¼Ĺ":2486,"éĩįå¤§":2487,"å¤įåĪ¶":2488,"è¯ģæį®":2489,"ç¡ħåŁº":2490,"åĭ":2491,"åĪĨè¾¨":2492,"å¤§èĦĳ":2493,"æŀģç«¯":2494,"åı¥æ³ķ":2495,"æī©å±ķ":2496,"åĪĨè¾¨çİĩ":2497,"åĲĹ":2498,"ç»ĵåĲĪ":2499,"ç¤¾ä¼ļä¸Ń":2500,"åĸ·":2501,"åħ±çĶŁ":2502,"å±ĢéĻĲ":2503,"æĬĺå°Ħåĩº":2504,"åįļå¼Īè®ºåľ¨":2505,"æ²¹çĶ»":2506,"ur":2507,"å¤«":2508,"å½¢èĢĮ":2509,"ä¸ĬåŃ¦":2510,"éĩıåŃĲåıłåĬł":2511,"âĢĶâĢĶ":2512,"çīĪ":2513,"ä¸»æĿĥ":2514,"åĪĨç±»":2515,"å·¥åħ·":2516,"åħ³éĶ®":2517,"éĩıåŃĲåĬĽåŃ¦":2518,"æĸ°åŀĭ":2519,"æł¹æį®":2520,"çİ°ä»£ä¸»ä¹īæĸĩåŃ¦":2521,"éĻįæ°´":2522,"æįķæį":2523,"çīĽé¡¿":2524,"ec":2525,"om":2526,"æĪ¿":2527,"ç»ıåİĨ":2528,"è°·":2529,"åı¯èĥ½åľ¨":2530,"ç½ĳç»ľå®īåħ¨":2531,"æ¼ł":2532,"è´¸æĺĵç½ĳç»ľ":2533,"é©±åĬ¨çļĦ":2534,"è¶ħèĩªçĦ¶åħĥç´ł":2535,"æľ¬ä½ĵè®º":2536,"å½¢èĢĮä¸ĬåŃ¦":2537,"åı¯å®ŀçİ°":2538,"æī°":2539,"ç§»æ¤į":2540,"æº¶è§£":2541,"è®©":2542,"ä¸»è¦ģ":2543,"æ¨¡ä»¿":2544,"å¢¨":2545,"åĿı":2546,"æĮģç»ŃåŃĺåľ¨":2547,"å°ıè¡ĮæĺŁéĩĩçŁ¿":2548,"at":2549,"ä½ı":2550,"è¿«":2551,"çĶ¨æĪ·":2552,"åı¯èĥ½éĢļè¿ĩ":2553,"åŃĺåĤ¨":2554,"ä¸ªæĢ§":2555,"ä¸īè§Ĵ":2556,"å¿«éĢŁ":2557,"åľ°ä¸Ńæµ·":2558,"éĢļè¿ĩæ¯Ķè¾ĥ":2559,"å¦Ĥä½ķè§£éĩĬ":2560,"åį«":2561,"æĹ¶ç©º":2562,"åĪĨæŃ§":2563,"ç³»ç»ŁéĢļè¿ĩ":2564,"æķ°åŃ¦":2565,"æĸ°åı¤åħ¸":2566,"çĥĪ":2567,"äº¤æį¢":2568,"ç²¾ç¥ŀ":2569,"è´§å¸ģä¸»ä¹ī":2570,"èĻ½":2571,"å¤įæĿĤçļĦ":2572,"æĸĩæľ¬çļĦ":2573,"æĵįä½ľ":2574,"åŁ¹åħ»":2575,"å£ģçĶ»":2576,"å®¤æ¸©è¶ħå¯¼ä½ĵ":2577,"æĻ¶ä½ĵ":2578,"ï¼Į\"":2579,"ç»ĥ":2580,"åĮħ":2581,"åĮĸä¸º":2582,"äººæľº":2583,"éĩįç»Ħ":2584,"è¯ģæĺİ":2585,"åĨħéĥ¨":2586,"æīĭæ®µ":2587,"å½»åºķæĶ¹åıĺ":2588,"åĵ²åŃ¦ä¸»å¼ł":2589,"çĽ´æİ¥å½±åĵį":2590,"æī©æķ£":2591,"åĨ³å®ļè®º":2592,"æııè¿°":2593,"åĵĪ":2594,"è¡Įä¸ļ":2595,"èĦī":2596,"è·¨ä»£":2597,"çĽ®çļĦ":2598,"æįķæįī":2599,"çļĦä¼¦çĲĨ":2600,"èĥ½æķĪ":2601,"å®ŀåľ¨":2602,"åľ°ä¸ĭ":2603,"å¦Ĥæŀľåıįçī©è´¨":2604,"åıĻè¿°":2605,"åħħåĪĨ":2606,"äººä»¬å¯¹":2607,"ä¸ªæĢ§åĮĸ":2608,"å¤ľ":2609,"æĽ´å¼ºè°ĥ":2610,"åĪĻå¼ºè°ĥ":2611,"ä¾ĿåŃĺ":2612,"å¤įæĿĤæĢ§":2613,"çļĦç¢İçīĩåĮĸ":2614,"åį±":2615,"çº¯":2616,"ç´§":2617,"å²Ľ":2618,"æĥħå¢ĥ":2619,"çłĶç©¶è¡¨æĺİ":2620,"è¶ĭåĬ¿":2621,"åŁºäºİCRISPRçļĦåŁºåĽł":2622,"ed":2623,"æĹ¨":2624,"æĬ¥":2625,"è¾Ĳ":2626,"åĳĺ":2627,"åŁºåĽłç»Ħ":2628,"äº§çĶŁåĵªäºĽ":2629,"åķĨåĵģ":2630,"è¿½æ±Ĥ":2631,"åĲ¸":2632,"å¼ĥ":2633,"éĩįè§Ĩ":2634,"æŀģç®Ģ":2635,"ä¸¥æł¼":2636,"çĻ¾äº¿äº¿æ¬¡":2637,"éĿ¶":2638,"çĶŁçī©å¤ļæł·æĢ§":2639,"èµĽ":2640,"æĸ°çļĦ":2641,"ç©¿":2642,"æ°Ķä½ĵ":2643,"åģļ":2644,"å°Ĩå¦Ĥä½ķå½±åĵį":2645,"æĦıè¯ĨçļĦ":2646,"ç¾İæ´²":2647,"éĶĤ":2648,"æ¶ĪéĻ¤":2649,"ä¾§éĩį":2650,"ç«ĭä½ĵä¸»ä¹īå¯¹":2651,"è®¢":2652,"å½ķ":2653,"å¼ºåº¦":2654,"æ¨¡å¼ıè¯ĨåĪ«":2655,"çĽ´è¯ĳ":2656,"æ°ĶåĢĻåıĺåĮĸ":2657,"çĶŁäº§åĬĽ":2658,"åĲİæ®ĸæ°ĳåıĻäºĭ":2659,"æİ¢ç´¢":2660,"æĳĦ":2661,"åºıåĪĹ":2662,"åħ°":2663,"æĹ±":2664,"è´¯":2665,"æľªæĽ¾":2666,"æļ´":2667,"éļĲç§ģ":2668,"æĭĵæīĳéĩıåŃĲè®¡ç®Ĺ":2669,"éĺĲéĩĬäºĨ":2670,"è¿ģç§»":2671,"åĨĻå®ŀ":2672,"éĺ»ç¢į":2673,"ä¸īè§Ĵæ´²":2674,"è¾Ĳå°Ħ":2675,"æĭħ":2676,"é£İæł¼":2677,"æ¬§æ´²ä¸Ńå¿ĥ":2678,"ç¥ŀç»ıå½¢æĢģè®¡ç®Ĺ":2679,"åĪĨåŃĲç»Ħè£ħ":2680,"å¼Ģåıĳ":2681,"è´ŁæĬĺå°Ħçİĩ":2682,"åıįåºĶåłĨ":2683,"ä½ľèĢħæĦıåĽ¾":2684,"æİ¨è¿Ľç³»ç»Ł":2685,"å®¢è§Ĥ":2686,"th":2687,"¿åĳ½":2688,"åĬ±":2689,"æīĵ":2690,"åı¯èĥ½éľĢè¦ģ":2691,"æ¯Ķäºļ":2692,"çĲĨè®ºæ¡Ĩæŀ¶":2693,"è®¡åĪĴ":2694,"æ°ĳä¸»":2695,"æ¸ħ":2696,"çªģè§¦":2697,"çł´åĿı":2698,"ä¼ģ":2699,"å°ĨåıĳçĶŁ":2700,"çĲĨè®ºçļĦ":2701,"éĢłæĪĲ":2702,"çķĮéĻĲ":2703,"çĿ£":2704,"å¯¼èĩ´çļĦ":2705,"çĽ¸äºĴä¾ĿåŃĺ":2706,"ç¢³æįķ":2707,"ä¿®è®¢":2708,"çĤ¹å½©":2709,"æł¹æľ¬æĢ§å·®å¼Ĥ":2710,"åĳĪçİ°åĩº":2711,"çĩĥæĸĻ":2712,"æĹ¨åľ¨":2713,"åı¸":2714,"æĹı":2715,"åĨĽ":2716,"æĸĩä¸»ä¹ī":2717,"éĻ¢":2718,"åŃĺåľ¨æĺ¾èĳĹå·®å¼Ĥ":2719,"å»Ĭ":2720,"çĦ¦":2721,"çº§èģĶ":2722,"æĹ¶éĹ´å°ºåº¦":2723,"æŀģåĮĸ":2724,"æ¿Ģå¢ŀ":2725,"åŀĤçĽ´åĨľä¸ļ":2726,"åı¶":2727,"åľ¨äºİ":2728,"è¾©":2729,"åı¯èĥ½å®ŀçİ°":2730,"åħ³æ³¨":2731,"éľĩ":2732,"è´¨éĩı":2733,"è§Ĥä¼Ĺ":2734,"ç¬¦åı·":2735,"å¹²æĹ±":2736,"æļĸ":2737,"è·¨åĽ½":2738,"çŁ³å¢¨":2739,"åĪĨåŃĲçº³ç±³":2740,"å£«æ¯Ķäºļ":2741,"å¦ĤæŀľæļĹèĥ½éĩıå¯Ĩåº¦":2742,"æ¹¿å£ģçĶ»":2743,"èİİå£«æ¯Ķäºļ":2744,"åŁºäºİCRISPRçļĦåŁºåĽłé©±åĬ¨æĬĢæľ¯":2745,"çŁ³å¢¨çĥ¯":2746,"äº²":2747,"å®ļçĲĨ":2748,"è¾¾å°Ķ":2749,"è¡Įä¸ºçļĦ":2750,"...\"":2751,"å¾ĹåĪ°å¹¿æ³ĽåºĶçĶ¨":2752,"ä¸¥è°¨æĢ§":2753,"è®Ńç»ĥ":2754,"åĮĸè¿Ľç¨ĭ":2755,"äºĨåĵªäºĽ":2756,"æī§":2757,"æľºæŀĦ":2758,"åĲİç»Ń":2759,"å·¥ç»ıæµİ":2760,"ç¼ł":2761,"æŃ»":2762,"æ¸Ĳ":2763,"æķ°åŃĹèīºæľ¯":2764,"\"ï¼Į\"":2765,"æĿ¿åĿĹæŀĦéĢł":2766,"éĽ¶å·¥ç»ıæµİ":2767,"æĢ»":2768,"å¯¡":2769,"è¶ħå¯¼":2770,"ä¸ĭçļĦ":2771,"åı¯èĥ½ä¼ļåıĳçĶŁæĢİæł·çļĦ":2772,"å¤ĸæĺŁ":2773,"å¹¿ä¹īçĽ¸å¯¹è®º":2774,"åı¯ä»¥æıŃç¤º":2775,"åĪ¶éĢłä¸ļ":2776,"æİĴæĶ¾":2777,"åĪ»æĦı":2778,"çļ®å±Ĥ":2779,"ä¼ļå¼ķåıĳåĵªäºĽä¼¦çĲĨ":2780,"æĪıåī§":2781,"çļĦåı¯":2782,"çļĦç¥ŀç»ı":2783,"çļĦå¼ºè°ĥ":2784,"éĢļè¿ĩç®Ĺæ³ķ":2785,"åĩĿ":2786,"éĿŀçº¿æĢ§":2787,"è¶ħè¿ĩ":2788,"ä¸Ģç§į":2789,"å²Ĺ":2790,"äººå·¥éĢļçĶ¨":2791,"tic":2792,"è®°å½ķ":2793,"çºłç¼ł":2794,"ä¿ĥæĪĲäºĨ":2795,"äººå·¥éĢļçĶ¨æĻºèĥ½":2796,"æķ°éĩı":2797,"è½½":2798,"å»ºç«ĭ":2799,"çĶ»å»Ĭ":2800,"éĽĨä¸Ń":2801,"æĪĲä¸ºåı¯èĥ½":2802,"åĪĨå¸ĥå¼ı":2803,"ing":2804,"åĨįçİ°":2805,"å§ĭ":2806,"çĸĳéĹ®":2807,"åĵ¥ä¼¦":2808,"æľīä½ķä¸įåĲĮ":2809,"çĵ":2810,"äºĨä¼łç»Ł":2811,"åľ°çĲĨ":2812,"å¹³éĿ¢":2813,"åĪĽä¼¤":2814,"å£³":2815,"åĲİæ®ĸæ°ĳæĸĩåŃ¦":2816,"ç¥ŀç»ıå½¢æĢģèĬ¯çīĩ":2817,"åħīåŃĲè®¡ç®Ĺ":2818,"è´¢å¯Į":2819,"å½ĵåīįçļĦ":2820,"éģµå¾ª":2821,"åĵ¥ä¼¦å¸ĥ":2822,"çļĦåĨľä¸ļ":2823,"æĸ¥":2824,"è¡¥":2825,"ç»ıæµİä½ĵ":2826,"ç¡®ä¿Ŀ":2827,"èĢħçļĦ":2828,"æŁĲ":2829,"çĽĳæİ§":2830,"æ½®":2831,"ent":2832,"æľĢå¤§åĮĸ":2833,"å¯¡å¤´":2834,"µĮ":2835,"å³":2836,"åµĮ":2837,"ç³Ĭ":2838,"æ¨¡ç³Ĭ":2839,"ç¤¾ä¼ļç»ıæµİ":2840,"æĿĥåĪ©":2841,"äºĮåħĥ":2842,"å¯¼èĩ´äºĨ":2843,"èį·":2844,"å¤±è°ĥ":2845,"éĢīæĭ©æĢ§":2846,"è¶ĭäºİ":2847,"æµģåĬ¨æĢ§":2848,"åĶ¯":2849,"çı":2850,"çļĦæĹ¶éĹ´":2851,"æĢ§çĸ¾çĹħ":2852,"ä¸ŃåĽ½":2853,"è¯Ńä¹ī":2854,"èĭ¥éĩıåŃĲ":2855,"åĽłä¸º":2856,"æ¨¡å¼ıä¸İ":2857,"æģĴ":2858,"æİ¨çĲĨ":2859,"æł¸èģļåıĺ":2860,"æ··æĿĤ":2861,"çĤ¹å½©æ´¾":2862,"ac":2863,"åĪĿ":2864,"æµª":2865,"åĲĮè´¨":2866,"å¦ĤæŀľåĬłå¯Ĩè´§å¸ģ":2867,"è¯Ńè¨Ģç»ĵæŀĦ":2868,"ä½ĵç³»çļĦ":2869,"éħ¶":2870,"æ¯Ķè¾ĥåĪĨæŀĲ":2871,"è·¨æĸĩåĮĸ":2872,"ç¿»è¯ĳè¯´æĺİ":2873,"ç§ĳæĬĢæĸĩçĮ®":2874,"èĻļæĭŁçİ°å®ŀ":2875,"ç¯":2876,"éĢĲ":2877,"åĩ¡":2878,"éĿĻ":2879,"åľ°éľĩ":2880,"æĬĢæľ¯èĥ½å¤Łå®ŀçİ°":2881,"äºĴæĸĩ":2882,"æ¶²":2883,"æ¶µ":2884,"æ¸©åº¦":2885,"åĸĦ":2886,"åİĨåı²åıĻäºĭ":2887,"åı¥å¼ıç»ĵæŀĦ":2888,"æŀĦæĪĲäºĨ":2889,"åĵ¥çī¹":2890,"æ²¿æµ·":2891,"æµĵåº¦":2892,"çĥŃéĩıåĪĨå¸ĥ":2893,"çļĦä¼łæĴŃ":2894,"æ¨¡åŀĭçļĦ":2895,"äº¤äºĴ":2896,"éħ¸åĮĸ":2897,"éļ¾é¢ĺ":2898,"æŀģç®Ģä¸»ä¹ī":2899,"éĶĤç¦»åŃĲ":2900,"åĦ":2901,"èĵ":2902,"çļĦå´©æºĥ":2903,"çļĦåħ´èµ·":2904,"ä¸İçīĽé¡¿":2905,"ä¸įç¡®å®ļæĢ§":2906,"è½¬åŀĭ":2907,"ä¾Ŀæį®":2908,"æİ¢è®¨":2909,"å¤©ä½ĵçĶŁçī©åŃ¦":2910,"ä¸»ä½ĵ":2911,"æĬĬ":2912,"å¯¹çĲĨæĢ§éĢīæĭ©":2913,"åĨ¯":2914,"å·¥èīº":2915,"æ¨¡å¼ıçļĦ":2916,"éĢłå±±":2917,"åĬĽåŃ¦ä¸įåĲĮ":2918,"åĢĺèĭ¥äºļåİĨå±±å¤§åĽ¾ä¹¦é¦Ĩ":2919,"å»¶éķ¿":2920,"è§Ħæ¨¡åĮĸ":2921,"è¿ŀè´¯":2922,"å®ŀåľ¨è®º":2923,"¼å¤ľ":2924,"Ĭä¹±":2925,"æĺ¼å¤ľ":2926,"åľ°å£³":2927,"åıĺæļĸ":2928,"éĹ¨":2929,"ç¥ŀåŃ¦":2930,"ç´Ĭä¹±":2931,"æĦŁå®ĺ":2932,"äººç±»æ´»åĬ¨":2933,"ç§įç¾¤":2934,"è¢«è¯ģå®ŀ":2935,"å½»åºķæĶ¹åıĺäºĨ":2936,"æķ°æį®ä¼łè¾ĵ":2937,"å½¢å¼ıçļĦ":2938,"æĪĲä¸ºä¸»æµģ":2939,"ä¾Ŀèµĸäºİ":2940,"æľīæľĽå®ŀçİ°":2941,"åĤ¬çĶŁäºĨ":2942,"å®¡è§Ĩ":2943,"å¦":2944,"è®¾å¤ĩ":2945,"åĪĻéĢļè¿ĩ":2946,"åĪ°çļĦ":2947,"æ¶Į":2948,"ç»´åº¦":2949,"ç¼ĸçłģ":2950,"éļĲèº«":2951,"ä¸İåĬŁåĪ©ä¸»ä¹īä¸įåĲĮ":2952,"åľ£åĥı":2953,"æ±½è½¦":2954,"50":2955,"çļĦæķĪçİĩ":2956,"æĪĲç«ĭ":2957,"å¯ĨåĪĩ":2958,"èīºæľ¯å®¶":2959,"åĻ¨å®ĺ":2960,"äº§çĶŁçļĦ":2961,"äº§çĶŁä½ķç§į":2962,"è§Ĵèī²":2963,"çĽĳçĿ£":2964,"ä¸īç»´":2965,"åĽŀéŁ³":2966,"å²Ĺä½į":2967,"å¯¿åĳ½":2968,"å½Ĵ":2969,"ä¸İåħ·è±¡":2970,"æľºä¼ļ":2971,"æĽ´æĸ°":2972,"æĿ¥è§£éĩĬ":2973,"åĪ©çİĩ":2974,"çŃīä»·":2975,"å¹»çģŃ":2976,"çľŁçĲĨ":2977,"èĲ¨":2978,"éĴĪ":2979,"åıĤæķ°":2980,"ä¸įåı¯éĿł":2981,"ç¤¾äº¤åªĴä½ĵç®Ĺæ³ķéĢļè¿ĩ":2982,"ä¾ĽåºĶéĵ¾":2983,"çĻ¾äº¿äº¿æ¬¡è®¡ç®Ĺ":2984,"å¯¡å¤´åŀĦæĸŃ":2985,"ve":2986,"ï¼ģ":2987,"åıī":2988,"ç»Łä¸Ģ":2989,"ç¨Ģ":2990,"ç¥ŀç»ıåħĥ":2991,"å¤ļä¸ª":2992,"çİ¯å¢ĥä¸Ń":2993,"åĩĨç¡®å¯¹åºĶ":2994,"åĸ»":2995,"åĩıå¼±":2996,"åĮ»åŃ¦":2997,"åŃĺåľ¨ä¸»ä¹īåĵ²åŃ¦ä¸»å¼ł":2998,"å°¼éĩĩ":2999,"åİŁæĸĩçļĦ":3000,"åķĨä¸ļåĮĸåºĶçĶ¨":3001,"æĲ":3002,"Ĵå¼ĥ":3003,"çļĦæĮĳæĪĺ":3004,"ç»ķ":3005,"å®³":3006,"æµ¸":3007,"çĲĨè®ºè®¤ä¸º":3008,"ä»¥ä¸ĭ":3009,"æŃ¢":3010,"åħīçº¿":3011,"äººç±»ä¸ĸ":3012,"äº¤åıī":3013,"æĺŁç³»":3014,"è¿ĻäºĽ":3015,"çĶŁæĢģæī¹è¯Ħ":3016,"æŀģåľ°":3017,"éĴ¥":3018,"çĽ¸è¾ĥäºİä¼łç»Ł":3019,"æĳĴå¼ĥ":3020,"èģĮä¸ļ":3021,"åĽŀéŁ³å®¤":3022,"Ġä¸ĵä¸ļæľ¯è¯Ń":3023,"çļĦè¡¨è¿°":3024,"åıª":3025,"æŀĿ":3026,"äººæł¼":3027,"äº¤éĢļ":3028,"ä¿¡å¿µ":3029,"é¢ĦæľŁ":3030,"åĨ°çĽĸ":3031,"åįıè°ĥ":3032,"éļĲå½¢":3033,"æįķé£Ł":3034,"åĨįçĶŁ":3035,"ç¼ºéĻ·":3036,"åĭĴ":3037,"åį±æľº":3038,"éĴĪå¯¹":3039,"çļĦåŃĺåľ¨":3040,"ãĢĮ":3041,"ãĢį":3042,"ä»Ĭ":3043,"åľ¨ä¿ĿæĮģ":3044,"å¦Ĥæŀľåħ¨æ°ĳåŁºæľ¬æĶ¶åħ¥":3045,"åĪĨåĮĸ":3046,"å¤§äº¤æį¢":3047,"éģŃ":3048,"ä¸įåĲĮäºİ":3049,"åĳ½ä»¤":3050,"èĥ½éĩıçļĦ":3051,"æ²īæµ¸":3052,"çĶŁæĢģç³»ç»Łä¸ŃçļĦ":3053,"åľ¨åħ¨çĲĥèĮĥåĽ´åĨħå®ŀæĸ½":3054,"è´¢æĶ¿æĶ¿çŃĸ":3055,"åĽ¢ç»ĵ":3056,"åĵ¥ä¼¦å¸ĥå¤§äº¤æį¢":3057,"åĦ¿":3058,"ro":3059,"¹ģ":3060,"ç¹ģ":3061,"çļĦç²¾ç¡®":3062,"åĪ¶å®ļ":3063,"æĺ¯éĢļè¿ĩ":3064,"è½¬åĲĳ":3065,"æ¨¡åŀĭä¸Ń":3066,"èĥ½åĬĽçļĦ":3067,"æ¿ĢåĬ±":3068,"åĬŁåĪ©ä¸»ä¹īä¼¦çĲĨåŃ¦":3069,"æĳĦå½±":3070,"le":3071,"èı":3072,"å®½":3073,"å¯¹çħ§":3074,"å¹ħ":3075,"æīŃ":3076,"ä»£éĻħ":3077,"éĩıåŃĲéľ¸æĿĥ":3078,"éľ²":3079,"éĿŀæ¬§":3080,"èīºæľ¯è¿ĲåĬ¨":3081,"ä¾ĿæĽ¼":3082,"ä¸ĵä¸ļåĮĸ":3083,"æĢ§çļĦåĲĮæĹ¶":3084,"çĬ¶çģ«å±±":3085,"æµ·æ´ĭéħ¸åĮĸ":3086,"èĬĤå¾ĭ":3087,"éļıæĹ¶éĹ´":3088,"éľĢæ±Ĥä¾§":3089,"æĭľåįłåºŃåľ£åĥı":3090,"éļ¾ä»¥":3091,"æĿİåĺīåĽ¾çŃīä»·":3092,"è¯ºä¾ĿæĽ¼":3093,"èĽ":3094,"ĠéĩĩçĶ¨":3095,"éĢĿ":3096,"å¦Ĥä½ķæĶ¹åıĺäºĨ":3097,"çī©çļĦ":3098,"å®ŀçİ°å¯¹":3099,"è§£è¯»":3100,"çĶŁçī©ä½ĵ":3101,"åĨħåľ¨":3102,"åħĥå°ıè¯´":3103,"éĽĨæĪĲ":3104,"åĵģæł¼":3105,"åĬłå¯Ĩåįıè®®":3106,"åħ±è¯Ĩ":3107,"åį°åĪ·æľ¯":3108,"ä¼ªéĢł":3109,"å±ĢéĻĲæĢ§":3110,"æĺ¼å¤ľèĬĤå¾ĭ":3111,"å¯ĨåĪĩçĽ¸åħ³":3112,"Gç½ĳç»ľ":3113,"ç¼Ŀ":3114,"çĶŁçī©æłĩå¿Ĺ":3115,"è®¤çŁ¥å¤±è°ĥ":3116,"æĹłæĦı":3117,"æĹłéľĢ":3118,"çİ¯å¢ĥçĽ¸äºĴä½ľçĶ¨":3119,"æ¬§æ´²çļĦ":3120,"å®¹éĶĻ":3121,"æİ¢ç©¶":3122,"æľīæķĪæĢ§":3123,"è¿ĺæĺ¯":3124,"æ°¸ä¹ħåĨ»åľŁåĬłéĢŁ":3125,"åį«æĺŁ":3126,"¶åµĮ":3127,"Ġæķ´ä½ĵ":3128,"ä¸»åĬ¨":3129,"åı¯æĮģç»Ń":3130,"æµģå¤±":3131,"æĽ´ç¬¦åĲĪ":3132,"çĶµç½ĳ":3133,"åĴĮçº¦":3134,"çŃĸå±ķ":3135,"ç½ĳç»ľç¤¾ä¼ļ":3136,"èĥ½å¤Łåľ¨":3137,"éķ¶åµĮ":3138,"åħ¨çĲĥæ°ĶåĢĻ":3139,"å²©çŁ³":3140,"æĸ¯çī¹ä¼Ĳ":3141,"å¨ģæĸ¯çī¹ä¼Ĳ":3142,"æĢĿç»´":3143,"è¡°èĲ½":3144,"å°ģåŃĺ":3145,"åį°åĪ·æľº":3146,"æ·±åº¦ä¼ªéĢł":3147,"éĢıè§Ĩæ³ķ":3148,"è¾¾å°Ķæĸĩä¸»ä¹ī":3149,"æīŃæĽ²":3150,"å¨ģæĸ¯çī¹ä¼ĲåĪ©äºļ":3151,"åı¯æıŃç¤º":3152,"è°¢":3153,"å¸¸å¸¸":3154,"çģ°":3155,"åĻ¨çļĦ":3156,"æł¹æľ¬æĢ§è½¬åıĺ":3157,"éĢĤåºĶæĢ§":3158,"éļĲåĸ»":3159,"éĩĮå£«":3160,"é©¬èµĽ":3161,"è¯Ŀè¯Ń":3162,"åį¡å°Ķ":3163,"åīĬå¼±äºĨ":3164,"å»ºæŀĦä¸»ä¹ī":3165,"ç»´å¤ļåĪ©äºļæĹ¶æľŁçļĦ":3166,"ä¼ģä¸ļ":3167,"å¨ģæĸ¯çī¹ä¼ĲåĪ©äºļåĴĮçº¦":3168,"é©¬èµĽåħĭ":3169,"èĹ":3170,"ç»¿":3171,"è¿ĩæĹ¶":3172,"å¯¹ç«ĭ":3173,"ç³ħ":3174,"å¹Ķ":3175,"æ³ķå®ļ":3176,"åľ°å¹Ķ":3177,"å¤ļå¾·":3178,"æİ¥åıĹ":3179,"è½¬ç§»":3180,"å±±èĦī":3181,"é¡¹":3182,"è¡°éĢĢ":3183,"çºłéĶĻ":3184,"éĩĮå£«å¤ļå¾·":3185,"çī©èģĶç½ĳ":3186,"è´¦":3187,"æĮ¥":3188,"æīį":3189,"ä¿ĿçľŁ":3190,"å½¢æĪĲäºĨ":3191,"è¶ħçİ°å®ŀä¸»ä¹ī":3192,"éĺĪ":3193,"åıįå°Ħ":3194,"æ°´ç³»":3195,"é©¾":3196,"äºļéĩĮå£«å¤ļå¾·":3197,"çĥŃå²Ľ":3198,"æ¬§äºļ":3199,"çĶŁæĢģç³»ç»Łä¸Ń":3200,"å¢ŀå¼ºçİ°å®ŀ":3201,"çŁĽçĽ¾çļĦ":3202,"åį³éĢĿ":3203,"å¥³æĢ§":3204,"æįķé£ŁèĢħ":3205,"æ³ķå®ļè´§å¸ģ":3206,"çĽĨ":3207,"çº¢":3208,"è½®":3209,"è¯ĳæĸĩ":3210,"èĥ½æºĲæ¶ĪèĢĹ":3211,"éĢ»è¾ĳå®ŀè¯ģ":3212,"ç»Ŀå¯¹åĳ½ä»¤":3213,"éĩįåķĨä¸»ä¹īæĶ¿çŃĸ":3214,"æ¢¯åº¦":3215,"éĿ¶åĲĳ":3216,"éĺĪåĢ¼":3217,"de":3218,"¡æĶ¹":3219,"çļĦç»ıæµİ":3220,"å¼¹":3221,"è¯ŀ":3222,"å±ı":3223,"å·´":3224,"å¼ºçĥĪ":3225,"æĽ´å¿«":3226,"è§ĤçĤ¹":3227,"èĢħæķĪåºĶ":3228,"å¤ļåħĥ":3229,"æķ´ä¸ª":3230,"è§ĦåĪĴ":3231,"åĨ²åĩ»":3232,"é£ŀ":3233,"äººå·¥æĦıè¯Ĩ":3234,"æŁ¥":3235,"ä¸»å¯¼åľ°ä½į":3236,"è¿ĺåİŁ":3237,"æĿĥåĬĽç»ĵæŀĦ":3238,"åĸĢæĸ¯çī¹åľ°è²ĮéĢļè¿ĩ":3239,"çŃīçº§åĪ¶åº¦":3240,"éĢĨè½¬":3241,"èĻ½çĦ¶":3242,"äºĮåħĥè®º":3243,"ç¯¡æĶ¹":3244,"ä¸įåı¯éĿłåıĻè¿°":3245,"åı²åŃ¦":3246,"åĪĨè§£":3247,"æ¯Ķä¼łç»Ł":3248,"è¯Ńæ³ķ":3249,"æĿ¥å®ŀçİ°":3250,"ç¤¾ä¼ļåŃ¦":3251,"å°Ĩå¦Ĥä½ķæĶ¹åıĺ":3252,"ç¾İåĽ½":3253,"åı¥çļĦ":3254,"æĭľåįłåºŃé©¬èµĽåħĭ":3255,"è¡¨éĿ¢å¯¼çĶµ":3256,"å½»åºķéĿ©æĸ°äºĨ":3257,"è¾¹ç¼ĺè®¡ç®Ĺ":3258,"ç½Ĺé©¬":3259,"ç³»å¤ĸè¡ĮæĺŁå¤§æ°Ķåħīè°±":3260,"çĥŃå²ĽæķĪåºĶ":3261,"os":3262,"ra":3263,"è¿ħ":3264,"å¦ĤæŀľèĦĳæľºæİ¥åı£å®ŀçİ°":3265,"æ²Ļ":3266,"éĹ´çļĦ":3267,"è±ª":3268,"æĿĲæĸĻçļĦ":3269,"åŁºäºİåĮºåĿĹéĵ¾çļĦ":3270,"å¤§æ°ĶäºĮæ°§åĮĸç¢³":3271,"åħ¬åı¸":3272,"æĹ¢ä¿ĿæĮģ":3273,"è¡¨è§ĤéģĹä¼łä¿®é¥°":3274,"åĽ½éĻħè´¸æĺĵ":3275,"å¤ªéĺ³èĥ½åıĳçĶµ":3276,"çļĦç»ĵæŀĦ":3277,"çļĦç²¾åĩĨ":3278,"ä¸ºä»Ģä¹Ī":3279,"å¿§":3280,"è®¤åĲĮ":3281,"æĺ¯ä»Ģä¹Ī":3282,"æ±ī":3283,"è¿ĩç¨ĭçļĦ":3284,"ä¹łå¾Ĺ":3285,"éģĵå¾·å®ŀåľ¨è®º":3286,"èĤĸ":3287,"ical":3288,"æĿİåĺīåĽ¾çļĦ":3289,"çĨŁ":3290,"æ±ĩèģļ":3291,"å¦Ĥæŀľåıįçī©è´¨çº¦æĿŁ":3292,"æĿİåĺīåĽ¾çŃīä»·å®ļçĲĨ":3293,"èĽĭ":3294,"çļĦè®¤è¯Ĩè®º":3295,"çļĦæī¹åĪ¤":3296,"æĢ§åĪ«":3297,"æķħ":3298,"å¯¹æĬĹ":3299,"æĬĢèĥ½":3300,"åľ°å¤ĸ":3301,"åı¯èĥ½æĢ§":3302,"å¤§åĬłéĢŁ":3303,"æŃ¦":3304,"æģĲ":3305,"ä½ľçĶ¨å½¢æĪĲ":3306,"é©¶":3307,"ç®Ĺæ³ķæİ¨èįĲ":3308,"å¼łåĬĽ":3309,"çķĮå®ļ":3310,"ä¾ĿçĦ¶":3311,"ä»·æł¼":3312,"åıĸå¾Ĺ":3313,"æ¼ĶåĮĸ":3314,"ä¹īåĬ¡è®ºæ¡Ĩæŀ¶":3315,"è¡Įä¸ºç»ıæµİåŃ¦éĢļè¿ĩ":3316,"æŀĦæĪĲæĮĳæĪĺ":3317,"é¢ľæĸĻçļĦåıĳæĺİ":3318,"çľŁå®ŀæĢ§":3319,"éĶĤç¦»åŃĲçĶµæ±ł":3320,"èĵĦ":3321,"og":3322,"Ġm":3323,"ä¸ģ":3324,"æµ®":3325,"éĩıåĮĸ":3326,"æĸ¹ç¨ĭ":3327,"åģ¥":3328,"æĪĳçļĦ":3329,"è½¬çŀ¬":3330,"æ®Ĭ":3331,"ä¿¡åı·":3332,"åıĳå±ķä¸Ń":3333,"è¢«æ·ĺæ±°":3334,"åŁºåĽłè¡¨è¾¾":3335,"æĺ¾ç¤º":3336,"æŀģéĻĲ":3337,"æĹłç¼Ŀ":3338,"çķĮéĿ¢":3339,"ä¸ĵä¸ļè¡¨è¿°":3340,"éĶģ":3341,"å®ĮåĸĦ":3342,"å¢ŀå¼ºæĬĢæľ¯":3343,"æĬĢæľ¯çļĦè¿ĽæŃ¥":3344,"åĽ½å®¶ä¸»æĿĥ":3345,"æ³¢åĬ¨æĢ§":3346,"æ½ľåĬĽ":3347,"çģŃç»Ŀ":3348,"å±ŀæĢ§":3349,"åĲİç»ĵæŀĦä¸»ä¹īæĸĩåŃ¦çĲĨè®ºéĢļè¿ĩ":3350,"çĽ®çļĦè®º":3351,"èıĮ":3352,"è½¬çŀ¬åį³éĢĿ":3353,"ter":3354,"ul":3355,"å¼§":3356,"ä¸ŃæĸŃ":3357,"éĢļéģĵ":3358,"æµĨ":3359,"åı¯èĥ½å¼ķåıĳåĵªäºĽ":3360,"æĦıå¿Ĺ":3361,"æµģè¡Į":3362,"éļĶ":3363,"åŁİå¸ĤåĮĸ":3364,"è·¯çº¿":3365,"ä¿®å¤į":3366,"æĤ¬":3367,"å²©æµĨ":3368,"éĤ¦":3369,"æŀĦéĢłæĿ¿åĿĹ":3370,"æ¹¾":3371,"åıĺå¾Ĺåı¯è¡Į":3372,"é¸£":3373,"ç»ıéªĮéªĮè¯ģ":3374,"åıįæĺłäºĨ":3375,"æ¶īåıĬ":3376,"éĿĴéĵľæĹ¶ä»£æĸĩæĺİ":3377,"èĥĮæĻ¯":3378,"åĪĨåŃĲç»Ħè£ħæľº":3379,"äºĴæĸĩæĢ§":3380,"å¯¡å¤´åŀĦæĸŃå¸Ĥåľº":3381,"å°¼éĩĩçļĦ":3382,"é©¾é©¶":3383,"ä¹Ĳ":3384,"éĢļèĥĢ":3385,"æŀĦåĽ¾":3386,"å·¨":3387,"å¤§å¹ħ":3388,"æ¯Ķä¾ĭ":3389,"åĲİå·¥ä¸ļ":3390,"æĸ°è¾¾å°Ķæĸĩä¸»ä¹ī":3391,"çłį":3392,"äººç±»ä¸»ä¹ī":3393,"è¡¨çİ°åĩº":3394,"æ¿Ģæ´»":3395,"èĩªåĬ¨é©¾é©¶":3396,"åľ°çĲĥåĮĸ":3397,"é£Łçī©":3398,"ä¼Ĭæĸ¯":3399,"åĲĮè´¨åĮĸ":3400,"æĽ´æĸ°ä¸ĸ":3401,"æ°¸ä¹ħåĨ»åľŁåĬłéĢŁèŀįåĮĸ":3402,"å¾ħ":3403,"å·±":3404,"åľ°éĿ¢":3405,"æ²ĥ":3406,"çĲĨè®ºå¼ºè°ĥ":3407,"çŁ¥éģĵ":3408,"çī¹æ®Ĭ":3409,"åŃĺåľ¨æł¹æľ¬æĢ§å·®å¼Ĥ":3410,"çĶµè·¯":3411,"ç«Ļ":3412,"æ¨¡åŀĭä¸įåĲĮ":3413,"äººç±»æĦıè¯Ĩ":3414,"å¤ĸéĥ¨":3415,"åŁİå¸ĤçĥŃå²ĽæķĪåºĶ":3416,"åĩłéĩĮ":3417,"æĸĩæľ¬æĿĥå¨ģ":3418,"çģ«æĺŁ":3419,"è®¾è®¡çļĦ":3420,"å°½ç®¡åŃĺåľ¨":3421,"æĿ¡ä»¶ä¸ĭ":3422,"åº·å¾·çļĦ":3423,"æ£®æŀĹ":3424,"åĮħè±ª":3425,"äº§çĶŁä½ķç§įå½±åĵį":3426,"å²©çŁ³åľĪ":3427,"è¿ħéĢŁ":3428,"çłįä¼Ĳ":3429,"åĩłéĩĮå¾Ĺ":3430,"åĮħè±ªæĸ¯":3431,"di":3432,"çļĦæĸ¹å¼ı":3433,"ç»¼":3434,"èĥģ":3435,"ä¸Ńå¯¹":3436,"ä¸İåį°è±¡æ´¾":3437,"æĪĲåĥı":3438,"è¡ĮåĬ¨":3439,"è§£æŀĲ":3440,"æĽ´éĩįè§Ĩ":3441,"ç¤¾ä¼ļä¸ŃçļĦ":3442,"æ°ĳæĹı":3443,"å¹³åĩ¡":3444,"æĿĤç³ħ":3445,"åħ±é¸£":3446,"åħ¬åľ°":3447,"çĭ¬ç«ĭ":3448,"åĽŀè·¯":3449,"éĢ»è¾ĳåħ³ç³»":3450,"è¿ĽåĮĸçĶŁçī©åŃ¦":3451,"æĽ²çº¿":3452,"ä¸»è§Ĥä½ĵéªĮ":3453,"ç¥ŀç»ıå½¢æĢģè®¡ç®Ĺæŀ¶æŀĦéĢļè¿ĩ":3454,"åĩĿèģļ":3455,"å³¡":3456,"æ¶Įçİ°":3457,"é¾":3458,"Ġf":3459,"å®Ī":3460,"ä¹ı":3461,"æĬĳ":3462,"ä¸»ä¹īä¸İ":3463,"è®ºæĸĩ":3464,"è®ºè¯ģ":3465,"åĲĮæŃ¥":3466,"åħīæķı":3467,"è¿Ĳè¡Į":3468,"æ¼«":3469,"ç§ĳåŃ¦éĿ©åĳ½":3470,"å®Įç¾İ":3471,"éĿ©åĳ½æĢ§":3472,"åħ¬åħ±":3473,"éħįç½®":3474,"æĿ¡ä»¶åıįå°Ħ":3475,"éĻįä½İäºĨ":3476,"æ¸©çĽĲçİ¯æµģæ¨¡å¼ıéĢļè¿ĩ":3477,"éĴĻåĮĸ":3478,"åħįçĸ«":3479,"åĨįçĶŁèĥ½æºĲ":3480,"çļĦæĸĩåĮĸ":3481,"çļĦèī²å½©":3482,"åºŁ":3483,"çĶ¨äºİ":3484,"åŁºå²©":3485,"è¿ĽèĢĮ":3486,"æĽ´èĥ½":3487,"çİĩçļĦ":3488,"æĶ¹è¿Ľ":3489,"æİ¥è¿ĳ":3490,"åľºæĻ¯":3491,"äºĴèģĶ":3492,"è§ĦåĪĻ":3493,"è¿Ļä¸ª":3494,"åĲĮæĹ¶ä¹Ł":3495,"èĮĥå¼ıè½¬åıĺ":3496,"è´§å¸ģä¾ĽåºĶ":3497,"çĬ¶æ°´ç³»":3498,"å¤įæĿĤåĮĸ":3499,"èĥ½æºĲä¼łè¾ĵ":3500,"æĸ¹éĿ¢çļĦ":3501,"èµĦæºĲåĪĨéħį":3502,"åıĹåĪ°":3503,"å¨ģèĥģ":3504,"é©¬åħĭ":3505,"éĩįå¡ĳäºĨ":3506,"éĺ¶å±Ĥ":3507,"èįĴæ¼ł":3508,"çº§èģĶæķĪåºĶ":3509,"è´¦æľ¬":3510,"åħ¬åľ°æĤ²åī§":3511,"äºŁ":3512,"æĿĳ":3513,"å¹¸":3514,"åĪĨæķ£":3515,"æľ¬åľŁ":3516,"ç¬Ľ":3517,"å¤Ħäºİ":3518,"èī²åĬ¨åĬĽåŃ¦":3519,"è¿Ľè¡Įå¯¹æ¯Ķ":3520,"ç½®äºİ":3521,"æľªèĥ½":3522,"æŃ£å¦Ĥ":3523,"ä¾Ľç»Ļ":3524,"å®Įå¥½":3525,"èį¡":3526,"åľ°ç¼ĺæĶ¿æ²»åĲİæŀľ":3527,"åıłåĬłæĢģ":3528,"æĽ´é«ĺçļĦèĥ½éĩıå¯Ĩåº¦":3529,"æĦıè¯ĨæµģåıĻäºĭæīĭæ³ķ":3530,"æĦıè¯ĨæµģåıĻäºĭæĬĢå·§":3531,"æĺİæļĹå¯¹çħ§":3532,"å¦ĤæŀľæļĹèĥ½éĩıå¯Ĩåº¦éļıæĹ¶éĹ´":3533,"ce":3534,"ph":3535,"éĢĶ":3536,"å°ĨéĿ¢ä¸´":3537,"åŀĭåĮĸ":3538,"èĩªéĢĤåºĶ":3539,"èĩªå·±":3540,"æĺİç¡®":3541,"æ±¡":3542,"éĺµ":3543,"éĩĩåıĸ":3544,"æķ°åŃĹåĮĸ":3545,"é£İåĮĸ":3546,"æ·±æµ·":3547,"äºīè®º":3548,"ä¿ĿçķĻäºĨ":3549,"æİĴæ°´":3550,"çº¿æĢ§åıĻäºĭ":3551,"çļĦåıĳçİ°":3552,"æ¨¡ä»¿çĶŁçī©ç¥ŀç»ıç½ĳç»ľ":3553,"çĦ¦èĻĳ":3554,"æŁĲäºĽ":3555,"èŃ":3556,"ä¸¾":3557,"ä¼´":3558,"åĲ§":3559,"æĹħ":3560,"ä¹ĭä¸Ĭ":3561,"æµ·å¹³éĿ¢":3562,"éª¨":3563,"åĨħæ¶µ":3564,"è¿Ļç§į":3565,"èĦĨ":3566,"è¡¨çİ°æīĭæ³ķ":3567,"ç»ĩç½ĳ":3568,"èµ·æĿ¥":3569,"éĩıåŃĲè®¡ç®Ĺå®ŀçİ°":3570,"çģ«å±±å¼§":3571,"å®ĩå®ĻåŃ¦æ¨¡åŀĭ":3572,"åħīä¼ıçĶµæ±ł":3573,"å®ŀéĻħåºĶçĶ¨":3574,"è¾©è¯ģ":3575,"éĢĲæ¸Ĳ":3576,"ç¬Ľåį¡å°Ķ":3577,"ch":3578,"ms":3579,"åŃ¦æľ¯è¯Ń":3580,"å°ĨåıĳçĶŁæĢİæł·çļĦ":3581,"æĢģåº¦":3582,"åĲĪçī©":3583,"éĩıåŃĲèī²åĬ¨åĬĽåŃ¦":3584,"åĵįåºĶ":3585,"æµģåŁŁ":3586,"åĵªäºĽåĽłç´ł":3587,"å£¤":3588,"çİ°ä»£ä¸»ä¹īè¯ĹæŃĮ":3589,"æķĻåŃ¦":3590,"å¤©åŁº":3591,"åĨľä¸ļéĿ©åĳ½":3592,"æıĲåĩºæĮĳæĪĺ":3593,"é¢łè¦Ĩæ®ĸæ°ĳ":3594,"çģ«å±±æ´»åĬ¨":3595,"è§£åĨ³æĸ¹æ¡Ī":3596,"åĬłå¯Ĩè´§å¸ģçļĦ":3597,"èįĴè¯ŀ":3598,"æłĳæŀĿ":3599,"æī§è¡Į":3600,"æ·±åº¦ä¼ªéĢłæĬĢæľ¯çļĦ":3601,"ä¼Ĭæĸ¯åħ°":3602,"å³¡æ¹¾":3603,"æ±¡æŁĵ":3604,"ä¸Ķ":3605,"åºĵ":3606,"å¾Ļ":3607,"æĬµ":3608,"éĢļè¿ĩåĪ©çĶ¨":3609,"åı¯ç¼ĸç¨ĭ":3610,"çĶ¨åľ°":3611,"æĪĲçĨŁ":3612,"å¦ĤæŀľCRISPR":3613,"å¦Ĥæŀľæ³Ľå¿ĥè®º":3614,"åĪĨåıĳ":3615,"çĽ¸èŀįåĲĪ":3616,"ä»£è°¢":3617,"èµĭ":3618,"åıĳå±ķçļĦ":3619,"ç®Ĺæ³ķåģıè§ģ":3620,"çĶ»å®¶":3621,"éģĵå¾·ä¹īåĬ¡":3622,"äºĮç»´":3623,"çĿ¡":3624,"æıĲåįĩäºĨ":3625,"çĬ¶è¯Ń":3626,"çŁ¥è¯ĨçļĦ":3627,"åĽºæľī":3628,"æĭīä¸ģ":3629,"èĴ¸":3630,"æĥħæĦŁåħ±é¸£":3631,"ç¦»åŃĲéĢļéģĵ":3632,"åĤ¨èĵĦ":3633,"æĭľåįłåºŃéķ¶åµĮ":3634,"ç¼ºä¹ı":3635,"æķĻèĤ²ä¸įå¹³çŃī":3636,"è¿ģå¾Ļ":3637,"å®Įæķ´æĢ§":3638,"æ¦ĤçİĩæĢ§":3639,"å¥ĩå¹»":3640,"æĭħå¿§":3641,"èŃ¦":3642,"18":3643,"RNA":3644,"un":3645,"æħ":3646,"çĲĨæĥ³":3647,"äºĨä½ķç§į":3648,"å¦Ĥä½ķä¸º":3649,"ä¼ļå¼ķåıĳ":3650,"åıĳæĮ¥":3651,"åľ°å±Ĥ":3652,"éģ¿":3653,"éĩįè¦ģ":3654,"ç¥ŀç»ıç»ĩç½ĳ":3655,"å¯¼åĲĳ":3656,"éĿŀçĲĨæĢ§":3657,"åĮºåĪĨ":3658,"å¼Ĥå¸¸":3659,"è§Ĩä¸º":3660,"æķ°æį®å¤ĦçĲĨ":3661,"æĴŀ":3662,"ä»įçĦ¶":3663,"æ²īç§¯ä½ľçĶ¨":3664,"åĽ´ç»ķ":3665,"ä»»åĬ¡":3666,"åĩ¯æģ©æĸ¯ä¸»ä¹īä¸İ":3667,"ç»´å¤ļåĪ©äºļæĹ¶æľŁ":3668,"åĳĪæĮĩæķ°çº§å¢ŀéķ¿":3669,"åĸ·åıĳ":3670,"ç¢³æįķéĽĨ":3671,"æĺ¼å¤ľèĬĤå¾ĭç´Ĭä¹±":3672,"å¥³æĢ§ä¸»ä¹ī":3673,"ç»¼åĲĪ":3674,"äºŁéľĢ":3675,"èĦĨå¼±":3676,"äº¡":3677,"ä½Ļ":3678,"èĥ½åľ¨":3679,"åĮĸçŁ³":3680,"å¦Ĥä½ķåı¯èĥ½":3681,"ä½ĵåĪ¶":3682,"åĪĨå½¢":3683,"çĽ¸ç»ĵåĲĪ":3684,"å½±æķĪæŀľ":3685,"çĶŁçī©å·¥ç¨ĭ":3686,"åĩºçīĪ":3687,"éĩıåŃĲçĶŁçī©åŃ¦":3688,"åİŁæĦı":3689,"æİ¥è§¦":3690,"ç½ĳç»ľçĲĨè®º":3691,"æĺ¾äºĨ":3692,"çłĶåıĳ":3693,"å¿ĥçĲĨè¯Ńè¨ĢåŃ¦":3694,"åĨ°æľŁ":3695,"é¢łè¦Ĩæ¬§æ´²ä¸Ńå¿ĥ":3696,"è´ŁåĪ©çİĩ":3697,"å®ŀéªĮå®¤":3698,"åĲ¯èĴĻè¿ĲåĬ¨":3699,"å®ĹæķĻæĶ¹éĿ©":3700,"æķ°åŃĹé¸¿æ²ŁéĢļè¿ĩ":3701,"çİ»":3702,"å¹ķ":3703,"ä¸įç¨³å®ļæĢ§":3704,"åı¯èĥ½å¼ķåıĳ":3705,"ç¤¾ä¼ļåĪĨå±Ĥ":3706,"åģľ":3707,"è·Ŀ":3708,"å°Ĩå¦Ĥä½ķè½¬åıĺ":3709,"ç²¾å¯Ĩ":3710,"åıĳå±ķåĩº":3711,"å¾®è§Ĥ":3712,"å¼Ģéĩĩ":3713,"ä¸įåı¯ç¯¡æĶ¹":3714,"åıĤä¸İåº¦":3715,"å§Ķ":3716,"çĮİ":3717,"èĲ¥éĢł":3718,"åıĮåĲĳ":3719,"æŃ§è§Ĩ":3720,"çļĦå¹¿æ³ĽæĻ®åıĬ":3721,"DNAåºıåĪĹ":3722,"ity":3723,"èĹı":3724,"éĢĶå¾Ħ":3725,"çļĦæ¿Ģå¢ŀ":3726,"çļĦè¡°èĲ½":3727,"åı¯åĨįçĶŁèĥ½æºĲ":3728,"çī©é¦Ĩ":3729,"è¡¨åŀĭ":3730,"è¯Ńæ°Ķ":3731,"åĢĴ":3732,"åŃĺåľ¨çĽ¸åħ³æĢ§":3733,"çľł":3734,"æĮĩå¯¼":3735,"åħĪè¿Ľ":3736,"æĪĸåı¯":3737,"åĨľä¸ļçĶ¨åľ°":3738,"æĥ¯ä¾ĭ":3739,"åĬ¨æĢģéĽķå¡ĳ":3740,"åįļçī©é¦Ĩ":3741,"å¼ºåĮĸäºĨ":3742,"æ»¡":3743,"æ»ŀ":3744,"ä¸İç»ıåħ¸åĬĽåŃ¦ä¸įåĲĮ":3745,"è®¨è®º":3746,"è¯ķåĽ¾":3747,"ä¼ĳ":3748,"åĲ¬":3749,"çİ°è¡Į":3750,"åĩ¸":3751,"æĬĢæľ¯åľ¨":3752,"èµ°":3753,"ç»ıæµİè¡°éĢĢ":3754,"ä¿Ŀéļľ":3755,"å½¢æĪĲè¿ĩç¨ĭ":3756,"å¸¸è§Ħ":3757,"æ³¨æĦı":3758,"èĳĽ":3759,"æıŃç¤ºäºĨäºĮèĢħåľ¨":3760,"åľŁå£¤":3761,"è´¸æĺĵè·¯çº¿":3762,"çĶŁæĢģç³»ç»ŁçļĦ":3763,"æĪĲä¸ºä¸»å¯¼":3764,"åįłæį®":3765,"æĳĩ":3766,"åĲİçİ°ä»£ä¸»ä¹īæĸĩåŃ¦":3767,"åĽłæŀľåħ³ç³»":3768,"æĸ°åı¤åħ¸ä¸»ä¹ī":3769,"æĻ¶ä½ĵç®¡":3770,"åĨĽäºĭ":3771,"å¹»çģŃæĦŁ":3772,"æĹłæĦıä¸Ń":3773,"çĽĨåľ°":3774,"æĭīä¸ģç¾İæ´²":3775,"il":3776,"ä¸ĩ":3777,"çļĦèīºæľ¯":3778,"çļĦå·®å¼Ĥ":3779,"çļĦçĲĨè§£":3780,"å¤º":3781,"ä»ª":3782,"å¦Ĥæŀľå®¤æ¸©è¶ħå¯¼ä½ĵ":3783,"éĩıåŃĲæĢģ":3784,"æĽ´åĬł":3785,"å¯ĨéĴ¥":3786,"èīºæľ¯çļĦ":3787,"å¤ļèĳĽ":3788,"æĸ¯å¤ļèĳĽ":3789,"æķ°æį®éĽĨ":3790,"æŃ£å¼ı":3791,"å¤©çĦ¶":3792,"çł´è§£":3793,"è£ħç½®éĢļè¿ĩ":3794,"çī©çĲĨåŃ¦ä¸įåĲĮ":3795,"å®ŀè¯ģéªĮè¯ģ":3796,"æ¶Īè´¹èĢħ":3797,"éĺ¶çº§":3798,"æ²¡æľī":3799,"ç«ĭä½ĵä¸»ä¹īå¯¹å½¢å¼ıçļĦ":3800,"èĤĸåĥı":3801,"èĽĭçĻ½":3802,"éī":3803,"Ġä½¿çĶ¨":3804,"Ġin":3805,"æĢĢ":3806,"èĥ½åĬ¨":3807,"æĢ§èĥ½":3808,"çĶŁåŃĺ":3809,"ä¸įè¶³":3810,"æ³ķåĽ½":3811,"äººæĭ©":3812,"èĭ¥èĥ½":3813,"åŃĺåľ¨å·®å¼Ĥ":3814,"ç²¹":3815,"çİ°å®ŀä¸İ":3816,"å¸¸éĩĩçĶ¨":3817,"éģĵå¾·åĨ³çŃĸ":3818,"âĢľ":3819,"âĢĿ":3820,"åħĪäºİ":3821,"ä½łçļĦ":3822,"ä½įç½®":3823,"ä½İæ¸©":3824,"åĪ¤æĸŃ":3825,"èµĦæľ¬ç§¯ç´¯":3826,"æ³ķå¾ĭæ¡Ĩæŀ¶":3827,"å¹²é¢Ħæİªæĸ½":3828,"åĨ·åĨ»":3829,"ä¿¯åĨ²å¸¦éĢļè¿ĩ":3830,"å¦ĤæŀľæļĹèĥ½éĩıçļĦ":3831,"å°ıè¯´ä¸ŃçļĦéŃĶå¹»çİ°å®ŀä¸»ä¹ī":3832,"å¸ĮèħĬæĤ²åī§":3833,"éĽ·åħĭ":3834,"åĲ¸æĶ¶":3835,"ä¾§éĩįäºİ":3836,"éĺ»ç¢įäºĨ":3837,"å²Ĺä½įæµģå¤±":3838,"éĿŀæ¬§åĩłéĩĮå¾Ĺ":3839,"åĵģæł¼åŁ¹åħ»":3840,"éī´":3841,"40":3842,"Ġre":3843,"æĢ¥":3844,"åŃ¦ç§ĳ":3845,"çĶŁæ®ĸ":3846,"å¾Ī":3847,"ä¼łæĦŁ":3848,"åĲİçļĦ":3849,"è®¤è¯ģ":3850,"å½¢æĪĲäºİ":3851,"ä¹ĭåīį":3852,"è¯Ńè¨ĢçĽ¸å¯¹è®º":3853,"åĽ¾æ¡Ī":3854,"æ¼Ĥ":3855,"æĥħæĻ¯":3856,"èĤī":3857,"æ³¢éķ¿":3858,"æŃ£åľ¨":3859,"æłĩåĩĨè¯ĳæ³ķ":3860,"æ¶Īè§£":3861,"çĽ´æİ¥çĽ¸åħ³":3862,"å°±ä¸ļ":3863,"çĽ¸åħ³èģĶ":3864,"é¢łè¦Ĩä¼łç»Ł":3865,"åħ»èĢģ":3866,"ç²¾ç¡®çļĦ":3867,"åįļå¼Īè®ºæ¨¡åŀĭ":3868,"å¤ªéĺ³èĥ½çĶµæ±ł":3869,"åŁ¹èĤ²":3870,"é¢ĳçİĩ":3871,"çļĦå¹¿æ³ĽéĩĩçĶ¨":3872,"éĩİçĶŁ":3873,"è±¡å¾ģæĢ§":3874,"è¡¨è§ĤéģĹä¼łæľºåĪ¶éĢļè¿ĩ":3875,"éĻįæ°´æ¨¡å¼ı":3876,"éĢīæĭ©æĢ§åĨħå®¹":3877,"å¯¹çĲĨæĢ§éĢīæĭ©çĲĨè®º":3878,"æģĲæĢ":3879,"æ£®æŀĹçłįä¼Ĳ":3880,"äººæĭ©åİŁçĲĨ":3881,"ci":3882,"§æĪ¿":3883,"çļĦæ¦Ĥå¿µ":3884,"çļĦä¾Ŀèµĸ":3885,"çļĦæ²»çĸĹ":3886,"ä¹°":3887,"ä¸»é¢ĺ":3888,"éĢļå¸¸":3889,"å¦Ĥä½ķä½ĵçİ°":3890,"ä¸įä¼ļ":3891,"äººçļĦ":3892,"æ¯ģ":3893,"åĲİäººç±»ä¸»ä¹ī":3894,"è¯Ńåºı":3895,"èĩªæ²»":3896,"æµģä½ĵ":3897,"èĮ§æĪ¿":3898,"ç¤¾ä¼ļç»ĵæŀĦ":3899,"æģ¶":3900,"è®¡ç®Ĺæľº":3901,"å¾·å°Ķ":3902,"å¾·éĽ·åħĭ":3903,"å¤ļç§į":3904,"åıĻäºĭæīĭæ³ķ":3905,"æ¶¨":3906,"çİ¯å¢ĥåĽłç´ł":3907,"éģĵå¾·çī¹æ®Ĭ":3908,"åŁİå¸Ĥè§ĦåĪĴ":3909,"æ°ĶåĢĻå»ºæ¨¡":3910,"å¹´ä»£":3911,"ä¹ĭéĹ´çļĦçŁĽçĽ¾":3912,"ä¸Ńå¿ĥçļĦ":3913,"çĽĳæµĭ":3914,"éĢıéķľ":3915,"åĩ¯æģ©æĸ¯ä¸»ä¹īç»ıæµİåŃ¦":3916,"åĩ¯æģ©æĸ¯ä¸»ä¹īåĪºæ¿Ģ":3917,"å®¡ç¾İ":3918,"ä¸ŃçļĦåºĶçĶ¨æıŃç¤ºäºĨ":3919,"çĪĨ":3920,"æµ·å²¸ä¾µèļĢ":3921,"æŀģç«¯å¾®çĶŁçī©":3922,"æļ´éľ²":3923,"éĿĻæĢģ":3924,"è®¤çŁ¥å¤±è°ĥçĲĨè®º":3925,"ä¿ĿçľŁåº¦":3926,"ä¸įåı¯éĿłåıĻè¿°èĢħ":3927,"si":3928,"ys":3929,"çļĦåĬ¨æĢģ":3930,"å®ŀçĶ¨":3931,"å¦Ĥä½ķåıįæĺł":3932,"æĪĲåĪĨ":3933,"æ¯į":3934,"èµ¤":3935,"èĭ¥èĥ½å®ŀçİ°":3936,"èīºæľ¯ä¸Ń":3937,"å¤įåĲĪ":3938,"ä¸Ģèĩ´":3939,"å¤ļéĩį":3940,"éª¼":3941,"è¿Ĳè¾ĵ":3942,"ç»´æĬ¤":3943,"äºļåİŁåŃĲ":3944,"è¢«åĬ¨":3945,"çĬ¯":3946,"ä¹ĭéĹ´çļĦåħ³ç³»":3947,"å¹¿æ³ĽéĩĩçĶ¨":3948,"ç¬¦åĲĪä¸Ńæĸĩè¡¨è¾¾ä¹łæĥ¯":3949,"é¡º":3950,"çĽ¸å¯¹ä¸»ä¹ī":3951,"æĢİæł·çļĦå½±åĵį":3952,"éĢıæĺİ":3953,"çªģçł´æĢ§":3954,"ä¹¦ä¿¡":3955,"æİĴæĸ¥":3956,"è¶ħæĿĲæĸĻéļĲèº«":3957,"éĥ½å¸Ĥ":3958,"åı¯èĥ½ä¼ļå¦Ĥä½ķæ¼Ķåıĺ":3959,"èĪªå¤©":3960,"åĵ¥çī¹å¼ı":3961,"éª¨éª¼":3962,"èĤĸåĥıçĶ»":3963,"éģĵå¾·çī¹æ®Ĭä¸»ä¹ī":3964,"çļĦæıĲåįĩ":3965,"äº«":3966,"ä¸Ńä»ĭ":3967,"ä¸İäººç±»":3968,"äººçī©":3969,"ä»¥éĢĤåºĶ":3970,"ç¥ŀç»ıè°ĥæİ§":3971,"ä½¿ä¼łç»Ł":3972,"æĦıè¯ĨçłĶç©¶":3973,"æĮĩæ¶ī":3974,"ç¼ĸç»ĩ":3975,"æĶ¶éĽĨ":3976,"ç¾¤èĲ½":3977,"æ°¸ä¹ħæĢ§":3978,"è¿ŀç»Ń":3979,"è¡Įä¸ºç»ıæµİåŃ¦éĢļè¿ĩå°Ĩ":3980,"æº¶èļĢ":3981,"æľºåĻ¨äººåŃ¦":3982,"æĪĺçķ¥åĨ³çŃĸ":3983,"ç¬¬äºĮ":3984,"åĨ²ç§¯å¹³åİŁä¸įåĲĮ":3985,"çļĦåħīå½±æķĪæŀľ":3986,"åħ¬åı¸æ²»çĲĨ":3987,"æĹħè¡Į":3988,"ab":3989,"ment":3990,"ver":3991,"¿æĢģ":3992,"çļĦè¿ĲçĶ¨":3993,"çļĦæ¯Ķè¾ĥåĪĨæŀĲ":3994,"äºĪ":3995,"ç»ħ":3996,"è¯¸":3997,"åľ¨çĲĨè®ºä¸Ĭ":3998,"éĩıçļĦ":3999,"åľ°åĪ©":4000,"å®ŀçİ°æłĩåĩĨåĮĸ":4001,"å¦Ĥæŀľå¾®çĶŁçī©":4002,"æ¯Ĵ":4003,"èĩªæĹĭ":4004,"æĻļ":4005,"åİŁåŀĭ":4006,"åĵªäºĽæĬĢæľ¯":4007,"å°Ĩå¦Ĥä½ķéĩįå¡ĳ":4008,"å±Ĥæ¬¡":4009,"å¹²æī°":4010,"å°ıè¯´ä¸Ń":4011,"åħ±åĲĮ":4012,"å°±æĺ¯":4013,"æł¹æľ¬æĢ§åıĺéĿ©":4014,"ç¢İçīĩåĮĸçļĦ":4015,"åľ°è´¨æĹ¶éĹ´å°ºåº¦":4016,"å§¿æĢģ":4017,"åķĨä¸ļåı¯è¡ĮæĢ§":4018,"å¥¥åľ°åĪ©":4019,"éĽ·è¾¾":4020,"æµªæ¼«":4021,"éĽĨæĪĲçĶµè·¯":4022,"æ¬§äºļå¤§éĻĨ":4023,"æģĲæĢĸ":4024,"00":4025,"90":4026,"Ġe":4027,"çļĦåºĶçĶ¨":4028,"åŃŁ":4029,"åĲĮåĮĸ":4030,"å¦ĤæŀľåŁºäºİCRISPRçļĦåŁºåĽłé©±åĬ¨æĬĢæľ¯":4031,"çĽ¸ä¼¼":4032,"ç³»ç»Łå®ŀçİ°":4033,"æĦıåŃĲ":4034,"éĩıåŃĲå¯ĨçłģåŃ¦":4035,"éĩıåŃĲçºłç¼ł":4036,"è½¯":4037,"åİŁåı¥çļĦ":4038,"ä¼¦çĲĨåĽ°å¢ĥ":4039,"æ¨¡åŀĭæıĲåĩºäºĨæĮĳæĪĺ":4040,"åīįæıĲ":4041,"æ·¡":4042,"éĩĩçĶ¨äºĨ":4043,"çİ¯å¢ĥä¸ŃçļĦ":4044,"äººå·¥åħīåĲĪä½ľçĶ¨":4045,"çº³ä»Ģ":4046,"æŁı":4047,"ä»»æĦıåŃĲ":4048,"æĦıè¯Ĩæµģæīĭæ³ķ":4049,"èį¯çī©":4050,"ç¡®ç«ĭäºĨ":4051,"çº¯ç²¹":4052,"çĿ¡çľł":4053,"æ³¨æĦıåĬĽ":4054,"åħ»èĢģéĩĳ":4055,"å¾·éĽ·åħĭæĸ¹ç¨ĭ":4056,"çº³ä»ĢåĿĩè¡¡":4057,"ĵè¨Ģ":4058,"åŃ¤":4059,"è¯ī":4060,"ä¸Ńå¾®":4061,"æ´ª":4062,"äºĴèģĶç½ĳ":4063,"ä¿¡ä»»":4064,"éľĢè¦ģè¿Ľè¡Į":4065,"é«ĺåº¦":4066,"éĽĨçº¦":4067,"å½»åºķçļĦ":4068,"èĬ±":4069,"ä¿¡æģ¯èĮ§æĪ¿":4070,"è°ĥæķ´ä¸º":4071,"å¾ªçİ¯ç»ıæµİ":4072,"äººå·¥æĻºèĥ½ç³»ç»Ł":4073,"åįģåĽĽ":4074,"åĮĸåŃ¦é£İåĮĸ":4075,"æĶ¯åĩº":4076,"è¯»èĢħå¯¹":4077,"åľ°ç¼ĺæĶ¿æ²»æł¼å±Ģ":4078,"åİ»ä¸Ńå¿ĥåĮĸèĩªæ²»":4079,"åĳĪæĮĩæķ°çº§æıĲåįĩ":4080,"äº¤åıīæĢ§":4081,"èĩªåĬ¨é©¾é©¶æ±½è½¦":4082,"ç¬Ľåį¡å°ĶäºĮåħĥè®º":4083,"å¯ĨéĴ¥åĪĨåıĳ":4084,"åİ»ä¸Ńå¿ĥåĮĸèĩªæ²»ç»Ħç»ĩ":4085,"çļĦä¸įåĲĮ":4086,"çļĦæĺ¯":4087,"è¿İ":4088,"å¯»":4089,"å¯ĵè¨Ģ":4090,"çİ°åľ¨":4091,"è¡į":4092,"éĢļè·¯":4093,"ç»ıéĻ¢":4094,"æ°¢":4095,"åºĶå¦Ĥä½ķ":4096,"è¡Įè¯Ĺ":4097,"åı¯èĥ½å¯¹":4098,"çĽ¸è°ĥåĴĮ":4099,"çĶŁçī©çļĦ":4100,"éĩıåŃĲåĬłå¯Ĩ":4101,"æµģç¨ĭ":4102,"æĿ¥è§£æŀĦ":4103,"èīºæľ¯ä¸İ":4104,"è¶ħæĸĩæľ¬":4105,"å¼Ĥç§į":4106,"åįĩé«ĺ":4107,"åģıå¥½":4108,"è¯Ħä»·":4109,"åĩłåįģå¹´åĨħ":4110,"ç²ĴåŃĲçļĦ":4111,"æĮĳæĪĺäºĨä¼łç»Ł":4112,"æĦıä¹īçļĦ":4113,"åıįé¦ĪæľºåĪ¶":4114,"ä½ĵçİ°äºĨ":4115,"æľºæ¢°åĽ¢ç»ĵ":4116,"æ£ĢæµĭåĪ°":4117,"éĹŃçİ¯":4118,"å¯¿åĳ½å»¶éķ¿":4119,"åº·å¾·çļĦç»Ŀå¯¹åĳ½ä»¤":4120,"å¥ĩå¹»åħĥç´ł":4121,"éĩİçĶŁç§įç¾¤":4122,"åįģåĽĽè¡Įè¯Ĺ":4123,"ly":4124,"me":4125,"op":4126,"çĳ":4127,"ç»ª":4128,"å®ľ":4129,"åºĬ":4130,"æĢ§åĴĮ":4131,"è¡ĮæĶ¿":4132,"åı¯èĥ½å¦Ĥä½ķå½±åĵį":4133,"åħ³ç¨İ":4134,"çķħ":4135,"åħīçļĦ":4136,"ç¤¾ä¼ļçļĦ":4137,"éļ§":4138,"ä¹ĭä¸Ń":4139,"è½¬åĮĸä¸º":4140,"äººç±»ä¸Ńå¿ĥ":4141,"åĨħçĶŁ":4142,"è¡¨è¾¾è§ĦèĮĥ":4143,"èĻ«":4144,"æĮģç»ŃåĬłåī§":4145,"æ´ĭæµģ":4146,"ä½Ĩä¹Ł":4147,"å¹¶è¡Į":4148,"æĬĢæ³ķéĢļè¿ĩ":4149,"ä¸´çķĮ":4150,"åıĮè¯Ń":4151,"olog":4152,"ç¦ıåĪ©":4153,"å°ģå»ºåĪ¶åº¦":4154,"æ²¹çĶ»é¢ľæĸĻçļĦåıĳæĺİ":4155,"åľ°éľĩæ´»åĬ¨":4156,"éģĵå¾·å®ŀåľ¨è®ºèĥ½åĲ¦":4157,"æĬĳåĪ¶":4158,"æµ·å¹³éĿ¢ä¸Ĭåįĩ":4159,"ä¸Ńå¾®åŃĲ":4160,"ne":4161,"ç»§":4162,"å¦ĤæŀľåħīåŃĲè®¡ç®Ĺ":4163,"çĲĨè®ºå¦Ĥä½ķè§£éĩĬ":4164,"æ¨¡å¼ıå¦Ĥä½ķå½±åĵį":4165,"äº§åĵģ":4166,"åĿ¡":4167,"åīįç½®":4168,"æł¼å°Ķ":4169,"åĲĮæĹ¶å¤Ħäºİ":4170,"æ¼ı":4171,"çİ°ä»£ä¸»ä¹īæĸĩåŃ¦ä¸ŃçļĦ":4172,"éģĹä¼łæĢ§çĸ¾çĹħ":4173,"èĢĥåı¤":4174,"æ¶Īèŀį":4175,"æĤ¨":4176,"åľŁåľ°":4177,"éĢĢåĮĸ":4178,"åį°è±¡æ´¾ç¬Ķè§¦":4179,"åħīåŃĲéĽĨæĪĲçĶµè·¯":4180,"ä¾µåħ¥":4181,"æĬķæľº":4182,"åģĩè¯´è®¤ä¸º":4183,"å¼ķåıĳäºĨåĵªäºĽ":4184,"éĺ¶æ®µ":4185,"å·¨åŀĭ":4186,"åŃŁå¾·å°Ķ":4187,"å°ļ":4188,"ä¸İä¼łç»ŁçļĦ":4189,"çĶŁæ´»":4190,"ç»Łè®¡":4191,"åĬ¨æĳĩ":4192,"åįĥ":4193,"äººåĬĽ":4194,"è°Ī":4195,"åĲĪä½ľ":4196,"èĩªåıĳ":4197,"æµģçķħ":4198,"ç©´":4199,"ç¤¾ä¼ļå¯¹":4200,"æ¸¡":4201,"èĢĮéĿŀåĲİæŀľ":4202,"è¢«è¯ģæĺİ":4203,"éĵģ":4204,"æĹ¶éĹ´çº¿":4205,"ä¸ĸçºªæ¬§æ´²":4206,"ä¸ĸçºªåĪĿ":4207,"æŃ£åıįé¦Īå¾ªçİ¯":4208,"éĩĳå±ŀ":4209,"ç£ģåľº":4210,"è§£æŀĦäºĨ":4211,"ä»»ä½ķ":4212,"è´Łèį·":4213,"åĤ¨åŃĺ":4214,"å¦Ĥä½ķæĮĳæĪĺä¼łç»Ł":4215,"çĽ®æłĩ":4216,"å¸¦æĿ¥äºĨ":4217,"ç¼©çŁŃ":4218,"æįŁå®³":4219,"æ´Ľåħĭ":4220,"æĵįä½ľæĢ§":4221,"æ¹¿å£ģçĶ»æĬĢæ³ķ":4222,"åĶ¯çī©":4223,"æµªæ¼«ä¸»ä¹ī":4224,"ķå°Ķ":4225,"ĽçŁ¿":4226,"åħ½":4227,"ä¸İæĸĩåĮĸ":4228,"åĽŃ":4229,"çºµ":4230,"è¡¨å¾ģ":4231,"ä½ľçī©":4232,"åĳĬ":4233,"æĽ´åħ·":4234,"å½±åĵįçļĦ":4235,"è¶ħåĩº":4236,"éĺ¿":4237,"çĥŃæ¶²":4238,"è¡¨è¾¾æĸ¹å¼ı":4239,"çĹĩ":4240,"éĴĽçŁ¿":4241,"åŁºç¡Ģè®¾æĸ½çļĦ":4242,"ç²ĴåŃĲåľ¨":4243,"éĤ£ä¹Ī":4244,"äººåı£ç»ĵæŀĦ":4245,"åİ»ä¸Ńå¿ĥåĮĸçļĦ":4246,"ä»¿çĶŁ":4247,"åŃ¦æ´¾çļĦ":4248,"ä¼Ĭå¾·":4249,"éĴĻéĴĽçŁ¿":4250,"å¼Ĺæ´Ľ":4251,"åĸ·åı£":4252,"è¡¥åħħ":4253,"ç¨Ģç¼º":4254,"æĽ´å¿«çļĦ":4255,"åģ¥åº·":4256,"æ¼Ĥç§»":4257,"éļ§ç©¿":4258,"çĥŃæ¶²åĸ·åı£":4259,"ap":4260,"ig":4261,"Ġl":4262,"ģè®¸":4263,"çļĦä½ľçĶ¨":4264,"çļĦåĩĨç¡®æĢ§":4265,"åħģè®¸":4266,"ä¼¯":4267,"ä¸İçİ¯å¢ĥ":4268,"åĬ¨åĬĽ":4269,"å¦Ĥæŀľæķ°åŃĹ":4270,"åī©":4271,"éĩįå»º":4272,"è¯ĨåŃĹ":4273,"ä¸ĬæĪªçĦ¶ä¸įåĲĮçļĦ":4274,"èĩªç»Ħè£ħ":4275,"æĸ°åħ´":4276,"èĢħå¯¹":4277,"æ±Ĳ":4278,"å¤ļæĻ®":4279,"å¹³ä»·":4280,"æĿĥè¡¡":4281,"æĸĩåŃ¦åĪĨæŀĲ":4282,"å±Ĥçº§":4283,"é«ĺæķĪ":4284,"èī²åŁŁ":4285,"çº¿ç²Ĵ":4286,"åĨľæĿĳ":4287,"ä¿¡æģ¯å¤ĦçĲĨ":4288,"é¢łè¦ĨæĢ§":4289,"åĽºæľīçļĦ":4290,"æĭīåĽ¾":4291,"æĹ¶ä»£çļĦ":4292,"å¤§éĻĨæ¼Ĥç§»":4293,"æĬķåħ¥":4294,"éĤ£äºĽ":4295,"åĬŁèĥ½ä¸»ä¹ī":4296,"æįŁèĢĹ":4297,"ç¬¬åĽĽ":4298,"æĿ¿åĿĹæŀĦéĢłçĲĨè®ºéĢļè¿ĩ":4299,"æ½®æ±Ĳ":4300,"åħĪäºİæľ¬è´¨":4301,"æŁıæĭīåĽ¾":4302,"å¼Ĺæ´Ľä¼Ĭå¾·":4303,"å¤ļæĻ®åĭĴ":4304,"çº¿ç²Ĵä½ĵ":4305,"con":4306,"uc":4307,"Ġd":4308,"ä¸ķå°Ķ":4309,"çļĦè§£éĩĬ":4310,"çļĦçĶ²çĥ·":4311,"æĹģ":4312,"åĨ¶":4313,"ä¸įç¨³å®ļ":4314,"åįĹ":4315,"å®ŀçİ°åķĨä¸ļåĮĸåºĶçĶ¨":4316,"ç½ª":4317,"æĭ¥":4318,"çĶŁçī©çī¹å¾ģ":4319,"éĩıåŃĲå¯ĨéĴ¥åĪĨåıĳ":4320,"èĭ¥å°Ĩ":4321,"æĺ¯å¦Ĥä½ķ":4322,"éĽ¨":4323,"åı¯èĥ½ä¼ļå¦Ĥä½ķå½±åĵį":4324,"åħ¸åŀĭ":4325,"å¡ĳæĸĻ":4326,"æĥħç»ª":4327,"å¤ĦçĲĨåĻ¨":4328,"åı¤æ°ĶåĢĻ":4329,"èģĶç³»":4330,"æ¿Ģåħī":4331,"tive":4332,"ä¿ĿæĮģç»Ŀç¼ĺ":4333,"å¤±èĮĥ":4334,"åĥļ":4335,"åĩłä½ķæĬ½è±¡":4336,"åŃ¦æľ¯ä¸¥è°¨æĢ§":4337,"æ¹ĸ":4338,"å®ĺåĥļ":4339,"åħ¨æ°ĳåŁºæľ¬æĶ¶åħ¥åĪ¶åº¦":4340,"ç»ĺçĶ»ä¸ŃçļĦ":4341,"åĨ°å·Ŀä¾µèļĢ":4342,"åĮºåĿĹéĵ¾çļĦä¸įåı¯ç¯¡æĶ¹":4343,"æıŃç¤ºåĩºä¸¤èĢħåľ¨":4344,"1950":4345,"æī°ä¹±":4346,"åĪĨåŃĲçº³ç±³æĬĢæľ¯":4347,"éĽĨä¸Ńå¼ı":4348,"ä¸İçīĽé¡¿çī©çĲĨåŃ¦ä¸įåĲĮ":4349,"èĲ¨ä¸ķå°Ķ":4350,"éĢ»è¾ĳå®ŀè¯ģä¸»ä¹ī":4351,"éĿĴéĵľæĹ¶ä»£æĸĩæĺİçļĦå´©æºĥ":4352,"é¾Ħ":4353,"éģ¿åħį":4354,"ag":4355,"ate":4356,"çĴ":4357,"Ġb":4358,"çļĦçİ°è±¡":4359,"çļĦçłĶç©¶":4360,"çļĦçĽ¸äºĴä½ľçĶ¨":4361,"éĢ¼":4362,"ä¸Ńå®ŀçİ°":4363,"å¦Ĥä½ķä¸İ":4364,"å¦ĤæŀľçĻ¾äº¿äº¿æ¬¡è®¡ç®Ĺ":4365,"åĬłå¿«":4366,"æĻ°":4367,"åİŁä½ı":4368,"ç»ıæµİä¸Ń":4369,"èīºæľ¯åĵģ":4370,"ç«Ń":4371,"ç½ĳç»ľæķĪåºĶ":4372,"å°Ĩå¦Ĥä½ķéĢĤåºĶ":4373,"åħ·ä½ĵ":4374,"æīĢä»¥":4375,"äºļæ³¢éķ¿":4376,"æİ¨è¡Į":4377,"å¹²æ¶ī":4378,"åĨ³çŃĸè¿ĩç¨ĭä¸Ń":4379,"éĥ¨åĪĨ":4380,"å°±ä¼ļ":4381,"è®¾è®¡åİŁåĪĻ":4382,"è®¤è¯Ĩè®ºå±ĤéĿ¢çļĦ":4383,"å°ĨéľĢè¦ģå½»åºķ":4384,"åıĺå¾Ĺå¤įæĿĤ":4385,"èĩªæĪĳå¤įåĪ¶":4386,"å¼ķåĬĽéĢıéķľ":4387,"æĭĵæīĳç»Ŀç¼ĺä½ĵéĢļè¿ĩ":4388,"çĪ¶":4389,"åĮºåĪ«äºİ":4390,"èģĮåľº":4391,"å®ĩå®ĻèĨ¨èĥĢæ¨¡åŀĭ":4392,"éĩİåħ½":4393,"çŃīç¦»åŃĲä½ĵçº¦æĿŁ":4394,"çªģè§¦åı¯å¡ĳæĢ§":4395,"ä¼ļå¼ķåıĳåĵªäºĽä¼¦çĲĨèĢĥéĩı":4396,"ç»¿èī²":4397,"åıĳå±ķä¸ŃåĽ½å®¶":4398,"åĩĿèģļåĬĽ":4399,"å®ŀéªĮå®¤åŁ¹èĤ²":4400,"çİ»çĴ":4401,"çİ»çĴĥ":4402,"ä¹İ":4403,"åŃ¦çłĶç©¶":4404,"æĿ¾":4405,"æĪĲåĽł":4406,"å¦Ĥæŀľç¥ŀç»ıå½¢æĢģè®¡ç®Ĺ":4407,"ä»£çĲĨ":4408,"æ¯ı":4409,"ç¥¨":4410,"èµ«":4411,"ç»ıæµİä½ĵç³»":4412,"éĿŀä¾µåħ¥":4413,"ç¤¾ä¼ļæĶ¿æ²»":4414,"èīºæľ¯ä¸ŃçļĦ":4415,"æ¡£":4416,"å¤įæĢ§":4417,"åĿį":4418,"å·®è·Ŀ":4419,"è¿Ĳä½ľ":4420,"åħ¨çĲĥèĥ½æºĲ":4421,"è¿Ļæł·":4422,"åı¯èĥ½ä¼ļå¼ķåıĳåĵªäºĽ":4423,"å¤ĸäº¤":4424,"çªģçĦ¶":4425,"ä¹ĭéĹ´åŃĺåľ¨":4426,"å®¶åºŃ":4427,"ä¿¡æģ¯ä¼łæĴŃ":4428,"ç¦»æķ£":4429,"ä»įèĥ½":4430,"èµĦæľ¬ä¸»ä¹īçļĦ":4431,"ä¼°ç®Ĺ":4432,"æ´ŀç©´":4433,"è¡°èĢģ":4434,"éĢļçĶ¨äººå·¥æĻºèĥ½":4435,"å¼ķåıĳäºĨåħ³äºİ":4436,"æ³ķå¾ĭä½ĵç³»":4437,"å¸¦æĿ¥çļĦ":4438,"ä¿¯åĨ²å¸¦åĬ¨åĬĽåŃ¦":4439,"åĲ¯èĴĻæĢĿæĥ³":4440,"éĺ²æŃ¢":4441,"çĨĶ":4442,"ç¥ŀç»ıåı¯å¡ĳæĢ§çłĶç©¶è¡¨æĺİ":4443,"é»ĳæ´ŀ":4444,"æĹ¢ä¿ĿçķĻäºĨ":4445,"çŁ³å¢¨çĥ¯çĶŁäº§":4446,"çĵ¦":4447,"æ²īæµ¸å¼ı":4448,"ç»´å¤ļåĪ©äºļæĹ¶æľŁçļĦå°ıè¯´":4449,"é¡¹çĽ®":4450,"å§Ķæīĺ":4451,"åįłæį®ä¸»å¯¼åľ°ä½į":4452,"èĥ½åĬ¨æĢ§":4453,"ä¹¦ä¿¡ä½ĵ":4454,"¢å¤į":4455,"®é£Ł":4456,"ä¸§":4457,"çļĦçĶŁçī©":4458,"çļĦå¢ŀåĬł":4459,"å®ª":4460,"éĢļè¿ĩå¼ºè°ĥ":4461,"è®ºè¿°":4462,"åŁĥ":4463,"åĬ¨æľº":4464,"åıĺè¿ģ":4465,"åı¯èĥ½åĤ¬çĶŁ":4466,"èĭı":4467,"ä»¥æŃ¤":4468,"å½±åĵįäºĨ":4469,"æģ¢å¤į":4470,"ä¼¦çĲĨéĹ®é¢ĺ":4471,"åĪ©çĽĬ":4472,"åĳ½è¿Ĳ":4473,"çªģåĩº":4474,"åıĳçĶŁæ³¢åĬ¨":4475,"å¤ĦçĲĨä¸º":4476,"æĺ¯åĲ¦åºĶ":4477,"æĺ¯åĲ¦éľĢè¦ģ":4478,"å°Ķå¤«":4479,"éĢĤéħį":4480,"éĩįæĸ°è®¾è®¡":4481,"tin":4482,"èµĦæºĲå¼Ģéĩĩ":4483,"å®īåħ¨èĮĥå¼ı":4484,"æļĹçī©è´¨":4485,"ç»ĵæŀľä¸»ä¹ī":4486,"é¢ĦæµĭæĢ§":4487,"çĽ¾çĬ¶çģ«å±±":4488,"éĺĲæĺİ":4489,"åľ°çĲĥåĮĸåŃ¦":4490,"åĲİçİ°ä»£åħĥå°ıè¯´":4491,"èĪªæµ·":4492,"çİ°è±¡åŃ¦æĸ¹æ³ķ":4493,"åįķçº¯":4494,"çģµæ´»":4495,"çľĭåĩº":4496,"èĲ¥åħ»çº§èģĶæķĪåºĶ":4497,"æº¶è§£ä½ľçĶ¨":4498,"çĽĳçĿ£åŃ¦ä¹ł":4499,"å¤©åŁºå¤ªéĺ³èĥ½":4500,"èĦĨå¼±æĢ§":4501,"åĮĸçŁ³çĩĥæĸĻ":4502,"çªģçł´æĢ§è¿Ľå±ķ":4503,"ç²ĴåŃĲåľ¨è¢«":4504,"å¤ļæĻ®åĭĴæķĪåºĶ":4505,"æħ§":4506,"Ġåı¥å¼ı":4507,"çļĦåŁºç¡Ģ":4508,"æĸĹ":4509,"çİ°æĪĲ":4510,"åľ¨åºĶå¯¹":4511,"åľ¨æľªæĿ¥":4512,"è¿ĩæ¸¡":4513,"éĢļè¿ĩåĪ»æĦı":4514,"è´Ń":4515,"ä¸įæĶ¹åıĺ":4516,"æī¾":4517,"å®ŀçİ°éĩıåŃĲéľ¸æĿĥ":4518,"å¤§éĿ©åĳ½":4519,"è®¤åı¯":4520,"èĭ¥èĦĳæľºæİ¥åı£å®ŀçİ°":4521,"æ¨¡å¼ıéĢļè¿ĩ":4522,"ç¥ŀç»ıåħ±çĶŁ":4523,"åĵªäºĽåľ°è´¨":4524,"å¯ĨéĽĨ":4525,"èīºæľ¯åĪĽä½ľ":4526,"äº§éĩı":4527,"è¾¾è¾¾":4528,"åħ¨çĲĥçĥŃéĩıåĪĨå¸ĥ":4529,"è¯Ńè¨Ģä¹łå¾Ĺ":4530,"å°ıåĨ°æľŁ":4531,"åĽ¾åĥı":4532,"éĩįæĸ°çķĮå®ļ":4533,"è¯ĦåĪ¤":4534,"é¡¶":4535,"éĢĢç¼©":4536,"çļĦå½¢æĪĲè¿ĩç¨ĭ":4537,"æ¢¦":4538,"éĿ©æĸ°äºĨ":4539,"è¶ħè¶Ĭä¼łç»Ł":4540,"éĩįæŀĦäºĨ":4541,"åĲ¯åıĳ":4542,"åıĤä¸İå¼ı":4543,"æľ¬è´¨å·®å¼Ĥ":4544,"åĽ½éĻħåħ³ç³»":4545,"å´ĩ":4546,"æ»¤":4547,"æĪªçĦ¶ä¸įåĲĮ":4548,"æ·±åº¦åŃ¦ä¹ł":4549,"åĿĩè¡¡è°ĥæķ´":4550,"èģļåıĺåıįåºĶåłĨ":4551,"åıĪç¬¦åĲĪä¸Ńæĸĩè¡¨è¾¾ä¹łæĥ¯":4552,"æ°¸ä¹ħåĨ»åľŁèŀįåĮĸéĩĬæĶ¾":4553,"æ¸ħæĻ°":4554,"çıŃ":4555,"æģĴæĺŁ":4556,"å¤§æ°ĶäºĮæ°§åĮĸç¢³æµĵåº¦":4557,"åľ°çĲĥåĮĸæĶ¹éĢł":4558,"çł´è§£çļĦ":4559,"æ³ķåĽ½å¤§éĿ©åĳ½":4560,"ç»ħå£«":4561,"éĩİåħ½æ´¾":4562,"%ãĢĤ":4563,"qu":4564,"è®½":4565,"åı¯æī©å±ķ":4566,"ä¸»ä¹īå¯¹":4567,"å¦Ĥä½ķè°ĥåĴĮ":4568,"åľ°æĸ¹":4569,"å¦ĤæŀľäºļåİĨå±±å¤§åĽ¾ä¹¦é¦Ĩ":4570,"å¦Ĥæŀľæ°¸ä¹ħåĨ»åľŁåĬłéĢŁèŀįåĮĸ":4571,"æľ¬çľŁ":4572,"æĭĴ":4573,"æĭĽ":4574,"åĢ¾":4575,"äº§æĿĥ":4576,"èĥ½å¤ŁéĢļè¿ĩ":4577,"ç¢°":4578,"æĦŁåıĹ":4579,"äººç±»çļĦ":4580,"äººç±»åŃ¦":4581,"è¿ĩç¨ĭä¸ŃçļĦ":4582,"æķ°åŃĹçĽĳæİ§":4583,"ç¬¦åĲĪä¸ŃåĽ½":4584,"åħ¶ä»ĸ":4585,"çĶŁæĢģå¹³è¡¡":4586,"æĸĩåĮĸäº¤æµģ":4587,"å¸ĤåľºçļĦ":4588,"æĻºæħ§":4589,"çĽ¸äºĴçŁĽçĽ¾çļĦ":4590,"éĩįæĸ°è¯łéĩĬ":4591,"é¦ĸ":4592,"çĽĲåº¦":4593,"ä¿ĿæĮģåħ¶":4594,"çŁ³çģ°":4595,"ä»·åĢ¼è§Ĥ":4596,"æľīæķĪåľ°":4597,"åł¡":4598,"èĩªåĬ¨åĮĸå¼ķåıĳçļĦ":4599,"éĩıåŃĲéĢĢçĽ¸å¹²çĲĨè®º":4600,"æµĵåº¦çļĦ":4601,"æįķæįīè½¬çŀ¬åį³éĢĿ":4602,"çĸĳéĹ®åı¥å¼ı":4603,"ä¸İåħ·è±¡èīºæľ¯":4604,"åĪĨå½¢åĩłä½ķ":4605,"yste":4606,"æģĲæĢĸè°·":4607,"åĮĸåŃ¦é£İåĮĸä½ľçĶ¨":4608,"äººåĬĽèµĦæľ¬":4609,"çŁ³çģ°å²©":4610,"ad":4611,"Ŀåı¶":4612,"çļĦéĿŀ":4613,"çļĦå¸Ĥåľº":4614,"æľĿ":4615,"åŃ©":4616,"ä¸Ńåħ³äºİ":4617,"è¿ĩæ»¤":4618,"å¾¡":4619,"çĽĽ":4620,"è´´":4621,"åįĹæŀģ":4622,"æĦ¿":4623,"å¦Ĥæŀľè´ŁåĪ©çİĩ":4624,"åĪĨå·¥":4625,"æľīæīĢ":4626,"æķ°ä¸ª":4627,"åĩĨåĪĻ":4628,"å°Ĩå¦Ĥä½ķåıĺéĿ©":4629,"è¿Ļæĺ¯":4630,"åĻ¨ä»¶":4631,"åħ¶ä¸Ń":4632,"å®ĩå®Ļä¸Ń":4633,"äº§çĶŁäºĨåĵªäºĽ":4634,"æ´»åŃĹ":4635,"éĻĨåľ°":4636,"è®¤è¯Ĩè®ºå»ºæŀĦä¸»ä¹ī":4637,"åħīåŃĲè®¡ç®Ĺæŀ¶æŀĦ":4638,"æĥħæĦŁå¼ºåº¦":4639,"çī©çĲĨåŃ¦ä¸ŃçļĦ":4640,"æ¤įçī©":4641,"æ¤įåħ¥":4642,"çĶŁæĪĲå¯¹æĬĹ":4643,"èĲ½æ°´":4644,"å¡ĳéĢłäºĨ":4645,"åĳ¨æľŁæĢ§":4646,"ï¼Ľ\"":4647,"åĮºåĪ«åľ¨äºİ":4648,"åłĨç§¯":4649,"æµ·å²¸åľ°è²Į":4650,"äººæľºäº¤äºĴ":4651,"ç¢³æįķèİ·":4652,"åı¯èĥ½ä¼ļåıĳçĶŁæĢİæł·çļĦè½¬åıĺ":4653,"åı¯ä»¥æıŃç¤ºä¸¤èĢħåľ¨":4654,"æķ°éĩıçº§":4655,"ç¼ĸçłģåľ¨":4656,"æµģè¡ĮçĹħ":4657,"åĬłå¯Ĩè´§å¸ģçļĦæ³¢åĬ¨æĢ§":4658,"æłĳæŀĿçĬ¶æ°´ç³»":4659,"ä¸įåı¯éĿłåıĻè¿°èĢħæīĭæ³ķ":4660,"åĨħçĶŁå¢ŀéķ¿":4661,"æ¼ıæ´ŀ":4662,"åİŁä½ıæ°ĳ":4663,"åĿįç¼©":4664,"çİ°æĪĲåĵģ":4665,"çĶŁæĪĲå¯¹æĬĹç½ĳç»ľ":4666,"ial":4667,"pl":4668,"ts":4669,"tu":4670,"è¸":4671,"Ļçĥ¯":4672,"çļĦæł¸å¿ĥ":4673,"çĶ°":4674,"å°¤":4675,"éĢļè¿ĩå¯¹":4676,"æĶ»":4677,"æł¡":4678,"ä¼ļäº§çĶŁåĵªäºĽ":4679,"åıĺè´¨":4680,"å¦Ĥæŀľå®ŀçİ°äºĨ":4681,"çĽ¸æ¯Ķè¾ĥ":4682,"ç³»ç»Łåľ¨":4683,"åī¥":4684,"å¤§éĥ½å¸Ĥ":4685,"èĩªèº«":4686,"ä»¥åıĬ":4687,"æĮģä¹ħ":4688,"åľºåŁŁ":4689,"çİ°å®ŀçļĦ":4690,"è¯Ńè¨ĢçļĦ":4691,"æĹ¶éĹ´æĦŁçŁ¥":4692,"é¢Ħè®¾":4693,"æĺ¾çİ°":4694,"å¹´åĲİ":4695,"åħ±ä»·":4696,"æĶ¾å°Ħ":4697,"æł¹æľ¬æĢ§åĪĨæŃ§":4698,"ä¸´åºĬ":4699,"è¡Įä¸ºç»ıæµİåŃ¦å°Ĩ":4700,"æľ¬è´¨åĮºåĪ«":4701,"è¶ĭåĲĮ":4702,"åĲİçİ°ä»£ä¸»ä¹īå°ıè¯´ä¸ŃçļĦ":4703,"å¿Ĩéĺ»":4704,"é¢ĳç¹ģ":4705,"æĺłå°Ħåĩº":4706,"åĲ«ä¹ī":4707,"å¹²æĹ±åľ°åĮº":4708,"æŀĦæĪĲäºĨæĮĳæĪĺ":4709,"å±ıå¹ķ":4710,"ç¾İåĽ½éĿ©åĳ½":4711,"é¢łè¦Ĩæ¬§æ´²ä¸Ńå¿ĥä¸»ä¹īçļĦ":4712,"å¤ļç§įçĬ¶æĢģ":4713,"å¥¥åľ°åĪ©åŃ¦æ´¾":4714,"åŃ¤ç«ĭ":4715,"ç²ĴåŃĲåľ¨è¢«æµĭéĩı":4716,"ç¢°æĴŀ":4717,"ri":4718,"tur":4719,"us":4720,"èķ":4721,"çļĦå¹¿æ³ĽåºĶçĶ¨":4722,"ä½Ľ":4723,"ä¹³":4724,"ä¸İè¡Įä¸º":4725,"æ³¡":4726,"éĢļè¿ĩå¯¹æ¯Ķ":4727,"æĿ°":4728,"åı¯éĢļè¿ĩ":4729,"æłĸ":4730,"ä¼ļå¯¼èĩ´":4731,"å°Ĩå¯¹":4732,"æĪĲæ¯Ķä¾ĭ":4733,"äººä½ĵ":4734,"å®ŀçİ°åħ¨çĲĥ":4735,"å¦ĤæŀľåĲĪæĪĲçĶŁçī©åŃ¦":4736,"åĪ¶çº¦":4737,"åı¯èĥ½åıĳçĶŁ":4738,"æ¯«":4739,"è½»":4740,"ç¥ŀç»ıåĽŀè·¯":4741,"çĶµå½±":4742,"æıĲæ¡Ī":4743,"è®¡ç®Ĺèĥ½åĬĽ":4744,"æ°ĶæĹĭ":4745,"æºĲèĩª":4746,"èĢĮéĿŀåŁºäºİ":4747,"çľ¼":4748,"çªģåıĺ":4749,"éĩįæĸ°è¯Ħä¼°":4750,"ç¬¦åĲĪä¸Ńæĸĩç§ĳæĬĢæĸĩçĮ®":4751,"èĩªçĦ¶ä¸»ä¹ī":4752,"æł¸éħ¸":4753,"æıĲåĩºè´¨çĸĳ":4754,"æł¹æľ¬æĢ§æĮĳæĪĺ":4755,"å¯Ĩåº¦é©±åĬ¨çļĦ":4756,"å¯Ĩçłģç³»ç»Ł":4757,"æ¹®":4758,"æĮĩæķ°çº§å¢ŀéķ¿":4759,"å¢ŀåĬłäºĨ":4760,"ä¸ªäººä¸»ä¹ī":4761,"çī©ç§įçļĦ":4762,"åĨ°å·ĿéĢĢç¼©":4763,"çĪ±":4764,"æııç»ĺ":4765,"å¸¸åĢŁåĬ©æ··æĿĤ":4766,"åĲİæ®ĸæ°ĳæĸĩåŃ¦ä¸ŃçļĦéŃĶå¹»çİ°å®ŀä¸»ä¹īå¸¸":4767,"æĺİæļĹå¯¹æ¯Ķ":4768,"åľ°ä¸ĭæ°´":4769,"æĬ¥å¤įæĢ§":4770,"éĿŀæ¬§åĩłéĩĮå¾Ĺåĩłä½ķ":4771,"ä¹°åĬĽ":4772,"è¿İæĿ¥":4773,"ç»ıéĻ¢åĵ²åŃ¦":4774,"åī©ä½Ļ":4775,"ç»¿èī²éĿ©åĳ½":4776,"è´Ńä¹°åĬĽ":4777,"èĲ½æ°´æ´ŀ":4778,"res":4779,"çļĦçĲĨè®º":4780,"çļĦæµ·":4781,"çļĦå¯¹æ¯Ķ":4782,"çļĦè§ĦèĮĥ":4783,"çļĦå®ŀæĸ½":4784,"çļĦä¸»è¦ģ":4785,"åŃ£":4786,"å¼¦":4787,"èĥ¶":4788,"æĪ´":4789,"çī§":4790,"ä¸İéĽĨä½ĵ":4791,"çĽŁ":4792,"ç»Łæ²»":4793,"ä¸ºä¸Ńå¿ĥçļĦ":4794,"ä¸įä»ħ":4795,"ä¿Ĺ":4796,"åĪ¶åĨ·":4797,"ä¼¦çĲĨèĢĥéĩı":4798,"å»ºè®¾":4799,"åĪĻå°Ĩ":4800,"çİ°ä»£è´§å¸ģ":4801,"å±ĤçĬ¶çģ«å±±":4802,"å¸¸æĢģ":4803,"æķ°åŃĹå¹³åı°":4804,"æł¹æľ¬æĢ§çļĦ":4805,"åŁºåĽłé©±åĬ¨æĬĢæľ¯":4806,"æĮĩåĩº":4807,"è¿Ľè¡ĮäºĨ":4808,"äºĮè±¡":4809,"æ¸©å®¤":4810,"åĵ²åŃ¦ä¸ŃçļĦ":4811,"äº§çĶŁäºĨ":4812,"æ´»ä½ĵ":4813,"èĥ½å¤Łå®ŀçİ°å¯¹":4814,"æ¼Ķè¿Ľ":4815,"éĴŁ":4816,"æĢİä¹Ī":4817,"å®īåħ¨æĢ§":4818,"æŁĶ":4819,"åĬłåī§äºĨç¡®è®¤åģıè¯¯":4820,"å±ķçİ°äºĨ":4821,"åį³åı¯":4822,"åĨ·åį´":4823,"æĺŁéĻħæĹħè¡Į":4824,"ç¬¬ä¸Ģ":4825,"åĮĹæŀģåľ°åĮº":4826,"ations":4827,"åĲĦåĽ½":4828,"è´§å¸ģæĶ¿çŃĸå·¥åħ·":4829,"æĶ¾å¤§äºĨ":4830,"æĪĸè®¸èĥ½":4831,"é»ĳæł¼å°Ķ":4832,"å»¶ç»ŃäºĨ":4833,"éĩıåŃĲåĬĽåŃ¦ä¸ŃçļĦ":4834,"ä¸¥æł¼çļĦ":4835,"åŁİå¸ĤçĥŃå²ĽæķĪåºĶéĢļè¿ĩ":4836,"ç¥ŀç»ıç»ĩç½ĳæİ¥åı£":4837,"ç»´å¤ļåĪ©äºļæĹ¶æľŁå°ıè¯´":4838,"èĽĭçĻ½è´¨":4839,"åīįæıĲä¸ĭ":4840,"æĹģè§Ĥ":4841,"ä¹¦ä¿¡ä½ĵå°ıè¯´":4842,"çļĦèĥ½åĬĽ":4843,"åŃ¦çķĮ":4844,"æĢ§çĬ¶":4845,"ä¸İç¬Ľåį¡å°ĶäºĮåħĥè®º":4846,"èĢĲ":4847,"ä¼ļå¯¹":4848,"åıĺåĮĸçļĦ":4849,"å¦ĤæŀľäºĴåĬ¨":4850,"æĬĢæľ¯åĪĽæĸ°":4851,"çĲĨè®ºä¸»å¼ł":4852,"æķĪçĶ¨":4853,"åİŁåĪĽ":4854,"çĶµæ¢¯":4855,"ç²®é£Ł":4856,"éĽĦ":4857,"ç«Ł":4858,"ç½ĳç»ľåĮĸ":4859,"è¿ĩç¨ĭç»´æĮģ":4860,"åħ¨çĲĥåıĺæļĸ":4861,"é«ĺèĥ½æķĪ":4862,"å¤ĸéª¨éª¼":4863,"æļĤ":4864,"æĺ¯åĲ¦åı¯èĥ½":4865,"èį£":4866,"åħ±åŃĺ":4867,"æĺ¾èĳĹçļĦ":4868,"ç»ĵæŀľçļĦ":4869,"æĺłçħ§":4870,"ç²¾åĩĨå¯¹åºĶ":4871,"åį°è±¡æ´¾çĶ»å®¶":4872,"æĿ¿åĿĹè¾¹çķĮ":4873,"ä»İæł¹æľ¬ä¸ĬæĮĳæĪĺäºĨ":4874,"æĹ¥å¸¸":4875,"æĸĩåŃ¦ä¸ŃçļĦéŃĶå¹»çİ°å®ŀä¸»ä¹īéĢļè¿ĩå°Ĩ":4876,"èĩªçĶ±æĦıå¿Ĺ":4877,"èº«ä»½è®¤åĲĮ":4878,"åĨ°å·ĿåĿĩè¡¡è°ĥæķ´":4879,"åıĸä»£äºĨ":4880,"é¢ľæĸĻçļĦ":4881,"æľºæ¢°åĮĸ":4882,"æĺŁéĻħæİ¨è¿Ľç³»ç»Ł":4883,"çĨµ":4884,"è½¬æį¢æķĪçİĩ":4885,"å¤ªç©ºçĶµæ¢¯":4886,"éĩıåŃĲåľºè®ºéĢļè¿ĩ":4887,"åİŁåŃĲçº§ç²¾å¯Ĩ":4888,"æııè¿°äºĨ":4889,"æĳĦå½±æµĭéĩı":4890,"ç®Ĺæ³ķæİ¨èįĲç³»ç»ŁéĢļè¿ĩ":4891,"èµĭäºĪ":4892,"å¯¹çĲĨæĢ§éĢīæĭ©çĲĨè®ºæıĲåĩºäºĨæĮĳæĪĺ":4893,"è¶ħæĿĲæĸĻéļĲèº«è£ħç½®éĢļè¿ĩ":4894,"åĨ¶éĩĳ":4895,"ä»£çĲĨéĹ®é¢ĺ":4896,"åĢ¾åĲĳ":4897,"æ¹®çģŃ":4898,"è´Ńä¹°åĬĽå¹³ä»·":4899,"½æķ°":4900,"ä¸Ļçĥ¯":4901,"çļĦè¿Ľå±ķ":4902,"åĩ½æķ°":4903,"åı¯éĿł":4904,"å¦Ĥä½ķä¿ĥè¿Ľ":4905,"å¼ıçļĦ":4906,"ä¼ļå¦Ĥä½ķå½±åĵį":4907,"åıĳè¾¾":4908,"åĲĮçŃī":4909,"å¦Ĥæŀľå°ıè¡ĮæĺŁéĩĩçŁ¿":4910,"åĬĽéĩı":4911,"åĪĨç¦»":4912,"åı¯èĥ½åıĳçĶŁæĢİæł·çļĦ":4913,"æľīåħ³":4914,"ä¸ŃçļĦä¼łç»Ł":4915,"éģĩ":4916,"çĲĨè®ºåľ¨":4917,"éĩıåŃĲå¹²æ¶ī":4918,"èĭ¥ç¥ŀç»ıå½¢æĢģè®¡ç®Ĺ":4919,"ä»¥æĿ¥":4920,"ç»ıæµİæ¨¡åŀĭ":4921,"æĮĳæĪĺä¼łç»Ł":4922,"æľºåĪ¶éĢļè¿ĩ":4923,"å¸¸è§ģ":4924,"æķ°åŃĹåªĴä½ĵ":4925,"æł¹æľ¬åĪĨæŃ§":4926,"åĪĨæŀĲä¸Ń":4927,"å¸¦å®½":4928,"å½¢æĢģåıĳçĶŁ":4929,"äºĮåįģ":4930,"èģĶæĥ³":4931,"æłĩåĩĨæ¨¡åŀĭ":4932,"ä¹ĭéĹ´çļĦä¼łç»Ł":4933,"åħ±æĮ¯":4934,"ä¼¦çĲĨåŃ¦ä¸įåĲĮ":4935,"è¶ĬçļĦ":4936,"è¿ĲåĬ¨çļĦ":4937,"ä¸¤æŀģ":4938,"åĽºå®ļ":4939,"ç¥ŀç»ıç½ĳç»ľæŀ¶æŀĦ":4940,"åı¯è¡ĮçļĦ":4941,"æķ£æĸĩ":4942,"ä¹¦åĨĻ":4943,"åħ·å¤ĩåı¯è¡ĮæĢ§":4944,"å¿ħçĦ¶":4945,"æ³ķå¾ĭäººæł¼":4946,"åĩºçİ°åĵªäºĽ":4947,"è½¨éģĵå¤ªéĺ³èĥ½åıĳçĶµ":4948,"çŃīçº§ä½ĵç³»":4949,"è§Ĥå¯ŁèĢħæķĪåºĶ":4950,"åĵªäºĽç¤¾ä¼ļåŃ¦":4951,"ä¼ļå¦Ĥä½ķæĶ¹åıĺ":4952,"å¸ĮèħĬåĮĸ":4953,"åĲİç»ĵæŀĦä¸»ä¹īæĸĩåŃ¦æī¹è¯Ħ":4954,"æīĢæľīæĿĥ":4955,"åĽºæĢģçĶµæ±łæĬĢæľ¯":4956,"çĶµç£ģæ³¢æĵįæİ§":4957,"åķĨåĵģåĮĸ":4958,"çĽ´è¯ĳçļĦ":4959,"åĨĻå®ŀä¸»ä¹ī":4960,"æīĵåį°":4961,"æŃ»äº¡":4962,"è¶ħå¯¼éĩıåŃĲå¹²æ¶ī":4963,"åı¯èĥ½ä¼ļåıĳçĶŁæĢİæł·çļĦåıĺåĮĸ":4964,"ç¤¾äº¤åªĴä½ĵç®Ĺæ³ķéĢļè¿ĩéĢīæĭ©æĢ§åĨħå®¹":4965,"Ġæķ´ä½ĵåı¥å¼ı":4966,"æĿİåĺīåĽ¾çļĦæ¯Ķè¾ĥä¼ĺåĬ¿":4967,"é©¬åħĭæĢĿ":4968,"æ»¡è¶³":4969,"ological":4970,"ä¸İåħ·è±¡èīºæľ¯ä¸įåĲĮ":4971,"æĹģè§ĤèĢħæķĪåºĶ":4972,"iz":4973,"per":4974,"ĠæĸĩåĮĸ":4975,"çļĦå¿ĥçĲĨ":4976,"çļĦéĩıåŃĲæ¯Ķçī¹":4977,"çļĦæľīæķĪæĢ§":4978,"è¡Ģ":4979,"éĢļè¿ĩåĪĨæŀĲ":4980,"åĩŃ":4981,"ç®Ń":4982,"åı¯èĥ½å¯¼èĩ´":4983,"ç¡¬":4984,"å¼ºåĮĸçļĦ":4985,"æĽ´æľīæķĪåľ°":4986,"ç¥ŀç»ıæİ¥åı£":4987,"å¾·æĢ§":4988,"éĽĩ":4989,"ç«¥":4990,"å»ºéĢł":4991,"æ¡Ĩæŀ¶ä¸Ń":4992,"æ·»":4993,"æīĢéľĢ":4994,"åı¯èĥ½ä¼ļå¯¹":4995,"æ³¢ç²Ĵ":4996,"æķ°æį®åºĵ":4997,"å¤©æĸĩåŃ¦":4998,"èĥ½åĲ¦åħħåĪĨ":4999,"éĢĤçĶ¨":5000,"ä½ĨéľĢè¦ģ":5001,"å¹¿æ³ĽæĻ®åıĬ":5002,"éĹ®é¢ĺä¸ĬåŃĺåľ¨":5003,"CRISPRåŁºåĽłç¼ĸè¾ĳæĬĢæľ¯":5004,"ç¬¦åĲĪä¸Ńæĸĩç§ĳæĬĢ":5005,"ç©ºéĹ´åħ³ç³»":5006,"ç§»æ°ĳ":5007,"åħ¬å¹³":5008,"å®īåħ¨åįıè®®":5009,"éĩĮå¥¥":5010,"çļĦåıĳå±ķè½¨è¿¹":5011,"åĲİæŀľè®º":5012,"è¿ŀéĶģ":5013,"ç²¾ç¡®æĢ§":5014,"ä¼°åĢ¼":5015,"ä¸įåı¯éĢĨè½¬":5016,"è´¹ç±³":5017,"å®Įæķ´ä¿ĿçķĻ":5018,"éŁ³ä¹Ĳ":5019,"å®Įåħ¨ç«ŀäºī":5020,"çĶ²çĥ·éĩĬæĶ¾":5021,"çļ®è´¨":5022,"çľĭä¼¼":5023,"èİ·å¾Ĺå®ŀè¯ģ":5024,"è¾¹ç¼ĺè®¡ç®Ĺæŀ¶æŀĦ":5025,"çĥŃå¸¦æ°ĶæĹĭ":5026,"è£Ĥè°·":5027,"å°ĨéľĢè¦ģè¿Ľè¡Įéĩįå¤§":5028,"åĬ¨çī©ç¾¤":5029,"éģµå®Ī":5030,"è¿«ä½¿":5031,"çıĬ":5032,"åıªæĺ¯":5033,"è¯ºä¾ĿæĽ¼æŀ¶æŀĦ":5034,"å¢ŀå¼ºçİ°å®ŀçķĮéĿ¢":5035,"æ°ĳæĹıåĽ½å®¶":5036,"åħīæķıæĦŁ":5037,"è¾©è¯ģæ³ķ":5038,"èĴ¸æ±½":5039,"æ¶¨èĲ½":5040,"åħ»èĢģéĩĳä½ĵç³»":5041,"éĽĨçº¦åĮĸ":5042,"åĲĮæĹ¶å¤Ħäºİå¤ļç§įçĬ¶æĢģ":5043,"åŃŁå¾·å°ĶéģĹä¼ł":5044,"æĭ¥æľī":5045,"ting":5046,"æŁĶæĢ§":5047,"æ³¢ç²ĴäºĮè±¡":5048,"15":5049,"ä¸½":5050,"çļĦäºº":5051,"çļĦæĸ°":5052,"çļĦæ°ĶåĢĻ":5053,"çļĦåŁºæľ¬":5054,"åŃ¦è¯´":5055,"å°¾":5056,"åľ¨è¡¨éĿ¢å¯¼çĶµ":5057,"ä¸İçĽĳçĿ£åŃ¦ä¹ł":5058,"å¦Ĥä½ķä¿ĥè¿ĽäºĨ":5059,"åįĵ":5060,"çº½":5061,"åĲĪçº¦":5062,"è¿Ľåı£":5063,"å®ļä»·":5064,"æĽ´ä¼ĺ":5065,"åĵªäºĽåľ°è²Į":5066,"åĵªäºĽä¼¦çĲĨæ¡Ĩæŀ¶":5067,"èīºæľ¯ä½ľåĵģ":5068,"éĺŁ":5069,"åºĶçĶ¨ä¸Ń":5070,"å°Ĩå¦Ĥä½ķåºĶå¯¹":5071,"å°Ĩå¦Ĥä½ķéĩįæĸ°å®ļä¹ī":5072,"å¸¸çĶ¨":5073,"æłĩè®°":5074,"æķ°åŃĹåĩºçīĪ":5075,"çģ¾":5076,"ç»´ç³»":5077,"æİ¨éĢģ":5078,"åĪĨæŀĲæ£ĢæµĭåĪ°":5079,"æĹ¶éĹ´æĢ§":5080,"é¢Ħéĺ²":5081,"çĥŃçĽĲçİ¯æµģ":5082,"éģĵå¾·è´£ä»»":5083,"éĽĨæĿĥ":5084,"åŁİå¸Ĥç»ħå£«":5085,"ä¸ĸçºªçļĦ":5086,"ä½łä»¬":5087,"äº§çĶŁäºİ":5088,"æĴĴ":5089,"åĬłå¯ĨæłĩåĩĨ":5090,"çĶŁäº§çİĩ":5091,"åĪ¶åº¦åĲĮ":5092,"å°±èĥ½":5093,"åħ¬æ°ĳ":5094,"æ°¸æģĴ":5095,"æĻ¯è§Ĥ":5096,"æ¨¡æĭŁçĶŁçī©ç¥ŀç»ıç½ĳç»ľ":5097,"åĤ¬åĮĸ":5098,"è¡¨éĿ¢æĢģ":5099,"è¡¨éĿ¢ä¸Ĭ":5100,"åĲİçİ°ä»£æĸĩåŃ¦":5101,"éĢļçĶ¨è¯ĳæ³ķ":5102,"å°Ĩå¦Ĥä½ķè°ĥæķ´ä»¥éĢĤåºĶ":5103,"çļĦåŁºåĽłç»Ħ":5104,"ä¸İç»ıåħ¸æĿ¡ä»¶åıįå°Ħ":5105,"Ġcon":5106,"åı¯èĥ½å¦Ĥä½ķæĶ¹åıĺ":5107,"ç²¾ç¥ŀåĪĨæŀĲ":5108,"çĽ´æİ¥å½±åĵįäºĨ":5109,"çĵ¶":5110,"æŀģç®Ģä¸»ä¹īéĽķå¡ĳ":5111,"åĢĺèĭ¥äºļåİĨå±±å¤§åĽ¾ä¹¦é¦Ĩå¾Ĺä»¥":5112,"æĿİåĺīåĽ¾çļĦæ¯Ķè¾ĥä¼ĺåĬ¿çĲĨè®º":5113,"å¤ĸéĥ¨æĢ§":5114,"å¹¸ç¦ı":5115,"åŃ¦æľ¯è¯Ńå¢ĥ":5116,"ç®Ĺæ³ķåģıè§ģéĢļè¿ĩ":5117,"çĮİçī©":5118,"çĬ¯ç½ª":5119,"éĢ¼çľŁ":5120,"ä¸§å¤±":5121,"ystems":5122,"æ´»åŃĹåį°åĪ·æľ¯":5123,"è¸ª":5124,"èİ·å¾Ĺå®ŀè¯ģæĶ¯æĮģ":5125,"çļĦäºĴåĬ¨":5126,"çļĦå±ĢéĻĲæĢ§":5127,"çļĦåı¯èĥ½æĢ§":5128,"å½¼":5129,"åıĳå°Ħ":5130,"ä¼łå¯¼":5131,"äººæĿĥ":5132,"å¿ł":5133,"é¢Ī":5134,"éĹ´æİ¥":5135,"æĸ¹åĲĳ":5136,"çĲĨè®ºå¦Ĥä½ķ":5137,"æĦıè±¡":5138,"æĦıå¤ĸ":5139,"å®ļåĪ¶":5140,"å®ļå±ħ":5141,"çī¹è´¨":5142,"ç¥ŀç»ıéĢļè·¯":5143,"èĢħä¸İ":5144,"è®¡ç®ĹèµĦæºĲ":5145,"ç¢±":5146,"èĢĮéĿŀç»ĵæŀľ":5147,"ç´łåħ»":5148,"å°ıåŀĭåĮĸ":5149,"ç«ĭåį³":5150,"éģĵå¾·è¡Įä¸º":5151,"åŁİå¸Ĥäººåı£":5152,"å°Ķæĸ¯":5153,"åģıæĮ¯":5154,"èĥ½åĲ¦ä¸º":5155,"æľ¯è¯Ńè§ĦèĮĥ":5156,"æĻºèĥ½åĲĪçº¦":5157,"å¾Ĺä»¥å®ĮåĸĦ":5158,"çģ«ç®Ń":5159,"å¢ŀå¼ºäºĨ":5160,"åįıä½ľ":5161,"é¢łè¦ĨäºĨ":5162,"è¾ĵéĢģ":5163,"åħ·æľīæĽ´é«ĺçļĦ":5164,"å®ŀçİ°äºĨå¯¹":5165,"æ²³åı£":5166,"åı¯ä»¥çľĭåĩº":5167,"ä¸¥éĩį":5168,"ä»İæł¹æľ¬ä¸ĬæĶ¹åıĺ":5169,"æĬķå½±":5170,"è¶ħæĿĲæĸĻå·¥ç¨ĭ":5171,"åĲİçİ°ä»£ä¸»ä¹īå»ºçŃĳ":5172,"è½¨éģĵçİ¯":5173,"éĿĴéĵľæĹ¶ä»£å´©æºĥ":5174,"äºĳç«¯":5175,"ä¸Ŀç»¸ä¹ĭè·¯çļĦè¡°èĲ½":5176,"å¯¹ç§°æĢ§":5177,"æĮ¯èį¡":5178,"ç¢³éħ¸çĽĲå²©çļĦ":5179,"èĭ±éĽĦ":5180,"çŁŃç¼º":5181,"æ¨¡å¼ıè¯ĨåĪ«èĥ½åĬĽ":5182,"èİİå£«æ¯ĶäºļæĤ²åī§":5183,"éĢłå±±å¸¦":5184,"åĽŀéŁ³å®¤éĢļè¿ĩç®Ĺæ³ķ":5185,"Ġä¸ĵä¸ļæľ¯è¯Ńå¤ĦçĲĨ":5186,"æĿİåĺīåĽ¾çŃīä»·å®ļçĲĨè®¤ä¸º":5187,"äººç±»æĦıè¯ĨåħĪäºİæľ¬è´¨":5188,"éĺµåĪĹ":5189,"ä¼Ĭæĸ¯åħ°åĩłä½ķ":5190,"åĩ¯æģ©æĸ¯ä¸»ä¹īä¸İè´§å¸ģä¸»ä¹ī":5191,"ç«ĭä½ĵä¸»ä¹īå¯¹å½¢å¼ıçļĦè§£æŀĦ":5192,"ä¼łæĦŁåĻ¨":5193,"çĪĨåıĳ":5194,"éĢıæĺİåº¦":5195,"å¦Ĥæŀľå¾®çĶŁçī©ç»Ħ":5196,"äººç±»ä¸Ńå¿ĥä¸»ä¹ī":5197,"å¹¶è¡Įå¤ĦçĲĨ":5198,"çĽ¸äºĴçŁĽçĽ¾çļĦä¿¡å¿µ":5199,"%ï¼Į":5200,"el":5201,"hi":5202,"·éħ¸":5203,"çļĦåİĨåı²":5204,"æľĪ":5205,"å®£":5206,"åĬŀ":5207,"å¼¯":5208,"ä¹ĺ":5209,"åĮĹ":5210,"ä¸İåİĨåı²":5211,"éĢļè¿ĩåľ¨":5212,"å¯¹æµģ":5213,"å°ĨæľīæľĽ":5214,"çŃĽ":5215,"ç¨ĭåºı":5216,"èĭ·éħ¸":5217,"ä¸Ĭä¼ł":5218,"çĶŁçī©ç¥ŀç»ı":5219,"å®ļä½į":5220,"åİŁåĽł":5221,"çķľ":5222,"å¯¼çļĦ":5223,"ä¹ĭå¤ĸ":5224,"éĩĩéĽĨ":5225,"æĦŁè§ī":5226,"åıĻäºĭç»ĵæŀĦçļĦ":5227,"æĸĩåŃ¦æī¹è¯Ħ":5228,"æĦıè¯Ĩéļ¾é¢ĺ":5229,"åħ·èº«":5230,"åĨ³äºİ":5231,"æ®ĸæ°ĳåľ°":5232,"ç¾İæľ¯":5233,"çłĶç©¶çļĦ":5234,"å®ĩå®ĻçļĦ":5235,"åıĸåĨ³äºİ":5236,"éĻįè§£":5237,"ç¢³å°ģåŃĺ":5238,"ä¿®æĶ¹":5239,"æĤ£":5240,"è£ħé¥°":5241,"çĽ´æİ¥æİ¨åĬ¨äºĨ":5242,"è¯Ħè®º":5243,"æł¸èĭ·éħ¸":5244,"èĬĤçĤ¹":5245,"æ·±å±Ĥ":5246,"æĪĲä¸ºçİ°å®ŀ":5247,"æĬĢæľ¯çļĦåıĳå±ķ":5248,"åħ·æľīè´ŁæĬĺå°Ħçİĩ":5249,"æī©å¤§":5250,"çĭŃ":5251,"ç²ĴåŃĲçī©çĲĨåŃ¦":5252,"ä¼ĺåħĪèĢĥéĩı":5253,"åİĭè¿«":5254,"åĲ¯ç¤º":5255,"é¸Ł":5256,"è¶ħæĿĲæĸĻéĢļè¿ĩ":5257,"ä¸Ńä¸ĸçºªç»ıéĻ¢åĵ²åŃ¦":5258,"ä¿ĿæĬ¤çļĦ":5259,"æ´ŀè§ģ":5260,"çĶµç£ģè¾Ĳå°Ħ":5261,"åĮºåŁŁçļĦ":5262,"å¿ĥçĲĨåŃ¦çĲĨè®º":5263,"æĦıè¯Ĩå½¢æĢģæŀģåĮĸ":5264,"å¦ĤæŀľéĩıåŃĲåĬłå¯Ĩ":5265,"æĶ¿åºľå¹²é¢Ħ":5266,"æĶ¾å¤§ç¡®è®¤åģıè¯¯":5267,"åİŁåŃĲçº§ç²¾åº¦":5268,"ç§»æ¤įçĸĹæ³ķ":5269,"åĪĨåŃĲçº³ç±³æĬĢæľ¯èĥ½å¤Łå®ŀçİ°":5270,"åĪĨå¸ĥå¼ıè´¦æľ¬":5271,"çĶŁçī©æłĩå¿Ĺçī©":5272,"çĶŁçī©æłĩå¿Ĺæ°Ķä½ĵ":5273,"æµģåŁŁçļĦ":5274,"æħ¢":5275,"è¡įçĶŁ":5276,"ä¸İç¬Ľåį¡å°ĶäºĮåħĥè®ºä¸įåĲĮ":5277,"åİŁåŃĲçº§ç²¾å¯ĨåĪ¶éĢł":5278,"am":5279,"©åĽº":5280,"ºä¹³":5281,"èĶ":5282,"Ġåı¥å¼ıç»ĵæŀĦ":5283,"çļĦçİ¯å¢ĥ":5284,"äºĶ":5285,"åı¦":5286,"æŀ¯":5287,"è¯¾":5288,"å¤¸":5289,"ä¹Į":5290,"æ³¥":5291,"åı¯æº¶":5292,"åĵºä¹³":5293,"ä¸»ä¹īä¸»å¼ł":5294,"å¦Ĥä½ķéĩįå¡ĳäºĨ":5295,"ä¸ºæł¸å¿ĥ":5296,"å·©åĽº":5297,"å°Ĩä¼ļ":5298,"ä¼łæī¿":5299,"æİĮ":5300,"å¦Ĥæŀľäººå·¥æĦıè¯Ĩ":5301,"æı¡":5302,"å·¥ä½ľèĢħ":5303,"åĳ³":5304,"ç»ĵæŀĦæĢ§":5305,"æŃĩ":5306,"åĪ©ä»ĸ":5307,"èĥ½å¤Łè¾¾åĪ°":5308,"æľºåĪ¶æĺ¯ä»Ģä¹Ī":5309,"æķ°åŃĹäºĴèģĶ":5310,"æ³¢åĩ½æķ°":5311,"æŃ£çĽ¸åħ³":5312,"çľŁæŃ£":5313,"å¤±ä¸ļ":5314,"ä¸¤ç§į":5315,"æĿ¡ä»¶ä½ľçĶ¨":5316,"æĿ¡ä»¶çĬ¶è¯Ń":5317,"è§ģè§£":5318,"ä»·åĢ¼è¯Ħä¼°":5319,"çĽ¸å¯¹è®ºéĢŁåº¦":5320,"èĨľ":5321,"éŁµ":5322,"å§Ĩ":5323,"ä¸Ńä¸ĸçºªçļĦ":5324,"åłĤ":5325,"å°ºåº¦ä¸Ĭ":5326,"orm":5327,"çİ°è±¡åŃ¦è¿ĺåİŁ":5328,"ç®Ģåįķ":5329,"èĩªåĬ¨åĮĸå¯¼èĩ´çļĦ":5330,"æŀĹæķĪåºĶ":5331,"éĢļä¿¡ç½ĳç»ľ":5332,"è¿ľç¨ĭ":5333,"æįŁä¼¤":5334,"æĬ½è±¡è¡¨çİ°ä¸»ä¹īæĽ´æ³¨éĩį":5335,"è¯¥ç¿»è¯ĳåľ¨ä¿ĿæĮģ":5336,"åº·å¾·ä¹īåĬ¡è®º":5337,"ä¸Ńå¤®éĽĨæĿĥ":5338,"åħīä¼ıæķĪçİĩ":5339,"éķľåĥı":5340,"æĪĸè®¸ä¼ļ":5341,"æ½ľåľ¨çļĦ":5342,"å¼ĹæŀĹæķĪåºĶ":5343,"ä¸ªæĢ§åĮĸåĨħå®¹":5344,"è¿ŀè´¯æĢ§":5345,"å¦Ĥæŀľåħ¨æ°ĳåŁºæľ¬æĶ¶åħ¥åľ¨åħ¨çĲĥèĮĥåĽ´åĨħå®ŀæĸ½":5346,"åħ±è¯ĨæľºåĪ¶":5347,"æ²ĥå°Ķå¤«":5348,"èĥ½æºĲä¼łè¾ĵåŁºç¡Ģè®¾æĸ½":5349,"æ·±åº¦ä¼ªéĢłæĬĢæľ¯çļĦæī©æķ£":5350,"å¿ĥçĲĨè¯Ńè¨ĢåŃ¦çłĶç©¶è¡¨æĺİ":5351,"åĩ¸æĺ¾äºĨ":5352,"æ·¡æ°´":5353,"å®ľå±ħ":5354,"åįĥå¹´":5355,"åı¯æī©å±ķæĢ§":5356,"æ·»åĬł":5357,"åħīæķıæĦŁç¦»åŃĲéĢļéģĵ":5358,"çĵ¶é¢Ī":5359,"çŃĽéĢī":5360,"åĵºä¹³åĬ¨çī©":5361,"ff":5362,"mo":5363,"éº":5364,"ĠéĢļè¿ĩ":5365,"çļĦèĥ½æºĲ":5366,"çļĦè®Ńç»ĥ":5367,"åŃ¦éĻ¢":5368,"åľ¨éģĵå¾·åĨ³çŃĸ":5369,"åľ¨åľ°è´¨æĹ¶éĹ´å°ºåº¦":5370,"ä¸ŃåŃĺåľ¨":5371,"ä¸ŃæĸĩåŃ¦":5372,"å¦Ĥä½ķå°Ĩ":5373,"ä½ĵçļĦ":5374,"è´«":5375,"å°Ĩç»ıåİĨ":5376,"å¦Ĥæŀľç³»å¤ĸè¡ĮæĺŁå¤§æ°Ķ":5377,"æľ¬èº«":5378,"åĬłå·¥":5379,"åī¯":5380,"åī²":5381,"å¼ºåĪ¶":5382,"éĩıåŃĲéļ§ç©¿":5383,"åĳ¢":5384,"æĽ´å¼º":5385,"çī¹å¼Ĥ":5386,"çī¹æĭī":5387,"åŃĺåľ¨åħ³èģĶ":5388,"åŃĺåľ¨äºīè®®":5389,"å¯¼èĪª":5390,"çĶµåĬ¨":5391,"ç²ĺ":5392,"å½¢æĪĲçĭ¬çī¹çļĦ":5393,"éĢłå°±":5394,"è¦ģç´ł":5395,"ä¸Ģä»£":5396,"åıįèĢĮ":5397,"åıĻäºĭçļĦ":5398,"åıĻäºĭä¼łç»Ł":5399,"åĪĻä¼ĺåħĪèĢĥèĻĳ":5400,"äººç±»å¯¹":5401,"è®¤çŁ¥è¿ĩç¨ĭ":5402,"æķ°åŃĹéĢļä¿¡":5403,"åı¯èĥ½ä¼ļåıĳçĶŁ":5404,"åĪĨæŀĲæıŃç¤ºäºĨ":5405,"æĥħèĬĤ":5406,"æĹłçĽĳçĿ£":5407,"èĥ½å¤Łå®ŀçİ°çĶŁçī©ç¥ŀç»ıç½ĳç»ľ":5408,"ç©ºéĹ´æ³ķ":5409,"æĸ¹éĿ¢åŃĺåľ¨":5410,"æ·±åĪ»":5411,"æ²īç§¯æ¨¡å¼ı":5412,"åĬłåī§äºĨèĥ½æºĲæ¶ĪèĢĹ":5413,"æĸĩæĺİä¹ĭéĹ´çļĦ":5414,"æĬķç¥¨":5415,"æ¬¡ä¸ĸçķĮ":5416,"éĢĴå½Ĵ":5417,"ä½ľèĢħèº«ä»½":5418,"ä½ľåĵģä¸ŃçļĦ":5419,"åı¯èĥ½ä¼ļå¦Ĥä½ķæĶ¹åıĺ":5420,"æ²³æµģåľ°è²Į":5421,"ç³»å¤ĸè¡ĮæĺŁæ®ĸæ°ĳ":5422,"çģµæķı":5423,"æľīä½ķå·®å¼Ĥ":5424,"æīĺéĤ¦":5425,"å¸ĿåĽ½ä¸»ä¹ī":5426,"çĽĳç®¡æ¡Ĩæŀ¶":5427,"çŀ¬æģ¯":5428,"çİ°ä»£ä¸»ä¹īæĸĩåŃ¦ä¸Ń":5429,"ç½ĳç»ľå®īåħ¨èĮĥå¼ı":5430,"è¶ħèĩªçĦ¶åħĥç´łå¹¶ç½®":5431,"è½½ä½ĵ":5432,"ç³»å¤ĸè¡ĮæĺŁå¤§æ°Ķåħīè°±åŃ¦":5433,"æŃ¦åĻ¨":5434,"æĤ¬æµ®":5435,"å²©çŁ³åľĪæĿ¿åĿĹ":5436,"ä¾Ľç»ĻåŃ¦æ´¾":5437,"æİĴæ°´ç³»ç»Ł":5438,"æĺ¼å¤ľèĬĤå¾ĭç´Ĭä¹±å¦Ĥä½ķå½±åĵį":5439,"DNAåºıåĪĹçļĦæĥħåĨµä¸ĭ":5440,"å¼ķåıĳäºĨåĵªäºĽåľ°ç¼ĺæĶ¿æ²»åĲİæŀľ":5441,"è°ĪåĪ¤":5442,"æ¿ĢåħīéĽ·è¾¾":5443,"åıĤä¸İå¼ıèīºæľ¯":5444,"å¸¸æĢģåĮĸ":5445,"æ¸©å®¤æ°Ķä½ĵ":5446,"ä¸İç»ıåħ¸æĿ¡ä»¶åıįå°Ħä¸įåĲĮ":5447,"æŀ¯ç«Ń":5448,"æ¬¡ä¸ĸçķĮå¤§":5449,"ies":5450,"çļĦè¡Įä¸º":5451,"çļĦè¿ĽæŃ¥":5452,"çļĦä¸ŃæĸŃ":5453,"è¯±":5454,"ä¸İåĮĸåŃ¦":5455,"éĢļè´§":5456,"éĢļè¿ĩåĲĮæĹ¶":5457,"åı¯åıĳçİ°":5458,"ä¸įæĪĲæ¯Ķä¾ĭ":5459,"çº¹":5460,"è°ĵ":5461,"åİĮ":5462,"å¦ĤæŀľéĩıåŃĲè®¡ç®Ĺå®ŀçİ°":5463,"çĽ¸å®¹":5464,"ä¸ŃçļĦä½ľçĶ¨":5465,"ç³»ç»ŁåĴĮ":5466,"èĢĮåĨħéĥ¨":5467,"åŀĴ":5468,"ç¤¾ç¾¤":5469,"æº¢":5470,"åħīéĢŁ":5471,"çĶµè§£":5472,"æĿ¥çļĦ":5473,"æĿ¥é¢łè¦Ĩæ®ĸæ°ĳ":5474,"ä¸Ģèµ·":5475,"éļĻ":5476,"èģĺ":5477,"äººç±»å¯¿åĳ½å»¶éķ¿":5478,"åĨħçļĦ":5479,"æł¹éĻ¤":5480,"æķ°åŃĹæ¸¸":5481,"æ°´åĲĪçī©":5482,"äºļæĸĩåĮĸ":5483,"å¥ĳ":5484,"å½»åºķéĩįæŀĦ":5485,"éĹ®ä¸ĸ":5486,"åħĪåīį":5487,"åħĪéªĮ":5488,"è¡¨è¾¾çļĦ":5489,"ä¸ĸçºªä¸Ń":5490,"å¤©æ°Ķ":5491,"èİ«":5492,"å¾®æ³¢":5493,"è§īå¾Ĺ":5494,"è§¦è§ī":5495,"çĹħæ¯Ĵ":5496,"åĤ¨èĥ½":5497,"é²ģ":5498,"æĹ¥æľ¬":5499,"è¯»èĢħçļĦ":5500,"éĩįæĸ°å®ļä¹īäºĨ":5501,"ä¿ĿåŃĺå®Įå¥½":5502,"åŁ¹è®Ń":5503,"åĨ²çªģçļĦ":5504,"åıĸä»£ä¼łç»Ł":5505,"æ¶Īè´¹æ¨¡å¼ı":5506,"éĩıåŃĲéĢĢçĽ¸å¹²çĲĨè®ºéĢļè¿ĩ":5507,"ä¸ĸçķĮè§Ĥ":5508,"ç«ŀäºīæĢ§":5509,"åįļå¼Īè®ºåľ¨è¿ĽåĮĸçĶŁçī©åŃ¦":5510,"å¦Ī":5511,"åŃĺåľ¨ä¸»ä¹īåĵ²åŃ¦ä¸»å¼łäººç±»æĦıè¯ĨåħĪäºİæľ¬è´¨":5512,"çº¢ç§»":5513,"æ²Ļæ¼ł":5514,"æĽ´æĸ°ä¸ĸå·¨åŀĭ":5515,"è¿ħéĢŁä¼łæĴŃ":5516,"æĺİæļĹå¯¹çħ§æĬĢæ³ķ":5517,"èŃ¦åĬ¡":5518,"äºĨä½ķç§įä½ľçĶ¨":5519,"åĲİäººç±»ä¸»ä¹īåĵ²åŃ¦":5520,"å¼Ĥç§įç§»æ¤į":5521,"éĴĻéĴĽçŁ¿å¤ªéĺ³èĥ½çĶµæ±ł":5522,"å®ŀéªĮå®¤åŁ¹èĤ²èĤī":5523,"æĭĽèģĺ":5524,"æµģè¡ĮçĹħåŃ¦":5525,"åĪ¶åº¦åĲĮæŀĦ":5526,"åħ·æľīè´ŁæĬĺå°ĦçİĩçļĦ":5527,"åı¯æº¶æĢ§":5528,"ain":5529,"åĹ":5530,"çļĦåıĻäºĭ":5531,"çļĦè§£æŀĦ":5532,"åıĭ":5533,"åľ¨ä¸įåĲĮ":5534,"è§Ī":5535,"åĮĸè¿ĩç¨ĭ":5536,"ä¸İå½ĵåīįçļĦ":5537,"ä¸İåĨ²ç§¯å¹³åİŁä¸įåĲĮ":5538,"æĹ§":5539,"éĢļè¿ĩåĪĨå±Ĥ":5540,"åįİ":5541,"å®ŀçİ°çļĦ":5542,"å¤§ä¼Ĺ":5543,"åŃĺç»Ń":5544,"åĲİåį°è±¡æ´¾":5545,"å½±åĥı":5546,"çĶŁçī©åĮ»åŃ¦":5547,"å®ļå¾ĭ":5548,"å½±åĵįçĿĢ":5549,"æĸ°èīºæľ¯è¿ĲåĬ¨":5550,"ç±»åĬ¨çī©":5551,"åĮºçļĦ":5552,"ä¹ĭå¤Ħ":5553,"åıįå¯¹":5554,"åĪ°ç»ıåħ¸":5555,"äººç±»è¿ģå¾Ļ":5556,"å°Ĩå¦Ĥä½ķåıĺåĮĸ":5557,"è¢«ç¼ĸçłģåľ¨":5558,"éģĵå¾·ä¸»ä½ĵ":5559,"éĢĤçĶ¨äºİ":5560,"åĬłå¯Ĩæĸ¹æ³ķ":5561,"å¾®åŀĭåĮĸ":5562,"çĽ´æİ¥ä¿ĥæĪĲäºĨ":5563,"å¤±è¡¡":5564,"åĩıç¼ĵ":5565,"å¤§æ°Ķä¸ŃçļĦ":5566,"è¦ĨçĽĸ":5567,"åı¯ä»¥è§£éĩĬ":5568,"ä¸ĵä¸ļæľ¯è¯Ńè¯´æĺİ":5569,"åı¤åħ¸ç»ıæµİåŃ¦":5570,"åı¤åħ¸çŁ¥è¯Ĩ":5571,"è¯¥è¯ĳæĸĩ":5572,"æĿĥåĬĽåħ³ç³»":5573,"è¯»èĢħä¸İ":5574,"åĲİçİ°ä»£åıĻäºĭ":5575,"æ»´":5576,"åı¯èĥ½ä¼ļå¦Ĥä½ķè°ĥæķ´":5577,"ç³»ç»ŁæĢ§é£İéĻ©":5578,"è°ĥèĬĤåħ¨çĲĥçĥŃéĩıåĪĨå¸ĥ":5579,"åĲİç»ĵæŀĦä¸»ä¹īå¯¹":5580,"é»ı":5581,"èĩ³ä»Ĭ":5582,"éĽķå¡ĳä¸įåĲĮ":5583,"å®ĩå®ĻåŃ¦ä¸ŃçļĦ":5584,"å®ŀæĹ¶æ°ĶåĢĻå»ºæ¨¡":5585,"æľīæľºåĽ¢ç»ĵ":5586,"è¿ĳä»£æĹ©æľŁæ¬§æ´²çļĦ":5587,"æľįåĬ¡ä¸ļ":5588,"èĦ±éĿ¶":5589,"çļĦåħīçº¿":5590,"åı¥æ³ķç»ĵæŀĦ":5591,"ç©¿éĢı":5592,"æ°ĳä¸»åĮĸ":5593,"ä¼ļå¼ķåıĳåĵªäºĽä¼¦çĲĨéĹ®é¢ĺ":5594,"ä¸īç»´ç©ºéĹ´":5595,"åı¯æĮģç»ŃæĢ§":5596,"æ±īè¯Ń":5597,"åĲİç»ĵæŀĦä¸»ä¹īæĸĩåŃ¦çĲĨè®ºéĢļè¿ĩå¼ºè°ĥ":5598,"èĥĮæĻ¯ä¸ĭ":5599,"çĭ¬ç«ĭäºİ":5600,"è®ºæĸĩçļĦ":5601,"éĩıåŃĲèī²åĬ¨åĬĽåŃ¦è®¡ç®Ĺ":5602,"æĢĢçĸĳ":5603,"çĶŁæ®ĸç³»":5604,"æµģä½ĵåĬ¨åĬĽåŃ¦":5605,"è¡Įä¸ºç»ıæµİåŃ¦éĢļè¿ĩå°Ĩè®¤çŁ¥åģıå·®":5606,"æ°¢çĩĥæĸĻ":5607,"æľºæ¢°åĽ¢ç»ĵä¸įåĲĮ":5608,"åĶ¯çī©ä¸»ä¹ī":5609,"å¦Ĥæŀľæķ°åŃĹè¶ħæĸĩæľ¬":5610,"æįķæįīè½¬çŀ¬åį³éĢĿçļĦåħīå½±æķĪæŀľ":5611,"çĽĽè¡Į":5612,"æłĸæģ¯":5613,"æł¸éħ¸éħ¶":5614,"æĬ¥å¤įæĢ§è´¸æĺĵ":5615,"åĪ¶åĨ·éľĢæ±Ĥ":5616,"è´Ńä¹°åĬĽå¹³ä»·è°ĥæķ´":5617,"ä¹ĮæīĺéĤ¦":5618,"å©":5619,"Ġw":5620,"çļĦåĵ²åŃ¦":5621,"çļĦç©ºéĹ´":5622,"çļĦç¨³å®ļæĢ§":5623,"åĪļ":5624,"åĮĸæ¨¡å¼ı":5625,"è¡Ĺ":5626,"ä¸İçĶŁçī©":5627,"ä¸İç¤¾ä¼ļ":5628,"å¦Ĥä½ķæıĲåįĩ":5629,"åĬ¨èį¡":5630,"å°Ĩèĥ½":5631,"ç³»ç»Łä¸įåĲĮ":5632,"èĢĮè¨Ģ":5633,"å¤§åŁİå¸Ĥ":5634,"æĪĺäºī":5635,"çī¹çĤ¹":5636,"åİŁå§ĭ":5637,"ç»ıæµİåı¯è¡ĮæĢ§":5638,"è´¨æĦŁ":5639,"æĥł":5640,"æĿ¥æĮĳæĪĺ":5641,"éĿŀæ´²":5642,"å¿ĥèº«":5643,"è¶ħåĪĨåŃĲ":5644,"è¶ħå¯¹ç§°":5645,"èĥ½å¤Łä»¥":5646,"æµ·æ°´":5647,"æµĭè¯ķ":5648,"æĦıè¯Ĩä¸Ĭä¼ł":5649,"ä¿¡çĶ¨":5650,"çĽ´è§ī":5651,"åŁºåĽłå·¥ç¨ĭ":5652,"é¢ĦåħĪ":5653,"çİ°è±¡çļĦ":5654,"èĤ¯":5655,"å¸ĤåľºåĨ³çŃĸ":5656,"è¡¨çİ°ä¸»ä¹īçļĦ":5657,"å½»åºķåıĺéĿ©":5658,"ç¦ģ":5659,"å®ĮæĪĲ":5660,"çľŁç©º":5661,"æ¿Ģåıĳ":5662,"åĽłç´łä¿ĥä½¿":5663,"åħ¬ä¼Ĺ":5664,"çļĦå½¢æĪĲæºĲäºİ":5665,"æĿ¡çº¦":5666,"è¾ĵåħ¥":5667,"å¾ĹåĪ°å®ŀè¯ģéªĮè¯ģ":5668,"å°ĳå¹´":5669,"è®¤è¯Ĩè®ºæ¡Ĩæŀ¶":5670,"è¶ħè¶Ĭç¡ħåŁº":5671,"å¤§éĻĨæĿ¿åĿĹ":5672,"åĮºåĿĹéĵ¾æĬĢæľ¯éĢļè¿ĩ":5673,"éĤ£ä¸ª":5674,"å¿ħè¦ģ":5675,"åĵ¥çĻ½":5676,"çŁ¿çī©":5677,"éĿĴå°ĳå¹´":5678,"å·²ç»ı":5679,"æĭĵæīĳç»Ŀç¼ĺä½ĵçļĦ":5680,"åħīåŃ¦æ··åĲĪ":5681,"ç´¯ç§¯":5682,"åĪĽéĢłåĩº":5683,"åĵªäºĽç¤¾ä¼ļç»ıæµİ":5684,"ç¨İæĶ¶":5685,"åĲİæ®ĸæ°ĳæĸĩåŃ¦ä¸ŃçļĦéŃĶå¹»çİ°å®ŀä¸»ä¹īå¸¸éĢļè¿ĩ":5686,"æĬĺå°ĦåĩºæĪĺåĲİ":5687,"omp":5688,"è¿ģç§»æ¨¡å¼ı":5689,"å°ĨåıĳçĶŁæł¹æľ¬æĢ§è½¬åıĺ":5690,"çĽ¸äºĴä¾ĿåŃĺåħ³ç³»":5691,"æĢ»ä½ĵ":5692,"ç½Ĺé©¬å¸ĿåĽ½":5693,"ä¾ĿçĦ¶åŃĺåľ¨":5694,"éĶģå®ļ":5695,"åŁºå²©çļĦ":5696,"çĳļ":5697,"çº¿ç²Ĵä½ĵDNA":5698,"äºļæ³¢éķ¿ç»ĵæŀĦ":5699,"æĶ¾å°ĦæĢ§":5700,"çıĬçĳļ":5701,"çĶµåĬ¨æ±½è½¦":5702,"åĵ¥çĻ½å°¼":5703,"to":5704,"çļĦéĩĩçĶ¨":5705,"çļĦåĩłä½ķ":5706,"çļĦåħ¨çĲĥåĮĸ":5707,"ãĢĤ\"":5708,"è¯·":5709,"æĢ§è´¨":5710,"åľ¨å½ĵä»£":5711,"ä¸İæŁıæĭīåĽ¾":5712,"çĶŁçĲĨ":5713,"æĿĢ":5714,"å¸ķ":5715,"å¦Ĥä½ķä¿ĥä½¿":5716,"è¡Įä¼ļ":5717,"å¿½":5718,"å½¢è±¡":5719,"å¦Ĥæŀľåľ¨":5720,"å¦Ĥæŀľæ°¸ä¹ħåĨ»åľŁèŀįåĮĸ":5721,"å¦Ĥæŀľäººå·¥éĢļçĶ¨æĻºèĥ½":5722,"æ´ģ":5723,"æĬĢæľ¯åıĳå±ķ":5724,"å¤§çļĦ":5725,"çĲĨè®ºå°Ĩ":5726,"åĢį":5727,"åĳ¼":5728,"ä»¥å¾Ģ":5729,"æŃī":5730,"å±ķè§Ī":5731,"éĿ¢å¯¹":5732,"ç»ıæµİä¸ŃçļĦ":5733,"äºĭå®ŀ":5734,"å½¢æĪĲçģ«å±±å¼§":5735,"è¾¾ç±³":5736,"è½¬èĢĮ":5737,"æľºåĪ¶çļĦ":5738,"æĸ¯ç§ĳ":5739,"å±ĤçļĦ":5740,"è§Ħå¾ĭ":5741,"å¸¸æķ°":5742,"è¿ĻéĩĮ":5743,"å¥ĸ":5744,"é«ĺäºİ":5745,"ä½ĵç³»ä¸Ń":5746,"æĻ®ä¸ĸ":5747,"åĲĮæĹ¶ä¿ĿæĮģ":5748,"ç»ĦæĪĲ":5749,"æĹłéĻĲ":5750,"è¡¨çİ°å½¢å¼ı":5751,"å¤ĦçĲĨæĸ¹å¼ı":5752,"åŁİå¸ĤåĮĸè¿Ľç¨ĭ":5753,"çĤ¼":5754,"åģıç¦»":5755,"æ¦Ĥå¿µéĢļè¿ĩ":5756,"èĥ½åĲ¦å®ŀçİ°":5757,"çł´ç¢İ":5758,"çŁ¥è¯Ĩä¼łæĴŃ":5759,"æĸŃè£Ĥ":5760,"åħ»åĪĨ":5761,"ç¤¾äº¤ç½ĳç»ľ":5762,"å¨ģæĿĥ":5763,"ä¸»å¯¼çļĦ":5764,"å¹³åı°çļĦåħ´èµ·":5765,"ä¸ºä½ķæŁĲäºĽ":5766,"æĸĩåŃ¦ä¸ŃçļĦéŃĶå¹»çİ°å®ŀä¸»ä¹īå°Ĩ":5767,"èĩªçĶ±ä¸»ä¹ī":5768,"æ²³æµģä¸īè§Ĵæ´²":5769,"ans":5770,"èĩªæĪĳå¼ºåĮĸçļĦ":5771,"å®ıå¤§":5772,"å¦Ĥä½ķåľ¨ä¸įæĶ¹åıĺ":5773,"å¿ĥçĲĨåŃ¦æ´ŀè§ģ":5774,"åıĮéĩį":5775,"æ²īç§¯çī©è´Łèį·":5776,"éĢĨåĳ¨æľŁ":5777,"æĽ¿ä»£æĸ¹æ¡Ī":5778,"çĥŃå¸¦æµģåŁŁçļĦ":5779,"åħīåĲĪä½ľçĶ¨æķĪçİĩ":5780,"æĺłå°ĦäºĨ":5781,"åľ°å½¢éĻįæ°´æ¨¡å¼ı":5782,"Ġsystems":5783,"å¦ĤæŀľéĩıåŃĲéľ¸æĿĥ":5784,"çī¹å®ļåľºåŁŁ":5785,"èĥ½åĲ¦åľ¨ä¸į":5786,"èĦīåĨ²":5787,"éĽ¶å·¥ç»ıæµİçļĦ":5788,"å¦ĤæŀľåĬłå¯Ĩè´§å¸ģçļĦæĻ®åıĬ":5789,"çĶŁæĢģæī¹è¯ĦæĸĩåŃ¦åĪĨæŀĲ":5790,"éļĶç¦»":5791,"ä¼´éļı":5792,"åħĪè¿ĽçļĦ":5793,"åĩ¯æģ©æĸ¯ä¸»ä¹īç»ıæµİåŃ¦ä¸»å¼ł":5794,"çĵ¦è§£":5795,"å§Ķæīĺä»£çĲĨéĹ®é¢ĺ":5796,"ä¸¤æŀģåĪĨåĮĸ":5797,"å¿łå®ŀ":5798,"çĭŃä¹īçĽ¸å¯¹è®º":5799,"åŃ¦éĻ¢æ´¾":5800,"im":5801,"ow":5802,"èľ":5803,"ķè£Ĥ":5804,"çļĦçĶŁæĢģ":5805,"çļĦèĮĥå¼ı":5806,"çļĦæľīæľº":5807,"æľ«":5808,"çİĽ":5809,"å¯¹è¿Ľåı£":5810,"åı¯åľ¨":5811,"åı¯è¯»":5812,"æİł":5813,"æĬĢæľ¯å¾ĹåĪ°":5814,"éĻĦ":5815,"çĽ¸å½ĵ":5816,"å·¥ä¼ļ":5817,"çĶŁçī©ç¾¤èĲ½":5818,"ç¥ŀåľ£":5819,"æĪĳä¸į":5820,"å¤ļç»´":5821,"èĥ½å¤Łè§£éĩĬ":5822,"åŃĹéĿ¢":5823,"æµ·ä¸Ĭ":5824,"åīįèĢħ":5825,"åīįæĻ¯":5826,"çĦ¶åĲİ":5827,"æ¡Ĩæŀ¶çļĦ":5828,"ä¸ĸä»£":5829,"è¿Ļå°Ĩå¦Ĥä½ķå½±åĵį":5830,"è§ĨåĮĸ":5831,"åı¯èĥ½ä¼ļæľīä½ķä¸įåĲĮ":5832,"çĥŃçĤ¹":5833,"èĤ¥":5834,"æķ°æį®åŃĺåĤ¨":5835,"èģĶç»ĵ":5836,"åĩĨç¡®æĢ§çļĦ":5837,"æĮģç»ŃçļĦ":5838,"åĢĺèĭ¥éĩıåŃĲ":5839,"å¤©æĸĩ":5840,"çĽ¸äºĴä¾Ŀèµĸ":5841,"æĴķè£Ĥ":5842,"æĶ¿æ²»æŀģåĮĸ":5843,"ç»ĿçĥŃ":5844,"åŁºäºİå¿Ĩéĺ»":5845,"çĿĢéĩį":5846,"ä¸Ńå¿ĥåĮĸ":5847,"çŁ¥è¯Ĩæĺ¯éĢļè¿ĩ":5848,"åĨ°åį«æĺŁ":5849,"çģ«èį¯":5850,"éĥ¨éĹ¨":5851,"åĪ¶åº¦æĢ§":5852,"å¤§æ°Ķä¸Ń":5853,"æĦŁçŁ¥åĪĨç±»":5854,"åıĪç¬¦åĲĪ":5855,"åı¯ä»¥åıĳçİ°":5856,"åĬłåī§äºĨæķĻèĤ²ä¸įå¹³çŃī":5857,"ä¸įåı¯çł´è§£çļĦ":5858,"è¡Įä¸ºç»ıæµİåŃ¦æ¨¡åŀĭ":5859,"åıĤä¸İçİĩ":5860,"æľ¬è´¨ä¸Ĭ":5861,"æĿĥåĬĽæł¼å±Ģ":5862,"æ¸©çĽĲçİ¯æµģçļĦä¸ŃæĸŃ":5863,"æ½ľæĦıè¯Ĩ":5864,"æľīæľĽåľ¨":5865,"èĪªç©º":5866,"è°ĥèĬĤåħ¨çĲĥæ°ĶåĢĻ":5867,"èĻļæĹł":5868,"ä¸ŃçļĦåºĶçĶ¨éĢļè¿ĩ":5869,"åįĬçĲĥ":5870,"æĸĩèīºå¤įåħ´æĹ¶æľŁçļĦèīºæľ¯å®¶":5871,"åİ»ä¸Ńå¿ĥåĮĸéĩĳèŀį":5872,"æľºåĻ¨äººæĬĢæľ¯":5873,"ä¸İç»ıåħ¸çĥŃåĬĽåŃ¦":5874,"éĺ²å¾¡":5875,"éĩıåŃĲåľºè®ºå°Ĩ":5876,"è¿ĳä»£æĹ©æľŁæ¬§æ´²":5877,"éĩıåŃĲåıłåĬłæĢģ":5878,"åı¯èĥ½éľĢè¦ģè¿Ľè¡Į":5879,"ç»ıæµİä½ĵä¸Ń":5880,"ä¸İçīĽé¡¿åĬĽåŃ¦ä¸įåĲĮ":5881,"çŃĸå±ķå®ŀè·µ":5882,"æĢĿç»´æ¨¡å¼ı":5883,"è½®çıŃ":5884,"å¼ºçĥĪçļĦ":5885,"çĽ®çļĦè®ºè®ºè¯ģ":5886,"çģ«æĺŁæ®ĸæ°ĳ":5887,"éĿ©åĳ½æĢ§åıĺéĿ©":5888,"å°ĨåıĳçĶŁæĢİæł·çļĦè½¬åıĺ":5889,"åıĮåĲĳéĢļä¿¡":5890,"æĽ´åĬłå¼ºè°ĥ":5891,"sion":5892,"èµ¤éģĵ":5893,"é¡ºåºı":5894,"åĵªäºĽæĬĢæľ¯éļľç¢į":5895,"é¢ĦæµĭæĢ§èŃ¦åĬ¡":5896,"å¤©åŁºå¤ªéĺ³èĥ½æĶ¶éĽĨ":5897,"æķ°ä¸ªæķ°éĩıçº§":5898,"çĶ°åĽŃ":5899,"é»ĳæł¼å°Ķè¾©è¯ģæ³ķ":5900,"åģıæĮ¯æĢģ":5901,"å¼¯æĽ²":5902,"åıĻäºĭç»ĵæŀĦçļĦç¢İçīĩåĮĸ":5903,"å¤¸åħĭ":5904,"éķľåĥıç¥ŀç»ıåħĥ":5905,"çĶµè§£è´¨":5906,"æķ°åŃĹæ¸¸æ°ĳ":5907,"è¶ħåĪĨåŃĲåĮĸåŃ¦":5908,"åŁºäºİå¿Ĩéĺ»åĻ¨çļĦ":5909,"ä¸İç»ıåħ¸çĥŃåĬĽåŃ¦ä¸įåĲĮ":5910,"AI":5911,"Dæīĵåį°":5912,"ir":5913,"Ġh":5914,"Ġth":5915,"çļĦæĦŁçŁ¥":5916,"çļĦåı¥å¼ı":5917,"çļĦé¢Ħæµĭ":5918,"çļĦå¼ķåħ¥":5919,"çļĦåĮºåĪ«åľ¨äºİ":5920,"åħ¹":5921,"åľ¨ç»ıæµİ":5922,"ä¸İçİ°æľī":5923,"æĿľ":5924,"åı¯è§Ĥæµĭ":5925,"å¸®":5926,"å¦Ĥä½ķè°ĥæķ´":5927,"ä¸įè¾¾ç±³":5928,"æĪĲå¹´":5929,"å¦ĤæŀľèĦĳæľºæİ¥åı£":5930,"åĬĽçļĦ":5931,"åı¯èĥ½å½»åºķæĶ¹åıĺ":5932,"æľīåı¯èĥ½":5933,"èī¯":5934,"ä¸ŃçļĦçĶŁçī©":5935,"æĸ¹çļĦ":5936,"çĲĨè®ºä¸İ":5937,"æĦıåĳ³":5938,"çĶŁçī©æ··åĲĪ":5939,"éĩıåŃĲçĥŃåĬĽåŃ¦":5940,"ä»¥åºĶå¯¹":5941,"åĽłæŃ¤":5942,"æĿ¥è¯Ħä¼°":5943,"æĺİæĺ¾":5944,"äºĭæķħ":5945,"ä¸ĢåĪĩ":5946,"åıįå¼¹":5947,"åıįè®½":5948,"åĿ¦":5949,"å¼ºè°ĥç»ıéªĮéªĮè¯ģ":5950,"å¸¸å°Ĩ":5951,"åħ¨çĲĥè´¸æĺĵ":5952,"è¿Ļå¯¹":5953,"èĢĮéĿŀè¢«åĬ¨":5954,"å½ĵæĹ¶":5955,"å¥ł":5956,"å¡Ķ":5957,"åı£è¯Ń":5958,"å·®å¼ĤåĮĸçļĦ":5959,"æĺ¾å¾®":5960,"ç»ĦåĲĪ":5961,"æĹłè®º":5962,"å¸Ĥåľºä¸ŃçļĦ":5963,"ç¾İç´¢":5964,"äºĮåŃĹ":5965,"åħĪçĶŁ":5966,"æŃ£ä¹ī":5967,"çİ°ä»£ä¸»ä¹īå°ıè¯´ä¸ŃçļĦ":5968,"èĥ½åĲ¦éĢļè¿ĩ":5969,"è·¨è¶Ĭ":5970,"åĨ°èĬ¯":5971,"éĢĢä¼ĳ":5972,"æļĹèĥ½éĩıå¯Ĩåº¦":5973,"ç£ģæĤ¬æµ®":5974,"èµ·åĪ°":5975,"çĹħåİŁ":5976,"ç²¾åĩĨåº¦":5977,"å»ºçŃĳçļĦ":5978,"åŁºåĽłç¼ĸè¾ĳæĬĢæľ¯çļĦ":5979,"çĶµåŃĲåĻ¨ä»¶":5980,"éĶĻè¯¯":5981,"æĿĥåĬĽåĬ¨æĢģ":5982,"çļĦåıĳèĤ²":5983,"å°ģéĹŃ":5984,"è¿Ļä¸Ģçİ°è±¡":5985,"éĵ¶æ²³":5986,"åħ·è±¡èīºæľ¯":5987,"å°Ĩå¦Ĥä½ķè°ĥæķ´éĢĤåºĶ":5988,"éĩıåŃĲéĢĢçĽ¸å¹²å¯¹":5989,"äººä¸ºçİ¯å¢ĥ":5990,"ist":5991,"ä¹īåĬ¡è®ºä¼¦çĲĨåŃ¦å¼ºè°ĥ":5992,"å®ĩå®ĻèĨ¨èĥĢéĢŁçİĩ":5993,"è¿½è¸ª":5994,"äºĳè®¡ç®Ĺ":5995,"åħīéģĹä¼łåŃ¦æĬĢæľ¯éĢļè¿ĩ":5996,"æ¸¸æĪı":5997,"ç¡®ç«ĭçļĦ":5998,"çļĦç¢İçīĩåĮĸåıĻäºĭ":5999,"åĪĨåŃĲç»Ħè£ħåĻ¨":6000,"å®¢è§ĤçľŁçĲĨ":6001,"æīĵçł´":6002,"åı¯ä»¥æıŃç¤ºäºĮèĢħåľ¨":6003,"ä¸İåħ·è±¡éĽķå¡ĳä¸įåĲĮ":6004,"æľºä¼ļæĪĲæľ¬":6005,"æĲľ":6006,"æĭľåįłåºŃåľ£åĥıçĶ»":6007,"æīįèĥ½":6008,"éĢ»è¾ĳå®ŀè¯ģä¸»ä¹īçļĦ":6009,"å·´æ´Ľåħĭ":6010,"çļĦè®¤è¯Ĩè®ºæ¡Ĩæŀ¶":6011,"æĺİæļĹå¯¹çħ§æ³ķ":6012,"éĿŀçĲĨæĢ§åĨ³çŃĸ":6013,"åĢĴç½®":6014,"ç»ıæµİè¡°éĢĢæľŁéĹ´":6015,"ä¸ĩåıĺ":6016,"ä¸Ģèĩ´æĢ§":6017,"æģĲæĢĸè°·çİ°è±¡":6018,"çĮİçī©åĬ¨æĢģ":6019,"çķľçī§":6020,"é¸Łç±»":6021,"çŀ¬æģ¯ä¸ĩåıĺ":6022,"æ°¢çĩĥæĸĻçĶµæ±ł":6023,"æİłå¤º":6024,"ä¸įè¾¾ç±³äºļ":6025,"ç¾İç´¢ä¸įè¾¾ç±³äºļ":6026,"æ¥":6027,"Ġg":6028,"çļĦè®¡ç®Ĺ":6029,"çļĦåŃ¦æľ¯":6030,"çļĦæĻ®éģį":6031,"çļĦè§Ĥå¿µ":6032,"çļĦä½įç½®":6033,"æľ¨":6034,"å®¾":6035,"ä¹¡":6036,"ä¹Ķ":6037,"èĥ½èĢĹ":6038,"ä¸ŃåŃĺåľ¨çļĦ":6039,"è¿ĩåº¦":6040,"ä¸İæĸĩèīºå¤įåħ´æĹ¶æľŁçļĦ":6041,"ä¸İå®Įåħ¨ç«ŀäºī":6042,"çĶŁç´ł":6043,"çĽĺ":6044,"ä¸»ä¹īæĸ¹æ³ķ":6045,"å¦Ĥä½ķä»İæł¹æľ¬ä¸ĬæĶ¹åıĺäºĨ":6046,"æĸĩåŃĹ":6047,"çī©æµģ":6048,"æĮī":6049,"ä¼łæĢģ":6050,"æ¨¡æĢģ":6051,"æĪĲå°±":6052,"çºĤ":6053,"æī®":6054,"äººåĳĺ":6055,"æĦĪ":6056,"å¦ĤæŀľåħīéģĹä¼łåŃ¦":6057,"æĬĢæľ¯è¿ĽæŃ¥":6058,"åŁºåĩĨ":6059,"éĩįçĤ¹":6060,"çŁ¥è§ī":6061,"å®ļåĲĳ":6062,"åŀĭæĿ¿åĿĹè¾¹çķĮ":6063,"ä»¥å®ŀçİ°":6064,"å½±åĵįåŁºåĽłè¡¨è¾¾":6065,"åŃĺåľ¨æľ¬è´¨å·®å¼Ĥ":6066,"åĵªäºĽç¥ŀç»ı":6067,"åĵªäºĽæĸ°åŀĭ":6068,"ç¤¾ä¼ļåĩĿèģļåĬĽ":6069,"æĮģå¹³":6070,"å½¢æĪĲå¯¹æ¯Ķ":6071,"äº§ä¸ļ":6072,"éĽħ":6073,"åĲ¦å®ļ":6074,"è¡Įä¸ºçĸĹæ³ķ":6075,"å¡ŀ":6076,"åı£å¤´":6077,"å¤ĸçļ®å±Ĥ":6078,"ç«ĭæ³ķ":6079,"èĤ¡":6080,"ä¸ĵéĹ¨":6081,"åı¤èĢģ":6082,"åı¥ç»ĵæŀĦ":6083,"ç¼ĸçºĤ":6084,"åĸľ":6085,"å¤©èĬ±":6086,"èİ±":6087,"çľŁæł¸":6088,"çī©è´¨åĮĸ":6089,"å¢ŀå¼ºçļĦ":6090,"éĴ©":6091,"é©±åĬ¨åĬĽ":6092,"çĲĨæĢ§ä¸»ä¹ī":6093,"çĲĨæĢ§è¡Įä¸º":6094,"çĽ¸æ¯Ķä¼łç»Ł":6095,"å®ŀçİ°äºĨåīįæīĢæľªæľīçļĦ":6096,"åį°è±¡æ´¾ä¸İ":6097,"ess":6098,"ä¹¦éĿ¢":6099,"éĻĲåĪ¶çļĦ":6100,"è¶ħæĿĲæĸĻçļĦåıĳå±ķ":6101,"éĢĴéĢģ":6102,"å®Įæķ´ä¿ĿçķĻäºĨ":6103,"ç³»ç»ŁæĢ§åľ°":6104,"èĪªè¡Į":6105,"å±ķçİ°åĩºçĭ¬çī¹çļĦ":6106,"è§Ĥå¯ŁåĪ°çļĦ":6107,"ç½Ĺå°Ķæĸ¯":6108,"ç½Ĺæĸ¯ç§ĳ":6109,"æĽ´ç¬¦åĲĪä¸Ńæĸĩè¡¨è¾¾ä¹łæĥ¯":6110,"èĦ±éĴ©":6111,"ä¸ľè¥¿æĸ¹":6112,"åħĭæľįå½ĵåīį":6113,"çļĦä¼¦çĲĨäºīè®®":6114,"ä¸ªæĢ§åĮĸåĮ»çĸĹ":6115,"èİİå£«æ¯ĶäºļåįģåĽĽè¡Įè¯Ĺ":6116,"åĪĽä¼¤æĢ§":6117,"éļĲå½¢ä¼łæĢģ":6118,"éģŃåĪ°":6119,"åı¯æıŃç¤ºä¸¤èĢħåľ¨":6120,"åħīæķıç¦»åŃĲéĢļéģĵ":6121,"åºŁçī©":6122,"è´§å¸ģä¾ĽåºĶéĩı":6123,"å¦ĤæŀľæļĹèĥ½éĩıå¯Ĩåº¦éļıæĹ¶éĹ´æ³¢åĬ¨":6124,"æĭľåįłåºŃéķ¶åµĮå·¥èīº":6125,"ä»įçĦ¶æĺ¯":6126,"æİĴæĸ¥åĬĽ":6127,"æ´ªæ°´":6128,"ç»§æī¿":6129,"åħīåŃĲéĽĨæĪĲçĶµè·¯éĢļè¿ĩ":6130,"éĺĲæĺİäºĨ":6131,"æ¢¦å¢ĥ":6132,"æĦŁåıĹè´¨":6133,"åĬłå¯Ĩè´§å¸ģçļĦæ³¢åĬ¨æĢ§æºĲäºİ":6134,"ä½ĽæķĻ":6135,"ä¸ŃæĸĩåŃ¦æľ¯":6136,"è´«åĽ°":6137,"æĽ´å¼ºçļĦ":6138,"çī¹å¼ĤæĢ§":6139,"æĽ´æĸ°ä¸ĸå·¨åŀĭåĬ¨çī©ç¾¤":6140,"èĦ±éĿ¶æķĪåºĶ":6141,"æłĸæģ¯åľ°":6142,"çĥŃå¸¦æµģåŁŁçļĦæ£®æŀĹçłįä¼Ĳ":6143,"å¯¹è¿Ľåı£åķĨåĵģ":6144,"å¥łå®ļ":6145,"å¤©èĬ±æĿ¿":6146,"12":6147,"pre":6148,"çĺ":6149,"Ġn":6150,"Ġo":6151,"ä¸°":6152,"çļĦæ¼Ķåıĺ":6153,"çļĦéĻĲåĪ¶":6154,"è¿Ŀ":6155,"ä¼Ļ":6156,"åĲĥ":6157,"è¯Ĭ":6158,"åľ¨æıĲåįĩ":6159,"ä¸İå¼Ĺæ´Ľä¼Ĭå¾·":6160,"ä¸İæľºæ¢°åĽ¢ç»ĵä¸įåĲĮ":6161,"æĬĦ":6162,"éĢļè¿ĩéĿŀ":6163,"å¦Ĥä½ķå¯¹":6164,"ä¸įè¿ĩ":6165,"æĪĲæŀľ":6166,"æ³ķè§Ħ":6167,"åıĺéĩı":6168,"éĹ²":6169,"ä¸ŃçļĦçŃīç¦»åŃĲä½ĵçº¦æĿŁ":6170,"åīª":6171,"å¤§åŀĭ":6172,"å¤§æĴķè£Ĥ":6173,"è¿Ľåħ¥":6174,"çĲĨè®ºåĪĻ":6175,"åĢº":6176,"å¯¼RNA":6177,"ç±»åŀĭ":6178,"äº§åĩº":6179,"å¤ļä¸ĸçķĮ":6180,"å°Ĩå¦Ĥä½ķè¢«":6181,"å±Ĥä¸Ń":6182,"è®¤çŁ¥è¯Ńè¨ĢåŃ¦":6183,"åħ¥ä¾µ":6184,"è¿Ļä¸İ":6185,"æł¹æľ¬å·®å¼Ĥ":6186,"æ®ĸæ°ĳæĹ¶æľŁçļĦ":6187,"æīĭåĬ¿":6188,"çªģæĺ¾äºĨ":6189,"æĹłæĦıè¯Ĩ":6190,"å¸ĤåľºåĪĨæŀĲ":6191,"å¸ĤåľºåĿĩè¡¡":6192,"è¡¨çİ°æĸ¹å¼ı":6193,"åħĪå¤©":6194,"ä¸ĸçºªåĨħ":6195,"ç§ĳåŃ¦è¿ĽæŃ¥":6196,"çĤ¸":6197,"ä¿¡æģ¯çļĦ":6198,"çĶŁäº§æ¨¡å¼ı":6199,"ä½Ĩåħ¶":6200,"æ¿Ģè¿Ľ":6201,"å¾®å¡ĳæĸĻ":6202,"å®īæİĴ":6203,"èĥ½æºĲæķĪçİĩ":6204,"æĺ¾èĳĹæıĲåįĩ":6205,"çŁ¥è¯Ĩåŀĭ":6206,"å¤±ç¨³":6207,"åİĨåı²è¿ĽæŃ¥":6208,"ä¸»ä¹īçļĦåıį":6209,"åħ¬éĴ¥":6210,"è¾ĵåĩº":6211,"éĤ»":6212,"æŀĦéĢłä¿¯åĨ²å¸¦éĢļè¿ĩ":6213,"çŃĸçķ¥æĢ§":6214,"åĪ¶éĢłèĮĥå¼ı":6215,"å¼Ģå§ĭ":6216,"æī¹åĪ¤æĢ§":6217,"åľ°è´¨åŃ¦":6218,"åĮºåĿĹéĵ¾æĬĢæľ¯":6219,"åıĤä¸İèĢħ":6220,"æĶ¶åħ¥ä¸įå¹³çŃī":6221,"æĮĩæķ°çº§æıĲåįĩ":6222,"åĽ½éĻħç©ºéĹ´æ³ķ":6223,"ä¸Ńä¸ĸçºªæ¬§æ´²":6224,"å¾Ģå¾Ģä¼ļ":6225,"åįķä¸Ģ":6226,"æľºåĻ¨åŃ¦ä¹łæŀ¶æŀĦ":6227,"å®ŀéªĮéªĮè¯ģ":6228,"æĭĵæīĳç»Ŀç¼ĺä½ĵåľ¨è¡¨éĿ¢å¯¼çĶµ":6229,"èĢģé¾Ħ":6230,"æĬ½è±¡è¡¨çİ°ä¸»ä¹īå¯¹":6231,"ä¼ļå¦Ĥä½ķæ¼Ķåıĺ":6232,"è£Ĥåıĺ":6233,"çĸ«æĥħ":6234,"çŃīç¦»åŃĲä½ĵå°¾":6235,"æıĲé«ĺäºĨ":6236,"ç½ĳç»ľå®īåħ¨åįıè®®":6237,"è®©æĪĳ":6238,"åĵĪæĭī":6239,"ç´§ç¼©":6240,"åģļåĩº":6241,"åı¶ç»¿":6242,"å¹¿ä¹īçĽ¸å¯¹è®ºä¸İ":6243,"éľĢæ±Ĥä¾§å¹²é¢Ħæİªæĸ½":6244,"æĤ¬ç½®":6245,"å¹³åĩ¡çİ°å®ŀä¸İ":6246,"æĽ´èĥ½æľīæķĪ":6247,"å®Įå¥½ä¿ĿåŃĺ":6248,"èµ¤åŃĹ":6249,"åı¤æ°ĶåĢĻåŃ¦":6250,"èĩªåĬ¨åĮĸå¼ķåıĳçļĦå²Ĺä½įæµģå¤±":6251,"ç²®é£Łå®īåħ¨":6252,"è¿ŀéĶģæķĪåºĶ":6253,"æ³¢ç²ĴäºĮè±¡æĢ§":6254,"çº½å¸¦":6255,"æĴĴåĵĪæĭī":6256,"éĩıåŃĲéļ§ç©¿æķĪåºĶ":6257,"ä¸ĸçºªä¸Ńåı¶":6258,"è¡Ĺå¤´":6259,"em":6260,"oci":6261,"ub":6262,"um":6263,"èĸ":6264,"çļĦè¯Ńè¨Ģ":6265,"çļĦä¸ĵä¸ļ":6266,"çļĦå¤įæĿĤ":6267,"çļĦæ²īç§¯çī©":6268,"çĶ·":6269,"å¦ĤæŃ¤":6270,"åľ¨æ¬§æ´²":6271,"å¯¹çŃī":6272,"å¯¹è¯Ŀ":6273,"å¯¹åĽ½å®¶ä¸»æĿĥ":6274,"åĩĢ":6275,"è¾Ĩ":6276,"å°Ĩåľ¨":6277,"å°ĨéľĢ":6278,"ä¼łæŁĵ":6279,"æī¬":6280,"åı¯èĥ½åĩıå°ĳ":6281,"éĻĪ":6282,"ä½ľå®¶":6283,"åīĸ":6284,"åĲĪçĲĨ":6285,"å¤§éĩı":6286,"èĭĹ":6287,"èµ¢":6288,"æĺ¯çĶ±":6289,"çĶµåĬĽ":6290,"çĶµç«Ļ":6291,"ä½¿åħ¶":6292,"æĸ¯åŁº":6293,"åīįé¢":6294,"ä¸ĭæ¸¸":6295,"æķ°åŃĹåıĻäºĭ":6296,"è¢«æĻ®éģį":6297,"è¢«æľĢç»Ī":6298,"ä½ĵç³»ä¸ŃçļĦ":6299,"æĸĩåĮĸèº«ä»½":6300,"åįĩçº§":6301,"ä¹ĭéĹ´å¤įæĿĤçļĦ":6302,"æķ°æį®åĪĨæŀĲ":6303,"æĮģç»Ńå½±åĵįçĿĢ":6304,"åĵ²åŃ¦ä¸Ń":6305,"å®ĩå®Ļè§Ĥ":6306,"åģĩèĭ¥":6307,"çĶŁäº§çļĦ":6308,"ç©ºéĹ´æĦŁçŁ¥":6309,"çŁ¥è¯Ĩäº§æĿĥ":6310,"åİŁçĲĨå¦Ĥä½ķ":6311,"ç¨³å®ļåĮĸ":6312,"èµĦæºĲçļĦ":6313,"ä»ĸçļĦ":6314,"çļĦå½¢æĪĲéĢļè¿ĩ":6315,"å°½ç®¡éĿ¢ä¸´":6316,"å·¥ç¨ĭåĮĸ":6317,"æĭīç¾İ":6318,"éĩıåŃĲè®¡ç®Ĺæŀ¶æŀĦ":6319,"è´Łç©ºéĹ´":6320,"åħīåŃĲæĻ¶ä½ĵ":6321,"èĴĤ":6322,"åĲ¯åĬ¨":6323,"ç¢İçīĩåĮĸæīĭæ³ķ":6324,"ç»Ħç»ĩç»ĵæŀĦ":6325,"ç»ĨèıĮ":6326,"ç»´æĮģåıłåĬłæĢģ":6327,"æŃ¤åīį":6328,"ä¸ªäººæĿĥåĪ©":6329,"åĤ¬çĶŁåĩº":6330,"æ»¥":6331,"ä¼ĺåĮĸéĹ®é¢ĺ":6332,"ork":6333,"èĩªæĪĳæĦıè¯Ĩ":6334,"åĨ³å®ļäºĨ":6335,"200":6336,"åĮºåŁŁæ°ĶåĢĻ":6337,"åıĸä»£æ³ķå®ļè´§å¸ģ":6338,"åĪ»çĶ»":6339,"åĵªäºĽç¤¾ä¼ļæĶ¿æ²»":6340,"å£°åŃ¦":6341,"ä¸ĭéĻįé£İ":6342,"åĩĨç¡®ä¼łè¾¾äºĨ":6343,"æİ¢æµĭåĻ¨":6344,"ç¢³éħ¸çĽĲå²©æº¶è§£":6345,"ä¸ľè¥¿":6346,"çĸ«èĭĹ":6347,"ç´§æĢ¥":6348,"å°ĨåıĳçĶŁä½ķç§į":6349,"ç¬¦åı·åŃ¦":6350,"è·¨åĽ½ç§»æ°ĳ":6351,"å§ĭç»Ī":6352,"åĢĺèĭ¥äºļåİĨå±±å¤§åĽ¾ä¹¦é¦ĨæľªæĽ¾":6353,"ä»¥ä¸ĭä¸ĵä¸ļ":6354,"æŀģåľ°åĨ°çĽĸ":6355,"éĿŀæ¬§åĩłä½ķ":6356,"éľĢæ±Ĥä¾§å¹²é¢Ħ":6357,"å°¼éĩĩçļĦè§Ĩè§Ĵ":6358,"é£Łçī©èįĴæ¼ł":6359,"æ¸©çĽĲçİ¯æµģæ¨¡å¼ıéĢļè¿ĩå¯Ĩåº¦é©±åĬ¨çļĦ":6360,"å¦ĤæŀľæļĹèĥ½éĩıå¯Ĩåº¦éļıæĹ¶éĹ´åıĳçĶŁæ³¢åĬ¨":6361,"ä¸¾æİª":6362,"äºĮç»´è¡¨éĿ¢ä¸Ĭ":6363,"èĲ¥éĢłåĩº":6364,"åĨľä¸ļçĶ¨åľ°ä½¿çĶ¨":6365,"å¾ªçİ¯ç»ıæµİåİŁåĪĻ":6366,"èĻ«æ´ŀ":6367,"çĶŁçī©çī¹å¾ģæ°Ķä½ĵ":6368,"çİ»çĴĥå¤©èĬ±æĿ¿":6369,"è¾¾è¾¾ä¸»ä¹īçļĦåıį":6370,"æľ¬çľŁæĢ§":6371,"åŃ©åŃĲ":6372,"æĪ´æ£®":6373,"éĩıåŃĲåĬĽåŃ¦ä¸ŃçļĦè§Ĥå¯ŁèĢħæķĪåºĶ":6374,"ç½ĳç»ľåĮĸä¸ªäººä¸»ä¹ī":6375,"è¯¾ç¨ĭ":6376,"æ³¢åĩ½æķ°åĿįç¼©":6377,"å®ľå±ħå¸¦":6378,"éĢłå°±äºĨ":6379,"å¿½è§Ĩ":6380,"ç»ĿçĥŃåĨ·åį´":6381,"åĨ°åį«æĺŁä¸ĬçļĦ":6382,"æĿľå°ļ":6383,"ç£ģæĤ¬æµ®äº¤éĢļ":6384,"éĵ¶æ²³ç³»":6385,"çķľçī§ä¸ļ":6386,"æī®æ¼Ķ":6387,"å¤ļä¸ĸçķĮè¯łéĩĬ":6388,"èĢģé¾ĦåĮĸ":6389,"et":6390,"yn":6391,"¬åįĩ":6392,"ĮæĮĩ":6393,"çļĦæĦıä¹ī":6394,"çļĦèĦĨå¼±æĢ§":6395,"äº®":6396,"åħ¼":6397,"å¯¹äººç±»":6398,"ä¸įåľ¨":6399,"ä¸įæĺ¯":6400,"æĮ¤":6401,"å°Ĩå®ŀçİ°":6402,"å°Ĩå½»åºķ":6403,"ä¼łåħ¥":6404,"æĹ¶åĢĻ":6405,"äººç¾¤":6406,"ç¤¼":6407,"å¦ĤæŀľéĢļè¿ĩ":6408,"å¦Ĥæŀľç¥ŀç»ıå½¢æĢģèĬ¯çīĩ":6409,"åı¯èĥ½åĬłåī§":6410,"æĬĢæľ¯ä¸İ":6411,"æĬĢæľ¯å¾ĹåĪ°å¹¿æ³ĽåºĶçĶ¨":6412,"èĩŃ":6413,"è°ĥèī²":6414,"å¤§æ´ĭ":6415,"ä¸Ĭä¸İ":6416,"èĭ¥åıįçī©è´¨":6417,"èĭ¥ç¥ŀç»ıå½¢æĢģèĬ¯çīĩ":6418,"æĿ¥æī¹åĪ¤":6419,"å¿ĥè¯´":6420,"å¤ļè¯Ńè¨Ģ":6421,"è½¬æĬĺ":6422,"åıįçħ§":6423,"éª¤":6424,"äººç±»çļĦè®¤çŁ¥":6425,"æ¸Ĺ":6426,"å¼ºè°ĥå¼ºåĮĸ":6427,"è®¤çŁ¥è¡Įä¸ºçĸĹæ³ķ":6428,"çº§åĪĨè¾¨çİĩ":6429,"å¥ı":6430,"å¤ĸåħī":6431,"éģĵå¾·åĽ°å¢ĥ":6432,"èĤĮ":6433,"é¢ĨåľŁ":6434,"åĩĨç¡®ä¼łéĢĴ":6435,"éĶĮæĮĩ":6436,"æĪĸåı¯å®ŀçİ°":6437,"åħĭéĩĮå¥¥":6438,"ä½ĨåĲĮæĹ¶ä¹Ł":6439,"åĨ³çŃĸè¿ĩç¨ĭ":6440,"åĨ³çŃĸç®Ĺæ³ķ":6441,"å¾Ĺä»¥å®ŀæĸ½":6442,"åĽłç´łæİ¨åĬ¨äºĨ":6443,"æł¹æľ¬æĢ§éĩįæŀĦ":6444,"æĥ³ä¸į":6445,"èģļçĦ¦":6446,"ç²ĴåŃĲè¡Įä¸ºçļĦ":6447,"ä¾ĿèµĸæĢ§":6448,"æĹ©æľŁçļĦ":6449,"åŃ¦æľ¯çķĮ":6450,"ener":6451,"æĥħæĦŁè¡¨è¾¾":6452,"ine":6453,"èĪ¬":6454,"æĬĹçĶŁç´ł":6455,"è¿ĽåĮĸè½¨è¿¹":6456,"ç¤¾äº¤åªĴä½ĵå¹³åı°":6457,"åĬłå¯Ĩè´§å¸ģçļĦæĻ®åıĬ":6458,"çĶŁæĪĲå¼ı":6459,"èĴĻåı¤":6460,"å¯ĨçłģåŃ¦ä¸įåĲĮ":6461,"åŃĺåľ¨ä¸»ä¹īåĵ²åŃ¦":6462,"ãĢģ\"":6463,"åħ³èģĶæĢ§":6464,"åĲ¯èĴĻåĵ²åŃ¦":6465,"å¯¼çĶµçī¹æĢ§":6466,"å·¥ä¸ļéĿ©åĳ½æľŁéĹ´":6467,"ism":6468,"å°ĨéľĢè¦ģè¿Ľè¡Įåħ¨éĿ¢":6469,"æ¯Ķè¾ĥä¼ĺåĬ¿çĲĨè®ºæľªèĥ½":6470,"è½¬æį¢ä¸º":6471,"çĲĨè®ºä¸Ĭä¸įåı¯çł´è§£çļĦ":6472,"ä¸ĬåŃĺåľ¨æĺ¾èĳĹå·®å¼Ĥ":6473,"æľįåĬ¡è¡Įä¸ļ":6474,"Ġpro":6475,"æķıæĦŁ":6476,"ä¸Ńå¤®éĵ¶è¡ĮçļĦ":6477,"å¤§èĦĳçļ®å±Ĥ":6478,"åı¸æ³ķ":6479,"çļĦåĨľä¸ļéĽĨçº¦åĮĸ":6480,"éħ¶ä¿ĥ":6481,"æ¶²æĢģ":6482,"Ġä¸ĵä¸ļæľ¯è¯ŃåĩĨç¡®":6483,"éģŃåıĹ":6484,"éĢıè§Ĩæ³ķåĪĻ":6485,"é£ŀè¡Į":6486,"åŁºäºİåĮºåĿĹéĵ¾çļĦæĬķç¥¨":6487,"Ġmo":6488,"éĺ¶å±ĤåĪĨåĮĸ":6489,"und":6490,"è¯ķåĽ¾éĢļè¿ĩ":6491,"åĩ¸æĺ¾":6492,"å¦ĤæŀľæļĹèĥ½éĩıçļĦæİĴæĸ¥åĬĽ":6493,"å¸ĮèħĬæĤ²åī§å¼ºè°ĥ":6494,"è®¤çŁ¥å¤±è°ĥçĲĨè®ºè§£éĩĬäºĨ":6495,"ç¬¬åĽĽæ³¢":6496,"èģĶç³»èµ·æĿ¥":6497,"è®¤è¯Ĩè®ºå±ĤéĿ¢çļĦæĮĳæĪĺ":6498,"çģµæ´»æĢ§":6499,"äººæľºäº¤äºĴèĮĥå¼ı":6500,"åĨħçĶŁå¢ŀéķ¿çĲĨè®ºå¼ºè°ĥ":6501,"æ´»ä½ĵç»Ħç»ĩ":6502,"å½¢æĢģåıĳçĶŁç¼ĸç¨ĭ":6503,"äºĮåįģä¸ĸçºª":6504,"åįĵè¶ĬçļĦ":6505,"éĢļè´§èĨ¨èĥĢ":6506,"æº¢åĩº":6507,"è¶ħå¯¹ç§°çĲĨè®º":6508,"å¦Ĥä½ķåľ¨ä¸įæĶ¹åıĺDNAåºıåĪĹçļĦæĥħåĨµä¸ĭ":6509,"æĺ¾å¾®éķľ":6510,"çľŁæł¸çĶŁçī©":6511,"åīįé¢Ŀåı¶":6512,"éĶĮæĮĩæł¸éħ¸éħ¶":6513,"åħĭéĩĮå¥¥å°Ķ":6514,"\"ï¼Ī":6515,"form":6516,"sp":6517,"st":6518,"Ġå°Ĩ":6519,"çļĦäººç±»":6520,"çļĦæĮģç»Ń":6521,"çļĦåģĩè®¾":6522,"çļĦä¼¦çĲĨæ¡Ĩæŀ¶":6523,"çļĦå®ĩå®Ļä¸Ń":6524,"æľĭ":6525,"ä¼¸":6526,"ä¸İçİ°ä»£":6527,"ä¸İçĶ±":6528,"ä¸İçī©çĲĨ":6529,"ä¸İåħīä¼ıçĶµæ±ł":6530,"åı¯è§ĨåĮĸ":6531,"å¦Ĥä½ķéĩįæŀĦ":6532,"çī©ä½ĵ":6533,"ä¸įéĢĤ":6534,"åĬ¨è¯į":6535,"åĲĮçĽŁ":6536,"åİļ":6537,"å¦ĤæŀľæĬĹ":6538,"å¦Ĥæŀľåħ¨æģ¯åİŁçĲĨ":6539,"å¦ĤæŀľèĻļæĭŁçİ°å®ŀ":6540,"åŁºè´¨":6541,"åīĤ":6542,"è¯Ńä½ĵ":6543,"åħ¨çŁ¥":6544,"çĲĨè®ºçī©çĲĨåŃ¦ä¸ŃçļĦ":6545,"æĦıæĥ³ä¸į":6546,"æµģæ´¾":6547,"åŃĺåľ¨ä¸»ä¹īçļĦ":6548,"åħīæ³¢":6549,"æĿ¥ä¼łè¾¾":6550,"ç±»ä¼¼":6551,"è¶ħçº§":6552,"åĪĻæ³¨éĩį":6553,"ç²¾èĭ±":6554,"èµĦäº§":6555,"åħ¨çĲĥä¾ĽåºĶéĵ¾":6556,"å²ģ":6557,"æĸĩåĮĸåĲĮè´¨åĮĸ":6558,"è¿Ľè¡Įå»ºæ¨¡":6559,"çłĶç©¶æĸ¹æ³ķ":6560,"åŁİå¸Ĥé£Łçī©èįĴæ¼ł":6561,"äº§çĶŁæĢİæł·çļĦå½±åĵį":6562,"ä¹ĭéĹ´çļĦå¼łåĬĽ":6563,"ä½Ĩåľ¨":6564,"è·¨åŃ¦ç§ĳ":6565,"çŁ¥è¯Ĩèİ·åıĸ":6566,"ä½İçļĦ":6567,"åİĨåı²ä¹¦åĨĻ":6568,"èµĦæºĲæİłå¤º":6569,"æĬĢæ³ķä¸İ":6570,"æĥ¯çĶ¨":6571,"ç£ģåħ±æĮ¯":6572,"å®ŀæĸ½åħ¨æ°ĳåŁºæľ¬æĶ¶åħ¥":6573,"ç²ĴåŃĲèĥ½å¤Ł":6574,"ç²ĴåŃĲåĬłéĢŁ":6575,"æĭĵå±ķ":6576,"åį°è±¡ä¸»ä¹ī":6577,"åĲİæŀľä¸»ä¹ī":6578,"åĩ¯æģ©æĸ¯ä¸»ä¹īçļĦ":6579,"enti":6580,"ä»·åĢ¼ä½ĵç³»":6581,"æĽ´ä¸ºæĺ¾èĳĹ":6582,"åħĥç´łçļĦ":6583,"éŁ§":6584,"äºĴåĬ¨æĮĩæłĩ":6585,"éĻįä½İå»¶è¿Ł":6586,"æ¸©çĽĲçİ¯æµģä¸ŃæĸŃ":6587,"åĩıå°ĳäºĨ":6588,"åħ¨æ°ĳåĮ»çĸĹ":6589,"and":6590,"èĩªä¸»æĢ§":6591,"èĩªä¸»æĿĥ":6592,"æĬĢæľ¯å®ŀçİ°åķĨä¸ļåĮĸåºĶçĶ¨":6593,"ç®ĢåĮĸ":6594,"ä¾ĭè¯ģ":6595,"åĿĩè¡¡åıįå¼¹":6596,"æıĲä¾ĽäºĨåħ³éĶ®":6597,"å¤©ä½ĵçī©çĲĨåŃ¦":6598,"çľŁå®ŀæĢ§çļĦ":6599,"å·¥ä¸ļåĮĸè§Ħæ¨¡":6600,"è¶³å¤Ł":6601,"åĵªäºĽç¤¾ä¼ļè¯Ńè¨ĢåŃ¦":6602,"ä¹īåĬ¡è®ºä¼¦çĲĨåŃ¦ä¸»å¼ł":6603,"åĲĦåľ°":6604,"å½¢æĪĲçļĦåĨ²ç§¯å¹³åİŁä¸įåĲĮ":6605,"æ¸©çĽĲçİ¯æµģæ¨¡å¼ıå¦Ĥä½ķå½±åĵį":6606,"äºĭä»¶çļĦ":6607,"æıŃç¤ºåĩºäºĮèĢħåľ¨":6608,"æµ·å²¸çº¿":6609,"çº³åħ¥äºĨ":6610,"å¼ķåħ¥äºĨ":6611,"åĽłæŀľéĢ»è¾ĳ":6612,"truc":6613,"çĶµç£ģæ³¢ä¼łæĴŃ":6614,"æłĳæŀĹ":6615,"éĩįå¤§æĮĳæĪĺ":6616,"åı¯èĥ½åľ¨æľªæĿ¥":6617,"çĶ¨æĪ·åıĤä¸İåº¦":6618,"åı¯èĥ½éĢļè¿ĩæĶ¹åıĺ":6619,"çĽ¸äºĴä¾ĿåŃĺçļĦ":6620,"ç¬¦åı·äººå·¥æĻºèĥ½":6621,"å¤ĸæĺŁçĶŁåĳ½":6622,"æ¨¡ç³ĬæĢ§":6623,"äº¤äºĴå¼ı":6624,"éĢłå±±è¿ĲåĬ¨":6625,"äººç±»æ´»åĬ¨å¯¹":6626,"åĵ¥ä¼¦å¸ĥå¤§äº¤æį¢ä¸ŃçļĦçĶŁçī©":6627,"çī©èģĶç½ĳè®¾å¤ĩ":6628,"è½®åĽŀ":6629,"åŁºäºİåĮºåĿĹéĵ¾çļĦæĻºèĥ½åĲĪçº¦":6630,"æĹłç¼Ŀæķ´åĲĪ":6631,"éĢļèĥĢæİ§åĪ¶":6632,"åıĹåĪ°æĢİæł·çļĦå½±åĵį":6633,"å¹¸åŃĺ":6634,"éĩĩåıĸäºĨ":6635,"çİ°ä»£ä¸»ä¹īè¯ĹæŃĮçļĦç¢İçīĩåĮĸ":6636,"æķĻåŃ¦æ³ķ":6637,"åģľæ»ŀ":6638,"æµªæ¼«ä¸»ä¹īè¯ĹæŃĮ":6639,"èī²åŁŁç»ĺçĶ»":6640,"æ½®æ±ĲéĶģå®ļ":6641,"ä¿ĿæĮģç»Ŀç¼ĺçī¹æĢ§":6642,"éĿŀä¾µåħ¥æĢ§":6643,"çĨĶèŀį":6644,"é¡¶çº§":6645,"äº§çĶŁäºĨåĵªäºĽéķ¿æľŁ":6646,"æĶ»åĩ»":6647,"å¼¦çĲĨè®º":6648,"é©¬åħĭæĢĿä¸»ä¹ī":6649,"æ°¸æģĴè½®åĽŀ":6650,"æŃĩå°Ķ":6651,"æ²ĥå°Ķå¤«åģĩè¯´":6652,"ä¾Ľç»ĻåŃ¦æ´¾ç»ıæµİåŃ¦":6653,"æĹ§å¤§éĻĨ":6654,"è½®çıŃå·¥ä½ľèĢħ":6655,"çĹħåİŁä½ĵ":6656,"å¯¹åĽ½å®¶ä¸»æĿĥçļĦå¼ºè°ĥ":6657,"è¾¾è¾¾ä¸»ä¹īçļĦåıįèīºæľ¯":6658,"åıįçħ§çİĩ":6659,"work":6660,"çļĦåĬłéĢŁ":6661,"çļĦä¿¡æģ¯":6662,"çļĦå®ļä¹ī":6663,"çļĦçī¹æĢ§":6664,"çļĦèī²å½©çĲĨè®º":6665,"çļĦç§¯ç´¯":6666,"çļĦèĥ½æķĪ":6667,"çļĦè¯Ńä¹ī":6668,"è¿¥":6669,"éĢĬ":6670,"å¼¥":6671,"æĢ§æł¼":6672,"åľ¨æķ°åŃĹ":6673,"ä¸İç»´å¤ļåĪ©äºļæĹ¶æľŁçļĦ":6674,"ä¸İåĨľæĿĳ":6675,"å¦Ĥä½ķå¯¼èĩ´":6676,"è¾ŀ":6677,"è´·":6678,"ä¼ļåĬłåī§":6679,"ä¼ļè®®":6680,"ä¸įåĿĩ":6681,"æĪĲäºº":6682,"äººæĸĩä¸»ä¹ī":6683,"åºĶåĬĽ":6684,"å¦Ĥæŀľäººä¸º":6685,"åĪĨæķ°":6686,"åı¯èĥ½ä½¿":6687,"åı¯èĥ½éĿ¢ä¸´":6688,"æľīéĻĲ":6689,"æľīåĪ«":6690,"æĬĢæľ¯å¾Ĺä»¥å®ŀçİ°":6691,"æĢģçļĦè½¬åıĺ":6692,"èĢĮæĪĲ":6693,"å¤§è´¨éĩı":6694,"è§£åīĸ":6695,"çĲĨè®ºåĪĻå¼ºè°ĥ":6696,"æĭ¼":6697,"èĭ¥èĦĳæľºæİ¥åı£":6698,"èĭ¥å°ıè¡ĮæĺŁéĩĩçŁ¿":6699,"èĩªä¿®å¤į":6700,"æĸ°æķĻ":6701,"æ¨¡å¼ıçļĦå½¢æĪĲ":6702,"åĵªäºĽæľºåĪ¶":6703,"çİĩä¸ĭéĻį":6704,"æĿ¥ç¼ĵè§£":6705,"åĩĨå¤ĩ":6706,"èīºæľ¯åªĴä»ĭ":6707,"å¿ĥçģµ":6708,"ç±»èĦĳ":6709,"è·ĥ":6710,"å¹³æµģ":6711,"æ¶Ĥ":6712,"åıĳå±ķè½¨è¿¹":6713,"æķ°åŃĹåĽŀéŁ³å®¤éĢļè¿ĩç®Ĺæ³ķ":6714,"çģĮ":6715,"çĽ´éĿ¢":6716,"é«ĺç»´":6717,"è¯Ńè¨Ģå¤ĦçĲĨ":6718,"è¯Ńè¨ĢçŃīçº§åĪ¶åº¦":6719,"åħ¶åľ¨":6720,"å¸¦éļĻ":6721,"å·®å¼ĤåĮĸ":6722,"å¤ĸçļ®è´¨":6723,"ç»Ħä»¶":6724,"ç©¶ç«Ł":6725,"çİ¯å¢ĥåİĭåĬĽ":6726,"å¸Ĥåľºä¸Ń":6727,"çłĶç©¶ä¸Ń":6728,"åŁİå¸ĤåŁºç¡Ģè®¾æĸ½":6729,"æŃ£å½ĵ":6730,"æ°ĶåĢĻæ¨¡åŀĭ":6731,"çĽ¸äºĴåĨ²çªģçļĦ":6732,"æ¦Ĥå¿µåĮĸä¸º":6733,"ç¢³å¾ªçİ¯":6734,"èĥ½åĲ¦è°ĥåĴĮ":6735,"èĢĥå¯Ł":6736,"èº«ä½ĵ":6737,"åĨ³çŃĸèĥ½åĬĽ":6738,"æµ·æ´ĭéĴĻåĮĸ":6739,"çŁ¥è¯Ĩæº¢åĩº":6740,"ä¿ĿæĮģäºĨ":6741,"å¤±æķĪ":6742,"çĹķ":6743,"éĴ±":6744,"å¤§æ°Ķåıĺæļĸ":6745,"æ·±è¿ľ":6746,"èµĦæºĲç®¡çĲĨ":6747,"èµĦæºĲéħįç½®":6748,"éŃĶå¹»çİ°å®ŀä¸»ä¹īåıĻäºĭ":6749,"ä»įåŃĺåľ¨äºīè®®":6750,"æĬĺåıł":6751,"åıĪéĢļè¿ĩ":6752,"çŁ³åĻ¨":6753,"æĿ¡ä»¶ä¸ĭçļĦ":6754,"æŀĦéĢłä¿¯åĨ²å¸¦":6755,"è¶ħè¶ĬäºĨ":6756,"åĪ©çĶ¨åħīåŃĲ":6757,"çģ«å±±åĸ·åıĳ":6758,"åı¤åħ¸åŃ¦æľ¯":6759,"åı¤åħ¸çŁ¥è¯ĨçļĦ":6760,"åľ°è´¨å¹´ä»£":6761,"æĳĨ":6762,"å¢ŀéķ¿çļĦ":6763,"æĪĸå°Ĩå®ŀçİ°":6764,"çĶµåŃĲæĺ¾å¾®éķľ":6765,"tions":6766,"æĽ²æµģ":6767,"çħ§çĽ¸":6768,"å¥½çļĦ":6769,"è¯¯å·®":6770,"åĲİçİ°ä»£ä¸»ä¹īå°ıè¯´":6771,"åħħå½ĵ":6772,"å¾Ģå¾Ģä¼ļå¼ķåıĳ":6773,"å¯ĨçłģåŃ¦æłĩåĩĨ":6774,"ä»¿çľŁ":6775,"æľºåĻ¨åŃ¦ä¹łç®Ĺæ³ķ":6776,"å¼ķåĬĽçĲĨè®º":6777,"è°±ç³»":6778,"ä¸»è§Ĥç»ıéªĮ":6779,"äº¤æĺĵæ¨¡å¼ı":6780,"æ¯Ķè¾ĥä¼ĺåĬ¿çĲĨè®ºè®¤ä¸º":6781,"æĪ·å¤ĸ":6782,"å¸ĮèħĬæĪıåī§":6783,"åĬ³åĬ¨åĬĽå¸ĤåľºçļĦ":6784,"ä»İæł¹æľ¬ä¸ĬæĶ¹åıĺäºĨæĪĳä»¬å¯¹":6785,"çŁŃæļĤ":6786,"å¤§è§Ħæ¨¡åºĶçĶ¨":6787,"åĪĨç±»ä½ĵç³»":6788,"æĹ¶ç©ºæĽ²":6789,"äººæľºåħ±çĶŁ":6790,"çļĦç¢İçīĩåĮĸå¤ĦçĲĨ":6791,"æĥħå¢ĥä¸Ń":6792,"æĭĵæīĳéĩıåŃĲè®¡ç®ĹåĪ©çĶ¨":6793,"çĶ»å»Ĭç©ºéĹ´":6794,"æĢ§çĸ¾çĹħçļĦæ²»çĸĹ":6795,"å¦Ļ":6796,"ç¨ĢåľŁ":6797,"çº¢æłĳæŀĹ":6798,"å°¼éĩĩçļĦæ°¸æģĴè½®åĽŀ":6799,"æłĳæŀĿçĬ¶":6800,"æĬµæĬĹ":6801,"åıĳæĮ¥äºĨä½ķç§įä½ľçĶ¨":6802,"æĸ°åı¤åħ¸ä¸»ä¹īå»ºçŃĳ":6803,"ç«ĭä½ĵä¸»ä¹īå¯¹å½¢å¼ıçļĦåĪĨè§£":6804,"ä½İæ¸©çģ«å±±æ´»åĬ¨":6805,"å¤įåĲĪæĿĲæĸĻ":6806,"æĻļæľŁ":6807,"è°ĥæķ´ä¸ºä¸Ńæĸĩ":6808,"è¯Ħä»·æłĩåĩĨ":6809,"èĢĥåı¤åŃ¦":6810,"åĬ¨æĳĩäºĨ":6811,"è¯ĨåŃĹçİĩ":6812,"å¦ĤæŀľçĻ¾äº¿äº¿æ¬¡è®¡ç®Ĺå¾ĹåĪ°å¹¿æ³ĽåºĶçĶ¨":6813,"æķ°åŃĹçĽĳæİ§èµĦæľ¬ä¸»ä¹ī":6814,"å°¤ä¸º":6815,"åħ±ä»·éĶ®":6816,"ç²ĴåŃĲåľ¨è¢«æµĭéĩıåīį":6817,"æ¯«ç±³":6818,"åį³åı¯è¯ĨåĪ«":6819,"èį£æł¼":6820,"è½¨éģĵå¤ªéĺ³èĥ½åıĳçĶµç«Ļ":6821,"åĩŃåĢŁ":6822,"è´¹ç±³æĤĸè®º":6823,"çļĦåŁºåĽłç»Ħä¿®é¥°":6824,"ç¢±åŁº":6825,"ç¾İæľ¯é¦Ĩ":6826,"éŁµå¾ĭ":6827,"åı¯è¯»æĢ§":6828,"èĻļæĹłä¸»ä¹ī":6829,"æĬĦæľ¬":6830,"çŃīç¦»åŃĲä½ĵå°¾æ³¢":6831,"17":6832,"ure":6833,"é½":6834,"Ġä¿ĿçķĻ":6835,"çļĦæĵįæİ§":6836,"çļĦäº¤æĺĵ":6837,"çļĦå¹»çģŃæĦŁ":6838,"å¼Ł":6839,"ä»ĺ":6840,"åĮ¿":6841,"åľ¨ä½ķç§į":6842,"ä¸İåĲİ":6843,"ä¸İäººå·¥æĻºèĥ½":6844,"ä¸İæ²¹çĶ»":6845,"ä¸İç»ĵæŀľä¸»ä¹ī":6846,"éĢļè¿ĩæĶ¹åıĺ":6847,"éĢļè¿ĩæıŃç¤º":6848,"éĢļè¿ĩåħ¶":6849,"åı¯è§ģ":6850,"èĢ¶":6851,"å¦Ĥä½ķèĥ½å¤Ł":6852,"å¦Ĥä½ķæĶ¹åıĺ":6853,"æŀĦæĥ³":6854,"æ¨¡åĿĹ":6855,"æİī":6856,"æĪĲéķ¿":6857,"æĬĢèīº":6858,"åľ°è¡¨":6859,"å½¢å¡ĳ":6860,"å¦Ĥæŀľåħ¨æģ¯":6861,"é¢Ĺ":6862,"åı¯èĥ½è§£éĩĬ":6863,"çĽ¸åĲĮ":6864,"çĽ¸çŁĽçĽ¾":6865,"å·¥èµĦ":6866,"è½´":6867,"æĽ´å®Įæķ´":6868,"çī¹çļĦ":6869,"çķ´":6870,"æĿ¥èĩª":6871,"æĿ¥è§ĦèĮĥ":6872,"æıĲåıĸ":6873,"ç²Ĺ":6874,"èĮĥçķ´":6875,"åıįä¹ĮæīĺéĤ¦":6876,"å°Ĩå¦Ĥä½ķéĿ©æĸ°":6877,"å¼ºè°ĥéĢļè¿ĩ":6878,"åĳ½é¢ĺ":6879,"æ¬¢":6880,"æ¬¾":6881,"è¢«æ¯ģ":6882,"ç©ºæ°Ķ":6883,"åĽ¾çģµ":6884,"æŀģå¤§":6885,"æ®ĸæ°ĳæī©å¼ł":6886,"æīĭæĬĦæľ¬":6887,"æĹłå¤Ħ":6888,"åıĳçĶŁåľ¨":6889,"å¤ĦçĲĨæķ°æį®":6890,"ä¸ĵä¸ļæĢ§çļĦåĲĮæĹ¶":6891,"æĮģç»ŃåŃĺåľ¨çļĦ":6892,"åĵ²åŃ¦ä¸İ":6893,"åķĬ":6894,"å¹´éī´":6895,"æĻºåķĨ":6896,"èĥ½å¤Łå®ŀçİ°ç²¾åĩĨ":6897,"æĴĳ":6898,"åĨľä¸ļå®ŀè·µ":6899,"æĶ¿æ²»çİ°å®ŀ":6900,"åı²è¯Ĺ":6901,"æĶ¶çĽĬ":6902,"æĶ¶ç¼©":6903,"è·¨å¤§éĻĨ":6904,"æµ·æ´ĭçĶŁæĢģç³»ç»Ł":6905,"æµ·æ´ĭçĶŁçī©å¤ļæł·æĢ§":6906,"æµ·æ´ĭçĶŁçī©çļĦ":6907,"éĢīä¸¾":6908,"ä½İä¼°":6909,"æıĲåĩºçļĦ":6910,"æĪĳä»¬çļĦ":6911,"èī²å½©æĬ½è±¡":6912,"åĬ³åĬ¨ä»·åĢ¼":6913,"æ°¸ä¹ħæĶ¹åıĺ":6914,"è®¤è¯Ĩè®ºä¸ĬçļĦ":6915,"ä¸īåįģå¹´åĨħ":6916,"æŀĦæĪĲä¸»ä¹ī":6917,"çŁĽçĽ¾åľ°":6918,"åıĺå¾Ĺè¿ĩæĹ¶":6919,"å¾Ħæµģ":6920,"åĬŁèĥ½æĢ§":6921,"åĽ½éĻħå¤ĸäº¤":6922,"æĶ¯æĴĳ":6923,"è¿ģç¦»":6924,"å¤ªéĺ³èĥ½çĶµç«Ļ":6925,"çĶ²åŁº":6926,"æĤ²åī§æĢ§":6927,"è§Ĩè§īæ··åĲĪ":6928,"è¾¾åĪ°åīįæīĢæľªæľīçļĦ":6929,"æł¸å¿ĥæ¦Ĥå¿µ":6930,"æĽ¿ä»£çĽ´è¯ĳçļĦ":6931,"æĸĩçĮ®çļĦ":6932,"å¥¥æĸ¯":6933,"ith":6934,"æĶ¿åºľæĶ¯åĩº":6935,"ä¸Ŀç»¸ä¹ĭè·¯çļĦ":6936,"ä¸Ńå¤®éĵ¶è¡Įä½ĵç³»":6937,"çīĪæĿĥ":6938,"æ¬§æ´²ä¸Ńå¿ĥä¸»ä¹ī":6939,"çŁ³å¢¨çĥ¯çļĦ":6940,"è¶ĭäºİç¨³å®ļ":6941,"è·¨æĸĩåĮĸæĬĢæľ¯":6942,"å¯¹çĲĨæĢ§éĢīæĭ©æ¨¡åŀĭæıĲåĩºäºĨæĮĳæĪĺ":6943,"æķ°æį®ä¼łè¾ĵéĢŁåº¦":6944,"èĲ¨åĲĮçĽŁ":6945,"å®¹éĶĻçļĦéĩıåŃĲæ¯Ķçī¹":6946,"æ±īèĲ¨åĲĮçĽŁ":6947,"æķħäºĭ":6948,"æµ®æ¸¸":6949,"é¾Ļ":6950,"æĽ´é«ĺçļĦèĥ½éĩıå¯Ĩåº¦åĴĮ":6951,"æĭľåįłåºŃéķ¶åµĮçĶ»":6952,"çĶŁæ®ĸç»Ĩèĥŀ":6953,"æ¶Īè§£äºĨ":6954,"æº¶èļĢä½ľçĶ¨":6955,"able":6956,"neur":6957,"æĵįä½ľæĢ§æĿ¡ä»¶åıįå°Ħ":6958,"åĮºåĿĹéĵ¾çļĦä¸įåı¯ç¯¡æĶ¹çī¹æĢ§":6959,"æ¡£æ¡Ī":6960,"æ´ŀç©´ç³»ç»ŁåĴĮ":6961,"çŁ³å¢¨çĥ¯çĶŁäº§å®ŀçİ°":6962,"æĭĴæĸ¥":6963,"tures":6964,"èķ¾":6965,"çİ°ä»£è´§å¸ģçĲĨè®º":6966,"æĢ§çĬ¶ä¼łéĢĴ":6967,"å¾·æĢ§ä¼¦çĲĨåŃ¦":6968,"çģ¾éļ¾":6969,"éĩıåŃĲéĢĢçĽ¸å¹²çĲĨè®ºéĢļè¿ĩçİ¯å¢ĥçĽ¸äºĴä½ľçĶ¨":6970,"çī¹å®ļåľºåŁŁè£ħç½®èīºæľ¯":6971,"ä¸İå®Įåħ¨ç«ŀäºīæ¨¡åŀĭä¸įåĲĮ":6972,"åĢºåĬ¡":6973,"éĤ»è¿ĳ":6974,"èĩŃæ°§":6975,"éħ¶ä¿ĥåıįåºĶ":6976,"ç¬¬åĽĽæ³¢å¥³æĢ§ä¸»ä¹ī":6977,"æľĭåıĭ":6978,"æľīåĪ«äºİ":6979,"ex":6980,"hy":6981,"çļĦäºĭ":6982,"çļĦè¿ĩç¨ĭ":6983,"çļĦéľĢæ±Ĥ":6984,"åĲĽ":6985,"åľ¨æĬĢæľ¯":6986,"ä¸»äºº":6987,"æĬ±":6988,"çĶ¨ä»¥":6989,"å¦Ĥä½ķåĬłåī§":6990,"ä¸įå¯¹ç§°":6991,"åį·":6992,"åĲĮä½į":6993,"å®ŀçİ°åķĨä¸ļåı¯è¡ĮæĢ§":6994,"å¦Ĥæŀľå°Ĩ":6995,"å¦Ĥæŀľäººå·¥æĻºèĥ½":6996,"å¦Ĥæŀľç¤¾äº¤åªĴä½ĵç®Ĺæ³ķ":6997,"çĽ¸åĨ²çªģ":6998,"ä¸ŃçļĦç®Ĺæ³ķåģıè§ģéĢļè¿ĩ":6999,"çŃ¾":7000,"ç³»ç»Łçĸ¾çĹħ":7001,"éĩįå¤į":7002,"åĲİåĩ¯æģ©æĸ¯ä¸»ä¹ī":7003,"æĭį":7004,"çĶŁçī©åľĪ":7005,"ä»¥ä¸º":7006,"æĽ´å¹¿æ³Ľ":7007,"æĸ°çŁ³åĻ¨":7008,"éľį":7009,"åĵªäºĽåľ°ç¼ĺæĶ¿æ²»":7010,"æĿ¥è§£åĨ³":7011,"ä½¿ä¸Ńæĸĩ":7012,"è·Ł":7013,"ä¼¦çĲĨåĨ³çŃĸ":7014,"ä¸ĢæĪĺåĲİ":7015,"è¯ģä¼ª":7016,"æ¨¡åŀĭåľ¨":7017,"æ¨¡åŀĭä¸İ":7018,"åľºåĬłéĢŁ":7019,"åºĶçĶ¨ä¸ŃçļĦ":7020,"å°Ĩå¦Ĥä½ķè°ĥåĴĮ":7021,"åĨħå¿ĥ":7022,"æ¡Ĩæŀ¶ä¸ĭ":7023,"ä¸ĸä¿Ĺ":7024,"ç²¾ç»Ĩ":7025,"ä»İéĩįåķĨä¸»ä¹ī":7026,"èĢĮéĿŀç®Ģåįķ":7027,"æİ¨æµĭ":7028,"é«ĺæ¸©":7029,"è¯Ńè¨Ģéľ¸æĿĥ":7030,"èĦĬ":7031,"æĹ¶éĹ´é¡ºåºı":7032,"é¢Ħè§ģ":7033,"æ³¢æµª":7034,"è¿Ľè¡Įæ¯Ķè¾ĥ":7035,"åŁİéĤ¦":7036,"å¤ĦçĲĨéĢŁåº¦":7037,"æ³Ľæ»¥":7038,"åĲĳç»ıåħ¸":7039,"äºĮåįģå¹´åĨħ":7040,"æŃ£æĺ¯":7041,"æĺ¯åĲ¦èĥ½å¤Ł":7042,"åĨľä¸ļçĶŁäº§åĬĽ":7043,"çĶŁäº§æĪĲæľ¬":7044,"ä¹ĭéĹ´çļĦåĨ²çªģ":7045,"ä¹ĭéĹ´çļĦçķĮéĻĲ":7046,"æŀ¶æŀĦéĢļè¿ĩ":7047,"çĬ¶åĨµ":7048,"å¿ĥçĲĨçİ°å®ŀä¸»ä¹ī":7049,"èĥ½æºĲçĶŁäº§":7050,"è·¨æĴĴåĵĪæĭī":7051,"æĸĩæľ¬åĪĨæŀĲ":7052,"æĸĩæľ¬æĦıä¹ī":7053,"æĸ¹éĿ¢ä¸İ":7054,"èµĦæºĲæŀ¯ç«Ń":7055,"æĹ¢æľī":7056,"çĲĨæĢ§é¢ĦæľŁ":7057,"å°½ç®¡åħ¨çĲĥåĮĸ":7058,"è§£æŀĦä½ľèĢħæĦıåĽ¾":7059,"çī¹å¾ģçļĦ":7060,"åĪĨå¸ĥæ¨¡å¼ı":7061,"éªĮè¯ģæľºåĪ¶":7062,"ä¸ĬçļĦæĺ¾èĳĹå·®å¼Ĥ":7063,"åĩłä½ķå½¢æĢģ":7064,"æķ£çĥŃ":7065,"ç²¾ç¡®åº¦":7066,"æĮĳæĪĺäºĨæĸĩèīºå¤įåħ´æĹ¶æľŁ":7067,"å¤§éĻĨåľ°å£³":7068,"èĪŀ":7069,"éĿ¢ä¸´æĮĳæĪĺ":7070,"éĻĲåĪ¶äºĨ":7071,"åħ·å¤ĩç»ıæµİåı¯è¡ĮæĢ§":7072,"æĿĥåĬĽæĦıå¿Ĺ":7073,"tional":7074,"åłª":7075,"è¯»èĢħåıįåºĶ":7076,"çº³ç±³ç»ĵæŀĦ":7077,"åİŁåŃĲç²¾åº¦":7078,"èĩªçĶ±å¸Ĥåľº":7079,"æ²³æµģæ²īç§¯ä½ľçĶ¨":7080,"èĩªæĪĳè°ĥèĬĤ":7081,"å¸¦æĿ¥åĵªäºĽ":7082,"èħ»":7083,"çĶ²çĥ·æİĴæĶ¾":7084,"å®ĥä»¬å°Ĩ":7085,"æįŁå¤±":7086,"åŁºåĽłç¼ĸè¾ĳæĬĢæľ¯éĢļè¿ĩ":7087,"è¯Ńå¢ĥä¸Ń":7088,"é¢ĳè°±":7089,"è´¢æĶ¿åĪºæ¿Ģ":7090,"å®ıè§Ĥç»ıæµİ":7091,"çļĦç¤¾ä¼ļç»ıæµİ":7092,"ä¸İåĬŁåĪ©ä¸»ä¹īä¼¦çĲĨåŃ¦ä¸įåĲĮ":7093,"ç¥ŀç»ıåı¯å¡ĳæĢ§çłĶç©¶":7094,"åįļå¼Īè®ºåľ¨è¡Įä¸ºç»ıæµİåŃ¦":7095,"åħ³éĶ®æľŁ":7096,"çĻ¾äº¿äº¿æ¬¡çº§":7097,"è¾©è®º":7098,"å¹²æĹ±åľ°åĮºçļĦ":7099,"èİİå£«æ¯ĶäºļæĪıåī§":7100,"äº²å±ŀ":7101,"è¾¾å°Ķæĸĩ":7102,"è§Ħæ¨¡åĮĸåºĶçĶ¨":7103,"åľ°å¹Ķå¯¹æµģ":7104,"äºļéĩĮå£«å¤ļå¾·çļĦ":7105,"é£Łçī©éĵ¾":7106,"æĢģåº¦è°ĥæķ´":7107,"æĥħæĦŁåħ±é¸£èĢĮéĿŀ":7108,"åģľæŃ¢":7109,"åĨ·åĨ»çĶµåŃĲæĺ¾å¾®éķľ":7110,"æ²¹çĶ»é¢ľæĸĻçļĦåıĳæĺİä½¿":7111,"æ²¹çĶ»é¢ľæĸĻçļĦåıĳæĺİä½¿å¾Ĺ":7112,"ä¸Ńå¾®åŃĲæĮ¯èį¡":7113,"æĬķæľºæĢ§":7114,"è¯ĨåŃĹçİĩçļĦ":7115,"æĥħç»ªè°ĥèĬĤ":7116,"åħ·ä½ĵæĥħå¢ĥ":7117,"å¼ķåĬĽéĢıéķľè§Ĥæµĭ":7118,"éĿŀä¾µåħ¥å¼ı":7119,"è¡°èĢģçĸĹæ³ķ":7120,"ä»¥æŃ¤æī¹åĪ¤":7121,"æº¶è§£ä½ľçĶ¨åıĳèĤ²":7122,"è®¤è¯Ĩè®ºå»ºæŀĦä¸»ä¹īä¸»å¼ł":7123,"ä¸įä»ħä¿ĥè¿ĽäºĨ":7124,"ç¬¬ä¸Ģæ¬¡ä¸ĸçķĮå¤§":7125,"åİŁåĪĽæĢ§":7126,"ä¹ĭéĹ´çļĦä¼łç»ŁçķĮéĻĲ":7127,"æķ£æĸĩä¸įåĲĮ":7128,"åľ¨éģĵå¾·åĨ³çŃĸä¸Ń":7129,"è¢«ç¼ĸçłģåľ¨äºĮç»´è¡¨éĿ¢ä¸Ĭ":7130,"é»ıåº¦":7131,"èĩ³ä»Ĭä»į":7132,"å®ĩå®ĻåŃ¦ä¸ŃçļĦäººæĭ©åİŁçĲĨ":7133,"èĤ¯å®ļ":7134,"åħ¬éĴ¥åŁºç¡Ģè®¾æĸ½":7135,"è¢«æľĢç»Īè¯ģå®ŀ":7136,"åħĭéĩĮå¥¥å°Ķè¯Ń":7137,"å¹³æµģå±Ĥ":7138,"æĹłå¤Ħä¸įåľ¨":7139,"id":7140,"mRNA":7141,"ous":7142,"Ġtr":7143,"Ŀåħī":7144,"ä¸ĺ":7145,"çļĦæľºåĪ¶":7146,"çļĦç»ĵæŀľ":7147,"çļĦåľ°è´¨":7148,"çļĦåĪĽä½ľ":7149,"çļĦé£İéĻ©":7150,"çļĦè¯Ŀ":7151,"çļĦç¬Ķè§¦":7152,"çļĦæľ¬ä½ĵè®º":7153,"çļĦäºīè®º":7154,"çļĦåĽºæľī":7155,"åħĦ":7156,"è¿·":7157,"çİ©":7158,"åľ¨éģĵå¾·":7159,"åľ¨è¿ĳä»£æĹ©æľŁ":7160,"ä¸Ńç¾İæ´²":7161,"æķĳ":7162,"ä¸İæķ°åŃĹ":7163,"ä¸İå¯¹ç§°":7164,"åĩ¿":7165,"èĢķ":7166,"ä¸ºäºĨ":7167,"ä¼ļéĻįä½İ":7168,"ä¼ļæįŁå®³":7169,"åĬ¨ä½ľ":7170,"çº¬":7171,"å®ŀçİ°è´ŁæĬĺå°Ħçİĩ":7172,"å¦Ĥæŀľè¶ħæĿĲæĸĻ":7173,"å¦ĤæŀľéĢļçĶ¨äººå·¥æĻºèĥ½":7174,"åĪ¶ä½ľ":7175,"åĪ¶åĽ¾":7176,"æĬĢæľ¯èİ·åıĸ":7177,"ç³»ç»Łèĥ½å¤Łå®ŀçİ°":7178,"è§£ä½ĵ":7179,"æ¯ĶçĽ´è¯ĳ":7180,"åĲİèĢħ":7181,"æķĪçĽĬ":7182,"æĦıæ¶µ":7183,"æĭ¿":7184,"éĩıåŃĲçĤ¹":7185,"æĽ´åĩĨç¡®":7186,"ç»ıæµİå¢ŀéķ¿":7187,"çĶµåĮĸåŃ¦":7188,"æĿ¥è°ĥåĴĮ":7189,"ç¡®åĩ¿":7190,"ç±»åĻ¨å®ĺ":7191,"è¾¾æĪĲ":7192,"ç´«":7193,"ä¼¦çĲĨäºīè®®":7194,"ä¸ĢæŃ¥":7195,"éļĨ":7196,"ç½ĳç»ľä¸ŃçļĦ":7197,"åĽ½åĨħ":7198,"æĸĩåŃ¦ä¸Ń":7199,"äººç±»åŁºåĽł":7200,"ä¸ĭæĿ¥":7201,"ä¸ĭä¸Ģä»£":7202,"è®¤çŁ¥éļĲç§ģ":7203,"æķ°åŃĹè¿ŀæİ¥":7204,"æ°´çĶŁ":7205,"èĢĮéĿŀåŃĹéĿ¢":7206,"èŀįèµĦ":7207,"åı¯èĥ½ä¼ļåľ¨":7208,"çĶŁæĢģåĲİæŀľ":7209,"æĸĩåĮĸåĲĮåĮĸ":7210,"çªģæĺ¾":7211,"éģĵå¾·è§ĦåĪĻ":7212,"è£ģ":7213,"åŁİå¸Ĥå¤±èĮĥ":7214,"æķ°æį®å®īåħ¨":7215,"ç§ĳåŃ¦æĸ¹æ³ķè®º":7216,"æĮģç»ŃæĹ¶éĹ´":7217,"åĵģå¾·":7218,"æ³¨åħ¥":7219,"æķĻä¹ī":7220,"å¾ģæĶ¶":7221,"èĥ½åĲ¦ä¸İ":7222,"éĩįæĸ°å®¡è§Ĩ":7223,"tiv":7224,"ties":7225,"åħ±äº«":7226,"éĹ®é¢ĺä¸Ĭ":7227,"çĽ´æİ¥å¯¼èĩ´":7228,"ä¸»å¼łéĢļè¿ĩ":7229,"æµ·æ´ĭçĥŃéĩıåĪĨå¸ĥ":7230,"é¡¾":7231,"éĥ¨ä»¶":7232,"çĹĽ":7233,"åĽłç´łä½¿å¾Ĺ":7234,"èµĦæºĲæ¶ĪèĢĹ":7235,"éĩĳæľ¯":7236,"æĪĳä»¬åľ¨":7237,"æļĹèĥ½éĩıçļĦ":7238,"ä¸¤èĢħ":7239,"å·¥ç¨ĭæĬĢæľ¯":7240,"æ²³éģĵ":7241,"åĽ½å®¶çļĦ":7242,"æ··åĩĿ":7243,"ence":7244,"æĸĩæĺİä¹ĭéĹ´":7245,"æĽ´ä¸ºå½»åºķ":7246,"éĶĻä½į":7247,"äººåı£èĢģé¾ĦåĮĸ":7248,"æľīæľĽéĢļè¿ĩ":7249,"æŃ¤ç±»":7250,"ä»ĭåħ¥":7251,"ç»ıéªĮä¸»ä¹ī":7252,"åľ°ç¼ĺæĶ¿æ²»å½±åĵį":7253,"å¸¦æĿ¥äºĨåĵªäºĽ":7254,"åĨĻä½ľ":7255,"é»Ħ":7256,"å®¡æŁ¥":7257,"ä¸ĢæĹ¦éĩıåŃĲ":7258,"æľīä½ķæľ¬è´¨åĮºåĪ«":7259,"è¯Ńè¨ĢåŃ¦è½¬åĲĳ":7260,"çĪ¸":7261,"è¶ħèĩªçĦ¶éļĲåĸ»":7262,"å·¥ä¸ļéĿ©åĳ½æĹ¶æľŁçļĦ":7263,"æĪĺçķ¥æĢ§":7264,"éĿłè¿ĳ":7265,"ä¾¿ä¼ļ":7266,"å®¤æ¸©è¶ħå¯¼":7267,"åĮºåĿĹéĵ¾çļĦåİ»ä¸Ńå¿ĥåĮĸ":7268,"è½¦è¾Ĩ":7269,"çĽĳç®¡æĮĳæĪĺ":7270,"è®°å¿Ĩå·©åĽº":7271,"æİ¢æµĭåĪ°":7272,"èĭ±æĸĩ":7273,"å¤§è§Ħæ¨¡çºłéĶĻ":7274,"çİ°ä»£ä¸»ä¹īæĸĩåŃ¦çļĦç¢İçīĩåĮĸåıĻäºĭ":7275,"åĵĪå¾·":7276,"è·¨ä»£çİ¯å¢ĥ":7277,"ä¸¥æł¼éģµå¾ª":7278,"æ¬§æ´²ä¸Ńå¿ĥä¸»ä¹īçļĦ":7279,"éĢłæĪĲäºĨ":7280,"æĢ»éľĢæ±Ĥ":7281,"tical":7282,"ç¥ŀç»ıå½¢æĢģèĬ¯çīĩéĢļè¿ĩ":7283,"ç»ıæµİä½ĵä¸ŃçļĦ":7284,"æµģåĬ¨æĢ§åģıå¥½":7285,"æĺŁç³»åĽ¢":7286,"æ¿ĢåĬ±æľºåĪ¶":7287,"æĹłæĦıéĹ´":7288,"ç½ĳç»ľç¤¾ä¼ļçĲĨè®ºè®¤ä¸º":7289,"åı¯æıŃç¤ºäºĮèĢħåľ¨":7290,"del":7291,"å±ıéļľ":7292,"å¤ļåħĥåĮĸ":7293,"èıĮä¸Ŀ":7294,"åŁİå¸ĤåĮĸæ¨¡å¼ı":7295,"æĽ²çº¿åĽ¾":7296,"ä¾Ľç»Ļä¾§":7297,"å¤©åŁºå¤ªéĺ³èĥ½åıĳçĶµ":7298,"è¯Ńè¨ĢçĽ¸å¯¹è®ºåģĩè¯´":7299,"çĽ¸ä¼¼æĢ§":7300,"äºĴèģĶç½ĳåįıè®®":7301,"éľĢè¦ģè¿Ľè¡ĮæĢİæł·çļĦ":7302,"çºµåĲĳ":7303,"åıĺè´¨å²©":7304,"å¦Ĥæŀľå®ŀçİ°äºĨéĩıåŃĲéľ¸æĿĥ":7305,"å¦ĤæŀľåĲĪæĪĲçĶŁçī©åŃ¦èĥ½å¤Łå®ŀçİ°":7306,"æķĪçĶ¨æľĢå¤§åĮĸ":7307,"èĴ¸æ±½æľº":7308,"åĬŀåħ¬":7309,"åľ¨åľ°è´¨æĹ¶éĹ´å°ºåº¦ä¸Ĭ":7310,"ä¹ĭå¤Ħåľ¨äºİ":7311,"ä¿¡çĶ¨ä½ĵç³»":7312,"çĤ¼éĩĳæľ¯":7313,"ä¼łåħ¥æ¬§æ´²":7314,"çĲĨè®ºçī©çĲĨåŃ¦ä¸ŃçļĦåħ¨æģ¯åİŁçĲĨ":7315,"æĦıæĥ³ä¸įåĪ°çļĦ":7316,"é¡¶çº§æįķé£ŁèĢħ":7317,"è¿¥å¼Ĥ":7318,"æŃ£å½ĵæĢ§":7319,"åĲĮä½įç´ł":7320,"æ··åĩĿåľŁ":7321,"au":7322,"fic":7323,"se":7324,"ĠéĢ»è¾ĳåħ³ç³»":7325,"ĦæŃ¦":7326,"çļĦå½¢å¼ı":7327,"çļĦè®¾è®¡":7328,"çļĦå·¥ä½ľ":7329,"çļĦä¸įæĸŃ":7330,"çļĦçľŁå®ŀæĢ§":7331,"çİĦæŃ¦":7332,"åĬª":7333,"è¯ļ":7334,"æĢ§çī¹å¾ģ":7335,"å°¸":7336,"åľ¨ä¸Ģä¸ª":7337,"ä¸Ńå½¢æĪĲ":7338,"åĮĸèĥ½":7339,"ä¸İéĩıåŃĲ":7340,"ä¸İçİ°ä»£ä¸»ä¹ī":7341,"ä¸İåı¤åħ¸":7342,"ä¸İéĩįåķĨä¸»ä¹īæĶ¿çŃĸ":7343,"ä¸İä½ĽæķĻ":7344,"æĬ¬åįĩ":7345,"éĢļè¿ĩè¿ĲçĶ¨":7346,"å¯¹åħ¶":7347,"ä¸ºçİ°ä»£":7348,"è¾«":7349,"ä¼ļå½±åĵį":7350,"å·¦":7351,"ä¿Ħ":7352,"çº¤":7353,"çº¸":7354,"æĹ¶ä¼ļ":7355,"åľ°æĶ¹åıĺ":7356,"å®ŀçİ°ç²¾åĩĨ":7357,"å®ŀçİ°ä»·æł¼":7358,"ç¤ģ":7359,"è°Ĳ":7360,"å¦Ĥæŀľä½ł":7361,"å¦Ĥæŀľäººå·¥åħīåĲĪä½ľçĶ¨":7362,"åĬĽäºİ":7363,"çŁ©":7364,"åŁºçŁ³":7365,"çŃĶ":7366,"æķ°åįĥå¹´":7367,"è¶£":7368,"æĸ¹è¨Ģ":7369,"éĩįåĬĽ":7370,"è¯ŃéŁ³":7371,"ç¤¾ç§ĳ":7372,"åħ³éĩįè¦ģ":7373,"æľŁå¾ħ":7374,"èĭ¥æ³Ľå¿ĥè®º":7375,"æĽ´å¤ļ":7376,"çī¹æĢ§çļĦ":7377,"ç»ıæµİçĶŁäº§åĬĽ":7378,"åĵªäºĽçĶŁçī©":7379,"æĿ¥æŀĦå»º":7380,"å¤įæ´»":7381,"å¤įèĭı":7382,"åģ¿":7383,"æĪĳæĺ¯":7384,"æĪĳæĥ³":7385,"ä¸ĢäºĽ":7386,"ä¸Ģä¸ĭ":7387,"æİ¥åħ¥":7388,"è½¬åŁºåĽł":7389,"èĥ½å¤Łå¯¹":7390,"çĥ§":7391,"åıĻäºĭæĬĢå·§":7392,"åıĻäºĭæĿĥå¨ģ":7393,"æĦıè¯Ĩç»ıéªĮ":7394,"è®¤çŁ¥èĥ½åĬĽ":7395,"å¸¸è¿ĲçĶ¨":7396,"æ·¹":7397,"è¿Ļä¹Ī":7398,"ç»´ä¹Ł":7399,"æīĢèĩ´":7400,"å¡Į":7401,"æł¼å¼ı":7402,"çĶŁæĢģå¥³æĢ§ä¸»ä¹ī":7403,"å¤ĸçº¿":7404,"åºķçĽĺ":7405,"èī²è°ĥ":7406,"çĥŃåĸĢæĸ¯çī¹":7407,"æĹłäººæľº":7408,"åŁİå¸Ĥç²®é£Łå®īåħ¨":7409,"å®ĩå®Ļè®º":7410,"çľŁçļĦ":7411,"åĬłå¯Ĩä¸įåĲĮ":7412,"æ¶ĪéĢĢ":7413,"å¾®æ°ĶåĢĻ":7414,"èº«å¿ĥ":7415,"æĺ¾èĳĹçĽ¸åħ³æĢ§":7416,"çº³ä¼ļè®®":7417,"æł¸åıįåºĶåłĨ":7418,"åĽłç´łä¿ĥæĪĲäºĨ":7419,"æ·±åħ¥":7420,"è¡¡éĩı":7421,"é©±åĬ¨åĽłç´ł":7422,"è®¾è®¡ä¸Ń":7423,"ä¸¤ä¸ª":7424,"å¨ľ":7425,"æĬ½è±¡è¡¨çİ°ä¸»ä¹īçļĦ":7426,"åĪĨå¸ĥçļĦ":7427,"å¾ĹåĪ°è¯ģå®ŀ":7428,"ä¸ĬçļĦå·®å¼Ĥ":7429,"ä½¿çĶ¨æĹ¶éĹ´":7430,"åŃ¦æľ¯æĸĩæľ¬çļĦ":7431,"åĽŀå¼¹":7432,"æĸĩæĺİçļĦ":7433,"æĽ´ä¸ºä¸¥æł¼":7434,"åħ·å¤ĩåķĨä¸ļåı¯è¡ĮæĢ§":7435,"ç»ĨèĬĤ":7436,"æĽ´é«ĺæķĪ":7437,"åº·å®ļ":7438,"ç«ĭä½ĵæ´¾":7439,"ä¸ºä½ķåľ¨":7440,"çº³ç±³å°ºåº¦":7441,"ä¾µèļĢä½ľçĶ¨":7442,"èĢĹæķ£":7443,"ç»ıéªĮè§Ĥå¯Ł":7444,"ç§ĳæĬĢæĸĩæľ¬çļĦ":7445,"èĩªçĶ±éĹ´æİ¥":7446,"å¾Ģå¾ĢéĢļè¿ĩ":7447,"å¾®çĶŁçī©çĶŁåĳ½":7448,"ç¡®è®¤åģıå·®":7449,"èĩ³åħ³éĩįè¦ģ":7450,"è¾¾åĪ°ä¸´çķĮ":7451,"çģµéķ¿":7452,"æ²»çĲĨæ¨¡å¼ı":7453,"è§ĤæµĭåĪ°çļĦ":7454,"ç¾İåŃ¦åİŁåĪĻ":7455,"æĺŁéĻħæİ¨è¿Ľ":7456,"ä¸»æµģåºĶçĶ¨":7457,"å®ŀä½ĵæĺ¯åĲ¦åºĶ":7458,"åľ°å½¢éĻįæ°´":7459,"åľ¨å¤ļå¤§ç¨ĭåº¦ä¸Ĭå½±åĵįäºĨ":7460,"æĪĲåĬŁå®ŀçİ°":7461,"éĩıåŃĲåıłåĬłåİŁçĲĨ":7462,"è·¨ä»£è¡¨åŀĭ":7463,"åľ°ä¸ĭæİĴæ°´ç³»ç»Ł":7464,"ç´§å¼ł":7465,"åŁºåĽłç»Ħç¼ĸè¾ĳ":7466,"åĲİæ®ĸæ°ĳåıĻäºĭå¸¸åĢŁåĬ©æ··æĿĤ":7467,"æ¸ħæ´ģ":7468,"åĪĨåŃĲçº³ç±³æĬĢæľ¯å®ŀçİ°":7469,"çļĦåĨľä¸ļå®ŀè·µ":7470,"æİ¨çĲĨèĥ½åĬĽ":7471,"æĦŁå®ĺçŁ¥è§ī":7472,"ç¤¾äº¤åªĴä½ĵç®Ĺæ³ķéĢļè¿ĩä¸ªæĢ§åĮĸåĨħå®¹":7473,"å¤ļä¸ªè§Ĩè§Ĵ":7474,"çļĦè¡¨è¿°ä¹łæĥ¯":7475,"å®¹éĶĻèĥ½åĬĽ":7476,"Ġæķ´ä½ĵéĩĩçĶ¨":7477,"éĢıè§Ĩæ³ķçļĦè§£æŀĦ":7478,"å¼¹æĢ§":7479,"è¯Ńæ³ķç»ĵæŀĦ":7480,"ç³»å¤ĸè¡ĮæĺŁå¤§æ°Ķåħīè°±åĪĨæŀĲæ£ĢæµĭåĪ°":7481,"å¦ĤæŀľèĦĳæľºæİ¥åı£å®ŀçİ°ç¥ŀç»ıåħ±çĶŁ":7482,"çļĦç²¾åĩĨæĵįæİ§":7483,"å¤§å¹ħåĩıå°ĳ":7484,"æī§è¡ĮåĬŁèĥ½":7485,"åı¯ç¼ĸç¨ĭçī©è´¨":7486,"åĤ¨èĵĦè¡Įä¸º":7487,"ä»»åĬ¡ä¸Ń":7488,"éĩıåŃĲçĶŁçī©åŃ¦çłĶç©¶":7489,"é¢łè¦Ĩæ¬§æ´²ä¸Ńå¿ĥä¸»ä¹ī":7490,"å¤ļéĩįè§Ĩè§Ĵ":7491,"åħ¬åı¸æ²»çĲĨä¸ŃçļĦ":7492,"Ġeff":7493,"å¥ĩå¹»åħĥç´łä¸İ":7494,"éĽ¨æŀĹ":7495,"éĽĨä¸Ńå¼ıäºĳ":7496,"åĲ¯åıĳçļĦ":7497,"èģļåıĺåıįåºĶåłĨä¸ŃçļĦçŃīç¦»åŃĲä½ĵçº¦æĿŁ":7498,"è®¤è¯Ĩè®ºå»ºæŀĦä¸»ä¹īè®¤ä¸º":7499,"æł¡åĩĨ":7500,"åī¥å¤º":7501,"èĩªèº«åħįçĸ«":7502,"å±ıå¹ķä½¿çĶ¨æĹ¶éĹ´":7503,"äººä½ĵåĨ·åĨ»":7504,"å®ŀçİ°åħ¨çĲĥéĥ¨ç½²":7505,"èĲ½æ°´æ´ŀåĴĮ":7506,"èĥ¶åŃĲ":7507,"æĶ¾å¤§äºĨç¡®è®¤åģıè¯¯":7508,"èĽĭçĻ½è´¨æĬĺåıł":7509,"è¿ĩç¨ĭç»´æĮģçĿĢ":7510,"ä¸Ļçĥ¯é¢ľæĸĻçļĦåıĳæĺİ":7511,"è½¨éģĵçİ¯ç³»ç»Ł":7512,"å¾®æ³¢ä¼łè¾ĵ":7513,"è§¦è§īåıįé¦Ī":7514,"å¤§ä¼ĹåĮĸ":7515,"æĸ°èīºæľ¯è¿ĲåĬ¨çļĦæľīæľº":7516,"å¤§æ°Ķä¸ŃçļĦäºĮæ°§åĮĸç¢³":7517,"è¡Įä¸ºç»ıæµİåŃ¦éĢļè¿ĩå°Ĩè®¤çŁ¥åģıå·®çº³åħ¥":7518,"å¥ĸåĬ±":7519,"å¿ĥçĲĨåŃ¦æ´ŀè§ģèŀįåħ¥":7520,"åŃ¦éĻ¢æ´¾ç»ĺçĶ»":7521,"å¤§æ°Ķä¸ŃäºĮæ°§åĮĸç¢³":7522,"å°¼éĩĩçļĦè§Ĩè§Ĵä¸»ä¹ī":7523,"åĨ°åį«æĺŁä¸ĬçļĦä½İæ¸©çģ«å±±æ´»åĬ¨":7524,"æ¸ĹéĢı":7525,"çľŁæł¸çĶŁçī©åŁºåĽłç»Ħ":7526,"åīįé¢Ŀåı¶çļ®å±Ĥ":7527,"éĩĩåıĸäºĨæĪªçĦ¶ä¸įåĲĮçļĦ":7528,"çĹķè¿¹":7529,"æ¨¡åĿĹåĮĸ":7530,"ä¸»äººåħ¬":7531,"çº¬åº¦":7532,"ç»´ä¹Łçº³ä¼ļè®®":7533,"\"ãĢģ\"":7534,"GD":7535,"gy":7536,"¶å£ģ":7537,"Ġte":7538,"Ġar":7539,"ĵæ»´":7540,"łéģĵ":7541,"çļĦæĹł":7542,"çļĦéĢŁåº¦":7543,"çļĦæłĩåĩĨåĮĸ":7544,"çļĦå¿«éĢŁ":7545,"çļĦè§£è¯»":7546,"çļĦæĭħå¿§":7547,"çļĦå®ŀæĹ¶æ°ĶåĢĻå»ºæ¨¡":7548,"æĢª":7549,"åľ¨å¯¹":7550,"åľ¨çİ°ä»£":7551,"åľ¨ç©ºéĹ´":7552,"ä¸İç©ºéĹ´":7553,"ä¸İåĩ¯æģ©æĸ¯ä¸»ä¹ī":7554,"ä¸İå¹¿ä¹īçĽ¸å¯¹è®º":7555,"ä¸İåĮħè±ªæĸ¯":7556,"ä¸İäºĳç«¯":7557,"ä¸ºåŁºç¡Ģ":7558,"å°Ĩåı¯èĥ½":7559,"æī¶å£ģ":7560,"ç§Ĵ":7561,"åºĶè¯¥":7562,"åıĺå¼Ĥ":7563,"å¦ĤæŀľåĨ³å®ļè®º":7564,"å¦ĤæŀľåįĹæŀģ":7565,"å¦Ĥæŀľäººç±»å¯¿åĳ½å»¶éķ¿":7566,"åĬĽåº¦":7567,"åı¯èĥ½æľĢç»Ī":7568,"çĽ¸åºĶ":7569,"ä»£è¡¨":7570,"æĽĿåħī":7571,"ä½ľä¸ļ":7572,"ç³»ç»ŁåĮĸ":7573,"èĢĮçİ°ä»£ä¸»ä¹ī":7574,"å¤§è¥¿":7575,"ä¸įåĲĮæĸĩåĮĸ":7576,"çĲĨè®ºæ¨¡åŀĭ":7577,"æķĪèĥ½":7578,"æĪĺæľ¯":7579,"èĩªç»Ħç»ĩ":7580,"ä»¥æī¹åĪ¤":7581,"æĽ´æĹ©":7582,"æĽ´ç²¾ç¡®":7583,"å½±åĵįåĬĽ":7584,"æĸ°èĩªçĶ±ä¸»ä¹ī":7585,"ç»ĵæŀĦä¸Ń":7586,"èīºæľ¯å®ŀè·µ":7587,"ä¿Ŀåģ¥":7588,"è¦ģæĺ¯":7589,"åģ¶":7590,"éĺ±":7591,"éĺħ":7592,"ä½ľçĶ¨åĬĽ":7593,"éªĳ":7594,"è¾ĥä¹ĭ":7595,"æĸĩåŃ¦ä¼łç»Ł":7596,"æµĭç»ĺ":7597,"æĦıè¯ĨçĲĨè®º":7598,"ä¸ĭæĸ¹çļĦ":7599,"æ¶ĵæ»´":7600,"ç²¾å¿ĥ":7601,"è¿Ĳæ°Ķ":7602,"æķ°åŃĹç¤¾ä¼ļä¸ŃçļĦ":7603,"èĢĮéĿŀçĽ´è¯ĳ":7604,"äºļæ´²":7605,"æİ¨å´ĩ":7606,"æ®ĸæ°ĳåĮĸ":7607,"éģĵå¾·è¿Ĳæ°Ķ":7608,"ä¸ĵä¸ļé¢ĨåŁŁ":7609,"åı¤å¸ĮèħĬ":7610,"ç§ĳåŃ¦çŁ¥è¯Ĩ":7611,"åŁºç¡ĢæĢ§":7612,"æķĻåłĤ":7613,"ä¿¡æģ¯åŃĺåĤ¨":7614,"ç¢³æİĴæĶ¾":7615,"çĶŁäº§æĸ¹å¼ı":7616,"éĩįæĸ°æł¡åĩĨ":7617,"ä¹ĭéĹ´çļĦçĽ¸äºĴä½ľçĶ¨":7618,"æĶ¿æ²»åĵ²åŃ¦":7619,"å¿ĥçĲĨåĽłç´ł":7620,"åİĨåı²åĪĽä¼¤":7621,"å¤ªèµ«":7622,"èĬĤå¥ı":7623,"åįıåĲĮ":7624,"æĪĲä¸ºå¸¸è§Ħ":7625,"æĹ¢å®ļ":7626,"æļĹèĥ½éĩı":7627,"çĽ¸å¯¹æĢ§":7628,"éĢĤåºĶèĥ½åĬĽ":7629,"åŃ¦æľ¯ä¸¥è°¨":7630,"çªģçł´äºĨ":7631,"enc":7632,"çģ«å±±çģ°":7633,"è¡¨è¿°ä¹łæĥ¯":7634,"èĪ¹":7635,"åĽŀå£°":7636,"è¿ĺèĥ½":7637,"éķ¿æľŁåŃĺåľ¨":7638,"æĦıè¯ĨæµģæĬĢå·§":7639,"ç»Ĩèħ»":7640,"ç»´æĮģçĿĢ":7641,"æ¯Ķè¾ĥä¼ĺåĬ¿çĲĨè®ºéĢļè¿ĩ":7642,"å¦Ĥä½ķæĮĳæĪĺä¼łç»ŁçļĦ":7643,"æ¤įè¢«":7644,"çº³ç±³ç²ĴåŃĲ":7645,"åĲİçİ°ä»£å°ıè¯´ä¸ŃçļĦ":7646,"ä½ľèĢħæĿĥå¨ģ":7647,"ä½ľåĵģä¸Ń":7648,"å®Įæķ´ä¿ĿåŃĺ":7649,"ance":7650,"èħ¾":7651,"å±ŀäºİ":7652,"2040":7653,"èĩªä¸»éĢīæĭ©":7654,"å¼ķåĬĽæķĪåºĶ":7655,"çĶ²çĥ·æ°´åĲĪçī©":7656,"ted":7657,"åıįæĺłåĩº":7658,"è½¨éģĵå¤ªéĺ³èĥ½çĶµç«Ļ":7659,"è¿ľæ´ĭ":7660,"åĪĨéħįæľºåĪ¶":7661,"æ²īç§¯çī©åłĨç§¯":7662,"ç¬¬ä¸ī":7663,"å£°éŁ³":7664,"å°ĨéľĢè¦ģè¿Ľè¡Įå½»åºķ":7665,"çļĦä¼łç»Łå®ļä¹ī":7666,"æī¿è®¤":7667,"ä»¤äºº":7668,"åĨ²ç§¯æīĩå½¢æĪĲè¿ĩç¨ĭ":7669,"åĶ¤":7670,"éļľç¢įæľīåĵªäºĽ":7671,"å±ħæ°ĳ":7672,"éĻ·éĺ±":7673,"æ°´æĸĩç³»ç»Ł":7674,"éĩıåŃĲåıłåĬłä½¿å¾Ĺ":7675,"è´¸æĺĵç½ĳç»ľçļĦå´©æºĥ":7676,"atter":7677,"æķ°åŃ¦æ¡Ĩæŀ¶":7678,"è´§å¸ģä¸»ä¹īæĶ¿çŃĸ":7679,"è·¨ä»£æĢ§çĬ¶ä¼łéĢĴ":7680,"æľªæĽ¾åıĳçĶŁ":7681,"åĲİç»Ńåıĳå±ķ":7682,"åĲİæ®ĸæ°ĳæĸĩåŃ¦å¸¸åĢŁåĬ©æ··æĿĤ":7683,"åĶ¯å¿ĥ":7684,"èĭ¥éĩıåŃĲåĬłå¯Ĩ":7685,"è¯Ńè¨Ģç»ĵæŀĦæĿ¥é¢łè¦Ĩæ®ĸæ°ĳ":7686,"åĵ¥çī¹æĸĩåŃ¦":7687,"ä¸»ä½ĵæĢ§":7688,"äº¤éĢļäºĭæķħ":7689,"çļĦç²¾ç¡®æĢ§":7690,"ä¸ĵä¸ļåĮĸåĪĨå·¥":7691,"æĭľåįłåºŃåľ£åĥıèīºæľ¯ä¸İ":7692,"åį°åĪ·æľ¯çļĦåıĳæĺİ":7693,"é£ŀæī¶å£ģ":7694,"çļĦç»ĵæŀĦæĢ§":7695,"åľ°å¤ĸçĶŁåĳ½":7696,"åĲİå·¥ä¸ļç¤¾ä¼ļä¸Ń":7697,"åľ°éĿ¢åı¯åĨįçĶŁèĥ½æºĲ":7698,"ä¸İåį°è±¡æ´¾èī²å½©çĲĨè®º":7699,"èįĴæ¼łåĮĸ":7700,"å¦Ĥæŀľæ³Ľå¿ĥè®ºèİ·å¾Ĺå®ŀè¯ģæĶ¯æĮģ":7701,"ç½ĳç»ľçĲĨè®ºåľ¨":7702,"å®ĹæķĻæĶ¹éĿ©æĢĿæĥ³":7703,"èµ°åĲĳ":7704,"çĽĨåľ°ä¸ŃçļĦ":7705,"æĭīä¸ģç¾İæ´²æĸĩåŃ¦ä¸ŃçļĦéŃĶå¹»çİ°å®ŀä¸»ä¹ī":7706,"ä»ªå¼ı":7707,"çĪĨçĤ¸":7708,"å¦ĤæŀľåŁºäºİCRISPRçļĦåŁºåĽłé©±åĬ¨æĬĢæľ¯è¢«":7709,"å¾ªçİ¯ç»ıæµİæ¨¡å¼ı":7710,"ç²ĴåŃĲçļĦäº§çĶŁ":7711,"éĩİçĶŁç§įç¾¤ä¸Ń":7712,"ç»§ç»Ń":7713,"igh":7714,"é«ĺæķĪçļĦ":7715,"ä»įèĥ½ä¿ĿæĮģ":7716,"åī¥åīĬ":7717,"é¢ĳç¹ģè¿ĲçĶ¨":7718,"åŃ£èĬĤ":7719,"åŁİå¸Ĥç»ħå£«åĮĸè¿Ľç¨ĭ":7720,"æ²³åı£çĶŁæĢģç³»ç»Ł":7721,"çī¹æĭīåħĭ":7722,"åĲİç»ĵæŀĦä¸»ä¹īæĸĩåŃ¦çĲĨè®ºéĢļè¿ĩå¼ºè°ĥè¯»èĢħ":7723,"è¡Įä¼ļåĪ¶åº¦":7724,"çģ«èį¯ä¼łåħ¥æ¬§æ´²":7725,"é¢ĦæµĭæĢ§èŃ¦åĬ¡ç®Ĺæ³ķ":7726,"çĲĨæĢ§è¡Įä¸ºèĢħ":7727,"å¥łå®ļäºĨ":7728,"ä¸°å¯Į":7729,"ç£ģæĤ¬æµ®äº¤éĢļç³»ç»Ł":7730,"èģļçĦ¦äºİ":7731,"æ´»ä½ĵç»Ħç»ĩä¸İ":7732,"ç£ģåħ±æĮ¯æĪĲåĥı":7733,"è§£åīĸåŃ¦":7734,"æĹ¶ç©ºæĽ²çİĩ":7735,"å°¼éĩĩçļĦæ°¸æģĴè½®åĽŀæ¦Ĥå¿µ":7736,"é½Ĳ":7737,"åĮ¿åĲį":7738,"é¢Ĺç²Ĵ":7739,"å¹´éī´åŃ¦æ´¾çļĦ":7740,"ä»İéĩįåķĨä¸»ä¹īåĲĳ":7741,"ç´«å¤ĸçº¿":7742,"æ·¹æ²¡":7743,"åº·å®ļæĸ¯åŁº":7744,"å¤§è¥¿æ´ĭ":7745,"å¤ªèµ«åħ¹":7746,"ge":7747,"ion":7748,"pos":7749,"ºç»ĩ":7750,"è¤":7751,"Ġä¿ĿæĮģ":7752,"çļĦå¤§æ°Ķ":7753,"çļĦå¤įæĿĤæĢ§":7754,"çļĦä¸¥è°¨æĢ§":7755,"çļĦä»»æĦıåŃĲ":7756,"åı³":7757,"ä»°":7758,"èĥ½æıĲä¾Ľ":7759,"åľ¨è¡¨çİ°":7760,"åľ¨å¤ĦçĲĨ":7761,"çĲĨæĢ§çļĦ":7762,"æĺĨ":7763,"çĶŁéķ¿":7764,"æ³°":7765,"å¸Ī":7766,"ä½ĵç§¯":7767,"ç»ıè¿ĩ":7768,"ç»ıåıĹ":7769,"ä¼ļå½¢æĪĲ":7770,"ä¼ļåıĳçĶŁæĢİæł·çļĦ":7771,"åıĳæĢ§":7772,"çººç»ĩ":7773,"äººç§°":7774,"å®ŀçİ°åı¯ç¼ĸç¨ĭ":7775,"ç®±":7776,"åİĤ":7777,"å¦ĤæŀľéĩıåŃĲè®¡ç®Ĺ":7778,"æľīäºº":7779,"æĬĢæľ¯å¾Ĺä»¥":7780,"è¿Ľä¸ĢæŃ¥":7781,"åĲİç¨Ģç¼º":7782,"ä¸Ĭä¸ĭ":7783,"æĭ¬":7784,"åĢ¡":7785,"åĩºæĿ¥":7786,"åħ³åĪĩ":7787,"ç¥ŀè¯Ŀ":7788,"èĭ¥åĲĪæĪĲçĶŁçī©åŃ¦":7789,"èĭ¥äººä¸º":7790,"èĭ¥åħ¨æģ¯åİŁçĲĨ":7791,"åĽłåħ¶":7792,"è§ĤèĢħ":7793,"åĵªäºĽå·®å¼Ĥ":7794,"åĵªäºĽè¿ĽåĮĸ":7795,"çĶµéĺ»":7796,"æĿ¥æºĲ":7797,"æĿ¥è¶Ĭ":7798,"æĿ¥é¢łè¦Ĩ":7799,"éĿŀå¸¸":7800,"ç¤¾ä¼ļä¿¡çĶ¨ä½ĵç³»":7801,"èīºæľ¯å¯¹":7802,"èīºæľ¯ä¼łç»Ł":7803,"èīºæľ¯åı²":7804,"æ¡¥":7805,"è¦ģçĤ¹":7806,"æĪĳä¼ļ":7807,"ç½ĳç»ľå¤ĸéĥ¨æĢ§":7808,"æ¨¡åŀĭæıĲåĩºæĮĳæĪĺ":7809,"æĸ¯å®ļçĲĨ":7810,"å°Ĩå¦Ĥä½ķåıĳå±ķ":7811,"å¼ºè°ĥéģĵå¾·":7812,"è®¤çŁ¥è®Ńç»ĥ":7813,"æ¬²":7814,"èĢĮéĿŀè´¢æĶ¿":7815,"ç»´åº¦çļĦ":7816,"åı¯èĥ½ä¼ļç»ıåİĨ":7817,"å¥Ĺ":7818,"ç¬¦åĲĪä¸ŃæĸĩåŃ¦æľ¯":7819,"éķ¿æĹ¶éĹ´":7820,"çĶŁæĢģåŃ¦":7821,"åĲĮæĹ¶éĢļè¿ĩ":7822,"æĹ¶éĹ´ç»´åº¦":7823,"ç®Ĺæ³ķåĨħå®¹":7824,"éģĵå¾·çĽ¸å¯¹ä¸»ä¹ī":7825,"åĪĽå»º":7826,"èĩ´åĳ½":7827,"ä¸ĵæ³¨":7828,"äºĮèĢħå¯¹":7829,"æĮģç»Ńå¼ķåıĳ":7830,"æ°ĶåĢĻæ¨¡åŀĭçļĦ":7831,"åĢĺèĭ¥èĦĳæľºæİ¥åı£å®ŀçİ°":7832,"å¹´é¾Ħ":7833,"æ¦Ĥå¿µåĮĸ":7834,"åĨľä¸ļäº§éĩı":7835,"åģĩå®ļ":7836,"è´¸æĺĵé¡º":7837,"è·¨æ´ĭ":7838,"æµ·æ´ĭçĶŁçī©":7839,"æµ·æ´ĭçĥŃ":7840,"è¶ĬæĿ¥è¶Ĭ":7841,"åİĨåı²ç¼ĸçºĤ":7842,"å°±åı¯èĥ½":7843,"éĢĢè¡Į":7844,"æĹ¢åĩĨç¡®ä¼łè¾¾":7845,"æıĲä¾Ľä¾Ŀæį®":7846,"æĬĢæľ¯çļĦæĻ®åıĬ":7847,"å®¹éĩı":7848,"åħ·æľīæĺ¾èĳĹ":7849,"ased":7850,"ç»ĵæŀľæľĢå¤§åĮĸ":7851,"å·¥ç¨ĭé¢ĨåŁŁ":7852,"è§£æŀĦä¸»ä¹ī":7853,"èµĦæľ¬æĬķèµĦ":7854,"åı¥å¼ıéĩĩçĶ¨":7855,"å¼±åĮĸ":7856,"åĽ½å®¶ä¸Ń":7857,"ç¤¾äº¤äºĴåĬ¨":7858,"æĭĵæīĳæķ°æį®åĪĨæŀĲ":7859,"åį°è±¡æ´¾èī²å½©çĲĨè®º":7860,"æľĽè¿ľ":7861,"å»ºçŃĳè®¾è®¡":7862,"æĮĳæĪĺäºĨä¼łç»ŁçļĦ":7863,"åĨįåŁ¹è®Ń":7864,"ä»·åĢ¼çļĦ":7865,"å¤§éĻĨç¢°æĴŀ":7866,"çĽ¸å¯¹è®ºåĬĽåŃ¦":7867,"åĤ¨å¤ĩ":7868,"åľ°çĲĥå·¥ç¨ĭ":7869,"åĬ©éķ¿":7870,"éĢĴè¿Ľ":7871,"èĨ¨èĥĢæķĪåºĶ":7872,"èĢĥèĻĳåĪ°":7873,"ics":7874,"åį³åħ´":7875,"ç§ĳæĬĢæĸĩæľ¬":7876,"ç³»ç»ŁæĢ§æŃ§è§Ĩ":7877,"é¢ĨåŁŁçļĦä¸ĵä¸ļ":7878,"åħħçĶµ":7879,"åŃĺåľ¨ä¸»ä¹īå¼ºè°ĥ":7880,"èĻļæŀĦ":7881,"åĪĴåĪĨ":7882,"ç¾¤ä½ĵæľºåĻ¨äººåŃ¦":7883,"èĩªä¸»æŃ¦åĻ¨":7884,"å±ķçİ°åĩºåīįæīĢæľªæľīçļĦ":7885,"å®ŀéªĮæĢ§":7886,"èĩªåĬ¨åĮĸé©±åĬ¨çļĦ":7887,"çģµæĢ§":7888,"å¯¼çĶµæĢ§":7889,"æĺŁéĻħèĪªè¡Į":7890,"è§Ĥå¯ŁèĢħ":7891,"èŀįåħ¥äºĨ":7892,"åĪĽéĢłåĬĽ":7893,"æĺ¯åĲ¦ä¼ļåľ¨":7894,"åĲ«æ°´":7895,"åħ¨éĿ¢æĻ®åıĬ":7896,"åľ¨å¤ļå¤§ç¨ĭåº¦ä¸Ĭä¿ĥè¿ĽäºĨ":7897,"è¯įæ±ĩ":7898,"æĹĭè½¬":7899,"åħīéģĹä¼łåŃ¦éĢļè¿ĩ":7900,"å¥ĩçĤ¹":7901,"çĶµç£ģæ³¢è°ĥæİ§":7902,"èĭ±è¯Ń":7903,"åŀĤçĽ´åĨľä¸ļçļĦå¹¿æ³ĽéĩĩçĶ¨":7904,"è´¢å¯Įç§¯ç´¯":7905,"æ··æĿĤæĢ§":7906,"å¦ĤæŀľåĬłå¯Ĩè´§å¸ģåıĸä»£æ³ķå®ļè´§å¸ģ":7907,"æ¸©åº¦è¶ħè¿ĩ":7908,"è§Ħæ¨¡åĮĸçĶŁäº§":7909,"æĳĴå¼ĥäºĨ":7910,"éģŃéģĩ":7911,"åĦ¿ç«¥":7912,"å¤§åĬłéĢŁæĽ²çº¿åĽ¾":7913,"ç®Ĺæ³ķæİ¨èįĲç³»ç»Ł":7914,"çģŃç»Ŀæ¨¡å¼ıä¸İ":7915,"dig":7916,"phic":7917,"èĩªå·±çļĦ":7918,"å¼Ĥå¸¸çİ°è±¡":7919,"å¾®è§Ĥç»ıæµİåŃ¦":7920,"ä¼ĳéĹ²":7921,"åĵ¥çī¹å¼ıå»ºçŃĳçļĦ":7922,"ç¼ĸç»ĩçļĦä»»æĦıåŃĲ":7923,"åħ¬åı¸æ²»çĲĨç»ĵæŀĦ":7924,"å¦Ĥæŀľå¾®çĶŁçī©ç¾¤":7925,"çĿ¡çľłä¸įè¶³":7926,"æ³¨æĦıåĬĽæĮģç»ŃæĹ¶éĹ´":7927,"è¯īè¯¸":7928,"æ´ªæ³Ľ":7929,"å¼Ĥç§įæľºåĻ¨äºº":7930,"æĮģç»ŃåĬłåī§æķĻèĤ²ä¸įå¹³çŃī":7931,"èĢĮéĿŀåĲİæŀľè®¡ç®Ĺ":7932,"åĳĬè¯ī":7933,"çĥŃæ¶²åĸ·åı£çĶŁæĢģç³»ç»Ł":7934,"ç¬¬åĽĽä»£":7935,"åħ¨çĲĥèĥ½æºĲåľ°ç¼ĺæĶ¿æ²»æł¼å±Ģ":7936,"ä¿¯åĨ²å¸¦åĬ¨åĬĽåŃ¦éĢļè¿ĩ":7937,"çĨĶå²©":7938,"åĵªäºĽåľ°è´¨è¿ĩç¨ĭ":7939,"æ°¸ä¹ħåĨ»åľŁèŀįåĮĸéĩĬæĶ¾åĩº":7940,"æľīæīĢä¸įåĲĮ":7941,"å¦Ĥæŀľå®ŀçİ°äºĨäººå·¥æĦıè¯Ĩ":7942,"èķ´":7943,"æĿİåĺīåĽ¾çļĦæ¯Ķè¾ĥä¼ĺåĬ¿åİŁçĲĨ":7944,"çĥŃå¸¦æ°ĶæĹĭçĶŁæĪĲ":7945,"å½¼çī¹æĭīåħĭ":7946,"å®ļåĪ¶åĮĸ":7947,"æİĮæı¡":7948,"éĢļè¿ĩåĲĮæĹ¶åĳĪçİ°":7949,"åıįå¯¹æĻ®éģį":7950,"åį°è±¡æ´¾ä¸İçĤ¹å½©æ´¾":7951,"åı¤æ°ĶåĢĻåŃ¦åĨ°èĬ¯":7952,"æĮ¤åİĭ":7953,"energy":7954,"è½®çıŃå·¥ä½ľèĢħçļĦ":7955,"æĢ§æł¼ç¼ºéĻ·":7956,"ä¸İç»´å¤ļåĪ©äºļæĹ¶æľŁçļĦæķ£æĸĩä¸įåĲĮ":7957,"çħ§çĽ¸åĨĻå®ŀä¸»ä¹ī":7958,"æĸ°åı¤åħ¸ä¸»ä¹īå»ºçŃĳå¤įåħ´":7959,"çŃīç¦»åŃĲä½ĵå°¾æ³¢åľºåĬłéĢŁ":7960,"åľ¨ä½ķç§įç¨ĭåº¦ä¸Ĭ":7961,"èķ¾ä¸Ŀ":7962,"åĲĽä¸»":7963,"åį·ç§¯":7964,"åĵģå¾·åŁ¹åħ»":7965,"çŁ©éĺµ":7966,"éģĵå¾·è¿Ĳæ°ĶæĤĸè®º":7967,"è´¸æĺĵé¡ºå·®":7968,"æľĽè¿ľéķľ":7969,"21":7970,"bi":7971,"cal":7972,"ption":7973,"©åºı":7974,"èĿ":7975,"Ġ-":7976,"çļĦä¸į":7977,"çļĦæ¨¡å¼ı":7978,"çļĦçİ°å®ŀ":7979,"çļĦå½¢æĢģ":7980,"çļĦçĽ´æİ¥":7981,"çļĦä»·åĢ¼":7982,"çļĦåĩºçİ°":7983,"çļĦæĮģç»ŃåŃĺåľ¨":7984,"çļĦç²¾ç¥ŀåĪĨæŀĲ":7985,"å®¿åĳ½":7986,"çİĭ":7987,"æĢ§åģĩè®¾":7988,"åľ¨çī¹å®ļ":7989,"åľ¨åĨ³çŃĸè¿ĩç¨ĭä¸Ń":7990,"åľ¨ä¸Ģèµ·":7991,"ä¸Ńä¼łç»ŁçļĦ":7992,"äºĨä»Ģä¹Ī":7993,"ä¸İæĬĢæľ¯":7994,"ä¸İçĽ¾çĬ¶çģ«å±±":7995,"éĢļè¿ĩå¤ļ":7996,"å¯¹æĸ°è¾¾å°Ķæĸĩä¸»ä¹ī":7997,"åĨĴ":7998,"è®ºä¸įåĲĮ":7999,"çĶ¨è¯Ń":8000,"å¦Ĥä½ķä¿ĥæĪĲ":8001,"å¦Ĥä½ķå¡ĳéĢłäºĨ":8002,"ä¸ºå¯¼åĲĳ":8003,"æ°®":8004,"è¾ĸ":8005,"è´Ŀåı¶":8006,"æŀĦåŀĭ":8007,"ä¼ļéĢļè¿ĩ":8008,"å°Ĩå½»åºķéĿ©æĸ°":8009,"ç§©åºı":8010,"è¡Įæĸĩ":8011,"ç®Ķ":8012,"è°ģ":8013,"å¦Ĥæŀľäº¤äºĴå¼ı":8014,"çŁ«":8015,"åı¯èĥ½å¦Ĥä½ķæĮĳæĪĺ":8016,"åı¯èĥ½äº§çĶŁåĵªäºĽ":8017,"æĬĢæľ¯èĥ½å¤Ł":8018,"æĬĢæľ¯å®ŀçİ°äºĨ":8019,"æĬĢæľ¯çªģçł´":8020,"è°ĥæŁ¥":8021,"ç³»ç»ŁçĽ¸æ¯Ķ":8022,"èĢĮåŃĺåľ¨":8023,"èĢĮèİİå£«æ¯ĶäºļæĤ²åī§":8024,"æķ°åįģå¹´åĨħ":8025,"åĲİå·¥ä¸ļåĮĸ":8026,"å·¥äºĭ":8027,"çĲĨè®ºå¯¹":8028,"çĲĨè®ºä¸įåĲĮ":8029,"çĲĨè®ºä½ĵç³»":8030,"ä¸Ĭæ¶¨":8031,"ç¥ī":8032,"éĩıåŃĲè¡Įä¸º":8033,"ä»¥ç»´æĬ¤":8034,"æĽ´è´´":8035,"çī¹å¤§åŁİå¸Ĥ":8036,"åİŁåı¥":8037,"ç¥ŀç»ıä¼¦çĲĨæ¡Ĩæŀ¶":8038,"ç¥ŀç»ıç³»ç»Łçĸ¾çĹħ":8039,"æĺ¯åĽłä¸º":8040,"æĺ¯åĽ½éĻħè´¸æĺĵ":8041,"ç¤¾ä¼ļä¼łæŁĵ":8042,"èīºæľ¯éĢļè¿ĩ":8043,"è¶ħèĦ±":8044,"è¶ħå¤§è´¨éĩı":8045,"æĶ¿æĿĥ":8046,"å¤įè°ĥ":8047,"å¾·éĩĮ":8048,"æ°ĶåĽ¢":8049,"å¼ķçĶ¨":8050,"ä¼¦çĲĨåİŁåĪĻ":8051,"ä¸Ģæł·":8052,"å¹³è¡Į":8053,"è½¬åĮĸ":8054,"æĦŁåºĶ":8055,"æľºåĪ¶åľ¨":8056,"è¯´æķĻ":8057,"åĪĻæĽ´æ³¨éĩį":8058,"åĿĢ":8059,"æ®ĭ":8060,"åĨħçĩĥ":8061,"äº¤ç»ĩ":8062,"è¡Įä¸ºèīºæľ¯":8063,"ä»İéĩıåŃĲæĢģ":8064,"è¿Ļå°Ĩå¦Ĥä½ķéĩįå¡ĳ":8065,"èĢĮéĿŀä¾Ŀèµĸ":8066,"è¢Ń":8067,"è¢«çĶ¨":8068,"ç©ºåīį":8069,"é«ĺä¿ĿçľŁ":8070,"ç®¡è¾ĸ":8071,"éħĴ":8072,"æķĪåºĶæıŃç¤ºäºĨ":8073,"æĹ¶éĹ´ç»ĵæŀĦ":8074,"æ³¢ç½Ĺ":8075,"åħĥä»¶":8076,"åħ³ç³»çļĦ":8077,"å¦Ĥä½ķå½±åĵįè¯»èĢħå¯¹":8078,"åĲĳåķĨä¸ļ":8079,"åĲĳå¯¼RNA":8080,"äºĮèĢħ":8081,"éĶĢ":8082,"çĤŃ":8083,"ä¿¡æģ¯å®īåħ¨èĮĥå¼ı":8084,"æĶ¿çŃĸåĪ¶å®ļ":8085,"æıŃç¤ºäºĨä¸¤èĢħåľ¨":8086,"å¹¿æ³Ľå®ŀæĸ½":8087,"å¿ĥçĲĨæ·±åº¦":8088,"é£İæļ´":8089,"åľ°è²Įçī¹å¾ģ":8090,"æĸ¹éĿ¢çļĦæĮĳæĪĺ":8091,"åĪ¶åº¦å¤±èĮĥ":8092,"çłģè½¬æį¢":8093,"åĲİæ®ĸæ°ĳå°ıè¯´ä¸ŃçļĦéŃĶå¹»çİ°å®ŀä¸»ä¹ī":8094,"é©±åĬ¨äºĨ":8095,"éĩĳç®Ķ":8096,"åĥµ":8097,"çĽ¸å¯¹ä¸»ä¹īçļĦ":8098,"éĢĤåºĶæľºåĪ¶":8099,"é¢łè¦Ĩè¥¿æĸ¹":8100,"èµ·æºĲ":8101,"èģļåĲĪçī©":8102,"ç²ĴåŃĲçĽ¸äºĴä½ľçĶ¨":8103,"ä»İèĢĮåľ¨":8104,"ä»İèĢĮå®ŀçİ°":8105,"ä»İèĢĮåĬłåī§":8106,"éħ¸æĢ§":8107,"åĲİæŀľçļĦ":8108,"çŃĸçķ¥äºĴåĬ¨":8109,"è´ŁçĽ¸åħ³":8110,"end":8111,"æįķèİ·":8112,"ä¼°è®¡":8113,"ä¸įåı¯éĢĨ":8114,"æĳ©":8115,"åĤ¨å±Ĥ":8116,"æ¨¡æĭŁåģĩè¯´":8117,"æĪĸå°ĨåıĳçĶŁ":8118,"æĬĹè¯¯å·®":8119,"å¹³åı°çļĦ":8120,"å§ĵ":8121,"æĭľåįłåºŃä¸İ":8122,"ç¤¾äº¤åªĴä½ĵåĽŀéŁ³å®¤":8123,"ç¼ºå¤±":8124,"æºĲäºİå¯¹":8125,"ä¿ĿæĬ¤ä¸»ä¹ī":8126,"æ²³æµģæ²īç§¯":8127,"åĨĻçĶŁ":8128,"æķ´åĲĪåĪ°":8129,"é¢ľèī²":8130,"ç¾¤ä½ĵä¸Ń":8131,"å¤ļæł·åĮĸ":8132,"æĽ¿æį¢":8133,"éĽĨä½ĵè®°å¿Ĩ":8134,"å®¡è®¡":8135,"çĶŁçī©ç¥ŀç»ıç½ĳç»ľçļĦæķĪçİĩ":8136,"è¿ľè¶ħ":8137,"æĬ½è±¡è¡¨çİ°ä¸»ä¹īéĢļè¿ĩ":8138,"åħīåŃ¦æĻ¶ä½ĵç®¡":8139,"è¾¹ç¼ĺåĮĸ":8140,"å·¥ä¸ļéĿ©åĳ½æĹ¶æľŁ":8141,"ç¡®å®ļæĢ§çļĦ":8142,"å¡ĳéĢłåĩº":8143,"æĽ¿ä»£çĸĹæ³ķ":8144,"å°ĨéľĢè¦ģè¿Ľè¡Įå½»åºķçļĦ":8145,"äººç±»è®¤çŁ¥èĥ½åĬĽ":8146,"ç¦ıç¥ī":8147,"ä¸Ńå¤®éĵ¶è¡ĮæľºæŀĦ":8148,"å°ģå»ºåľŁåľ°":8149,"æ°´æĸĩå¾ªçİ¯":8150,"è¯ģæį®æĶ¯æĮģ":8151,"åįļå¼Īè®ºåľ¨ç»ıæµİåŃ¦":8152,"åľ°ä¸Ńæµ·åľ°åĮºçļĦ":8153,"æĭĵæīĳéĩıåŃĲè®¡ç®ĹéĢļè¿ĩ":8154,"æŀĦæĪĲäºĨæł¹æľ¬æĢ§æĮĳæĪĺ":8155,"è¢«è¯ģå®ŀåĩĨç¡®":8156,"ä¸īç»´çİ°å®ŀ":8157,"å½ĴåĽł":8158,"ä»¥ä¸ĭåİŁåĪĻ":8159,"ä¸»åĬ¨åĲĮåĮĸ":8160,"çĶµç½ĳæķĪçİĩ":8161,"å±±èĦīçļĦå½¢æĪĲ":8162,"ä¿¡åı·å¤ĦçĲĨ":8163,"çĽ®çļĦè®ºä¼¦çĲĨåŃ¦":8164,"å¯¡å¤´åŀĦæĸŃå¸Ĥåľºè¡Įä¸º":8165,"èĩªåĬ¨é©¾é©¶è½¦è¾Ĩ":8166,"èĥ½æºĲä¼łè¾ĵæķĪçİĩ":8167,"åĪĨæķ£å¼ı":8168,"æ·±æµ·æ²Ł":8169,"å³¡æ¹¾çļĦå½¢æĪĲ":8170,"åľ°å±Ĥæłĩå¿Ĺ":8171,"æĭīä¸ģç¾İæ´²å°ıè¯´ä¸ŃçļĦéŃĶå¹»çİ°å®ŀä¸»ä¹ī":8172,"ä½İæ¸©ä¿ĿåŃĺ":8173,"ä¼łæĦŁåĻ¨çļĦ":8174,"è®¤çŁ¥å¤±è°ĥçĲĨè®ºéĺĲéĩĬäºĨ":8175,"çº¯ç²¹æĢ§":8176,"åħ³ç¨İå¾Ģå¾Ģä¼ļå¼ķåıĳ":8177,"éĽ¨å½±":8178,"å¼ķåĬĽéĢıéķľæķĪåºĶ":8179,"å¦Ĥæŀľç¥ŀç»ıå½¢æĢģè®¡ç®Ĺèĥ½å¤Łå®ŀçİ°çĶŁçī©ç¥ŀç»ıç½ĳç»ľ":8180,"çļĦå¢ŀåĬłä¸İ":8181,"å®ªæĶ¿":8182,"æ·±åº¦åŃ¦ä¹łç®Ĺæ³ķ":8183,"å¤§æ°ĶäºĮæ°§åĮĸç¢³æµĵåº¦åįĩé«ĺ":8184,"ç²ĴåŃĲåľ¨è¢«æµĭéĩıä¹ĭåīį":8185,"tural":8186,"èĢĲèį¯":8187,"ĠæĸĩåĮĸéĢĤéħį":8188,"æŁĶæĢ§çĶµåŃĲ":8189,"æķ°åŃĹåĩºçīĪå¹³åı°çļĦåħ´èµ·":8190,"åı¯ä»¥çľĭåĩºä¸¤èĢħåľ¨":8191,"åĲİçİ°ä»£ä¸»ä¹īå»ºçŃĳå¯¹":8192,"æľĪçĲĥ":8193,"ä¹ĺæķ°":8194,"æĤ£èĢħ":8195,"èĩªåĬ¨åĮĸå¯¼èĩ´çļĦå²Ĺä½įæµģå¤±":8196,"å¥ĳçº¦":8197,"åħ·æľīè´ŁæĬĺå°ĦçİĩçļĦè¶ħæĿĲæĸĻ":8198,"åı¯æº¶æĢ§åŁºå²©çļĦ":8199,"è´Ńä¹°åĬĽå¹³ä»·è°ĥæķ´æıŃç¤ºäºĨ":8200,"åħ¬ä¼Ĺå¯¹":8201,"æŃīæĶ¶":8202,"çĶŁæĢģæī¹è¯ĦæĸĩåŃ¦åĪĨæŀĲéĢļè¿ĩ":8203,"éĺ²å¾¡å·¥äºĭ":8204,"çĶŁçī©æ··åĲĪæľºåĻ¨äººåŃ¦":8205,"ä¹¡æĿĳ":8206,"å¦ĤæŀľåħīéģĹä¼łåŃ¦èĥ½å¤Łå®ŀçİ°":8207,"ä¹ĭéĹ´å¤įæĿĤçļĦçĽ¸äºĴä½ľçĶ¨":8208,"ä¸İåħīä¼ıçĶµæ±łä¸įåĲĮ":8209,"æĭ¼è´´":8210,"çİ¯å¢ĥåİĭåĬĽåĽłç´ł":8211,"æĪ·å¤ĸåĨĻçĶŁ":8212,"æ¯«ç±³æ³¢":8213,"çĶ²åŁºåĮĸæ¨¡å¼ı":8214,"å¥¥æĸ¯æĽ¼":8215,"æĸ°çŁ³åĻ¨æĹ¶ä»£":8216,"çİĦæŃ¦å²©":8217,"åĮĸèĥ½åĲĪæĪĲ":8218,"è¾¾åĪ°ä¸´çķĮè§Ħæ¨¡":8219,"ä¸İåį°è±¡æ´¾èī²å½©çĲĨè®ºä¸įåĲĮ":8220,"æĺĨèĻ«":8221,"è´Ŀåı¶æĸ¯":8222,"è¶ħå¤§è´¨éĩıé»ĳæ´ŀ":8223,"åĨħçĩĥæľº":8224,"æ³¢ç½ĹçļĦæµ·":8225,"ite":8226,"ªçĶ¨":8227,"łé²ģ":8228,"çļĦåħ³ç³»":8229,"çļĦç§ĳåŃ¦":8230,"çļĦèĥ½éĩı":8231,"çļĦåıĺåĮĸ":8232,"çļĦåıįé¦Īå¾ªçİ¯":8233,"çļĦå®ĩå®ĻåŃ¦æ¨¡åŀĭ":8234,"æľĹ":8235,"å®ģ":8236,"åĮ¹":8237,"æĢ§æĮĳæĪĺ":8238,"æĢ§ç¬Ķè§¦":8239,"å°Ŀ":8240,"åľ¨è¡Įä¸º":8241,"åľ¨é«ĺ":8242,"åľ¨å®ĩå®Ļ":8243,"ä¸İæ¬§æ´²":8244,"ä¸İæĸĩèīºå¤įåħ´æĹ¶æľŁ":8245,"ä¸İç¾İå¾·ä¼¦çĲĨåŃ¦":8246,"ä¸İä¸īè§Ĵæ´²":8247,"ä¸İè¶ħçİ°å®ŀä¸»ä¹ī":8248,"çĶŁèĤ²":8249,"å¾Ĵ":8250,"å¯¹äºİ":8251,"å¯¹åĮĸçŁ³çĩĥæĸĻ":8252,"åı¯åıĬ":8253,"å¦Ĥä½ķä½¿":8254,"è´¥":8255,"æĮªçĶ¨":8256,"å°Ĩå¼ķåıĳåĵªäºĽ":8257,"æ¨¡åĽł":8258,"åľ°æĶ¹åıĺäºĨ":8259,"å®ŀçİ°çĶŁçī©":8260,"å¦Ĥæŀľå®ŀçİ°éĩıåŃĲéľ¸æĿĥ":8261,"åĬĽåĩıå¼±":8262,"åĪĨåī²":8263,"é¢Ŀ":8264,"ä¸ŃçļĦè®¤çŁ¥":8265,"è¡¨æ¼Ķ":8266,"åĬłå¼º":8267,"éģ¥":8268,"éĩįåıł":8269,"å¼ºåŃĲ":8270,"è®¤å®ļ":8271,"çĶŁçī©æĬĢæľ¯":8272,"çĶŁçī©éĻįè§£":8273,"èĭ¥CRISPR":8274,"èĭ¥éĩıåŃĲè®¡ç®Ĺå®ŀçİ°":8275,"èĭ¥åĪĨåŃĲçº³ç±³æĬĢæľ¯èĥ½å¤Łå®ŀçİ°":8276,"æ¨¡å¼ıä¸įåĲĮ":8277,"å±ķå¼Ģ":8278,"ç¥ŀç»ıæ´»åĬ¨":8279,"ç¥ŀç»ıéĢĢè¡Į":8280,"ç»ıæµİæ¨¡å¼ı":8281,"åĵªäºĽå¯Ĩçłģç³»ç»Ł":8282,"çİĩä¸İ":8283,"æĥ©":8284,"æĥĬ":8285,"åĴĮç¤¾ä¼ļ":8286,"åĴĮçªģè§¦åı¯å¡ĳæĢ§":8287,"è®¡ç®ĹèĮĥå¼ı":8288,"ä¹ĭåĲİ":8289,"èĥ½å¤Łè¢«":8290,"æ¨¡åŀĭéĢļè¿ĩ":8291,"è®¾éĹ®":8292,"åľºæīĢ":8293,"åĿļ":8294,"æĸĩåŃ¦å½¢å¼ı":8295,"å°Ĩå¦Ĥä½ķæıĲåįĩ":8296,"æĸĻçļĦ":8297,"å¸¸ä¸İ":8298,"ä»İå°ģå»º":8299,"æłĩçŃ¾":8300,"è¿Ĳç®Ĺ":8301,"æķ°åŃĹéĿ©åĳ½":8302,"æķ°åŃĹè®¤è¯ģ":8303,"åħ¨çĲĥæĢ§":8304,"åħ¨çĲĥç»ıæµİ":8305,"è¿Ļç±»":8306,"è¿Ļå°Ĩå¯¹":8307,"èĢĮéĿŀè¡Įä¸º":8308,"éķ¿æĹ¶":8309,"éľĢè¦ģå¦Ĥä½ķ":8310,"åħ¶ä¸İ":8311,"æĸ¹æ³ķä¸įåĲĮ":8312,"è¿Ľè¡Įåħ¨éĿ¢":8313,"åŁİåł¡":8314,"è¯ĳä¸ºä¸ĵä¸ļæľ¯è¯Ń":8315,"çłĶç©¶èĮĥå¼ı":8316,"äºĮåĪĨ":8317,"é¢ĨçĬ¯ç½ª":8318,"æĢ§çļĦä¼łç»Ł":8319,"ä½łæĺ¯":8320,"æŃ£ç¡®":8321,"æĺ¯åĲ¦ä»į":8322,"ä¿¡æģ¯ä¸įå¯¹ç§°":8323,"è°ĥæķ´è¯Ńåºı":8324,"èįī":8325,"åħĭæĸ¯":8326,"çĶŁäº§èĥ½åĬĽ":8327,"æ¶Īå¤±":8328,"ä½Ĩä»į":8329,"èĦĳæįŁä¼¤":8330,"çĽ´æİ¥å¯¼èĩ´äºĨ":8331,"æĺ¾èĳĹæĶ¹åıĺ":8332,"è·¨çī©ç§į":8333,"å¾Ĺä»¥åľ¨":8334,"çŁ¥è¯Ĩä½ĵç³»":8335,"å¤±åİ»":8336,"æĸĩæľ¬éĺĲéĩĬ":8337,"æĸ¹éĿ¢æ¯Ķ":8338,"è§ĦèĮĥè¯ĳæ³ķ":8339,"åįıåķĨ":8340,"ä»įå°Ĩ":8341,"åıĹä¿ĿæĬ¤çļĦ":8342,"å¯Ĩåº¦æ¢¯åº¦":8343,"æŁ±":8344,"èī²å½©æĦŁçŁ¥":8345,"éļĲåĲ«":8346,"ç£ģæĦŁåºĶ":8347,"æĵįçºµ":8348,"ä¼łç»ŁçļĦå·¥ä½ľ":8349,"å·¥ç¨ĭåŃ¦":8350,"è§¦åıĳ":8351,"åĽºåĮĸ":8352,"åıĪä½ĵçİ°":8353,"å¾ĹåĪ°æĻ®éģį":8354,"éļıæľº":8355,"éļıä¹ĭ":8356,"æĥħæĦŁæĬ½è±¡":8357,"æĮĳæĪĺäºĨæĸĩèīºå¤įåħ´æĹ¶æľŁçļĦ":8358,"æĻ®éģįåİŁåĪĻ":8359,"ä¸īä¸ª":8360,"åĽŀåºĶ":8361,"è¡¨è§ĤéģĹä¼łç»§æī¿":8362,"æĸĩæĺİä¸Ń":8363,"éĺĲè¿°":8364,"æĽ´ä¸ºæ¿Ģè¿Ľ":8365,"åĮºåĿĹéĵ¾æĬĢæľ¯çļĦ":8366,"å¼ºåĮĸçĶ¨æĪ·":8367,"æĬĹéĩıåŃĲå¯ĨçłģåŃ¦":8368,"åħ·å¤ĩæĦŁçŁ¥":8369,"é¸łé²ģ":8370,"éĶĻè§ī":8371,"éķ¿æľŁçļĦ":8372,"åįļå¼Īè®ºéĢļè¿ĩ":8373,"åĸĢæĸ¯çī¹åľ°è²Įå½¢æĪĲäºİ":8374,"è¡¨éĿ¢çĶµåŃĲ":8375,"ç»Ĩèĩ´":8376,"å¦Ĥä½ķæĮĳæĪĺè¥¿æĸ¹":8377,"æĶ¯éħį":8378,"åį³ä½¿":8379,"é¢ĨåŁŁçļĦä¸ĵä¸ļæľ¯è¯Ń":8380,"é¢ĨåŁŁçļĦä¸ĵä¸ļè¡¨è¿°":8381,"è¿Ļä¸Ģæ¦Ĥå¿µ":8382,"ory":8383,"èĩªæĪĳæĮĩæ¶ī":8384,"ç»ĺçĶ»æĬĢæ³ķ":8385,"çĻ½é¢ĨçĬ¯ç½ª":8386,"å¾®çĶŁçī©ç»Ħ":8387,"è§Ĩè§īæĦŁçŁ¥":8388,"æ²ŁéĢļ":8389,"å¼ķåĬĽæ³¢":8390,"ä¸ĢæĹ¦å®ŀçİ°éĩıåŃĲéľ¸æĿĥ":8391,"çŃīçº§ç»ĵæŀĦ":8392,"æĬ½è±¡è¡¨çİ°ä¸»ä¹īå¼ºè°ĥ":8393,"åıĳçİ°çļĦ":8394,"ä¼Ĭå£ģ":8395,"ç´¯æīĺ":8396,"çĭ¬çī¹çļĦæ´ŀç©´ç³»ç»ŁåĴĮ":8397,"èİ·åıĸæľºä¼ļ":8398,"æĪĺçķ¥äºĴåĬ¨":8399,"åº·å¾·ä¼¦çĲĨåŃ¦":8400,"å£°åŃĲ":8401,"éĢĨåĨ²":8402,"æĶ¹éĢłçļĦ":8403,"åħīä¼ıåıĳçĶµ":8404,"çĻ¾å¹´":8405,"Ġcomp":8406,"æĦıè¯Ĩå½¢æĢģçļĦ":8407,"éļıçĿĢèĩªåĬ¨åĮĸ":8408,"æľįåĬ¡åŀĭ":8409,"ä»ħä»ħ":8410,"å¤§èĦĳåľ¨":8411,"åľ°ä¸Ńæµ·æĸĩæĺİ":8412,"åľ°ä¸Ńæµ·çĽĨåľ°":8413,"æĹ¶ç©ºå¼¯æĽ²":8414,"åĵĪå¸Į":8415,"åħħåĪĨè§£éĩĬ":8416,"åĲ¸å¼ķ":8417,"ç«ĭä½ĵä¸»ä¹īå¯¹éĢıè§Ĩæ³ķçļĦè§£æŀĦ":8418,"åĲİæ®ĸæ°ĳåıĻäºĭå¸¸éĩĩçĶ¨":8419,"è§Ĥä¼ĹåıĤä¸İ":8420,"æ¸Ĳè¿Ľ":8421,"æł¸èģļåıĺèĥ½æºĲ":8422,"å¦ĤæŀľåĬłå¯Ĩè´§å¸ģçļĦéĩĩçĶ¨":8423,"åĢĺèĭ¥äºļåİĨå±±å¤§åĽ¾ä¹¦é¦Ĩä¿ĿåŃĺå®Įå¥½":8424,"äººç±»æ´»åĬ¨å·²":8425,"åį±æľºæľŁéĹ´":8426,"åħ¨çĲĥæ°ĶåĢĻè°ĥèĬĤ":8427,"åį°åĪ·æľºçļĦåıĳæĺİ":8428,"äºļéĩĮå£«å¤ļå¾·åĵ²åŃ¦ä¸İ":8429,"æĢ§åĪ«å¹³çŃī":8430,"æĹłç¼ĿèŀįåĲĪ":8431,"çģŃç»Ŀäºĭä»¶":8432,"é£Łçī©ç½ĳ":8433,"åľºæĻ¯ä¸İ":8434,"æ·±åº¦ä¼ªéĢłæĬĢæľ¯çļĦæ³Ľæ»¥":8435,"çĲĨæĥ³åĮĸ":8436,"åıĤä¸İåº¦æĮĩæłĩ":8437,"æķ°æį®éĽĨä¸ŃçļĦ":8438,"æķ°æį®éĽĨåį³åı¯è¯ĨåĪ«":8439,"éī´äºİ":8440,"å¯¹çĲĨæĢ§éĢīæĭ©çĲĨè®ºæıĲåĩºæĮĳæĪĺ":8441,"åĩ¯æģ©æĸ¯ä¸»ä¹īåĪºæ¿ĢæĶ¿çŃĸ":8442,"åĩ¯æģ©æĸ¯ä¸»ä¹īåĪºæ¿Ģæİªæĸ½":8443,"èĪªå¤©åĻ¨":8444,"ç¥ŀç»ıè°ĥæİ§æ¤įåħ¥":8445,"éľĢè¦ģè¿Ľè¡ĮåĵªäºĽ":8446,"åį°è±¡æ´¾ç¬Ķè§¦æĬĢæ³ķéĢļè¿ĩ":8447,"éĩıåŃĲå¯ĨéĴ¥åĪĨåıĳåĪ©çĶ¨":8448,"éĿĴéĵľæĹ¶ä»£æĸĩæĺİçļĦå´©æºĥå¦Ĥä½ķéĩįå¡ĳäºĨ":8449,"åıĳå±ķä¸ŃåĽ½å®¶çļĦ":8450,"éĩıåŃĲéĢĢçĽ¸å¹²çĲĨè®ºè¯ķåĽ¾éĢļè¿ĩ":8451,"æµĵåº¦çļĦå¢ŀåĬł":8452,"æĥħæĦŁå¼ºåº¦èĢĮéĿŀ":8453,"ç¬¦åĲĪä¸Ńæĸĩç§ĳæĬĢæĸĩçĮ®çļĦ":8454,"ĠæĸĩåĮĸéĢĤåºĶæĢ§":8455,"åĵªäºĽåľ°è²Įè¿ĩç¨ĭ":8456,"åŁİå¸Ĥç»ħå£«åĮĸ":8457,"éģĵå¾·è¡Įä¸ºå¿ħé¡»":8458,"ä¼Ĭæĸ¯åħ°åĩłä½ķåĽ¾æ¡Ī":8459,"æ³¥æ²Ļ":8460,"åĪ©ä»ĸè¡Įä¸º":8461,"åİĮæ°§":8462,"çĽ¸å®¹æĢ§":8463,"åįļå¼Īè®ºåľ¨è¿ĽåĮĸçĶŁçī©åŃ¦ä¸ŃçļĦåºĶçĶ¨éĢļè¿ĩ":8464,"åĹ¯":8465,"å©ļ":8466,"å¸ķç´¯æīĺ":8467,"åĵªäºĽæĬĢæľ¯éļľç¢įéĺ»ç¢įäºĨ":8468,"å®¾ç»ĵæŀĦ":8469,"åĪĽä¼¤æĢ§èĦĳæįŁä¼¤":8470,"è¯ĬæĸŃ":8471,"å¦ĤæŀľæĬĹè¡°èĢģçĸĹæ³ķ":8472,"æĸ°æķĻæĶ¹éĿ©":8473,"æĻºåķĨåĪĨæķ°":8474,"åħĦå¼Ł":8475,"è¯Ńè¨ĢåŃ¦è½¬åĲĳå°Ĩ":8476,"çĥŃåĸĢæĸ¯çī¹æ¹ĸ":8477,"GDP":8478,"éĺħè¯»":8479,"æ®ĸæ°ĳåĮĸè¿ĲåĬ¨":8480,"åĶ¯å¿ĥä¸»ä¹ī":8481,"ç´«å¤ĸçº¿è¾Ĳå°Ħ":8482,"ç»ıåıĹä½ı":8483,"åĵ¥çī¹å¼ıå»ºçŃĳçļĦé£ŀæī¶å£ģ":8484,"ä¼Ĭå£ģé¸łé²ģ":8485,"150":8486,"26":8487,"ke":8488,"mic":8489,"ni":8490,"²ç¾İ":8491,"éĨ":8492,"ĠĠ":8493,"Ġde":8494,"Ġè¡¥åħħ":8495,"Ġto":8496,"çļĦæ¡Ĩæŀ¶":8497,"çļĦæĸ¹æ³ķ":8498,"çļĦåĬŁèĥ½":8499,"çļĦéĺĲéĩĬ":8500,"çļĦæ½ľåľ¨":8501,"çļĦè´¸æĺĵç½ĳç»ľ":8502,"çļĦåŁ¹åħ»":8503,"çļĦè½¬åŀĭ":8504,"çļĦè¾©è¯ģ":8505,"çļĦä¿ĿçľŁåº¦":8506,"åħµ":8507,"è¿ª":8508,"èĥ½æĮĩ":8509,"æĢ§éĹ®é¢ĺ":8510,"åľ¨åħ¶":8511,"åľ¨åŁİå¸Ĥ":8512,"åľ¨æŀĦå»º":8513,"åľ¨è¡¨éĿ¢":8514,"åľ¨å¡ĳéĢł":8515,"çĲĨåŃ¦":8516,"ä¸»è°ĵ":8517,"ä¸İçİ°æľīçļĦ":8518,"éĢļè¿ĩå®ŀçİ°":8519,"éĢļè¿ĩåİ»ä¸Ńå¿ĥåĮĸçļĦ":8520,"å¯¹è±¡":8521,"å¯¹çİ°æľī":8522,"åı¯éĢĨ":8523,"æĸĩæĸ¯":8524,"çī©åĵģ":8525,"ä¼ļåľ¨":8526,"ä¼ļå¢ŀåĬł":8527,"ä¸įå¾Ĺ":8528,"ä¸įåıĹ":8529,"ä¸įèī¯":8530,"åĬ¨éĩı":8531,"å°Ĩåıĺå¾Ĺ":8532,"æĹ¶å»¶":8533,"äººå½¢":8534,"è°ĭ":8535,"å¦Ĥæŀľç¢³æįķéĽĨ":8536,"å¦Ĥæŀľä¹¦ä¿¡ä½ĵå°ıè¯´":8537,"æ´½":8538,"åĪĨéĴŁ":8539,"æĬĢæľ¯å¥ĩçĤ¹":8540,"ç³»ç»Łå¦Ĥä½ķéĢļè¿ĩ":8541,"èĢĮä¸į":8542,"èĢĮç¾İå¾·ä¼¦çĲĨåŃ¦":8543,"ç½ļ":8544,"æ²Į":8545,"è¯Ńçłģè½¬æį¢":8546,"çĲĨè®ºæĽ´å¼ºè°ĥ":8547,"èĭ¦":8548,"ä¸Ĭåıĺå¾Ĺåı¯è¡Į":8549,"å¼ºçĽ¸äºĴä½ľçĶ¨":8550,"éĩıåŃĲèĩªæĹĭ":8551,"èĭ¥åĪĨåŃĲç»Ħè£ħæľº":8552,"èĩªæ´½":8553,"æĽ´æ¸ħæĻ°":8554,"åİŁæľī":8555,"ç¥ŀç»ıåģĩ":8556,"ç¥ŀç»ıåħ³èģĶ":8557,"ç¥ŀç»ıèķ¾ä¸Ŀ":8558,"åŃĺåľ¨äºİ":8559,"åħīçļĦä¼łæĴŃ":8560,"èĮİ":8561,"åĴĮæĬķèµĦ":8562,"éĿŀäººç±»":8563,"ç¤¾ä¼ļç§ĳåŃ¦":8564,"ç¤¾ä¼ļè§ĦèĮĥ":8565,"ç¤¾ä¼ļèµĦæľ¬":8566,"ç±»äºº":8567,"æ°Ķæ³¡":8568,"æĪĳè®¤ä¸º":8569,"ä¸ĢçĽ´":8570,"ä¹ĭæīĢä»¥":8571,"èĥ½å¤Łçªģçł´":8572,"æ¨¡åŀĭåıĺå¾Ĺ":8573,"è®¾å®ļ":8574,"å¢ŀçĽĬ":8575,"äºĴè¡¥":8576,"çĦ¶èĢĮ":8577,"äº¤èŀį":8578,"åħ·äºīè®®":8579,"æ¸łéģĵ":8580,"çĸı":8581,"ç§ĳæĸ¯å®ļçĲĨ":8582,"çº§åĪ«":8583,"ä¼ĺäºİ":8584,"å¼ķåıĳæ°ĶåĢĻ":8585,"åī§çĥĪ":8586,"åħ¨çĲĥåĮĸçļĦ":8587,"ç»´å°Ķ":8588,"é©±":8589,"åı¯èĥ½ä¼ļåĤ¬çĶŁ":8590,"éľĢè¦ģç«ĭåį³":8591,"æİ¨å¹¿":8592,"è¯Ńè¨ĢçĽ¸å¯¹æĢ§":8593,"åıĬåħ¶":8594,"æĸĩåĮĸæĿĤç³ħ":8595,"æĹ¶éĹ´æīŃæĽ²":8596,"é¢Ħè¨Ģ":8597,"çŃīå¾ħ":8598,"çĶ»éĿ¢":8599,"èĩ´åĬĽäºİ":8600,"æ³¢æ´Ľåħĭ":8601,"è¡¨çİ°ä¸º":8602,"å¤ĦçĲĨä¿¡æģ¯":8603,"éĹ®è´£":8604,"æľªè¢«":8605,"ä¸Ńæĸĩè¡¨è¾¾ä¹łæĥ¯":8606,"èģĶéĤ¦":8607,"åı¥åŃĲ":8608,"äººå·¥ç¥ŀç»ıç½ĳç»ľ":8609,"å¹²çĩ":8610,"ç§ĳåŃ¦åıĳå±ķ":8611,"æĮģç»ŃæĢ§":8612,"æ°ĶåĢĻåıįé¦Īå¾ªçİ¯":8613,"æ´»æĢ§":8614,"é¢ĨåŁŁå¯¹":8615,"åıĸåĲĳ":8616,"ä¿¡æģ¯è®º":8617,"çĶ±æŃ¤":8618,"åĳĪæŃ£çĽ¸åħ³":8619,"æłĩåĩĨæľ¯è¯Ń":8620,"æľ¯è¯ŃåĩĨç¡®æĢ§":8621,"åĬ¿åŀĴ":8622,"å¿ĥçĲĨçĬ¶æĢģ":8623,"çĶŁçī©åŃ¦é¢ĨåŁŁ":8624,"çī©è´¨çļĦ":8625,"åª²ç¾İ":8626,"æĶ¾æĿ¾":8627,"ç»ıåħ¸è®¡ç®Ĺæľº":8628,"åĽłç´łæľīåĵªäºĽ":8629,"åĲİæ®ĸæ°ĳæĸĩæľ¬":8630,"ä»įä¿ĿæĮģç»Ŀç¼ĺçī¹æĢ§":8631,"æĹ¢ç¬¦åĲĪ":8632,"æŁ±åĬ¨":8633,"èī²å½©æ··åĲĪ":8634,"ally":8635,"åŁºç¡Ģè®¾æĸ½å»ºè®¾":8636,"æ¢ģ":8637,"ç²ĴåŃĲè¡Įä¸º":8638,"è§£æŀĦæĸĩæľ¬æĿĥå¨ģ":8639,"æĭīå¼Ĺ":8640,"éħįå¯¹":8641,"è¿ŀéĢļ":8642,"å°ĳæķ°":8643,"åį°è±¡æ´¾æįķæįīè½¬çŀ¬åį³éĢĿçļĦåħīå½±æķĪæŀľ":8644,"æ··æ²Į":8645,"åĩ¯æģ©æĸ¯ç»ıæµİåŃ¦":8646,"eng":8647,"inter":8648,"æĢĿè¾¨":8649,"å¯Ĩçłģåįıè®®":8650,"åĨįåº¦":8651,"åĬŁåĪ©ä¸»ä¹īä¼¦çĲĨ":8652,"æĻ®éģįæĢ§":8653,"æĸĩæĺİæķ°éĩı":8654,"æĽ´ä¸ºæľīæķĪ":8655,"å¼ºåĮĸæľºåĪ¶":8656,"å½ĵä»£è£ħç½®èīºæľ¯":8657,"è¿ĺæİ¨åĬ¨äºĨ":8658,"æĵįæİ§æĬĢæľ¯":8659,"è¶ħæĿĲæĸĻçļĦ":8660,"èĢĥèĻĳäºĨ":8661,"ä¸ªäººèĩªçĶ±":8662,"ä¸ºä½ķä»į":8663,"çº³ç±³æľºåĻ¨äºº":8664,"åĲİçİ°ä»£è¯ĹæŃĮ":8665,"çĽ®åīį":8666,"åĲİçİ°ä»£ä¸»ä¹īå¯¹":8667,"å¤´è¶³":8668,"ç¾¤ä½ĵçļĦ":8669,"éĢĢçĽ¸å¹²æĮĳæĪĺ":8670,"æĬĢæľ¯å®ŀçİ°æłĩåĩĨåĮĸ":8671,"ç®ĢåĮĸä¸º":8672,"ä¼ĺåħĪèĢĥèĻĳäºĴåĬ¨æĮĩæłĩ":8673,"æľºåĻ¨åŃ¦ä¹łèĮĥå¼ı":8674,"åĩºçİ°çļĦ":8675,"ç«ĭä½ĵä¸»ä¹īéĢļè¿ĩ":8676,"å¿ĥçĲĨåŃ¦ä¸ŃçļĦ":8677,"åŁºåĽłç¼ĸè¾ĳæĬĢæľ¯åľ¨":8678,"å·¥ä¸ļéĿ©åĳ½å¯¹":8679,"å£ģåŀĴ":8680,"è¯Ńå¢ĥä¸ĭ":8681,"å¯¹ä¼łç»ŁåįĬå¯¼ä½ĵ":8682,"å¸ĿåĽ½çļĦ":8683,"åĪĽéĢłæĦıä¹ī":8684,"å¯ĮéĽĨ":8685,"åĵªäºĽç¤¾ä¼ļæĸĩåĮĸ":8686,"ç¤¾åĮºä¸įåĲĮ":8687,"ä¾¿åı¯èĥ½":8688,"çļĦç¤¾ä¼ļåĪĨå±Ĥ":8689,"çļĦå¹¿æ³Ľä¼łæĴŃ":8690,"å°ĨéľĢè¦ģè¿Ľè¡Įæł¹æľ¬æĢ§":8691,"éĢıè§Ĩåĩłä½ķ":8692,"å®ĩå®ĻèĨ¨èĥĢåĬłéĢŁ":8693,"éĿĴéĵľæĹ¶ä»£è´¸æĺĵç½ĳç»ľçļĦå´©æºĥ":8694,"æĽ´ç¬¦åĲĪä¸Ńæĸĩç§ĳæĬĢæĸĩçĮ®":8695,"èĲ¥åħ»çº§èģĶ":8696,"äººç±»è®¤çŁ¥çļĦ":8697,"ç§ģäºº":8698,"åĲįè¯į":8699,"é»ĳæŃ»":8700,"éĻ·åħ¥":8701,"çĥŃåĬĽåŃ¦ç¬¬äºĮ":8702,"å¤įåĪ¶æĢ§":8703,"çīĪçĶ»":8704,"éĩıåŃĲåĬĽåŃ¦ä¸İå¹¿ä¹īçĽ¸å¯¹è®º":8705,"ater":8706,"æįķæįīåħīçº¿":8707,"åģļæ³ķ":8708,"ç¤¾ä¼ļç»ıæµİå½±åĵį":8709,"æĬĬæı¡":8710,"ç¥ŀåŃ¦æķĻä¹ī":8711,"å½Ĵå±ŀ":8712,"æĲ¬":8713,"æŀģåľ°åĨ°":8714,"åĬŁåĪ©ä¸»ä¹īä¼¦çĲĨåŃ¦åľ¨":8715,"å°ģåŃĺçļĦçĶ²çĥ·":8716,"èĹ»":8717,"åĸĢæĸ¯çī¹åľ°è²ĮéĢļè¿ĩç¢³éħ¸çĽĲå²©":8718,"ä¸įåı¯éĿłåıĻè¿°èĢħçļĦ":8719,"æĹ¢ä¿ĿæĮģäºĨ":8720,"è¡¨è§ĤéģĹä¼łä¿®é¥°å¦Ĥä½ķå½±åĵį":8721,"å¦Ĥæŀľåıįçī©è´¨çº¦æĿŁç³»ç»Łå®ŀçİ°":8722,"çļĦè®¤è¯Ĩè®ºè½¬åıĺ":8723,"è¡Įä¸ºç»ıæµİåŃ¦éĢļè¿ĩæıŃç¤º":8724,"ç¥ŀç»ıå½¢æĢģè®¡ç®Ĺæŀ¶æŀĦéĢļè¿ĩæ¨¡ä»¿çĶŁçī©ç¥ŀç»ıç½ĳç»ľ":8725,"å®Įç¾İçļĦ":8726,"æİ¥è¿ĳåħīéĢŁ":8727,"å°ĨéĿ¢ä¸´åīįæīĢæľªæľīçļĦ":8728,"å°ĨåıĳçĶŁæĢİæł·çļĦåıĺåĮĸ":8729,"åĵªäºĽåĽłç´łå¯¼èĩ´äºĨ":8730,"ä»£è°¢éĢĶå¾Ħ":8731,"äºĨä½ķç§įè§Ĵèī²":8732,"æ»ŀçķĻ":8733,"å¤©çĦ¶æĿĲæĸĻçļĦ":8734,"å¦ĤæŀľæļĹèĥ½éĩıçļĦèĨ¨èĥĢ":8735,"æĢ¥åī§":8736,"æģ¶æĢ§":8737,"å¹´ä»£åŃ¦":8738,"åĩ¯æģ©æĸ¯ä¸»ä¹īç»ıæµİåŃ¦å¼ºè°ĥ":8739,"éĿĻæĢģèīºæľ¯":8740,"æ¯įäº²":8741,"è½¯ä»¶":8742,"è¡ĮæĶ¿ä½ĵç³»":8743,"ç»Łè®¡çī¹æĢ§":8744,"å±Ĥçº§ç»ĵæŀĦ":8745,"åįĹäºļ":8746,"åĮºåĿĹéĵ¾çļĦä¸įåı¯ç¯¡æĶ¹æĢ§":8747,"éĢ»è¾ĳå®ŀè¯ģä¸»ä¹īå¼ºè°ĥç»ıéªĮéªĮè¯ģ":8748,"age":8749,"çĪ¶æĿĥ":8750,"èģĮåľºæŃ§è§Ĩ":8751,"èµ«åħĭ":8752,"å°ıåĨ°æľŁçļĦæ°ĶåĢĻ":8753,"å¦Ĥæŀľè´ŁåĪ©çİĩæĶ¿çŃĸ":8754,"é¢łè¦Ĩæ¬§æ´²ä¸Ńå¿ĥä¸»ä¹īçļĦåİĨåı²":8755,"é¢łè¦Ĩæ¬§æ´²ä¸Ńå¿ĥä¸»ä¹īçļĦåİĨåı²åıĻäºĭ":8756,"ç»¿èī²éĿ©åĳ½çļĦåĨľä¸ļéĽĨçº¦åĮĸ":8757,"å¦ĤæŀľäºĴåĬ¨åıĻäºĭ":8758,"ization":8759,"éĽĩä¸»":8760,"ç«¥å¹´":8761,"æīĢéľĢæĹ¶éĹ´":8762,"éĹ®é¢ĺä¸ĬåŃĺåľ¨æł¹æľ¬æĢ§åĪĨæŃ§":8763,"ä¸½èİİ":8764,"æ´»åŃĹåį°åĪ·æľ¯çļĦåıĳæĺİ":8765,"å¦Ĥæŀľå¾®çĶŁçī©ç»Ħç§»æ¤įçĸĹæ³ķ":8766,"å®ĩå®ĻçļĦèĨ¨èĥĢ":8767,"èĶ½":8768,"æĿ¡ä»¶çĬ¶è¯Ńä»İ":8769,"çģµæķıåº¦":8770,"ä¸İåĮĸåŃ¦çģ«ç®Ń":8771,"åĲİç»ĵæŀĦä¸»ä¹īå¯¹è¯Ńè¨Ģ":8772,"çļĦåħīçº¿æķĪæŀľ":8773,"çıĬçĳļç¤ģ":8774,"åĳ¼åĲ¸":8775,"éĽ¶å·¥ç»ıæµİçļĦæī©å¼ł":8776,"æĿ¥è¯Ħä¼°è¡Įä¸º":8777,"æĲľå¯»":8778,"é¸Łç±»ç£ģæĦŁåºĶ":8779,"æĦĪåıĳ":8780,"è¿ĿèĥĮ":8781,"éĻĪè¿°":8782,"åĢĺèĭ¥äºļåİĨå±±å¤§åĽ¾ä¹¦é¦ĨæľªæĽ¾è¢«æ¯ģ":8783,"æĿľå°ļçļĦ":8784,"æī®æ¼ĶäºĨä½ķç§įè§Ĵèī²":8785,"è°ĥèī²æĿ¿":8786,"ç²ĴåŃĲè¡Įä¸ºçļĦçĲĨè§£":8787,"çĶŁæĪĲå¼ıäººå·¥æĻºèĥ½":8788,"å¸ĮèħĬæĤ²åī§å¼ºè°ĥåĳ½è¿Ĳ":8789,"éŁ§æĢ§":8790,"åħ¨æ°ĳåĮ»çĸĹä¿Ŀåģ¥":8791,"works":8792,"ç²Ĺéĩİ":8793,"å®¹éĶĻçļĦéĩıåŃĲæ¯Ķçī¹æĵįä½ľ":8794,"çģ¾éļ¾æĢ§":8795,"ç¬¬ä¸Ģæ¬¡ä¸ĸçķĮå¤§æĪĺåĲİ":8796,"mRNAçĸ«èĭĹ":8797,"èŀįèµĦçļĦ":8798,"åĬªåĬĽ":8799,"åŃ¦æľ¯ä¸¥è°¨æĢ§çļĦåĲĮæĹ¶":8800,"åĶ¤èµ·":8801,"ä¸Ĭä¸ĭæĸĩ":8802,"æ¡¥æ¢ģ":8803,"çŁ«æŃ£":8804,"éķ¿æĹ¶æ®µ":8805,"å¸ķç´¯æīĺæķĪçİĩ":8806,"å¹²çĩ¥":8807,"æĭīå¼ĹæĽ²çº¿":8808,"é»ĳæŃ»çĹħ":8809,"çĥŃåĬĽåŃ¦ç¬¬äºĮå®ļå¾ĭ":8810,"soci":8811,"ution":8812,"¶çļ":8813,"å¬":8814,"æ§":8815,"Ġv":8816,"Ķæİ¥":8817,"çļĦéĩıåŃĲ":8818,"çļĦæ¯Ķè¾ĥ":8819,"çļĦéģĹä¼ł":8820,"çļĦäº§çĶŁ":8821,"çļĦéĹ®é¢ĺ":8822,"çļĦæĬĢæ³ķ":8823,"çļĦçī¹å¾ģ":8824,"çļĦåĨħå®¹":8825,"çļĦè¿ĩç¨ĭä¸Ń":8826,"çļĦçĲĨè®ºæ¡Ĩæŀ¶":8827,"äº¦":8828,"ãĢĤâĢĿ":8829,"æŀª":8830,"åĲī":8831,"å¼Ĭ":8832,"å¯Ĵ":8833,"èĥ½è¾¾åĪ°":8834,"åľ¨å°Ĩ":8835,"åľ¨çİ°æľī":8836,"åľ¨æĹ¥çĽĬ":8837,"åľ¨æŀģç«¯":8838,"åľ¨ç¼ºä¹ı":8839,"åľ¨å®ľå±ħå¸¦":8840,"ä¸ŃåĽºæľīçļĦ":8841,"è¡·":8842,"è¡Ķæİ¥":8843,"ä¸İåħ¶":8844,"ä¸İå½ĵåīį":8845,"ä¸İåĨ³å®ļè®º":8846,"éĢļåĲĥ":8847,"æ³½":8848,"åı¯è§Ĥå¯Ł":8849,"èĢ¦":8850,"å¹¼":8851,"ä¼ļäº§çĶŁ":8852,"å°Ĩå½»åºķæĶ¹åıĺ":8853,"åıĳèµ·":8854,"åĲĮæĹ¶æľŁçļĦ":8855,"åıĺå½¢":8856,"å¦ĤæŀľæĻ®éģį":8857,"å¦Ĥæŀľåħ¨çĲĥèĮĥåĽ´åĨħ":8858,"å¦Ĥæŀľå¢ŀå¼ºçİ°å®ŀ":8859,"å¦Ĥæŀľçº¿ç²Ĵä½ĵ":8860,"å¦ĤæŀľåŁºäºİåĮºåĿĹéĵ¾çļĦæĬķç¥¨":8861,"åĪĨæĺİ":8862,"åı¯èĥ½å½¢æĪĲ":8863,"éĻ¡":8864,"éĻ¶":8865,"ä¸ŃçļĦéŃĶå¹»çİ°å®ŀä¸»ä¹ī":8866,"è¡¨ç¤º":8867,"èĢĮåĬłåī§":8868,"å¤§æ´²":8869,"å¤§åĪĨåŃĲ":8870,"å¤§æķĻåłĤ":8871,"çĲĨè®ºä¸ĬçļĦ":8872,"ä¼łç»Łç¡ħåŁº":8873,"çĶŁçī©è¯ĨåĪ«":8874,"çŁ¥ä¹ĭ":8875,"éĩıåŃĲæ¶¨èĲ½":8876,"èĭ¥æ°¸ä¹ħåĨ»åľŁåĬłéĢŁèŀįåĮĸ":8877,"æĪĺåľº":8878,"åĳĥ":8879,"ä»¥ç»ĵæŀľ":8880,"ä»¥ä½ķç§į":8881,"æĽ´ç²¾åĩĨ":8882,"è´¨æĢ§":8883,"è§ĤèĢħçļĦ":8884,"åħīçº¤":8885,"æĿ¥æ¨¡ä»¿çĶŁçī©ç¥ŀç»ıç½ĳç»ľ":8886,"åĴĮè°Ĳ":8887,"ç¡®å®ŀ":8888,"ç¤¾ä¼ļæµģåĬ¨":8889,"ç¤¾ä¼ļéĺ¶å±ĤåĪĨåĮĸ":8890,"èīºæľ¯å¸Ĥåľº":8891,"ä¿Ŀæľī":8892,"ä¿Ŀè¯ģ":8893,"è¶ħéªĮ":8894,"è¶ħé«ĺ":8895,"è¶ħäººç±»ä¸»ä¹ī":8896,"æ°ĳéĹ´":8897,"ä¸Ģè¯į":8898,"èĥ½å¤ŁåĲĮæĹ¶å¤Ħäºİå¤ļç§įçĬ¶æĢģ":8899,"æ¨¡åŀĭä¸ŃçļĦ":8900,"åĪĻçĿĢéĩį":8901,"å¼Ĥè±¡":8902,"è®¤çŁ¥çļĦ":8903,"è®¤çŁ¥ç§ĳåŃ¦":8904,"è®¤çŁ¥å¢ŀå¼º":8905,"ç§įå§ĵ":8906,"ç»´å¥ĩ":8907,"åı¯èĥ½ä¼ļå¦Ĥä½ķæĮĳæĪĺ":8908,"éĩĩçĶ¨ä¸ŃåĽ½":8909,"è¢«è¿«":8910,"æİ¨é«ĺ":8911,"é«ĺå±±":8912,"çľģ":8913,"çĶŁæĢģå½±åĵį":8914,"å°ıæ°ĶåĢĻ":8915,"æĸĩåĮĸèµĦæľ¬":8916,"åŁºåĽłæĶ¹éĢł":8917,"æĹ¶éĹ´è¿Ľç¨ĭ":8918,"åºķå±Ĥ":8919,"æĥħæĬ¥":8920,"æ´¾çļĦ":8921,"æ³¢å¯¼":8922,"è´§å¸ģä¸»ä¹īçļĦ":8923,"åıĳçĶŁäºĨåĵªäºĽ":8924,"æĺĵåıĹ":8925,"å¦Ĥä½ķå½±åĵįå½ĵä»£":8926,"åħ´è¶£":8927,"å¤ĦçĲĨèĥ½åĬĽ":8928,"å®¶éĢļåĲĥ":8929,"æķ°æį®éļĲç§ģ":8930,"åı¤åŁºåĽłç»Ħ":8931,"äººå·¥è®¾è®¡çļĦ":8932,"æŃ£åıįé¦ĪæľºåĪ¶":8933,"åĵ²åŃ¦çĲĨå¿µ":8934,"çİ°ä»£ä¸»ä¹īæĦıè¯Ĩæµģæīĭæ³ķ":8935,"æ°ĶåĢĻåıĺåĮĸçļĦ":8936,"æĺ¯åĲ¦èĥ½":8937,"æĺ¯åĲ¦æľī":8938,"åĢĺèĭ¥æļĹèĥ½éĩıå¯Ĩåº¦":8939,"å°ĶçļĦ":8940,"çİ°å®ŀä¸»ä¹īçĶµå½±":8941,"èĥ½éĩıè½¬æį¢æķĪçİĩ":8942,"çĽ¸äºĴåħ³èģĶ":8943,"èĥ½åĲ¦æľīæķĪ":8944,"å¤įæĿĤç³»ç»Ł":8945,"çĽ´æİ¥åħ³èģĶ":8946,"åĨ³çŃĸæ¨¡åŀĭ":8947,"èĩªçĦ¶è¯Ńè¨Ģå¤ĦçĲĨ":8948,"æĸ¹éĿ¢åŃĺåľ¨æĺ¾èĳĹå·®å¼Ĥ":8949,"ç»ıåħ¸æĸĩæľ¬":8950,"ç»ıåħ¸çī©çĲĨåŃ¦":8951,"å°±åĥı":8952,"éĴ¢":8953,"åħ¬éĩĮ":8954,"éŃĶå¹»çİ°å®ŀä¸»ä¹īæīĭæ³ķ":8955,"æĪĲä¸ºä¸»è¦ģ":8956,"æ²īç§¯éĢŁçİĩ":8957,"æĬĢæ³ķä¸įåĲĮ":8958,"all":8959,"ä¸¤æŀģåĮĸ":8960,"ä¸¤èĢħå¯¹":8961,"å®ŀæĸ½åħ¨æ°ĳåŁºæľ¬æĶ¶åħ¥åĪ¶åº¦":8962,"çĭĹ":8963,"è§£æŀĦå½¢æĢģ":8964,"é¢ĦæµĭçļĦ":8965,"çŁ³æ²¹":8966,"è§Ħæ¨¡çļĦ":8967,"è§Ħæ¨¡ç»ıæµİ":8968,"ç²¾åĩĨæĢ§":8969,"å¼ĢæĿ¥":8970,"åħīåŃĲåŃ¦":8971,"ene":8972,"æĻ®éģįåŃĺåľ¨çļĦ":8973,"è¡¨è§ĤéģĹä¼łçĶ²åŁºåĮĸæ¨¡å¼ı":8974,"æİĴåĪĹ":8975,"èĦĳæľºæİ¥åı£æĬĢæľ¯":8976,"æ¨¡æĭŁçĶŁçī©":8977,"é²į":8978,"å¼ºåĮĸåŃ¦ä¹ł":8979,"æĪĸå°ĨéĿ¢ä¸´":8980,"æŀĦå»ºæĦıä¹ī":8981,"åģĩè¯´å°Ĩ":8982,"å¹³çŃīä¸»ä¹ī":8983,"ç«ĭä½ĵä¸»ä¹īçļĦ":8984,"å°ºåº¦çļĦ":8985,"çĶŁæĪĲçļĦèīºæľ¯":8986,"çħ§çīĩ":8987,"è§Ĥå¿µçļĦ":8988,"æİ§åĪ¶æľºåĪ¶":8989,"rel":8990,"ant":8991,"ors":8992,"é£İéĻ©è¯Ħä¼°":8993,"å¸ĮæľĽ":8994,"å®Įåħ¨èŀįåĮĸ":8995,"ç¼ĵè§£åĨľä¸ļçĶ¨åľ°":8996,"çĸ¾çĹħæ²»çĸĹ":8997,"åĲĪæĪĲçĶŁçī©åŃ¦çļĦ":8998,"åĨ·æ¼ł":8999,"ä¿¯åĨ²å¸¦åľ°éľĩæ´»åĬ¨":9000,"å¦ĤæŀľæļĹçī©è´¨":9001,"ara":9002,"ä¼ļå¼ķåıĳåĵªäºĽç¥ŀç»ı":9003,"ä¼Ĭä¸½èİİ":9004,"ç³»ç»Łä¸Ńç»´æĮģåıłåĬłæĢģ":9005,"åį¡é©¬åħĭ":9006,"æ¦ĤçİĩæĢ§çļĦ":9007,"æīĺåĭĴ":9008,"æīĺåį¡é©¬åħĭ":9009,"åĳĪæĮĩæķ°çº§åĬłéĢŁ":9010,"æĽ¿ä»£æĢ§":9011,"å¦Ĥä½ķå½±åĵįäºĨæĸĩèīºå¤įåħ´æĹ¶æľŁ":9012,"istic":9013,"çĥŃå¸¦éĽ¨æŀĹ":9014,"éĢıè§ĨæĬĢæ³ķ":9015,"çĩĥçĥ§":9016,"ç»Ŀå¯¹çĶŁäº§çİĩ":9017,"åı¯èĥ½å¦Ĥä½ķåıĺéĿ©":9018,"èĥĮåĲİ":9019,"åĽĽåŃĹ":9020,"çĽĳç®¡ä¸įç¡®å®ļæĢ§":9021,"æī¿åıĹ":9022,"åĲİç»ĵæŀĦä¸»ä¹īæĸĩåŃ¦çĲĨè®º":9023,"åĽºæĢģçĶµæ±łæĬĢæľ¯éĢļè¿ĩ":9024,"ä¸ĬåŃĺåľ¨æł¹æľ¬æĢ§å·®å¼Ĥ":9025,"çļĦæĬĢæľ¯åĪĽæĸ°":9026,"éĹŃåĲĪ":9027,"çļĦéģĵå¾·ä¹īåĬ¡":9028,"æĿĲæĸĻç§ĳåŃ¦é¢ĨåŁŁ":9029,"æĿĲæĸĻç§ĳåŃ¦çļĦè¿ĽæŃ¥":9030,"çŃīç¦»åŃĲä½ĵçº³ç±³ç²ĴåŃĲ":9031,"åįļå¼Īè®ºåľ¨å¾®è§Ĥç»ıæµİåŃ¦":9032,"å·¥åħ·çļĦæĻ®åıĬ":9033,"ech":9034,"åı¯èĥ½åľ¨åĩłåįģå¹´åĨħ":9035,"ç½ĳç»ľå®īåħ¨åŁºç¡Ģè®¾æĸ½":9036,"è¿«åĪĩ":9037,"äº§çĶŁåĵªäºĽå½±åĵį":9038,"å¼Ģåıĳåĩº":9039,"ä½ľèĢħæĦıåĽ¾çļĦ":9040,"ä¼ģåıĬ":9041,"éĢłæĪĲçļĦ":9042,"æĹ¶éĹ´å°ºåº¦ä¸Ĭ":9043,"çŁ³å¢¨çĥ¯åŁº":9044,"è®Ńç»ĥæķ°æį®":9045,"æ¸Ĳåıĺ":9046,"çļĦåı¯éĿł":9047,"åľ°çĲĨåŃ¦":9048,"è´¢å¯Įä¸įå¹³çŃī":9049,"éĢīæĭ©æĢ§æİ¥è§¦":9050,"æł¸èģļåıĺåıįåºĶåłĨ":9051,"çĻ¾äº¿äº¿æ¬¡è®¡ç®Ĺèĥ½åĬĽ":9052,"äººç±»ä¸ĸæıĲæ¡Ī":9053,"çĶŁæĢģç³»ç»Łä¸ŃçļĦæįķé£ŁèĢħ":9054,"è¡¨éĿ¢å¯¼çĶµèĢĮåĨħéĥ¨":9055,"ç³»å¤ĸè¡ĮæĺŁå¤§æ°Ķåħīè°±åĪĨæŀĲ":9056,"æŀĦéĢłæĿ¿åĿĹä¿¯åĨ²å¸¦éĢļè¿ĩ":9057,"éĿ©åĳ½æĢ§çªģçł´":9058,"èĩªéĢĤåºĶåŃ¦ä¹ł":9059,"æĬµæ¶Ī":9060,"èĴ¸æķ£":9061,"å®ĹæķĻæĶ¹éĿ©è¿ĲåĬ¨":9062,"è¡¨åŀĭåı¯å¡ĳæĢ§":9063,"çİ°è¡ĮçļĦ":9064,"çİ¯å¢ĥåĽłç´łå¦Ĥä½ķåľ¨ä¸įæĶ¹åıĺDNAåºıåĪĹçļĦæĥħåĨµä¸ĭ":9065,"äº«æľī":9066,"æĦıè¯ĨçłĶç©¶ä¸Ń":9067,"åħ»èĢģéĩĳåĪ¶åº¦":9068,"è¡įå°Ħ":9069,"åºĶå¦Ĥä½ķè°ĥæķ´":9070,"ä¸Ńå¾®åŃĲæİ¢æµĭ":9071,"ä¸ĬæĪªçĦ¶ä¸įåĲĮçļĦèīºæľ¯":9072,"èĩªæĪĳå¤įåĪ¶çļĦ":9073,"æ³ķå¾ĭä½ĵç³»å°Ĩå¦Ĥä½ķ":9074,"åĲ¯èĴĻæĢĿæĥ³åľ¨":9075,"èĲ¥åħ»çº§èģĶæķĪåºĶæıŃç¤ºäºĨ":9076,"è¾¾è¾¾ä¸»ä¹ī":9077,"å°ıåĨ°æľŁå¯¹":9078,"è¯ĦåĪ¤è¡Įä¸º":9079,"è®½åĪº":9080,"æĻºæħ§çĶŁåĳ½":9081,"é¦ĸè¦ģ":9082,"æĿ°æĸĩæĸ¯":9083,"é«ĺèĥ½æķĪçļĦ":9084,"è½¨éģĵå¤ªéĺ³èĥ½åıĳçĶµåį«æĺŁ":9085,"å¸ĮèħĬåĮĸæĹ¶æľŁ":9086,"ç¡¬ä»¶":9087,"éĽĩåĳĺ":9088,"èĥ½åĲ¦åħħåĪĨåºĶå¯¹":9089,"ä¸İçĽĳçĿ£åŃ¦ä¹łä¸įåĲĮ":9090,"çĥŃçĽĲçİ¯æµģæ¨¡å¼ıéĢļè¿ĩ":9091,"çŁŃç¼ºéĹ®é¢ĺ":9092,"æħ¢æĢ§":9093,"æĿ¡ä»¶çĬ¶è¯Ńåīįç½®":9094,"ç²ĺåº¦":9095,"å®ŀéªĮå®¤åŁ¹èĤ²èĤīå®ŀçİ°ä»·æł¼":9096,"ä¸İå½ĵåīįçļĦæľºåĻ¨åŃ¦ä¹ł":9097,"åĪ°ç»ıåħ¸æĢģçļĦè½¬åıĺ":9098,"å¦Ĥæŀľæķ°åŃĹè¶ħæĸĩæľ¬å°ıè¯´":9099,"æĬ¥å¤įæĢ§è´¸æĺĵæİªæĸ½":9100,"å¦Ĥæŀľæ°¸ä¹ħåĨ»åľŁèŀįåĮĸåĬłéĢŁ":9101,"ansform":9102,"èĪªç©ºèĪªå¤©":9103,"Ġthe":9104,"æ¸¸æĪıåĮĸ":9105,"ä¸ľè¥¿æĸ¹æĸĩæĺİä¹ĭéĹ´çļĦ":9106,"Ġof":9107,"åħ¥ä¾µçī©ç§į":9108,"èµ¢å®¶éĢļåĲĥ":9109,"2008":9110,"èĭ¥åıįçī©è´¨çº¦æĿŁ":9111,"æµ·æ´ĭçĶŁçī©çļĦéĴĻåĮĸ":9112,"æµ®æ¸¸æ¤įçī©":9113,"åħ³éĶ®æľŁåģĩè¯´":9114,"çĻ¾äº¿äº¿æ¬¡çº§è®¡ç®Ĺ":9115,"ä¿ĦæŀĹ":9116,"åºķçĽĺçĶŁçī©":9117,"äººä½ĵåĨ·åĨ»ä¿ĿåŃĺ":9118,"æ¶ĵæ»´ç»ıæµİåŃ¦":9119,"æķ°åŃĹç¤¾ä¼ļä¸ŃçļĦç½ĳç»ľåĮĸä¸ªäººä¸»ä¹ī":9120,"åĽŀå£°å®¤":9121,"äº¤éĢļäºĭæķħæŃ»äº¡":9122,"è¤¶çļ":9123,"ä¸ĵæ³¨äºİ":9124,"çģŃç»Ŀæ¨¡å¼ıä¸İäººç±»è¿ģå¾Ļ":9125,"åı¤æ°ĶåĢĻåŃ¦åĨ°èĬ¯æķ°æį®":9126,"ä»İéĩıåŃĲæĢģåĪ°ç»ıåħ¸æĢģçļĦè½¬åıĺ":9127,"éħ¸æĢ§åľ°ä¸ĭæ°´":9128,"å°Ŀè¯ķ":9129,"æĥ©ç½ļ":9130,"æŁ±åĬ¨åĬĽåŃ¦":9131,"èµ«åħĭæŃĩå°Ķ":9132,"æĿľå°ļçļĦçİ°æĪĲåĵģ":9133,"ä¼Ĭä¸½èİİçĻ½":9134,"æīĺåĭĴå¯Ĩ":9135,"æĿ°æĸĩæĸ¯æĤĸè®º":9136,"è¤¶çļ±":9137,"10":9138,"16":9139,"LE":9140,"comp":9141,"lo":9142,"ma":9143,"ot":9144,"over":9145,"sub":9146,"ªå®Ī":9147,"çħ":9148,"é¬":9149,"Ġæ¦Ĥå¿µ":9150,"ĵå»¶":9151,"çļĦè¡¨è¾¾":9152,"çļĦçī©çĲĨ":9153,"çļĦå¾ªçİ¯":9154,"çļĦç¥ŀç»ıç½ĳç»ľ":9155,"çļĦè¿ĽåĮĸ":9156,"çļĦè¡¨è¾¾ä¹łæĥ¯":9157,"çļĦè¯ĳæ³ķ":9158,"çļĦåıĻäºĭç»ĵæŀĦ":9159,"çļĦæĳĴå¼ĥ":9160,"çļĦè§ĤçĤ¹":9161,"çļĦåīįæıĲä¸ĭ":9162,"çļĦæ·±å±Ĥ":9163,"çĶļ":9164,"åľ¨åĪĨæŀĲ":9165,"åľ¨ä¼łè¾¾":9166,"ä¸Ńäº§":9167,"ä¸ŃèĦĬ":9168,"ä¸İæĸ°åı¤åħ¸":9169,"ä¸İæµ·æ´ĭéħ¸åĮĸ":9170,"ä¸İåĲİæŀľè®º":9171,"ä¸İç¬¦åı·äººå·¥æĻºèĥ½":9172,"éĢļè¿ĩåħī":9173,"éĢļè¿ĩæĮģç»Ń":9174,"éĢļè¿ĩçĶµåĮĸåŃ¦":9175,"éĢļè¿ĩèĩªä¸»éĢīæĭ©":9176,"å¯¹ä½ľèĢħæĦıåĽ¾":9177,"å¯¹åĲ§":9178,"åĨĹ":9179,"åĽļ":9180,"å¦Ĥä½ķå®ŀçİ°":9181,"å¦Ĥä½ķè§£åĨ³":9182,"å¦Ĥä½ķåºĶå¯¹":9183,"å¦Ĥä½ķéĩįå¡ĳ":9184,"ä½ĵçĽ¸":9185,"ä½ĵæĿĲæĸĻ":9186,"ç³»æķ°":9187,"ä¸ºä¸Ģ":9188,"è´¬":9189,"è´Ŀ":9190,"å°ĨæĦıè¯Ĩ":9191,"æĪĲå²©":9192,"éĩıäº§":9193,"åĲĮä¸Ģ":9194,"åĲĮæł·":9195,"äººèĦĳ":9196,"è°¬":9197,"é¢ĩ":9198,"åı¯èĥ½ä¸º":9199,"åı¯èĥ½å°Ĩ":9200,"æľīæĦı":9201,"æľīä»Ģä¹Ī":9202,"åŁºçĿ£":9203,"ä½ľçī©çļĦ":9204,"åĬłå¾ģ":9205,"èĢĮè¶ħçİ°å®ŀä¸»ä¹ī":9206,"æ²«":9207,"å¤§èĪªæµ·":9208,"è§£çłģ":9209,"ä¸įåĲĮè¯Ńè¨Ģ":9210,"åĲİéĩıåŃĲ":9211,"åħ¨æĸ°çļĦ":9212,"æĭĶ":9213,"èĭ¥å®¤æ¸©è¶ħå¯¼ä½ĵ":9214,"æĻķ":9215,"æĸ°è´¸æĺĵ":9216,"æĸ°æī¹è¯Ħ":9217,"ç±į":9218,"æº¯":9219,"åĵªäºĽç»ıåħ¸":9220,"åĵªäºĽåľ°çĲĥåĮĸåŃ¦":9221,"æĺ¯åľ¨":9222,"çĶµéķľ":9223,"æĿ¥æĵįæİ§":9224,"éĿŀåħ·è±¡":9225,"å¯ĨçļĦ":9226,"ç¤¾ä¼ļçİ°å®ŀä¸»ä¹ī":9227,"ç¤¾ä¼ļçŃīçº§åĪ¶åº¦":9228,"èīºæľ¯è¡¨çİ°":9229,"æģªå®Ī":9230,"äº§çī©":9231,"è¯ĳåĲį":9232,"ä½¿æĸĩåŃ¦":9233,"ä½¿è¯ĳæĸĩ":9234,"æĪĳåĽ½":9235,"æºĲå¤´":9236,"å¹³ç¼ĵ":9237,"èĥ½å¤ŁæıĲä¾Ľ":9238,"æĸ¯åĿ¦":9239,"æµ·éĿ¢":9240,"æµ·é©¬":9241,"æµ·æ²Ł":9242,"åĪĻä¾§éĩįäºİ":9243,"åīįåį«":9244,"äººç±»åľ¨":9245,"å°Ĩå¦Ĥä½ķåıĳçĶŁ":9246,"äº¤æ±ĩ":9247,"ä¸ĭè¿Ĳè¡Į":9248,"æł¹æºĲ":9249,"å¼ºè°ĥåĵģæł¼åŁ¹åħ»":9250,"è§Ħéģ¿":9251,"è®¤çŁ¥å¿ĥçĲĨåŃ¦":9252,"è®¤çŁ¥ç¥ŀç»ıç§ĳåŃ¦":9253,"èµĦéĩĳ":9254,"è¿Ļå°±æĺ¯":9255,"èĢĮéĿŀè¿½æ±Ĥ":9256,"è§ĨçķĮ":9257,"è§ĨçĤ¹":9258,"ç§¯æŀģ":9259,"åĻª":9260,"å¥´":9261,"éĩĩçĶ¨çļĦ":9262,"é«ĺå¸¦å®½":9263,"æł¼åŃĲ":9264,"æł¼å¾ĭ":9265,"æķĪåºĶå¯¹":9266,"åĪĨæŀĲéĢļè¿ĩ":9267,"æĺ¾å¾Ĺ":9268,"ç®Ĺæ³ķä¸įåĲĮ":9269,"ç®Ĺæ³ķç´łåħ»":9270,"æĹłæįŁ":9271,"çİ¯å¢ĥçĽĳæµĭ":9272,"éģĵå¾·ä»·åĢ¼":9273,"åĪĽæĦı":9274,"åİĨç¨ĭ":9275,"å¸Ĥåľºæ³¢åĬ¨":9276,"å½»åºķæĶ¹éĿ©":9277,"çłĶç©¶ä¸ŃçļĦ":9278,"çłĶç©¶æıŃç¤ºäºĨ":9279,"çłĶç©¶äººåĳĺ":9280,"åħĪä¾ĭ":9281,"æķ°æį®å®īåħ¨èĮĥå¼ı":9282,"ä¸ĸçºªæ¬§æ´²çļĦ":9283,"ä½łè¯´":9284,"éĶĲ":9285,"ä»¶äºĭ":9286,"é¢ĨåŁŁä¸ĵä¸ļè¡¨è¿°":9287,"å·¥ä¸ļçĶŁäº§":9288,"æķĪçİĩæıĲåįĩ":9289,"æ¼Ķåĳĺ":9290,"å½©é¥°":9291,"èĥ½æºĲéľĢæ±Ĥ":9292,"è´¸æĺĵæĶ¿çŃĸ":9293,"çŁ¥è¯Ĩç»ıæµİ":9294,"onom":9295,"æĸ¹éĿ¢æĪªçĦ¶ä¸įåĲĮçļĦ":9296,"åĩıæİĴ":9297,"æĸĩèīºå¤įåħ´èīºæľ¯":9298,"èµĦæºĲæīĢæľīæĿĥ":9299,"æľĢä¼ĺ":9300,"éĩĳæĺŁ":9301,"æĹ¢å¿łå®ŀ":9302,"çļĦå½¢æĪĲæľºåĪ¶":9303,"åıĹæİ§":9304,"åıĹéĻĲ":9305,"è§Ĵåº¦":9306,"é¢łè¦ĨäºĨä¼łç»Ł":9307,"èī²å½©å¼ºåº¦":9308,"èµ·çļĦ":9309,"çķĻåŃĺ":9310,"ç¿»è¯ĳè¦ģçĤ¹":9311,"çĶµæ±łæĬĢæľ¯":9312,"ä¼łç»ŁçļĦåĬ³åĬ¨":9313,"çĹħçİĩ":9314,"å¾ĹåĪ°éªĮè¯ģ":9315,"æĿ¡ä»¶çļĦ":9316,"åĲĪæĪĲåªĴä½ĵ":9317,"æ³¨éĩįéģĵå¾·":9318,"åı¯ä»¥æıŃç¤ºåĩº":9319,"è¶ħè¶Ĭäººç±»":9320,"è¶ħè¶Ĭç»ıåħ¸":9321,"ä¸ĵä¸ļæľ¯è¯Ńå¤ĦçĲĨ":9322,"åĬŁåĪ©ä¸»ä¹īè®¡ç®Ĺ":9323,"åİĭç¼©":9324,"æĽ´ä¸ºå¤įæĿĤ":9325,"çº¿æĢ§æĹ¶éĹ´æĢ§":9326,"èĦĳæľºæİ¥åı£çļĦå¹¿æ³ĽæĻ®åıĬ":9327,"ç¢İçīĩåĮĸåıĻäºĭ":9328,"ç¢İçīĩåĮĸåı¥æ³ķ":9329,"éĺ³æŀģ":9330,"å¹³åı°çļĦæ¿Ģå¢ŀ":9331,"éĤ£æł·":9332,"ç»Ħç»ĩçļĦ":9333,"éķ¿æľŁçĿ¡çľłä¸įè¶³":9334,"åįļå¼Īè®ºåºĶçĶ¨":9335,"æ¸©çĽĲçİ¯æµģç´Ĭä¹±":9336,"äººåı£å¯Ĩåº¦":9337,"æµĭéĩıéĹ®é¢ĺ":9338,"æŃ¤åĪ»":9339,"åº·å¤į":9340,"åį³ä¾¿":9341,"ä¸İä¼łç»Łå¯ĨçłģåŃ¦ä¸įåĲĮ":9342,"å¼ķåıĳäºĨåīįæīĢæľªæľīçļĦ":9343,"anis":9344,"org":9345,"çī©ç§įç¾¤":9346,"èĻļåģĩ":9347,"æĸĩèīºå¤įåħ´æĹ¶æľŁèīºæľ¯ä¸Ń":9348,"å°Ĩå¦Ĥä½ķè°ĥæķ´ä»¥":9349,"åıĸä»£å®ŀä½ĵ":9350,"é¢ľæĸĻæ··åĲĪ":9351,"çĶ²çĥ·æµĵåº¦":9352,"æ²»çĲĨç»ĵæŀĦ":9353,"æ²»çĲĨæ¡Ĩæŀ¶":9354,"arra":9355,"åľ¨å¤ļä¸ª":9356,"å¯¼çĶµè¡¨éĿ¢æĢģ":9357,"å¼ķåıĳçļĦéģĵå¾·åĽ°å¢ĥ":9358,"è¾¹ç¼ĺæĢģ":9359,"è¯¥ç¿»è¯ĳæ»¡è¶³":9360,"è¯¥ç¿»è¯ĳä¸¥æł¼éģµå¾ª":9361,"éĺ²æĬ¤":9362,"äº¤æĺĵéªĮè¯ģ":9363,"åĮĹæŀģç¢³å¾ªçİ¯":9364,"å¦Ĥä½ķå½±åĵįäºĨæĹ©æľŁ":9365,"ä¼ļå¦Ĥä½ķåĬłéĢŁ":9366,"ä¼ļå¦Ĥä½ķè°ĥæķ´":9367,"çĥŃå¸¦åľ°åĮº":9368,"æĺłå°Ħè®¤çŁ¥è¿ĩç¨ĭ":9369,"çļĦä¼łç»Łè§Ĥå¿µ":9370,"æī¿æĭħ":9371,"åĬ³åĬ¨åĬĽå¸ĤåľºåıĤä¸İçİĩ":9372,"äººç±»è®¤çŁ¥ä¸İ":9373,"æĶ¾å¤§æķĪåºĶ":9374,"åıĳèĤ²çĶŁçī©åŃ¦":9375,"åĲįä¹ī":9376,"æĹ¢ä¿ĿçķĻåİŁæĦı":9377,"å±ħä½ı":9378,"çļĦéģĵå¾·æİ¨çĲĨ":9379,"èĭ±åĽ½":9380,"ç¾İå¾·ä¼¦çĲĨåŃ¦èĥ½åĲ¦ä¸º":9381,"éĩıåŃĲæ¯Ķçī¹çļĦ":9382,"çĻ¾äº¿äº¿çº§":9383,"omor":9384,"å°ıè¡ĮæĺŁéĩĩçŁ¿æ´»åĬ¨":9385,"è´§å¸ģä¸»ä¹īæĸ¹æ³ķ":9386,"åĵĪèĢ¶":9387,"åĲİæ®ĸæ°ĳåıĻäºĭå¸¸éĢļè¿ĩ":9388,"æĭħå¿ĥ":9389,"è¾©æĬ¤":9390,"åĲİç»ŃçļĦ":9391,"å»ºç«ĭåľ¨":9392,"æ¨¡ç³ĬäºĨ":9393,"ç¤¾ä¼ļç»ıæµİä¸įå¹³çŃī":9394,"äºĮåħĥå¯¹ç«ĭ":9395,"æµģåĬ¨æĢ§éĻ·éĺ±":9396,"éĢĲæŃ¥":9397,"æĲŃ":9398,"å¦Ĥæŀľåħ¨æ°ĳåŁºæľ¬æĶ¶åħ¥åĪ¶åº¦":9399,"ä¸ĵä¸ļåĮĸçĶŁäº§":9400,"å¤ļåħĥå®ĩå®Ļ":9401,"è¿ĺåİŁè®º":9402,"åĸĢæĸ¯çī¹åľ°è²ĮéĢļè¿ĩç¢³éħ¸çĽĲå²©çļĦ":9403,"æĭľåįłåºŃé©¬èµĽåħĭèīºæľ¯ä¸İ":9404,"åıĳå±ķä¸Ńç»ıæµİä½ĵ":9405,"ulation":9406,"å²©æµĨé»ıåº¦":9407,"å°¼éĩĩçļĦæĿĥåĬĽæĦıå¿Ĺ":9408,"éĢļèĥĢåİĭåĬĽ":9409,"Ġfra":9410,"è¿Ļä¸ªç¿»è¯ĳ":9411,"éĩıåŃĲèī²åĬ¨åĬĽåŃ¦éĢļè¿ĩ":9412,"åĬłå¯Ĩè´§å¸ģçļĦéĩĩçĶ¨":9413,"éģĵå¾·ä¹īåĬ¡èĢĮéĿŀç»ĵæŀľ":9414,"è´ŁåĪ©çİĩæĶ¿çŃĸ":9415,"æķ°åŃĹé¸¿æ²ŁéĢļè¿ĩå·®å¼ĤåĮĸçļĦ":9416,"çİ»èī²":9417,"åĲ¬è§ī":9418,"åĲİçİ°ä»£ä¸»ä¹īæĸĩåŃ¦å¸¸åĢŁåĬ©":9419,"éĩıåŃĲæĢģåĲĳç»ıåħ¸":9420,"æĸ¯å¤ļèĳĽåŃ¦æ´¾":9421,"æĸ¯å¤ļèĳĽåŃ¦æ´¾çļĦ":9422,"å¤©çĦ¶æĿĲæĸĻ":9423,"åĨ·åĨ»çĶµéķľ":9424,"äº«ä¹Ĳ":9425,"åħ¬åı¸æ²»çĲĨæ¨¡å¼ı":9426,"abil":9427,"æ·¡åĮĸ":9428,"èį¯çī©çłĶåıĳ":9429,"çº¯ç²¹æĢ§çļĦ":9430,"çĳŁ":9431,"ä½Ĩä¹Łå¼ķåıĳäºĨ":9432,"æĽ´å¿«çļĦæķ°æį®ä¼łè¾ĵ":9433,"æĿ¿åĿĹæŀĦéĢłçĲĨè®ºéĢļè¿ĩå²©çŁ³åľĪæĿ¿åĿĹ":9434,"Ġdis":9435,"çĪ¶äº²":9436,"å¤ļæĻ®åĭĴæķĪåºĶè§£éĩĬäºĨ":9437,"æī¾åĪ°":9438,"å¯ĨéĽĨåĮĸ":9439,"éĩįæŀĦäºĨä¼łç»ŁçļĦ":9440,"æ³ķåĽ½å¤§éĿ©åĳ½å¼ºè°ĥ":9441,"å¦ĤæŀľäºļåİĨå±±å¤§åĽ¾ä¹¦é¦Ĩå¾Ĺä»¥":9442,"æĭĴç»Ŀ":9443,"çĽĲåº¦æ¢¯åº¦":9444,"äººåĬĽèµĦæľ¬æĬķèµĦ":9445,"è¿ĩæ»¤æ°Ķæ³¡":9446,"æĮģä¹ħæĢ§":9447,"è¡Įä¸ºç»ıæµİåŃ¦å°Ĩå¿ĥçĲĨåŃ¦æ´ŀè§ģèŀįåħ¥":9448,"åĲİçİ°ä»£ä¸»ä¹īå°ıè¯´ä¸ŃçļĦä¸įåı¯éĿłåıĻè¿°èĢħæīĭæ³ķ":9449,"ä¸İè¡Įä¸ºä¸»ä¹ī":9450,"æ³¡æ²«":9451,"è¿ĩç¨ĭç»´æĮģäºĨ":9452,"å¤ĸéª¨éª¼å¢ŀå¼ºæĬĢæľ¯":9453,"åĲĮçŃīçļĦ":9454,"è¶ħå¯¼éĩıåŃĲå¹²æ¶īä»ª":9455,"è´¹ç±³åŃĲ":9456,"çľĭä¼¼çŁĽçĽ¾åľ°":9457,"å®ļå±ħçĤ¹":9458,"åŁİå¸Ĥäººåı£è¿ģç§»æ¨¡å¼ı":9459,"éĿĴéĵľæĹ¶ä»£å´©æºĥæľªæĽ¾åıĳçĶŁ":9460,"ä¸İåİĨåı²åĪĽä¼¤":9461,"èĶĵå»¶":9462,"éº¦":9463,"çļĦè®Ńç»ĥæķ°æį®":9464,"æĥħèĬĤç»ĵæŀĦ":9465,"æ²³æµģåľ°è²ĮåŃ¦":9466,"åı¯åıĳçİ°ä¸¤èĢħåľ¨":9467,"çº¹çĲĨ":9468,"åŃĺåľ¨ä¸»ä¹īåĵ²åŃ¦ä¸»å¼łäººç±»æĦıè¯ĨåħĪäºİæľ¬è´¨åŃĺåľ¨":9469,"çº¢ç§»æµĭéĩı":9470,"è¯»èĢħä¸İæĸĩæľ¬çļĦ":9471,"æĶ¾å°ĦæĢ§åºŁçī©":9472,"èĥ½åĲ¦åľ¨ä¸įè¯īè¯¸":9473,"å¦ĤæŀľåĬłå¯Ĩè´§å¸ģçļĦæĻ®åıĬç¨ĭåº¦":9474,"éĻĦè¿ĳ":9475,"èģĶç»ĵä¸»ä¹ī":9476,"ç½Ĺæĸ¯ç§ĳçļĦ":9477,"å¯¹è¿Ľåı£åķĨåĵģå¾ģæĶ¶":9478,"æ®ĸæ°ĳæĹ¶æľŁçļĦèµĦæºĲæİłå¤º":9479,"æĭĵæīĳç»Ŀç¼ĺä½ĵåľ¨è¡¨éĿ¢å¯¼çĶµçļĦåĲĮæĹ¶":9480,"åı¶ç»¿ä½ĵ":9481,"åħīåŃĲæĻ¶ä½ĵéĢļè¿ĩ":9482,"ä½İä¼°äºĨ":9483,"è·¨æĴĴåĵĪæĭīè´¸æĺĵè·¯çº¿":9484,"ä¸įä»ħä¿ĥè¿ĽäºĨè´¸æĺĵ":9485,"ä¹ĭå¤Ħåľ¨äºİåħ¶":9486,"ä¸İéĩįåķĨä¸»ä¹īæĶ¿çŃĸä¸įåĲĮ":9487,"åħ¬åı¸æ²»çĲĨä¸ŃçļĦå§Ķæīĺä»£çĲĨéĹ®é¢ĺ":9488,"ä¸ĭæĸ¹çļĦå²©æµĨ":9489,"ç½ĳç»ľçĲĨè®ºåľ¨æµģè¡ĮçĹħåŃ¦":9490,"åĵªäºĽè¿ĽåĮĸä¼ĺåĬ¿":9491,"èĢĮéĿŀè´¢æĶ¿å¹²é¢Ħ":9492,"æ´ªæ³ĽåĮº":9493,"çĥŃå¸¦æ°ĶæĹĭçĶŁæĪĲéľĢè¦ģ":9494,"ä¸İçĽ¾çĬ¶çģ«å±±ä¸įåĲĮ":9495,"è¢«çĶ¨ä½ľ":9496,"åĪ¶åº¦å¤±èĮĥçĲĨè®ºå¦Ĥä½ķè§£éĩĬ":9497,"äºĮåĪĨæ³ķ":9498,"äººå½¢æľºåĻ¨äºº":9499,"çĸıç¦»":9500,"å¤´è¶³ç±»åĬ¨çī©":9501,"ä¸İåĮĸåŃ¦çģ«ç®Ńä¸įåĲĮ":9502,"åıĳèµ·æĮĳæĪĺ":9503,"çŁ¥ä¹ĭå¹ķ":9504,"åŁºçĿ£æķĻ":9505,"åĵĪèĢ¶åħĭ":9506,"EM":9507,"based":9508,"co":9509,"cess":9510,"las":9511,"pH":9512,"pro":9513,"©çĮİ":9514,"æĩ":9515,"Ġè¯ĳä¸º":9516,"Ġec":9517,"Ġæ·»åĬł":9518,"çļĦä¸Ģ":9519,"çļĦèĩªçĦ¶":9520,"çļĦæĥħæĦŁ":9521,"çļĦè°ĥæİ§":9522,"çļĦèŀįåĲĪ":9523,"çļĦåĪĨå±Ĥ":9524,"çļĦæĤĸè®º":9525,"çļĦçľŁå®ŀ":9526,"çļĦåıĤæķ°":9527,"çļĦåĪ¶å®ļ":9528,"çļĦæ½ľåĬĽ":9529,"çļĦæķ°åŃĹåĮĸ":9530,"çļĦæĪĲåĽł":9531,"çļĦå¸¸æĢģåĮĸ":9532,"èĥİ":9533,"å¦Ĥä»Ĭ":9534,"å°ĸ":9535,"åľ¨è§£éĩĬ":9536,"ä¸ŃåŃĲ":9537,"æķ¢":9538,"ä¸İä¸Ńä¸ĸçºª":9539,"ä¸İä¹īåĬ¡è®ºä¼¦çĲĨåŃ¦":9540,"ä¸İçİ¯å¢ĥçĽ¸äºĴä½ľçĶ¨":9541,"ä¸İä¹īåĬ¡è®ºæ¡Ĩæŀ¶":9542,"ä¸İæ¹¿å£ģçĶ»æĬĢæ³ķ":9543,"ä¸İéĢ»è¾ĳå®ŀè¯ģä¸»ä¹ī":9544,"ä¸İå±ĤçĬ¶çģ«å±±":9545,"ä¸İä¹¡æĿĳ":9546,"çĶŁçļĦ":9547,"çĶŁåĮĸ":9548,"æ³ī":9549,"éĢļè¿ĩåŁºäºİ":9550,"éĢļè¿ĩèŀįåĲĪ":9551,"éĢļè¿ĩæķ´åĲĪ":9552,"éĢļè¿ĩçĶ¨æĪ·":9553,"éĢļè¿ĩçİ¯å¢ĥçĽ¸äºĴä½ľçĶ¨":9554,"å¯¹èĩªçĦ¶":9555,"åı¯æµĭéĩı":9556,"åı¯çĶŁçī©éĻįè§£":9557,"ä½ĵè£ģ":9558,"åŁĭ":9559,"ä¸ºå®ŀçİ°":9560,"ä¸ºä¼ĺåħĪ":9561,"ç»ıéªĮè¯ģ":9562,"è´¡":9563,"è´¤":9564,"ä¼ļæľīä½ķä¸įåĲĮ":9565,"ä¸įèĥ½":9566,"å°Ĩæľ¬åľŁ":9567,"åıĳè¡Į":9568,"å®ŀçİ°åīįæīĢæľªæľīçļĦ":9569,"å®ŀçİ°åķĨä¸ļåĮĸ":9570,"å¦Ĥæŀľè¡¨è§ĤéģĹä¼ł":9571,"å¦Ĥæŀľå¤ļä¸ĸçķĮè¯łéĩĬ":9572,"å¦ĤæŀľçłĶç©¶äººåĳĺ":9573,"åĪĨè£Ĥ":9574,"åı¯èĥ½æıĲåįĩ":9575,"æľīçĤ¹":9576,"æĬĢæľ¯ä¸įåĲĮ":9577,"åŁºçī¹æĭī":9578,"ä¸ŃçļĦå¹¿æ³ĽåºĶçĶ¨":9579,"ä¸ŃçļĦéĩıåŃĲæ¶¨èĲ½":9580,"åĬłçĥŃ":9581,"èĢĮè¡¨çİ°ä¸»ä¹ī":9582,"èĢĮåĸĢæĸ¯çī¹åľ°è²Į":9583,"èĢĮç«ĭä½ĵä¸»ä¹ī":9584,"èĢĮä¹īåĬ¡è®ºä¼¦çĲĨåŃ¦":9585,"èĢĮçĤ¹å½©æ´¾":9586,"èĢĮäº§çĶŁçļĦ":9587,"èĢĮç¾İåĽ½éĿ©åĳ½":9588,"ç½©":9589,"å¤§åľ°":9590,"å¤§æµģè¡Į":9591,"è§£å¯Ĩ":9592,"åŀ©":9593,"åĲİæľŁ":9594,"è¯Ńç³»":9595,"çĲĨè®ºä¸ŃçļĦ":9596,"çĶŁçī©èīºæľ¯":9597,"çĶŁçī©åľ°çĲĥåĮĸåŃ¦":9598,"åħ³æĢĢ":9599,"èĭ¥åħ¨æ°ĳåŁºæľ¬æĶ¶åħ¥":9600,"èĭ¥äººå·¥åħīåĲĪä½ľçĶ¨":9601,"èĩªè½¬":9602,"èĩªéĹŃ":9603,"ä»¥äººç±»":9604,"æĸ°çİ°å®ŀä¸»ä¹īçĶµå½±":9605,"çī¹æľīçļĦ":9606,"ç»ĵæŀĦåĮĸ":9607,"è´¨æĸĻ":9608,"æºī":9609,"æĿ¥ç»´æĮģ":9610,"æıĲåŁºçī¹æĭī":9611,"ç²ī":9612,"åĴĮåľ°å£³":9613,"åĴĮæ¹®çģŃ":9614,"æĺİçĻ½":9615,"èīºæľ¯è¯Ħè®º":9616,"æĮĳæĪĺä¼łç»ŁçļĦ":9617,"å½¢æĪĲæľºåĪ¶":9618,"å¾·æ¸©":9619,"ä¼¦çĲĨä½ĵç³»":9620,"ä¸Ģåħĥ":9621,"æ¨¡åŀĭå°Ĩ":9622,"åıįå¤į":9623,"æľºåĪ¶å®ŀçİ°":9624,"æµ·åºķ":9625,"åĪĻä¸»å¼ł":9626,"æĦıè¯Ĩä½ĵéªĮ":9627,"å±ĤçĬ¶":9628,"ä¿¡ä»°":9629,"æł¹åŁº":9630,"è¡Įä¸ºæ¨¡å¼ı":9631,"çº§ç²¾åº¦":9632,"æłĩæ³¨":9633,"åħ¨çĲĥåĨľä¸ļ":9634,"ç§įæĹı":9635,"æĸ½åĬł":9636,"æīĢéĿ¢ä¸´":9637,"æīĢäº§çĶŁçļĦ":9638,"åı¯èĥ½ä¼ļåĩºçİ°åĵªäºĽ":9639,"å¤ĦçļĦ":9640,"éĩĩçĶ¨ä¸Ńæĸĩ":9641,"éķ¿çļĦ":9642,"åħ¶å®ŀ":9643,"æĸĩåĮĸèµĦæľ¬ç§¯ç´¯":9644,"æķĪåºĶæııè¿°äºĨ":9645,"æĻ®èīºæľ¯":9646,"æĻ®æĥł":9647,"æīĭæľ¯":9648,"æĹłæĦıä¹ī":9649,"è¿Ľè¡Įå¹²é¢Ħ":9650,"å¸Ĥåľºå¼Ĥè±¡":9651,"æ¯Ķè¾ĥè¯Ńè¨ĢåŃ¦":9652,"å½»åºķæ¶ĪéĻ¤":9653,"åĬłéĢŁèĨ¨èĥĢ":9654,"åĩĨç¡®è¿ĺåİŁ":9655,"ç§ĳåŃ¦ä¾Ŀæį®":9656,"ç§ĳåŃ¦åıĳå±ķçļĦ":9657,"äº§çĶŁèĥ½éĩı":9658,"é¢ĨåŁŁä¸Ń":9659,"åį°åº¦":9660,"åĢĺèĭ¥åħ¨æ°ĳåŁºæľ¬æĶ¶åħ¥":9661,"å¹´ä»¥æĿ¥":9662,"çľŁçĽ¸":9663,"éĢĤå®ľ":9664,"éĩįæĸ°éħįç½®":9665,"èĢĥè¯ķ":9666,"æĶ¿æ²»ç»ĵæŀĦ":9667,"åħ±æĥħ":9668,"å¸ĥå±Ģ":9669,"å®īæıĲåŁºçī¹æĭī":9670,"çĽ´æİ¥ä¿ĥè¿ĽäºĨ":9671,"æĺ¾èĳĹéĻįä½İ":9672,"ç©ºéĹ´è¡¨çİ°":9673,"é£İåĿ¡":9674,"ï¼ī\"":9675,"å¾ĢæĿ¥":9676,"åĨ°åĨ»":9677,"çģ«æĪĲå²©":9678,"æĸŃå±Ĥ":9679,"ç»ıåħ¸åĬĽåŃ¦":9680,"è§ĦèĮĥæĢ§":9681,"åĽłç´łå¯¼èĩ´äºĨ":9682,"ç¨³å®ļçļĦ":9683,"æĪĲä¸ºèīºæľ¯":9684,"ä»įåľ¨":9685,"ä¼łæĴŃçļĦ":9686,"éĢĤåºĶä¸įèī¯":9687,"æĬĢæľ¯çļĦè¿Ľå±ķ":9688,"éļĲèĹı":9689,"åĬ¨æĢģåħ³ç³»":9690,"åħ·æľīæĽ´é«ĺçļĦèĥ½éĩıå¯Ĩåº¦":9691,"åıĤçħ§":9692,"æ¢ħ":9693,"æ¢Ń":9694,"èģļåĲĪ":9695,"çĭ©çĮİ":9696,"çĻĮ":9697,"çĽ¸è¾ĥäºİä¼łç»ŁçļĦ":9698,"é¢ĦæµĭåĩĨç¡®æĢ§":9699,"ç¼ĸè¾ĳæĬĢæľ¯":9700,"å¾ĹåĪ°æĻ®åıĬ":9701,"åŁºæľ¬ç²ĴåŃĲ":9702,"è¶ħè¶ĬçĶŁçī©":9703,"è¶ħè¶ĬèĩªçĦ¶":9704,"å¼Ģå±ķ":9705,"ens":9706,"ented":9707,"å»ºçŃĳæĿĲæĸĻ":9708,"ä¸ĵä¸ļæľ¯è¯ŃçļĦåĩĨç¡®æĢ§":9709,"å¤§éĻĨè¾¹ç¼ĺ":9710,"æĻ®éģįåĮĸ":9711,"çĽ¸å¯¹è®ºæĢ§":9712,"åĿĩåĬ¿":9713,"éĿ¢ä¸´åĵªäºĽ":9714,"çº¿æĢ§åıĻäºĭç»ĵæŀĦ":9715,"ç»ĺåĪ¶":9716,"å½ĵä»£å¯¹":9717,"å½ĵä»£å°ıè¯´ä¸ŃçļĦéŃĶå¹»çİ°å®ŀä¸»ä¹ī":9718,"åľ°çĲĥç³»ç»Ł":9719,"æĹ¥å¿ĥè¯´":9720,"åıĺå¾ĹæĹłå¤Ħä¸įåľ¨":9721,"äºĴåĬ¨åħ³ç³»":9722,"çĶµåŃĲç³»ç»Ł":9723,"æŀĦå»ºåĩº":9724,"ç»Ŀç¼ĺçī¹æĢ§":9725,"è¶ĭè¿ĳ":9726,"åįļå¼Īè®ºä¸ŃçļĦ":9727,"æĿĥåĬĽç»ĵæŀĦçļĦ":9728,"åĸĢæĸ¯çī¹åľ°è²Įæĺ¯éĢļè¿ĩ":9729,"åĸĢæĸ¯çī¹åľ°è²ĮçļĦåıĳèĤ²":9730,"è¯Ĺäºº":9731,"åĢŁè´·":9732,"ä¸ªäººéļĲç§ģ":9733,"åį³åı¯å®ŀçİ°":9734,"èĴĻå¾·éĩĮ":9735,"å¥½åĲ§":9736,"å®ŀè¯ģä¸»ä¹ī":9737,"å®ŀè¯ģçłĶç©¶":9738,"è¯ģå®ŀäºĨ":9739,"éĢļçĶ¨çļĦ":9740,"æ²³æµģä¾µèļĢ":9741,"åı¯å¡ĳæĢ§çļĦ":9742,"çĻ½åŀ©":9743,"å¤ļæł·æĢ§çļĦ":9744,"å´©å¡Į":9745,"åĨ°å·Ŀä½ľçĶ¨":9746,"æłĩåĩĨåĮĸèĢĥè¯ķ":9747,"æĿİåĺīåĽ¾æ¯Ķè¾ĥä¼ĺåĬ¿":9748,"ä¸ĢæĹ¦éĩıåŃĲåĬłå¯Ĩ":9749,"å¿ĥçĲĨåŃ¦è§ģè§£":9750,"è½¨éģĵç¢İçīĩ":9751,"çľĭåĪ°":9752,"åĲ¯èĴĻæĹ¶æľŁçļĦ":9753,"çĬ¶æĢģçļĦ":9754,"ary":9755,"ä¿ĥä½¿äºĨ":9756,"éĩĳèŀįåį±æľº":9757,"éĩĬæĶ¾åĩº":9758,"æķ´ä½ĵåı¥å¼ı":9759,"åīĬå¼±äºĨä¼łç»Ł":9760,"å£°è°ĥ":9761,"ç»Ļä½ł":9762,"å±ĤéĿ¢çļĦèĢĥéĩı":9763,"å®ıè§Ĥçī©çĲĨ":9764,"åºĶçĶ¨äºİéĩİçĶŁç§įç¾¤":9765,"åıĪç¬¦åĲĪä¸Ńæĸĩç§ĳæĬĢæĸĩçĮ®":9766,"åĲ«éĩı":9767,"è½¬æį¢åŀĭæĿ¿åĿĹè¾¹çķĮ":9768,"åı¯èĥ½å¦Ĥä½ķéĩįæĸ°å®ļä¹ī":9769,"ä¼¼ä¹İ":9770,"æĹłæ³ķä¼ģåıĬ":9771,"èĻļæĭŁè¯Ńæ°Ķ":9772,"å¸¸åĢŁåĬ©æĿĤç³ħ":9773,"æ¢¯åº¦çļĦ":9774,"åĲįåįķ":9775,"ç¥ŀç»ıç§ĳåŃ¦èĮĥå¼ı":9776,"å»¶è¿ŁéĹ®é¢ĺ":9777,"Ġper":9778,"åİŁåŃĲçº§ç²¾ç¡®":9779,"èĦ±ç¦»":9780,"çļĦéģĵå¾·èĢĥéĩı":9781,"æ½ľåľ¨æ¨¡å¼ı":9782,"åħ±çĶŁåħ³ç³»":9783,"å½¢èĢĮä¸ĬåŃ¦ä¸»å¼ł":9784,"è®©ä½ł":9785,"åĮħåĲ«":9786,"åĮħæĭ¬":9787,"ç©¿è¶Ĭ":9788,"ä¾§éĩįçĤ¹":9789,"æĭĵæīĳéĩıåŃĲè®¡ç®ĹéĢļè¿ĩåĪ©çĶ¨":9790,"åĨĻå®ŀä¸»ä¹īçļĦ":9791,"thro":9792,"çł´åĿıè¿ĲåĬ¨":9793,"å°ĨåıĳçĶŁæł¹æľ¬æĢ§åıĺéĿ©":9794,"çĲĨè®ºçļĦæ¯Ķè¾ĥåĪĨæŀĲ":9795,"è§Ĥä¼Ĺä¸İ":9796,"å¹¿ä¹īçĽ¸å¯¹è®ºå°Ĩ":9797,"çļĦåı¯å¤įåĪ¶æĢ§":9798,"è®°å½ķäºĨ":9799,"è´¢å¯ĮåĪĨéħį":9800,"è´¢å¯ĮéĽĨä¸Ń":9801,"æĸ¥åĬĽ":9802,"ç¡®ä¿ĿäºĨ":9803,"å³Ń":9804,"åĶ¯ä¸Ģ":9805,"æ²¿æµ·çĶŁæĢģç³»ç»Ł":9806,"éļĲèº«æĬĢæľ¯":9807,"åĻ¨å®ĺç§»æ¤į":9808,"æĲº":9809,"æĲŀ":9810,"çĽ¸è¾ĥäºİä¼łç»ŁéĶĤç¦»åŃĲçĶµæ±ł":9811,"æŀĿæĻ¶":9812,"ä»Ĭå¤©":9813,"æ²īæµ¸æĦŁ":9814,"æ¿ĢåĬ±æİªæĸ½":9815,"å®½å¸¦":9816,"æĭľåįłåºŃåľ£åĥıèīºæľ¯":9817,"åħĥå°ıè¯´æīĭæ³ķ":9818,"å¸¸å¸¸éĩĩçĶ¨":9819,"ç½Ĺé©¬å¼ı":9820,"æ±īæľĿ":9821,"æķħéļľ":9822,"éĶĤç¦»åŃĲçĶµæ±łæĽ´é«ĺçļĦèĥ½éĩıå¯Ĩåº¦":9823,"åı¯èĥ½å¼ķåıĳåĵªäºĽä¼¦çĲĨåĽ°å¢ĥ":9824,"æĸ°è¾¾å°Ķæĸĩä¸»ä¹īè¿ĽåĮĸ":9825,"æ²ĥå¤«":9826,"çĲĨè®ºå¼ºè°ĥéĢļè¿ĩ":9827,"åĮħè±ªæĸ¯è®¾è®¡åİŁåĪĻ":9828,"ç¥ŀç»ıå½¢æĢģè®¡ç®Ĺæŀ¶æŀĦéĢļè¿ĩåŁºäºİå¿Ĩéĺ»åĻ¨çļĦ":9829,"ç§ĳåŃ¦éĿ©åĳ½çļĦ":9830,"åħ¬åħ±åį«":9831,"è§ĦåĪĻçļĦ":9832,"å°ĨéĿ¢ä¸´åĵªäºĽ":9833,"æ·±æµ·æµ·æ²Ł":9834,"åħīä¼ıçĶµæ±łæķĪçİĩ":9835,"èįĴè¯ŀæ´¾":9836,"èįĴè¯ŀçļĦå®ĩå®Ļä¸Ń":9837,"æĬµå¾¡":9838,"å¦Ĥæŀľæ³Ľå¿ĥè®ºå¾ĹåĪ°å®ŀè¯ģéªĮè¯ģ":9839,"è¿ģå¾Ļæ¨¡å¼ı":9840,"åıĳæĮ¥ä½ľçĶ¨":9841,"æĴŀåĩ»":9842,"çĶŁçī©å·¥ç¨ĭèıĮä¸Ŀ":9843,"æķ°åŃĹé¸¿æ²ŁéĢļè¿ĩéĻĲåĪ¶":9844,"åıĮåĲĳæķ°æį®ä¼łè¾ĵ":9845,"Ġinter":9846,"èĤĸåĥıçĶ»ä¸įåĲĮ":9847,"çĿ¡çľłåī¥å¤º":9848,"çº³ä»ĢåĿĩè¡¡æ¦Ĥå¿µ":9849,"éĹŃçİ¯çĶŁåĳ½":9850,"å¦ĤæŀľåħīåŃĲè®¡ç®Ĺèĥ½å¤Łå®ŀçİ°":9851,"åį°è±¡æ´¾ç¬Ķè§¦æĬĢæ³ķ":9852,"èĩªåıĳæĢ§çļĦ":9853,"æµģçķħèĩªçĦ¶":9854,"éĵģåĻ¨":9855,"æĵįä½ľæĢ§åŃ¦ä¹ł":9856,"æĽ´å¿«çļĦåħħçĶµ":9857,"åįĹæĸ¹":9858,"èµĦæľ¬ä¸»ä¹īçļĦåħ´èµ·":9859,"å´ĩé«ĺ":9860,"çļĦéĿŀçī©è´¨åĮĸ":9861,"æĺİæļĹå¯¹æ¯ĶæĬĢæ³ķ":9862,"é¢ľæĸĻçļĦéĹ®ä¸ĸ":9863,"æĳĦå½±æµĭéĩıå»ºæ¨¡":9864,"åı¯éĿłæĢ§":9865,"åı¯èĥ½åıĳçĶŁæĢİæł·çļĦåıĺåĮĸ":9866,"æķ°æį®åºĵä¸įåĲĮ":9867,"å°ĨéľĢè¦ģè¿Ľè¡Įéĩįå¤§ä¿®è®¢":9868,"åŃŁå¾·å°ĶéģĹä¼łæ¨¡åŀĭ":9869,"åħ¬æ°ĳèº«ä»½":9870,"äººæĿĥæ¡Ĩæŀ¶":9871,"è¾ĵéĢģå¸¦":9872,"è¶ħæĿĲæĸĻå·¥ç¨ĭéĢļè¿ĩ":9873,"å®£è¨Ģ":9874,"çľŁæŃ£çļĦ":9875,"è¿ľç¨ĭåĬŀåħ¬":9876,"ä¸İåĮĸåŃ¦æİ¨è¿Ľ":9877,"ç¦ģéĹŃ":9878,"ä¸ºä½ķæŁĲäºĽäºļæĸĩåĮĸ":9879,"éĢĨåĳ¨æľŁè´¢æĶ¿æĶ¿çŃĸ":9880,"å¦ĤæŀľèĦĳæľºæİ¥åı£èĥ½å¤Łå®ŀçİ°":9881,"æĦıåĳ³çĿĢ":9882,"æ°¢çĩĥæĸĻçĶµæ±łéĢļè¿ĩçĶµåĮĸåŃ¦":9883,"çļĦä½įç½®å¤ĦçĲĨæķ°æį®":9884,"åı£å¤´åıĻäºĭä¼łç»Ł":9885,"ä¸ĵéĹ¨åĮĸ":9886,"åĸľæ¬¢":9887,"å¯¹è¿Ľåı£åķĨåĵģåĬłå¾ģ":9888,"èĤĮçĲĨ":9889,"æĬĹçĶŁç´łèĢĲèį¯":9890,"è¶ħå¯¹ç§°çĲĨè®ºæıĲåĩº":9891,"ç²ĴåŃĲåĬłéĢŁåĻ¨":9892,"ä¾ĭè¯ģäºĨ":9893,"tructures":9894,"åĵ¥ä¼¦å¸ĥå¤§äº¤æį¢ä¸ŃçļĦçĶŁçī©è½¬ç§»":9895,"çļĦèĥ½æķĪæ°´å¹³":9896,"çģĮæºī":9897,"åĪ©çĶ¨åħīåŃĲåģıæĮ¯æĢģ":9898,"å¸ĮèħĬæĪıåī§ä¸ŃçļĦ":9899,"æĽ´é«ĺçļĦèĥ½éĩıå¯Ĩåº¦åĴĮæĽ´å¿«çļĦåħħçĶµ":9900,"ä¼ļæįŁå®³åīįé¢Ŀåı¶çļ®å±Ĥ":9901,"äººç±»åŁºåĽłå¢ŀå¼ºæĬĢæľ¯":9902,"è¾«çĬ¶":9903,"Ġeffec":9904,"ight":9905,"åŃ£èĬĤæĢ§":9906,"å¥łå®ļäºĨåŁºç¡Ģ":9907,"èĩªä¸»æŃ¦åĻ¨ç³»ç»Ł":9908,"åĲĳåķĨä¸ļç»ıæµİ":9909,"å¯¹åĮĸçŁ³çĩĥæĸĻçļĦä¾Ŀèµĸ":9910,"éģ¥è¿ľ":9911,"åľºæĻ¯ä¸İè¶ħèĩªçĦ¶åħĥç´łå¹¶ç½®":9912,"éĢıè§Ĩåĩłä½ķåŃ¦":9913,"å¦Ĥæŀľçº¿ç²Ĵä½ĵæĽ¿ä»£çĸĹæ³ķ":9914,"éĻ¡å³Ń":9915,"å¤§èĪªæµ·æĹ¶ä»£":9916,"anisms":9917,"èĩªéĹŃçĹĩ":9918,"ä¸Ģåħĥè®º":9919,"å®īæıĲåŁºçī¹æĭīæľºæ¢°":9920,"èĴĻå¾·éĩĮå®ī":9921,"ST":9922,"fr":9923,"ns":9924,"uting":9925,"vol":9926,"±¼":9927,"·çĶµè§£è´¨":9928,"âĻ":9929,"é±¼":9930,"ĠæĬĢæľ¯":9931,"Ĺåıĺ":9932,"çļĦå¤ļ":9933,"çļĦå¢ŀ":9934,"çļĦçĶŁæĢģç³»ç»Ł":9935,"çļĦåĳĪçİ°":9936,"çļĦéĢīæĭ©":9937,"çļĦéĽĨä½ĵ":9938,"çļĦåĮºåŁŁ":9939,"çļĦç¡®è®¤åģıè¯¯":9940,"çļĦåİŁåŀĭ":9941,"çļĦé¢łè¦ĨæĢ§":9942,"çļĦåħ¸åŀĭ":9943,"çļĦçĽĽè¡Į":9944,"åı«":9945,"è¿Ń":9946,"åĪĳ":9947,"èĥ¡":9948,"åŃ¦é¢ĨåŁŁ":9949,"åº§":9950,"åľ¨åĲİ":9951,"åľ¨ä½ł":9952,"åľ¨è§Ĩè§ī":9953,"åľ¨åºĶçĶ¨äºİ":9954,"åľ¨ç»ıæµİè¡°éĢĢæľŁéĹ´":9955,"ä¸İèĩªçĦ¶":9956,"ä¸İæŀģç®Ģä¸»ä¹ī":9957,"ä¸İéĽĨä¸Ńå¼ı":9958,"ä¸İåĮĸçŁ³çĩĥæĸĻ":9959,"ä¸İä¸Ńå¿ĥåĮĸ":9960,"éĢļè¿ĩçī©è´¨":9961,"å¯¹çİ¯å¢ĥ":9962,"å¯¹æĦıè¯ĨçļĦ":9963,"åı¯ä¿¡":9964,"å¸Ĩ":9965,"å¦Ĥä½ķä»¥":9966,"å¦Ĥä½ķé¢łè¦Ĩ":9967,"å¦Ĥä½ķæİ¨åĬ¨":9968,"å¦Ĥä½ķè¿ĲçĶ¨":9969,"å¦Ĥä½ķç¼ĵè§£":9970,"å¦Ĥä½ķå¡ĳéĢł":9971,"è´µ":9972,"ä¼ļåıĳçĶŁ":9973,"ä¸įåĬ¨":9974,"ä¸įåłª":9975,"å·ŀ":9976,"å°Ĩæľī":9977,"å°Ĩåħ¶":9978,"å°ĨèĩªçĦ¶":9979,"æİĪ":9980,"æĹ¶æĢ§":9981,"äººéĻħ":9982,"åľ°åŁŁ":9983,"åºĶéĢļè¿ĩ":9984,"å®ŀçİ°ç¥ŀç»ıåħĥ":9985,"å¦Ĥæŀľæķ°åŃĹèīºæľ¯":9986,"å¦Ĥæŀľç³»å¤ĸè¡ĮæĺŁæ®ĸæ°ĳ":9987,"åı¯èĥ½éĩįæĸ°å®ļä¹ī":9988,"æľīå£°":9989,"æľīæĦıè¯ĨçļĦ":9990,"æĬĢæľ¯æĸĩ":9991,"æĬĢæľ¯åıĸå¾Ĺ":9992,"éĻĨæŀ¶":9993,"ç¨ł":9994,"çĽ¸ä¹ĺ":9995,"æı´":9996,"åŁºåºķ":9997,"èĢĮæŀģç®Ģä¸»ä¹ī":9998,"èĢĮåĲİçİ°ä»£ä¸»ä¹īå°ıè¯´":9999,"åĲĪå¹¶":10000,"å¤§å®¶":10001,"å¤§éĻĨæŀ¶":10002,"åŃĺäºīè®®":10003,"è§£åĨ»":10004,"åĲİåį°è±¡ä¸»ä¹ī":10005,"ä¼łç»Łçķľçī§ä¸ļ":10006,"çĶŁçī©å£°åŃ¦":10007,"åĩºçĶŁ":10008,"æľŁæľĽ":10009,"éĩıåŃĲå¼ķåĬĽ":10010,"èĭ¥äººå·¥æĻºèĥ½":10011,"èĭ¥åĬłå¯Ĩè´§å¸ģ":10012,"èĭ¥åħ¨æģ¯":10013,"èĭ¥åħīåŃĲè®¡ç®Ĺ":10014,"ä»¥éĺ²æŃ¢":10015,"æĽ´å¤§":10016,"æĽ´éĿłè¿ĳ":10017,"ç»ĵæŀĦåĬŁèĥ½ä¸»ä¹ī":10018,"åİŁæľ¬":10019,"ç¥ŀç»ıå½±åĥı":10020,"ç»ıæµİæĶ¿çŃĸ":10021,"åĵªäºĽä¼¦çĲĨ":10022,"åĵªäºĽæĸ°çļĦ":10023,"æĺ¯ä¸ª":10024,"åħīçĶµ":10025,"æĿ¥å¢ŀå¼º":10026,"æĿ¥ä¼ĺåĮĸ":10027,"æıĲåīį":10028,"éĿŀèģĮä¸ļ":10029,"ç¤¾ä¼ļç»ĵæŀĦçļĦ":10030,"ç½ĳèĨľ":10031,"æ°Ķæ¸©":10032,"å¼ķè¯Ń":10033,"åĪ©çİ¯æµģ":10034,"æĪĳå°±":10035,"æĪĳè§īå¾Ĺ":10036,"å¤ļæķ°":10037,"è¯ģæĪĲ":10038,"æ¨¡åŀĭå¼ºè°ĥ":10039,"åıįæĸĩåĮĸ":10040,"åıįåĲĳ":10041,"æĦŁè´¨":10042,"åľºçļĦ":10043,"åĪĻæĺ¯":10044,"æĿĥçļĦ":10045,"åĪ°åºķ":10046,"çİ°å®ŀå¹¶ç½®":10047,"æ¶¦":10048,"å¼ĤçļĦ":10049,"è®¤çŁ¥åģıè§ģ":10050,"è¿ĩç¨ĭä¸İ":10051,"èµĦæł¼":10052,"è¿Ļå°Ĩå¦Ĥä½ķæĶ¹åıĺ":10053,"èĢĮéĿŀçī©çĲĨ":10054,"èĢĮéĿŀåħ·è±¡":10055,"è§Ĩç½ĳèĨľ":10056,"åı¯èĥ½ä¼ļå½»åºķæĶ¹åıĺ":10057,"åı¯èĥ½ä¼ļè¢«æ·ĺæ±°":10058,"çĽ´è§Ĥ":10059,"è¢«è¯ģä¼ª":10060,"é«ĺåİŁ":10061,"æł¼åĪ©":10062,"ç®¡åĪ¶":10063,"ç®¡æİ§":10064,"å°ıåŀĭ":10065,"åĽ¾è°±":10066,"æķĪåºĶè¡¨æĺİ":10067,"åĪĨæŀĲæıŃç¤º":10068,"å¸¦æłĩçŃ¾":10069,"æĹ¶éĹ´æ¡Ĩæŀ¶":10070,"æĹ¶éĹ´åĪĨè¾¨çİĩ":10071,"å¤ĸè§Ĥ":10072,"è§£éĩĬé¸¿æ²Ł":10073,"æĸ¹æ³ķçĽ¸æ¯Ķ":10074,"ç®Ĺæ³ķå®ŀçİ°":10075,"çĶ»ä½ľ":10076,"çªģåıĳæĢ§":10077,"æĹłçº¿":10078,"èĮĥå¼ıæıĲåĩºäºĨæĮĳæĪĺ":10079,"è¿Ľè¡Įä¿®æŃ£":10080,"å¸ĤåľºèĩªæĪĳè°ĥèĬĤ":10081,"æ¯Ķè¾ĥåĩ¯æģ©æĸ¯ä¸»ä¹īä¸İ":10082,"å°ĦçĶµ":10083,"å¤ĦçĲĨæīĭæ³ķ":10084,"éģĹåĿĢ":10085,"æ¸©å¸¦":10086,"åı¤èħ¾":10087,"æ¬§åĩłéĩĮå¾Ĺ":10088,"çİ°ä»£ä¸»ä¹īè¯Ĺäºº":10089,"æ°ĶåĢĻåıĺè¿ģ":10090,"æĺ¯åĲ¦åħħåĪĨ":10091,"æĺ¯åĲ¦åīĬå¼±äºĨ":10092,"åŁºç¡Ģä¸Ĭ":10093,"åĸĿ":10094,"å¹´åīį":10095,"å¹´è½»":10096,"èĥ½éĩıä¼łéĢĴ":10097,"ä¿¡æģ¯éĥ½":10098,"ç¢³åıįé¦Īå¾ªçİ¯":10099,"èĥ½å¤Łå®ŀçİ°çĶŁçī©":10100,"èĥ½åĲ¦ç¼ĵè§£":10101,"æŀ¶æŀĦæĢ§":10102,"ä¿®åīª":10103,"æĶ¿æ²»è¯Ŀè¯Ń":10104,"æĶ¿æ²»å¯ĵè¨Ģ":10105,"æĸ¹å¼ıä¸İ":10106,"å¾®éĩįåĬĽ":10107,"åľŁèĳĹ":10108,"èĥ½æºĲåŁºç¡Ģè®¾æĸ½":10109,"çĶŁçī©åŃ¦æľºåĪ¶":10110,"æµ·æ´ĭæĿ¿åĿĹ":10111,"æµ·æ´ĭè¾ĵéĢģå¸¦":10112,"ï¼īï¼Į":10113,"å¾Ĺä»¥å»¶ç»Ń":10114,"å¤±æİ§":10115,"éĢīçĶ¨":10116,"éĢĢåĮĸçļĦ":10117,"éĴ¦":10118,"ç¨³å®ļæĢ§çļĦ":10119,"åįıå®ļ":10120,"å½¢å¼ıä¸İ":10121,"åĬ³å·¥":10122,"æ²īç§¯å±Ĥ":10123,"æĹ¢æľīçļĦ":10124,"æĹ¢ä½ĵçİ°":10125,"å®īåħ¨éĢļä¿¡":10126,"ç£¨":10127,"çĲĨæĢ§ä¸»ä¹īçļĦ":10128,"åŁºç¡Ģè®¾æĸ½ä¸Ń":10129,"åĬ¨æĢģæľºåĪ¶":10130,"ç¿»è¯ĳæĹ¶":10131,"çĻ»":10132,"é¢Ħæµĭæ¨¡åŀĭ":10133,"ç¥ŀç»ıç½ĳç»ľéĢļè¿ĩ":10134,"åıĪéģ¿åħį":10135,"éĩıåŃĲè®¡ç®ĹåĪ©çĶ¨":10136,"åĲİæŀľå¦Ĥä½ķ":10137,"ä¸ĬçļĦæł¹æľ¬åĪĨæŃ§":10138,"è¿ĳä¼¼":10139,"åı¯ä»¥éĢļè¿ĩ":10140,"åĪĨåŃĲåĪ¶éĢł":10141,"è¶ħè¶Ĭæ³ķå®ļè´§å¸ģ":10142,"å°ĨéľĢè¦ģåħ¨éĿ¢":10143,"åŃ¦æľ¯è§ĦèĮĥ":10144,"åŃ¦æľ¯æİ¢è®¨":10145,"åŃ¦æľ¯è®¨è®º":10146,"ä»·åĢ¼éĵ¾":10147,"ä½¿å¾Ĺä¼łç»Ł":10148,"éľĢæ±Ĥä¸įè¶³":10149,"ä¸»å¯¼äºĨ":10150,"åľ°è´¨åĬĽéĩı":10151,"æĸĩæĺİä¸ŃçļĦ":10152,"è§£åĨ³äºĨ":10153,"çº¿æĢ§æĹ¶éĹ´":10154,"æĬĹéĩıåŃĲ":10155,"å¯¹åºĶçļĦ":10156,"è¡¨çİ°ä¸»ä¹īç»ĺçĶ»ä¸ŃçļĦ":10157,"ä¿ĥè¿ĽæĸĩåĮĸäº¤æµģ":10158,"é¥±":10159,"éĤ£ç§į":10160,"è¿ĺæľī":10161,"åıįé¦ĪåĽŀè·¯":10162,"ç¤¾äº¤åªĴä½ĵåĽŀéŁ³å®¤éĢļè¿ĩç®Ĺæ³ķ":10163,"å½ĵåīįå¯¹":10164,"ç»´æĮģäºĨ":10165,"éļ¾éģĵ":10166,"çĶŁæĪĲçļĦ":10167,"ä¿ĿæĬ¤å·¥ä½ľ":10168,"åĨħå®¹ä¸ªæĢ§åĮĸ":10169,"çħ§æĺİ":10170,"ä»ĭå¯¼çļĦ":10171,"éĥ½ä¼ļ":10172,"è¡°åĩı":10173,"æıĲåĩºäºĨè´¨çĸĳ":10174,"ä¿¯åĨ²ä½ľçĶ¨":10175,"æ°§æ°Ķ":10176,"æĮĩæłĩçļĦ":10177,"è¿Ļä¸ĢçĤ¹":10178,"å¹²é¢Ħæīĭæ®µ":10179,"åĪĩå®ŀ":10180,"èħĶ":10181,"ç»ĺçĶ»ä¼łç»Ł":10182,"æĤ²åī§èĭ±éĽĦ":10183,"å¾®çĶŁçī©ç¾¤èĲ½":10184,"éĽĨä½ĵæĹłæĦıè¯Ĩ":10185,"æľºåĻ¨åŃ¦ä¹łç³»ç»Ł":10186,"åıĸä»£åį°åĪ·":10187,"èĩªåĬ¨åĮĸåıĸä»£äºĨ":10188,"çĸ¾çĹħä¼łæĴŃ":10189,"å°¼æĸ¯":10190,"ä½ľä¸ºä¸Ģç§į":10191,"åİĭåĬĽåĴĮ":10192,"åĨ·æł¸èģļåıĺ":10193,"ä¿¯åĨ²å¸¦æŀĦéĢł":10194,"çİ°æľīçļĦå®ĩå®ĻèĨ¨èĥĢæ¨¡åŀĭ":10195,"æľŁéĹ´çļĦ":10196,"å·¥ä½ľåľºæīĢ":10197,"éĩĳèŀįå¸Ĥåľº":10198,"åľ¨åħ¨çĲĥèĮĥåĽ´åĨħå¾Ĺä»¥å®ŀæĸ½":10199,"å·¥ä¸ļéĿ©åĳ½çļĦ":10200,"æĪĺçķ¥çĽ¸äºĴä¾ĿåŃĺåħ³ç³»":10201,"å·¥ä¸ļåĮĸè¿Ľç¨ĭ":10202,"åĪĽéĢłæĢ§":10203,"å¯ĮåĲ«":10204,"ç»ĻæĪĳ":10205,"å¦Ĥä½ķå½±åĵįäºĨåĲİç»Ń":10206,"çĥŃå¸¦åľ°åĮºçļĦ":10207,"å°ĨéľĢè¦ģè¿Ľè¡ĮæĢİæł·çļĦ":10208,"èģĮä½į":10209,"æľīæľºä½ĵ":10210,"æĪĲæľ¬æķĪçĽĬ":10211,"åıĪç¬¦åĲĪä¸Ńæĸĩè¡¨è¾¾":10212,"Ġch":10213,"æĿĥå¨ģæĢ§":10214,"ä¸ªä½ĵå¦Ĥä½ķéĢļè¿ĩ":10215,"èĲ¥åħ»çº§":10216,"å¼ķåħ¥çļĦ":10217,"åįĬå¯¼ä½ĵçļĦ":10218,"ital":10219,"ä¸ĬåŃĺåľ¨å·®å¼Ĥ":10220,"è¿ĳä»£æĹ©æľŁçļĦ":10221,"ä¸įæĸŃåĬłåī§":10222,"çī¹å®ļçļĦ":10223,"è¡¨è§ĤéģĹä¼łæľºåĪ¶æıŃç¤ºäºĨ":10224,"Ġpr":10225,"æĮ¯åĬ¨":10226,"çļĦæĬĢæľ¯åıĳå±ķ":10227,"çļĦæĬĢæľ¯éļľç¢įæľīåĵªäºĽ":10228,"å¥¹çļĦ":10229,"ä¸ľåįĹäºļ":10230,"åı¥æ³ķåĲ¯åĬ¨":10231,"æ²¹çĶ»æĬĢæ³ķ":10232,"æĸ°åŀĭéĩıåŃĲè®¡ç®Ĺ":10233,"æł¹æį®ç»ĵæŀľ":10234,"æĪ¿äº§":10235,"ates":10236,"éĩįç»Ħèĥ½åĬĽ":10237,"è¡Įä¸ļçļĦ":10238,"çĶŁäº§åĬĽæĮĩæłĩ":10239,"åĲİæ®ĸæ°ĳåıĻäºĭä¸ŃçļĦéŃĶå¹»çİ°å®ŀä¸»ä¹ī":10240,"é£İæł¼æ´¾":10241,"ther":10242,"æ¸ħæ¥":10243,"äº²ç¼ĺ":10244,"æķ°åŃĹèīºæľ¯çļĦåı¯å¤įåĪ¶æĢ§":10245,"çļĦç¥ŀç»ıåĽŀè·¯":10246,"è¶ħè¿ĩæ³ķå®ļè´§å¸ģ":10247,"çĸĳéĹ®åı¥çļĦ":10248,"çĵ·çĶµè§£è´¨":10249,"åĲİæ®ĸæ°ĳæĸĩåŃ¦å¸¸éĩĩçĶ¨":10250,"å½ĵåīįçļĦå®ĩå®ĻèĨ¨èĥĢæ¨¡åŀĭ":10251,"è¶ĭäºİæĪĲçĨŁ":10252,"åľ°å£³åĿĩè¡¡åıįå¼¹":10253,"çľŁçĲĨä¸»å¼ł":10254,"éļĲå½¢æĬĢæľ¯":10255,"ç¹ģæ®ĸ":10256,"æĭľåįłåºŃåľ£åĥıçł´åĿıè¿ĲåĬ¨":10257,"åį°åĪ·æľºçļĦæĻ®åıĬ":10258,"äºļéĩĮå£«å¤ļå¾·å½¢èĢĮä¸ĬåŃ¦":10259,"æĿ¥å®ŀçİ°å®¹éĶĻçļĦéĩıåŃĲæ¯Ķçī¹æĵįä½ľ":10260,"è¾¹ç¼ĺè®¡ç®ĹåŁºç¡Ģè®¾æĸ½":10261,"æĿİåĺīåĽ¾çŃīä»·å®ļçĲĨéĢļè¿ĩ":10262,"å¯¹æĬĹæĢ§":10263,"æµ®çİ°":10264,"ultural":10265,"åıįæĺłäºĨæĪĺåĲİ":10266,"å¯¡å¤´åŀĦæĸŃå¸Ĥåľºç»ĵæŀĦ":10267,"åĪĨæķ£åĮĸ":10268,"æĦıè¯ĨæµģåıĻäºĭæĬĢå·§éĢļè¿ĩ":10269,"åĤ¨èĵĦåĴĮæĬķèµĦ":10270,"ç»¼åĲĪå¾ģ":10271,"åĲ¯èĴĻè¿ĲåĬ¨çļĦ":10272,"ç¤¾ä¼ļåĪĨå±Ĥæ¨¡å¼ı":10273,"åįļçī©é¦ĨçŃĸå±ķ":10274,"ill":10275,"æĸ¯å¤ļèĳĽåĵ²åŃ¦":10276,"çİ¯å¢ĥåĽłç´łå¯¹":10277,"å®ŀçĶ¨åĮĸ":10278,"æ°¸ä¹ħæĢ§åľ°æĶ¹åıĺäºĨ":10279,"çļĦæ¯Ķè¾ĥåĪĨæŀĲæıŃç¤ºäºĨ":10280,"åľ°è´¨æĹ¶éĹ´å°ºåº¦ä¸Ĭ":10281,"äººå·¥æĻºèĥ½ç³»ç»Łä¸įåĲĮ":10282,"èĩªåĬ¨é©¾é©¶æ±½è½¦çļĦæĻ®åıĬ":10283,"å¯»æ±Ĥ":10284,"äººç±»ä¸Ńå¿ĥä¸»ä¹īçļĦ":10285,"æµģçķħæĢ§":10286,"éĵģè·¯":10287,"æŃ£åıįé¦Īå¾ªçİ¯åĬłéĢŁ":10288,"éĩĳå±ŀéĺ³æŀģ":10289,"ä¸İæĸĩåĮĸçĽ¸å¯¹ä¸»ä¹ī":10290,"ä»¿çĶŁå»ºçŃĳ":10291,"å¡ĳæĸĻæ±¡æŁĵ":10292,"èīºæľ¯åĵģçļĦéĿŀçī©è´¨åĮĸ":10293,"åŃ¦çłĶç©¶æıŃç¤ºäºĨ":10294,"å¯ĨéĽĨåŀĭ":10295,"å¦ĤæŀľäºļåİĨå±±å¤§åĽ¾ä¹¦é¦Ĩä¿ĿåŃĺå®Įå¥½":10296,"plic":10297,"è¯Ńè¨ĢçļĦæłĩåĩĨåĮĸ":10298,"æĺ¾çİ°åĩº":10299,"åħ±ä»·çĽ¸äºĴä½ľçĶ¨":10300,"åı¯èĥ½åıĳçĶŁä½ķç§į":10301,"ç¥ŀç»ıåĽŀè·¯çļĦç²¾åĩĨæĵįæİ§":10302,"åŃ£é£İ":10303,"æĺŁéĻħæĹħè¡ĮæīĢéľĢæĹ¶éĹ´":10304,"åŁİå¸ĤçĥŃå²ĽæķĪåºĶéĢļè¿ĩå¢ŀåĬł":10305,"ç»ĵæŀľçļĦæľĢå¤§åĮĸ":10306,"åĵªäºĽç¤¾ä¼ļåŃ¦æľºåĪ¶":10307,"å¸ĮèħĬåĮĸæĹ¶æľŁçļĦ":10308,"åĲİç»ĵæŀĦä¸»ä¹īæĸĩåŃ¦æī¹è¯ĦéĢļè¿ĩ":10309,"éĢĤçĶ¨æĢ§":10310,"å¸¸çĶ¨çļĦ":10311,"åĢĺèĭ¥äºļåİĨå±±å¤§åĽ¾ä¹¦é¦Ĩå¾Ĺä»¥å®Įå¥½ä¿ĿåŃĺ":10312,"æ®ĸæ°ĳåľ°çļĦ":10313,"æł¸èĭ·éħ¸åºıåĪĹ":10314,"æł¸èĭ·éħ¸æĽ¿æį¢":10315,"è¡įçĶŁåĵģ":10316,"å¦Ĥæŀľäººå·¥æĦıè¯Ĩå¾Ĺä»¥å®ŀçİ°":10317,"çİ°è±¡åŃ¦è¿ĺåİŁæĹ¨åľ¨":10318,"ä¸Ńå¤®éĽĨæĿĥçļĦ":10319,"å¦Ĥæŀľç³»å¤ĸè¡ĮæĺŁå¤§æ°Ķå±Ĥä¸Ń":10320,"æĹłçĽĳçĿ£æľºåĻ¨åŃ¦ä¹ł":10321,"å¥ĳåĲĪ":10322,"çº¢ç§»è§Ĥæµĭ":10323,"åı¯æº¶æĢ§åŁºå²©":10324,"æĭĵæīĳç»Ŀç¼ĺä½ĵçļĦè¡¨éĿ¢å¯¼çĶµ":10325,"å½¢è±¡åĩĨç¡®æĢ§":10326,"åĩ¯æģ©æĸ¯ä¸»ä¹īç»ıæµİåŃ¦ä¸»å¼łæĶ¿åºľå¹²é¢Ħ":10327,"å·¥ä¼ļåĮĸ":10328,"åı¯ä»¥åıĳçİ°ä¸¤èĢħåľ¨":10329,"çļĦåĮºåĪ«åľ¨äºİåħ¶":10330,"æľºä¼ļæĪĲæľ¬å·®å¼Ĥ":10331,"åĢĴç½®åľ°å½¢":10332,"èĤ¡ä¸ľ":10333,"åı¤èĢģçļĦçĶ²çĥ·":10334,"ä¼Ļä¼´":10335,"å¹¿ä¹īçĽ¸å¯¹è®ºä¸İéĩıåŃĲåĬĽåŃ¦":10336,"åĲĪçĲĨåĮĸ":10337,"å°ĨåıĳçĶŁä½ķç§įè½¬åıĺ":10338,"ä»¥ä¸ĭä¸ĵä¸ļå¤ĦçĲĨ":10339,"çİ»çĴĥå¤©èĬ±æĿ¿çİ°è±¡":10340,"çº§åĪĨè¾¨çİĩçļĦå®ŀæĹ¶æ°ĶåĢĻå»ºæ¨¡":10341,"åĩĨç¡®ä¼łéĢĴäºĨ":10342,"spec":10343,"éĿŀä¾µåħ¥æĢ§ç¥ŀç»ıè°ĥæİ§":10344,"æĹ§å¤§éĻĨä½ľçī©":10345,"å¼¥åĲĪ":10346,"æ·±è¿ľå½±åĵį":10347,"åı¤åħ¸çŁ¥è¯ĨçļĦä¼łæī¿":10348,"æĳĨèĦ±":10349,"æłĳæŀĿçĬ¶æİĴæ°´":10350,"è´¹ç±³æĤĸè®ºåĩ¸æĺ¾äºĨ":10351,"æĪĲéķ¿å°ıè¯´":10352,"èĩŃæ°§å±Ĥ":10353,"åĵªäºĽåľ°ç¼ĺæĶ¿æ²»åĽłç´łä½¿å¾Ĺ":10354,"ä½¿ä¸Ńæĸĩè¡¨è¾¾":10355,"æ²¹çĶ»é¢ľæĸĻçļĦåıĳæĺİä½¿å¾Ĺæĸĩèīºå¤įåħ´æĹ¶æľŁçļĦèīºæľ¯å®¶":10356,"ä¸İå¯¹ç§°åĬłå¯Ĩä¸įåĲĮ":10357,"åĵĪå¾·åĪ©çİ¯æµģ":10358,"å·¦åı³":10359,"çģµéķ¿ç±»åĬ¨çī©":10360,"èĩªèº«åħįçĸ«æĢ§çĸ¾çĹħçļĦæ²»çĸĹ":10361,"å±ıå¹ķä½¿çĶ¨æĹ¶éĹ´çļĦå¢ŀåĬłä¸İ":10362,"æĸ°èīºæľ¯è¿ĲåĬ¨çļĦæľīæľºå½¢æĢģ":10363,"åģ¶çĦ¶":10364,"æ´»ä½ĵç»Ħç»ĩä¸İåĲĪæĪĲ":10365,"åĨįåŁ¹è®Ńè®¡åĪĴ":10366,"ç¬¬åĽĽä»£æł¸åıįåºĶåłĨ":10367,"è½®çıŃå·¥ä½ľèĢħçļĦæĺ¼å¤ľèĬĤå¾ĭç´Ĭä¹±":10368,"å®¿åĳ½è®º":10369,"ç¥ŀç»ıç³»ç»Łçĸ¾çĹħçļĦæ²»çĸĹ":10370,"å½ĴåĽłäºİ":10371,"ä¸»åĬ¨åĲĮåĮĸèĢĮéĿŀè¢«åĬ¨":10372,"éĢĨåĨ²åľ°éľĩ":10373,"éĩıåŃĲå¯ĨéĴ¥åĪĨåıĳåĪ©çĶ¨éĩıåŃĲçºłç¼ł":10374,"ç¥ŀç»ıåģĩä½ĵ":10375,"çŃīå¾ħåĲįåįķ":10376,"aterial":10377,"åĲİç»ĵæŀĦä¸»ä¹īå¯¹è¯Ńè¨ĢçļĦæī¹åĪ¤":10378,"ç²Ĺéĩİä¸»ä¹ī":10379,"å¬Ĺåıĺ":10380,"éĻ¶çĵ·çĶµè§£è´¨":10381,"åı¤åŁºåĽłç»ĦåŃ¦":10382,"ç¼ĵè§£åĨľä¸ļçĶ¨åľ°åİĭåĬĽ":10383,"åĲĪæĪĲçĶŁçī©åŃ¦çļĦåºķçĽĺçĶŁçī©":10384,"çļĦåı¯éĿłæĢ§":10385,"è¡įå°ĦæŀģéĻĲ":10386,"çħ¤":10387,"é¬¼":10388,"åĨĹä½Ļ":10389,"æµ·é©¬ä½ĵ":10390,"çİ»èī²åŃĲ":10391,"ç½Ĺæĸ¯ç§ĳçļĦèī²åŁŁç»ĺçĶ»":10392,"pHåĢ¼":10393,"è´¡çĮ®":10394,"çĻ½åŀ©çºª":10395,"å£°è°ĥè¯Ńè¨Ģ":10396,"åħ¬åħ±åį«çĶŁ":10397,"èįĴè¯ŀæ´¾æĪıåī§":10398,"âĻª":10399,"éĿŀèģĮä¸ļæ¼Ķåĳĺ":10400,"åı¤èħ¾åł¡":10401,"æ¸ħæ¥ļ":10402,"TA":10403,"Tr":10404,"cre":10405,"fl":10406,"ty":10407,"ug":10408,"²æŁĵ":10409,"ºæĹĭ":10410,"ĠåŃ¦æľ¯":10411,"Ģåįĩ":10412,"çļĦåĬ¨":10413,"çļĦåĨ³çŃĸ":10414,"çļĦæł¹æľ¬æĢ§":10415,"çļĦä¼ĺåħĪ":10416,"çļĦæ¦Ĥçİĩ":10417,"çļĦçĲĨå¿µ":10418,"çļĦå¤§è§Ħæ¨¡":10419,"çļĦæī©æķ£":10420,"çļĦæ°ĶåĢĻåıĺåĮĸ":10421,"çļĦåĪ¶éĢłä¸ļ":10422,"çļĦå°ıåŀĭåĮĸ":10423,"çļĦå¾®åŀĭåĮĸ":10424,"åŃĶ":10425,"å®Ŀ":10426,"éĢĥ":10427,"å¯¸":10428,"èĥ½çļĦ":10429,"èĥ½æĽ´æľīæķĪåľ°":10430,"å°Ĭ":10431,"åľ¨ä¸į":10432,"åľ¨è¶ħ":10433,"åľ¨èī²å½©":10434,"åľ¨æĹ©æľŁ":10435,"åľ¨æŃ¤":10436,"åľ¨ä¸Ńä¸ĸçºª":10437,"åľ¨äºļåİŁåŃĲ":10438,"åľ¨æľ¬è´¨ä¸Ĭ":10439,"åľ¨æĦıè¯ĨçłĶç©¶ä¸Ń":10440,"ä¸ŃåıĳæĮ¥äºĨä½ķç§įä½ľçĶ¨":10441,"åĮĸè¡¨è¾¾":10442,"äºĨä¸Ģ":10443,"çīĮ":10444,"ä¸İçİ°å®ŀ":10445,"ä¸İçĶŁæĢģ":10446,"ä¸İåŁºäºİ":10447,"ä¸İæĸĩèīºå¤įåħ´":10448,"ä¸İæĸ°åı¤åħ¸ä¸»ä¹ī":10449,"ä¸İæ³ķåĽ½å¤§éĿ©åĳ½":10450,"ä¸İèĴĻå¾·éĩĮå®ī":10451,"æµĳ":10452,"æĺ¥":10453,"éĢļè¿ĩéĩĩçĶ¨":10454,"éĢļè¿ĩåĪĨå¸ĥå¼ı":10455,"åĩ¶":10456,"åĩĳ":10457,"åı¯ä½¿":10458,"åı¯éªĮè¯ģ":10459,"å¦Ĥä½ķåĲĮæĹ¶":10460,"å¦Ĥä½ķåºĶçĶ¨äºİ":10461,"å¦Ĥä½ķåħĭæľį":10462,"æĶĢåįĩ":10463,"ä¼ļåīĬå¼±":10464,"ä¸įåĨį":10465,"ä¸įçŁ¥éģĵ":10466,"æĮĸ":10467,"å°ĨæľīæľĽå®ŀçİ°":10468,"åıĳæĺİ":10469,"ä¼łè¯´":10470,"æ¨ª":10471,"æ³ķåħ¸":10472,"æĹ¶åºı":10473,"åľ°å¸¦":10474,"åľ°çĽ¾":10475,"åľ°å¿ĥè¯´":10476,"åºĶéģµå¾ª":10477,"å®ŀçİ°ç²¾ç¡®çļĦ":10478,"å¦Ĥæŀľæ°¸ä¹ħåĨ»åľŁ":10479,"å¦Ĥæŀľå¼Ĥç§įç§»æ¤į":10480,"å¦ĤæŀľçŁ³å¢¨çĥ¯çĶŁäº§å®ŀçİ°":10481,"åı¯èĥ½çªģçł´":10482,"æĬĢæľ¯æĪĲçĨŁ":10483,"æĬĢæľ¯å¾Ĺä»¥å®ĮåĸĦ":10484,"ç¨¿":10485,"çĽ¸ä¿¡":10486,"è¡¨å±Ĥ":10487,"ç³»ç»ŁåĮĸçļĦ":10488,"ç³»ç»Łå¾ĹåĪ°":10489,"èĢĮä¹īåĬ¡è®º":10490,"èĢĮåĳĪçİ°åĩº":10491,"èĢĮä¹īåĬ¡è®ºæ¡Ĩæŀ¶":10492,"èĢĮæľīæľºåĽ¢ç»ĵ":10493,"åĲĪé¢ĺ":10494,"æķ°åįģå¹´":10495,"æ¯Ķåįķçº¯":10496,"åħ¨æĸ°":10497,"ä¼łç»Łå°±ä¸ļ":10498,"ä¸Ĭç©º":10499,"åĩºåı£":10500,"éĩıåŃĲåĮĸ":10501,"èĭ¥åľ¨":10502,"èĭ¥åŀĤçĽ´åĨľä¸ļ":10503,"èĭ¥ç¢³æįķéĽĨ":10504,"èĭ¥åħ¨æ°ĳåŁºæľ¬æĶ¶åħ¥åĪ¶åº¦":10505,"ä»¥ä¸Ĭ":10506,"ä»¥è¯»èĢħ":10507,"æĽ´å¤§çļĦ":10508,"çī¹åį¡":10509,"åİŁçĶŁ":10510,"æ¨¡å¼ıåľ¨":10511,"æ¨¡å¼ıä¸º":10512,"éĿ¢éĥ¨":10513,"ç¥ŀç»ıéļĲç§ģ":10514,"åŃĺåľ¨åĨ²çªģ":10515,"è§ĤèĢħä¸İ":10516,"æĺ¯å¯¹":10517,"ç¡®è¯ģ":10518,"ç¤¾ä¼ļå½±åĵį":10519,"èĢħä¹ĭéĹ´çļĦ":10520,"æĶ¹åĸĦ":10521,"ä¿ĿéĻ©":10522,"éĢłåŀĭ":10523,"æģĭ":10524,"è®¡ç®ĹæķĪçİĩ":10525,"å¾·åĽ½":10526,"ä½¿èīºæľ¯å®¶":10527,"æĪĳçŁ¥éģĵ":10528,"ä¸Ģä½į":10529,"éļ¶":10530,"éĽª":10531,"éĽ¾":10532,"å»ºæĪĲ":10533,"åľºä¸ŃçļĦ":10534,"åĿĲ":10535,"æĿĥéĩį":10536,"æĸĩåŃ¦ç»ıåħ¸":10537,"æĸĩåŃ¦ä½ľåĵģ":10538,"äººç±»æĢĿç»´":10539,"æĦıè¯Ĩä¸İ":10540,"æ¸²æŁĵ":10541,"å¸¸åĢŁ":10542,"å¸¸å¸¸éĢļè¿ĩ":10543,"ç§ĳéĩĮå¥¥":10544,"åıĳå±ķä¸ŃçļĦ":10545,"æķ°åŃĹç´łåħ»":10546,"è¿Ļä½į":10547,"è§ĨéĶĻè§ī":10548,"èŀºæĹĭ":10549,"èŀįæ°´":10550,"åı¯èĥ½ä¼ļæľī":10551,"åı¯èĥ½ä¼ļä»İæł¹æľ¬ä¸ĬæĶ¹åıĺ":10552,"å½ĵçĦ¶":10553,"å¥ī":10554,"éĩĩçĶ¨åŃ¦çķĮ":10555,"ç¬¦åĲĪæ±īè¯Ń":10556,"è¢«èµĭäºĪ":10557,"æł¼çĬ¶æ°´ç³»":10558,"åĽ¾æĻ¯":10559,"æĸĩåĮĸèŀįåĲĪ":10560,"æĹ¶éĹ´èĨ¨èĥĢæķĪåºĶ":10561,"æ®ĸæ°ĳæĹ¶æľŁ":10562,"çĥŃåĸĢæĸ¯çī¹åľ°è²Į":10563,"æĹłæĦıè¯ĨçļĦ":10564,"çİ¯å¢ĥå¤ĸéĥ¨æĢ§":10565,"çº¿æĢ§çļĦ":10566,"çº¿ç´¢":10567,"èĮĥå¼ıå°Ĩå¦Ĥä½ķè½¬åıĺ":10568,"åıĳçĶŁçļĦ":10569,"åıĳçĶŁäºĨ":10570,"è¿Ľè¡Įç²¾ç¡®":10571,"åħĥåıĻäºĭ":10572,"å¸ĤåľºåıĤä¸İ":10573,"....":10574,"æľªç»ı":10575,"çłĶç©¶è¯ģå®ŀ":10576,"ä¸ĵä¸ļæĢ§":10577,"éģĹäº§":10578,"èģĶè§ī":10579,"æŃ£è§Ħ":10580,"åĩĨç¡®é¢Ħæµĭ":10581,"åĩĨç¡®åıįæĺł":10582,"éĻĲåº¦":10583,"æĮģç»Ńå¢ŀå¼º":10584,"åĵ²åŃ¦æ¦Ĥå¿µ":10585,"çİ°ä»£ä¸»ä¹īå°ıè¯´ä¸Ń":10586,"éģĹä¼łæĢ§":10587,"åĵģè´¨":10588,"åĢĺèĭ¥æ³Ľå¿ĥè®º":10589,"åĢĺèĭ¥å°ıè¡ĮæĺŁéĩĩçŁ¿":10590,"æĪĸèĢħ":10591,"å¯¹æ¯Ķç»ĵæŀĦ":10592,"å¯¹æ¯Ķåħ³ç³»":10593,"çĶŁäº§æĸ¹æ³ķ":10594,"éĩįæĸ°æŀĦå»º":10595,"ç»ıæµİåŃ¦ä¸ŃçļĦ":10596,"æĶ¿æ²»æī¹åĪ¤":10597,"æĶ¿æ²»ä½ĵåĪ¶":10598,"åħ±åĴĮ":10599,"å¸ĥæĭī":10600,"å¿ĥçĲĨåĬ¨åĬĽåŃ¦":10601,"åŁºäºİè´£ä»»":10602,"èĥ½æºĲçĶµç½ĳ":10603,"çĽ´æİ¥çļĦ":10604,"æĺ¾èĳĹåĩıå¼±":10605,"æĺ¾èĳĹæıĲåįĩäºĨ":10606,"ç¬¦åĲĪä¸Ńæĸĩç¤¾ç§ĳ":10607,"å²©æº¶":10608,"é£İæĻ¯":10609,"åİĨåı²ä¸Ĭ":10610,"åİĨåı²è¿Ľç¨ĭ":10611,"è¿ĲåĬ¨éĢļè¿ĩ":10612,"ç§»åĬ¨":10613,"å¤§æ°ĶçĶ²çĥ·æµĵåº¦":10614,"çĽ¸åħ³çļĦ":10615,"åħ¬åħĥ":10616,"è¡ĮæĺŁä¿ĿæĬ¤":10617,"å¾ªçİ¯è¿ĩç¨ĭ":10618,"å¾ªçİ¯ä¸Ńå½¢æĪĲ":10619,"æľĢèĥ½":10620,"æľĢå°ı":10621,"ä»įä¿ĿæĮģ":10622,"ä»įåŃĺäºīè®®":10623,"æ²īç§¯è¿ĩç¨ĭ":10624,"å¹¶ä¸į":10625,"å¹¶éĿŀ":10626,"çļĦå½¢æĪĲæĺ¯":10627,"çĲĨæĢ§åģĩè®¾":10628,"é¢łè¦Ĩå¸ĿåĽ½ä¸»ä¹ī":10629,"åŁºç¡Ģè®¾æĸ½æĬķèµĦ":10630,"åıĤèĢĥ":10631,"ä»İèĢĮå¯¹":10632,"å±ĢåŁŁ":10633,"ç±³å°Ķ":10634,"é¢Ħæµĭå¯¡å¤´åŀĦæĸŃå¸Ĥåľºè¡Įä¸º":10635,"åĪĨå¸ĥæł¼å±Ģ":10636,"æĭīç»´å°Ķ":10637,"éħįå¤ĩ":10638,"æ²³è°·":10639,"ä¸ĬçļĦä¸įåĲĮ":10640,"ç¥ŀç»ıå½¢æĢģå·¥ç¨ĭ":10641,"åĪ¶éĢłå·¥èīº":10642,"é©¬å°Ķ":10643,"é©¬å¤ª":10644,"é©¬æł¼åĪ©":10645,"å°ĨéľĢè¦ģå¦Ĥä½ķ":10646,"å°ĨéľĢè¦ģå½»åºķéĿ©æĸ°":10647,"ä¾µçĬ¯":10648,"çģ«å±±å±±èĦī":10649,"æĢĿèĢĥ":10650,"ä¹Łå¼ķåıĳäºĨ":10651,"è¡¨è¿°è§ĦèĮĥ":10652,"æĻ®éģįåŃĺåľ¨":10653,"èĪį":10654,"ä¸īåĢį":10655,"çĽ¸å¯¹è®ºçī©çĲĨåŃ¦":10656,"éĿ¢ä¸´çĿĢ":10657,"è¡Įä¸ºç»ıæµİåŃ¦æıŃç¤ºäºĨ":10658,"ä»İæł¹æľ¬ä¸ĬéĻĲåĪ¶äºĨ":10659,"æ¨¡æĭŁäºĨ":10660,"æĪĸå°Ĩè¿İæĿ¥":10661,"éĻĲåĪ¶éĺ»ç¢įäºĨ":10662,"è¿ĽåĮĸè®º":10663,"éĤ£éĩĮ":10664,"æľ¬è´¨ä¸»ä¹ī":10665,"å§Ĳ":10666,"åĬ©äºİ":10667,"ä½ĵçİ°åľ¨":10668,"éķ¿æľŁæĮģç»Ń":10669,"çī©çĲĨåŃ¦ä¸Ń":10670,"åĸĢæĸ¯çī¹åľ°è²ĮåıĳèĤ²":10671,"è°ĥåĴĮäºĨ":10672,"å°ºå¯¸":10673,"æ½ľçĥŃ":10674,"åĪ©äºļæĿ¾":10675,"åĩıå°ĳåĨľä¸ļçĶ¨åľ°ä½¿çĶ¨":10676,"å¤ªéĺ³è¾Ĳå°Ħ":10677,"æķĻèĤ²ä½ĵç³»":10678,"æķĻèĤ²æĬķèµĦ":10679,"å°ºåº¦ä¸ĭ":10680,"åį³å°Ĩ":10681,"ä¿ĿæĬ¤æĮĳæĪĺ":10682,"ä¾µèļĢéĢŁçİĩ":10683,"ä»ĭå¯¼":10684,"èĩªçĶ±è¯Ĺ":10685,"çĶµç£ģé¢ĳè°±":10686,"çŁ¿åĮĸ":10687,"æİ¨è¿ĽæĬĢæľ¯":10688,"åĪĩçīĩ":10689,"å¾Ģå¾Ģä¸İ":10690,"å¯ĨçłģåŃ¦åĵĪå¸Į":10691,"èĩªä¸»æĹłäººæľº":10692,"åįķåħĥ":10693,"å±ķçİ°åĩºæĽ´ä¼ĺ":10694,"é»ĺ":10695,"èĩ³ä¸Ĭ":10696,"è§Ĩè§ĴçļĦç¢İçīĩåĮĸå¤ĦçĲĨ":10697,"äººä»¬å¯¹ä¼łç»Ł":10698,"æĸĩèīºå¤įåħ´æĹ¶æľŁçļĦæ¹¿å£ģçĶ»":10699,"æĿİåĺīåĽ¾æ¯Ķè¾ĥä¼ĺåĬ¿çĲĨè®º":10700,"çļĦè®¤çŁ¥æĦŁçŁ¥":10701,"æ¶Īè´¹æĸĩåĮĸ":10702,"arch":10703,"åľ¨å¤ļåħĥ":10704,"éĩĳèŀįä¸Ńä»ĭ":10705,"åľ¨åħ¨çĲĥèĮĥåĽ´åĨħæĻ®åıĬ":10706,"æĺŁéĻħæ®ĸæ°ĳ":10707,"èİ·åıĸéĢĶå¾Ħ":10708,"è¯¥ç¿»è¯ĳç¬¦åĲĪ":10709,"è¯¥ç¿»è¯ĳå®ŀçİ°äºĨ":10710,"åį¡æĭī":10711,"ç¤¾åĮºä¸ŃçļĦ":10712,"åĮĹæŀģçĶ²çĥ·æİĴæĶ¾":10713,"å®ıè§Ĥç³»ç»Łä¸Ń":10714,"çĥŃå¸¦æ£®æŀĹçłįä¼Ĳ":10715,"æĢĿæĥ³å®ŀéªĮ":10716,"æľĢå¤§åĮĸçļĦ":10717,"Ġcol":10718,"ç³»ç»Łä¸ŃçļĦç®Ĺæ³ķåģıè§ģéĢļè¿ĩ":10719,"å¥¥æĭīç»´å°Ķ":10720,"çĲĨæĢ§éĢīæĭ©æ¨¡åŀĭ":10721,"èĥĮç¦»":10722,"çļĦä¼łç»Łè®¤çŁ¥":10723,"ä¸ªä½ĵçļĦ":10724,"æī¿è½½":10725,"åı¤ä»£æĸĩçĮ®çļĦ":10726,"åĬ³åĬ¨åĬĽå¸ĤåľºåĬ¨æĢģ":10727,"åįĬå¯¼ä½ĵå¸¦éļĻ":10728,"ä¸Ŀç»¸ä¹ĭè·¯æľªæĽ¾":10729,"æŁĵèī²":10730,"åĨ²ç§¯æīĩçļĦå½¢æĪĲè¿ĩç¨ĭ":10731,"çļĦè½¬åıĺè¿ĩç¨ĭ":10732,"æľįåĬ¡åĻ¨":10733,"Ġpatter":10734,"çŀ¬éĹ´":10735,"æłĩå¿ĹçĿĢ":10736,"ä»ĸä»¬çļĦ":10737,"ç¡®ç«ĭä¸º":10738,"æĺİæļĹæķĪæŀľ":10739,"éĩįå¤§çªģçł´":10740,"åįļå¼Īè®ºåľ¨å¸ĤåľºåĪĨæŀĲ":10741,"ä¸»æĿĥè´§å¸ģ":10742,"åľ°ä¸Ńæµ·åľ°åĮº":10743,"åľ°ä¸Ńæµ·è´¸æĺĵç½ĳç»ľ":10744,"å®¤æ¸©è¶ħå¯¼ä½ĵçļĦåıĳå±ķ":10745,"äººæľºåįıä½ľ":10746,"å¦Ĥæŀľåıįçī©è´¨åĤ¨åŃĺ":10747,"ç´§åĩĳ":10748,"åĳĺä¼ļ":10749,"çĶŁäº§åĬĽæıĲåįĩ":10750,"è´ŁæĬĺå°Ħçİĩçī¹æĢ§":10751,"the":10752,"çł´åĿıäºĨ":10753,"çĦ¦çĤ¹":10754,"åŀĤçĽ´åĨľä¸ļæĬĢæľ¯çļĦ":10755,"è·¨åĽ½èº«ä»½":10756,"éģµå¾ªä»¥ä¸ĭåİŁåĪĻ":10757,"è¡¥åģ¿":10758,"æŁĲç§į":10759,"ç¤¾ä¼ļç»ıæµİåĪĨå±Ĥ":10760,"è¶ĭäºİå¤įæĿĤåĮĸ":10761,"èĭ¥éĩıåŃĲéľ¸æĿĥ":10762,"ace":10763,"åĪĿå§ĭ":10764,"ç¯·":10765,"æ¨¡åŀĭçļĦé¢Ħæµĭ":10766,"èĵĿ":10767,"æĬĬåħ³":10768,"è§Ĵèī²å¡ĳéĢł":10769,"æŀģåľ°åľ°åĮº":10770,"æŀģåľ°åľ°åĮºçļĦ":10771,"Ġä¸ĵä¸ļæľ¯è¯ŃåĩĨç¡®æĢ§":10772,"çļĦè¡¨è¿°è§ĦèĮĥ":10773,"åĨ°çĽĸæ¶ĪéĢĢ":10774,"éļĲå½¢æĸĹ":10775,"ç¹ģèį£":10776,"çļĦç²¾ç¡®æĵįæİ§":10777,"çļĦç²¾ç¡®æİ§åĪ¶":10778,"ä»£éĻħè´¢å¯Į":10779,"Gç½ĳç»ľå¯ĨéĽĨåĮĸ":10780,"Gç½ĳç»ľåĪĩçīĩ":10781,"çĶŁçī©æłĩå¿Ĺçī©çļĦ":10782,"ç½ĳç»ľç¤¾ä¼ļèĮĥå¼ı":10783,"å»ºæŀĦä¸»ä¹īåŃ¦ä¹ł":10784,"æķ´ä¸ªçĶŁæĢģç³»ç»Ł":10785,"æĭľåįłåºŃé©¬èµĽåħĭä¼łç»Ł":10786,"æĹ¢ä¿ĿæĮģä¸ĵä¸ļ":10787,"æĹ¢ä¿ĿæĮģåŃ¦æľ¯ä¸¥è°¨æĢ§":10788,"è¡Įä¸ºç»ıæµİåŃ¦éĢļè¿ĩå¼ķåħ¥":10789,"æĬĳæī¬":10790,"åºŁæĸĻ":10791,"åºŁéĻ¤":10792,"åľºæĻ¯ä¸Ń":10793,"å¦ĤæŀľæļĹèĥ½éĩıå¯Ĩåº¦éļıæĹ¶éĹ´åıĺåĮĸ":10794,"æĢģåº¦æĶ¹åıĺ":10795,"æī§è¡ĮåĨ³çŃĸèĥ½åĬĽ":10796,"æ·±åº¦ä¼ªéĢłæĬĢæľ¯çļĦæ¿Ģå¢ŀ":10797,"æħ°":10798,"éĩįè¦ģæĢ§":10799,"ç¥ŀç»ıç»ĩç½ĳæĬĢæľ¯":10800,"çĶŁçī©å·¥ç¨ĭæĶ¹éĢłçļĦ":10801,"ç½ĳç»ľçĲĨè®ºåºĶçĶ¨":10802,"è·Ŀç¦»":10803,"å§Ķåĳĺä¼ļ":10804,"ä»ªåĻ¨":10805,"å¦Ĥæŀľå®¤æ¸©è¶ħå¯¼ä½ĵå®ŀçİ°åķĨä¸ļåĮĸåºĶçĶ¨":10806,"èµĦæľ¬ç§¯ç´¯æĺ¯":10807,"è¯Ńè¨ĢçĽ¸å¯¹è®ºåģĩè¯´è®¤ä¸º":10808,"æģ¶åĮĸ":10809,"ç¬¦åĲĪä¸Ńæĸĩè¡¨è¾¾ä¹łæĥ¯çļĦ":10810,"è¶ħæĿĲæĸĻéļĲèº«è£ħç½®":10811,"åĵ¥çī¹å¼ıå½©":10812,"éģĵå¾·çī¹æ®Ĭä¸»ä¹īä¸»å¼ł":10813,"çļĦæıĲåįĩä¸İ":10814,"ç¼ĸç»ĩä»»æĦıåŃĲ":10815,"Ġex":10816,"éĩĩçĶ¨äºĨæĪªçĦ¶ä¸įåĲĮçļĦ":10817,"äººå·¥åħīåĲĪä½ľçĶ¨ç³»ç»Ł":10818,"æ³¨æĦıåĬĽç»ıæµİ":10819,"éĽĨçº¦åĨľä¸ļ":10820,"èĩªåĬ¨é©¾é©¶æ±½è½¦åĨ³çŃĸç®Ĺæ³ķ":10821,"åº·å¾·çļĦç»Ŀå¯¹åĳ½ä»¤ä¸»å¼ł":10822,"meworks":10823,"éģĵå¾·å®ŀåľ¨è®ºèĥ½åĲ¦ç»ıåıĹä½ı":10824,"èĢĥåı¤éģĹåĿĢ":10825,"æĬķæľºäº¤æĺĵæ¨¡å¼ı":10826,"ç¤¾ä¼ļå¯¹å®ıå¤§":10827,"ä¸ĸçºªåĪĿæľŁ":10828,"è¶ħåĩºå½ĵåīį":10829,"åİ»ä¸Ńå¿ĥåĮĸçļĦäº¤æĺĵéªĮè¯ģ":10830,"èĭ¥å°ĨåĲĪæĪĲçĶŁçī©åŃ¦":10831,"Ġbi":10832,"éĥ¨åĪĨçĨĶèŀį":10833,"ç¤¾ä¼ļæĶ¿æ²»çİ°å®ŀ":10834,"è¿Ļæł·çļĦ":10835,"ä¼°ç®Ĺéĵ¶æ²³ç³»":10836,"åŁĥåıĬ":10837,"åŁĥåĪ©äºļæĿ¾":10838,"è¶ĭåĲĮæ¼ĶåĮĸ":10839,"çī©ç§įçļĦè¿ĽåĮĸè½¨è¿¹":10840,"åĲİæ®ĸæ°ĳæĸĩåŃ¦ä¸ŃçļĦéŃĶå¹»çİ°å®ŀä¸»ä¹īå¸¸ä»¥":10841,"æķ°åŃĹå¹³åı°ç»ıæµİä¸Ń":10842,"åĵ²åŃ¦ä¸ŃçļĦè¯Ńè¨ĢåŃ¦è½¬åĲĳå°Ĩ":10843,"åĵªäºĽç¤¾ä¼ļåŃ¦åĽłç´ł":10844,"è¶ħå¯¼éĩıåŃĲå¹²æ¶īè£ħç½®":10845,"ç¤¾äº¤åªĴä½ĵç®Ĺæ³ķéĢļè¿ĩéĢīæĭ©æĢ§åĨħå®¹æİ¨éĢģ":10846,"æīĢéľĢçļĦ":10847,"ä¸įåı¯éĢĨè½¬çļĦ":10848,"éģµå®Īéģĵå¾·è§ĦåĪĻ":10849,"åįĵè¶Ĭ":10850,"ç»´ç³»çĿĢ":10851,"å®ŀçİ°äºĨå¯¹çĶµç£ģæ³¢":10852,"èĥ½å¤Łè¾¾åĪ°çĶŁçī©ç¥ŀç»ıç½ĳç»ľçļĦæķĪçİĩ":10853,"æ·±åº¦ä¼ªéĢłæĬĢæľ¯çļĦæī©æķ£äºŁéľĢ":10854,"å¼ºåĪ¶æĢ§":10855,"æķ°åŃĹéĢļä¿¡å¹³åı°":10856,"æ¸©å®¤æ°Ķä½ĵæİĴæĶ¾":10857,"åİĮæģ¶":10858,"åįļå¼Īè®ºåľ¨è¿ĽåĮĸçĶŁçī©åŃ¦ä¸ŃçļĦåºĶçĶ¨":10859,"æ²Ļæ¼łåĮĸ":10860,"æ¿ĢåıĳæĢģ":10861,"è¶ħè¶Ĭç¡ħåŁºç³»ç»Ł":10862,"ç»ıæµİä¸ŃçļĦç½ĳç»ľæķĪåºĶ":10863,"èĦīåĨ²ç¥ŀç»ı":10864,"çİĽä¸½":10865,"éĩıåŃĲåľºè®ºå°Ĩç²ĴåŃĲ":10866,"éķľåĥıç¥ŀç»ıåħĥç³»ç»Ł":10867,"å¼ºè°ĥç»ıéªĮéªĮè¯ģçļĦè®¤è¯Ĩè®ºæ¡Ĩæŀ¶":10868,"å°Ĩå¦Ĥä½ķè¢«éĩįæĸ°å®ļä¹ī":10869,"è£ĤåıĺåıįåºĶåłĨ":10870,"èĸĦ":10871,"åĮºåŁŁæ°ĶåĢĻç¨³å®ļæĢ§":10872,"åħ¼é¡¾":10873,"Ġmodel":10874,"åĨħçĶŁå¢ŀéķ¿çĲĨè®ºå¼ºè°ĥçŁ¥è¯Ĩ":10875,"æĭĵå±ķäºĨ":10876,"åı¯èĥ½éĢļè¿ĩæĶ¹åıĺçĥŃéĩıåĪĨå¸ĥ":10877,"ç¨ĢåľŁéĩĳå±ŀ":10878,"å°¤ä¸ºä¸¥éĩį":10879,"çļĦäº¤æĺĵè®°å½ķ":10880,"ä¸İåĲİå¤©":10881,"æīĭæĬĦæľ¬å½©é¥°":10882,"æĤ²åī§æĢ§ç¼ºéĻ·":10883,"è¾¾åĪ°åīįæīĢæľªæľīçļĦæ°´å¹³":10884,"æĭįæĳĦ":10885,"åįļå¼Īè®ºåľ¨è¡Įä¸ºç»ıæµİåŃ¦ä¸ŃçļĦåºĶçĶ¨æıŃç¤ºäºĨ":10886,"æ²¹çĶ»é¢ľæĸĻçļĦåıĳæĺİä½¿æĸĩèīºå¤įåħ´æĹ¶æľŁçļĦèīºæľ¯å®¶":10887,"æĬķæľºæĢ§äº¤æĺĵæ¨¡å¼ı":10888,"æº¶è§£ä½ľçĶ¨åıĳèĤ²å½¢æĪĲ":10889,"æĿ¥è°ĥåĴĮçĽ¸äºĴçŁĽçĽ¾çļĦä¿¡å¿µ":10890,"tives":10891,"èĩªçĶ±éĹ´æİ¥å¼ķè¯Ń":10892,"èĥ¶åŃĲçŃīç¦»åŃĲä½ĵ":10893,"å¤§æ°Ķä¸ŃçļĦäºĮæ°§åĮĸç¢³æµĵåº¦":10894,"åŁºç¡ĢæĢ§åľ°ä½į":10895,"ency":10896,"çģ«èį¯ä¼łåħ¥æ¬§æ´²æĪĺåľº":10897,"å¹´éī´åŃ¦æ´¾çļĦéķ¿æĹ¶æ®µ":10898,"èĩ´åĳ½ç¼ºéĻ·":10899,"éĢļè¿ĩåĲĮæĹ¶åĳĪçİ°å¤ļä¸ªè§Ĩè§Ĵ":10900,"é£İæļ´æ½®":10901,"ä¸īç»´çİ°å®ŀåı¯èĥ½":10902,"ä¹ĺæķ°æķĪåºĶ":10903,"å®ģéĿĻ":10904,"åĮ¹éħį":10905,"å¾ĴåĽ°å¢ĥ":10906,"åıĹä¿ĿæĬ¤çļĦè¡¨éĿ¢æĢģ":10907,"Ġcomputing":10908,"è¿ŀéĢļæĢ§":10909,"ç®ĢåĮĸä¸ºåŁºæľ¬":10910,"èĢ¦åĲĪ":10911,"æĽ´ç²¾åĩĨåľ°":10912,"æ°ĳéĹ´ä¼łè¯´":10913,"é²įå¾·æ¸©":10914,"å·¥åħ·çļĦæĻ®åıĬåĮĸ":10915,"èµ¢å®¶éĢļåĲĥçļĦå¸Ĥåľº":10916,"åĽļå¾ĴåĽ°å¢ĥ":10917,"è´¬åĢ¼":10918,"ç½©æŁĵ":10919,"è´¨æĸĻä¸İ":10920,"åĿĩåĬ¿åİŁåĪĻ":10921,"STEM":10922,"æľīå£°ä¹¦":10923,"çĶŁçī©å£°åŃ¦çĽĳæµĭ":10924,"äº²ç¼ĺéĢīæĭ©":10925,"ç§ĳéĩĮå¥¥åĪ©":10926,"éļĲå½¢æĸĹç¯·":10927,"30":10928,"col":10929,"duc":10930,"her":10931,"ities":10932,"ll":10933,"str":10934,"ta":10935,"¨åŁº":10936,"»äºİ":10937,"èª":10938,"Ġr":10939,"ĠçĸĳéĹ®åı¥å¼ı":10940,"Ġenergy":10941,"ĽåĽ´":10942,"çļĦåŁİå¸Ĥ":10943,"çļĦåĲİæŀľ":10944,"çļĦæĬĹ":10945,"çļĦæŀĦå»º":10946,"çļĦåĪĽæĸ°":10947,"çļĦæ³ķå¾ĭ":10948,"çļĦçİ°æľī":10949,"çļĦé¢ľæĸĻ":10950,"çļĦåĽłæŀľ":10951,"çļĦéĩįè§Ĩ":10952,"çļĦçķĮéĻĲ":10953,"çļĦéĿ¶åĲĳ":10954,"çļĦæŀĦåĽ¾":10955,"çļĦå®Įç¾İ":10956,"çļĦä¿¡ä»»":10957,"çļĦèĩªåıĳ":10958,"çļĦæĪªçĦ¶ä¸įåĲĮ":10959,"çļĦèĥĮæĻ¯ä¸ĭ":10960,"çļĦåıĮéĩį":10961,"çļĦåĲİç»Ńåıĳå±ķ":10962,"åıĶ":10963,"ä½³":10964,"åĬ£":10965,"ä¼į":10966,"è®²":10967,"è®¿":10968,"èĥº":10969,"æĢ§ç»ĵæŀľ":10970,"æĢ§å¤±ä¸ļ":10971,"åľ¨å®ŀçİ°":10972,"åľ¨æĪĳ":10973,"åľ¨ä¿ĥè¿Ľ":10974,"åľ¨èĢĥèĻĳ":10975,"ä¸Ńåįłæį®ä¸»å¯¼åľ°ä½į":10976,"çī²":10977,"ä¸İåīįæīĢæľªæľīçļĦ":10978,"ä¸İå®ŀä½ĵ":10979,"ä¸İè¥¿æĸ¹":10980,"ä¸İè§Ĥä¼Ĺ":10981,"ä¸İåĨ¯":10982,"ä¸İåĩ¯æģ©æĸ¯ä¸»ä¹īçļĦ":10983,"ä¸İéĽĩåĳĺ":10984,"æĬ¼":10985,"è®ºä¸İ":10986,"è®ºçĤ¹":10987,"ä¸ºçĲĨè§£":10988,"æ°ĽåĽ´":10989,"è¾Ł":10990,"å±¿":10991,"å±ĭ":10992,"å±ĳ":10993,"ä¼ļåĩıå¼±":10994,"å°Ĩæĺ¾èĳĹ":10995,"å°Ĩè¶ħèĩªçĦ¶åħĥç´ł":10996,"å°Ĩè¿İæĿ¥":10997,"æĹ¶çļĦ":10998,"æĹ¶éĴŁ":10999,"æĹ¶éĿ¢ä¸´æĮĳæĪĺ":11000,"åĲĮæĹ¶æľŁ":11001,"åľ°äº§":11002,"åľ°è¿ĲçĶ¨":11003,"å®ŀçİ°å®Įåħ¨":11004,"å½¢çĬ¶":11005,"å¦ĤæŀľæĦıè¯Ĩ":11006,"å¦ĤæŀľæĪĳä»¬":11007,"å¦Ĥæŀľç¢³æįķèİ·":11008,"å¦Ĥæŀľå®ŀæĸ½åħ¨æ°ĳåŁºæľ¬æĶ¶åħ¥":11009,"å¦Ĥæŀľå¼¦çĲĨè®º":11010,"å¦Ĥæŀľå¼Ĥç§įæľºåĻ¨äºº":11011,"åı¯èĥ½å½»åºķéĿ©æĸ°":11012,"æľīå¤ļ":11013,"æľīæķĪåºĶå¯¹":11014,"æľīåĬ©äºİ":11015,"èĩ»äºİ":11016,"åŁºå°¼":11017,"ä»£å¸ģ":11018,"ä»£ä»·":11019,"ç³»ç»ŁæĢ§çļĦ":11020,"èĢĮå½¢æĪĲ":11021,"èĢĮçİ°è±¡åŃ¦":11022,"èĢĮåĨ²çªģ":11023,"èĢĮå¥¥åľ°åĪ©åŃ¦æ´¾":11024,"åĲĪè§Ħ":11025,"ç»ĵæĿŁ":11026,"ç»ĵæĻ¶":11027,"æķ°åĪĨè§£":11028,"ä¸įåĲĮçļĦåıĳå±ķ":11029,"åĲİæĿ¥":11030,"åĲİä¸ĸ":11031,"å·¥åİĤ":11032,"æķĪåĬĽ":11033,"ä¼łç»Łéĵ¶è¡Į":11034,"çĶŁçī©ç³»ç»Ł":11035,"çĶŁçī©å®īåħ¨":11036,"çĶŁçī©å¤§èĦĳ":11037,"å®ļè¨Ģ":11038,"èĩªç»Ļ":11039,"ä»¥ç»´æĮģ":11040,"ä»¥æĺłçħ§":11041,"æĽ´ä½İ":11042,"ç»ĵæŀĦè®¾è®¡":11043,"æ¨¡å¼ıåı¯èĥ½å¦Ĥä½ķå½±åĵį":11044,"ç¥ŀç»ıæķ°æį®":11045,"ç¥ŀç»ıä¼¦çĲĨåŃ¦":11046,"ç¥ŀç»ıé£İæł¼":11047,"åŃĺåľ¨æĢ§":11048,"åŃĺåľ¨æĺ¾èĳĹ":11049,"åŃĺåľ¨æľ¬è´¨åĮºåĪ«":11050,"åĵªäºĽæ°´æĸĩ":11051,"æĺ¯å¦Ĥä½ķåľ¨":11052,"çĶµèĥ½":11053,"éĿŀåĲĮè´¨åĮĸ":11054,"ç¤¾ä¼ļåħ³ç³»":11055,"ç¤¾ä¼ļèµĦæľ¬ç§¯ç´¯":11056,"æĮģæľī":11057,"èīºæľ¯çĲĨè®º":11058,"èīºæľ¯æī¹è¯Ħ":11059,"å½¢æĪĲæŃ£åıįé¦Īå¾ªçİ¯":11060,"æ°Ķæº¶":11061,"æĪĳå¯¹":11062,"æĪĳæĿ¥":11063,"éĺ´":11064,"èĥ½å¤Łåħĭæľį":11065,"æĦŁåĪ°":11066,"æľºåĪ¶ä½¿å¾Ĺ":11067,"æľºåĪ¶è§£éĩĬäºĨ":11068,"åıĻäºĭè§Ĩè§Ĵ":11069,"ä½ľçĶ¨éĢļè¿ĩ":11070,"æµ·è¡¨":11071,"è¾ĥé«ĺ":11072,"åºĶçĶ¨åŁºäºİCRISPRçļĦåŁºåĽłé©±åĬ¨æĬĢæľ¯":11073,"äºĴæĥł":11074,"æĸĩåŃ¦çĲĨè®º":11075,"æµĭåºı":11076,"çİ°ä»£æĢ§":11077,"äººç±»å¢ŀå¼ºæĬĢæľ¯":11078,"å°Ĩå¦Ĥä½ķåľ¨":11079,"æĦıè¯Ĩæĺ¯":11080,"æł¹æ·±":11081,"å¼ºè°ĥå®ŀä½ĵ":11082,"è®¤çŁ¥æ¡Ĩæŀ¶":11083,"è®¤çŁ¥èĢĥåı¤åŃ¦":11084,"å¸¸ä»¥":11085,"è¿ĩç¨ĭéĢļè¿ĩ":11086,"æķ°åŃĹæĹ¶ä»£":11087,"æķ°åŃĹåªĴä»ĭ":11088,"æķ°åŃĹåĽŀéŁ³å®¤":11089,"æ°´ä½ĵ":11090,"æ°´åĬĽ":11091,"æ°´åĪ©":11092,"èĢĮéĿŀå¯¹":11093,"èĢĮéĿŀä¼łç»Ł":11094,"æīĢæĮģ":11095,"åı¯èĥ½ä¼ļäº§çĶŁåĵªäºĽ":11096,"åı¯èĥ½ä¼ļåıĹåĪ°æĢİæł·çļĦå½±åĵį":11097,"åı¯èĥ½ä¼ļæ°¸ä¹ħæĶ¹åıĺ":11098,"éľĢè¦ģåħ·å¤ĩ":11099,"éľĢè¦ģå»ºç«ĭ":11100,"éľĢè¦ģå¦Ĥä½ķè°ĥæķ´":11101,"æİ¨è¿Ł":11102,"è¯Ńè¨Ģå¤ļæł·æĢ§":11103,"æł¼æĭī":11104,"åĽ¾å¼ı":11105,"æĸĩåĮĸä¸Ń":11106,"æĸĩåĮĸçĽ¸å¯¹ä¸»ä¹ī":11107,"éħ¬":11108,"å¸¦çļĦ":11109,"åħ¸ç±į":11110,"åŁºåĽłè½¬ç§»":11111,"æĹ¶éĹ´è¡¨":11112,"ç®Ĺæ³ķæ²»çĲĨ":11113,"æīĭç¨¿":11114,"çĶ»ä¸ŃçļĦ":11115,"ç«ĭåľº":11116,"çİ¯å¢ĥä¸ĭ":11117,"çİ¯å¢ĥåī¥åīĬ":11118,"éģĵå¾·é£İéĻ©":11119,"æĮĩåĲĳ":11120,"èĤ¢":11121,"åİĨåı²åŃ¦":11122,"æĺĵçĩĥ":11123,"å¤ĦçĲĨçļĦ":11124,"å±±åĮº":11125,"å±±éº":11126,"ä¸ĵä¸ļåĮĸçļĦ":11127,"åŁİå¸Ĥå£«":11128,"æĢ§çļĦåīįæıĲä¸ĭ":11129,"èģĶçĽŁ":11130,"ä¸ĸçºªåĲĪæĪĲ":11131,"ä½łè¦ģ":11132,"æŃ£å¸¸":11133,"æĮģç»Ńä¸į":11134,"å®ĩèĪª":11135,"åĵ²åŃ¦çķĮ":11136,"å®ĩå®ĻåĬłéĢŁèĨ¨èĥĢ":11137,"æ°ĶåĢĻç³»ç»Ł":11138,"æ°ĶåĢĻè°ĥèĬĤ":11139,"æĺ¯åĲ¦æľĢç»Ī":11140,"æĺ¯åĲ¦èĥ½åľ¨":11141,"é¢ĨåŁŁæľ¯è¯Ń":11142,"é¢ĨåŁŁæłĩåĩĨè¯ĳæ³ķ":11143,"åĢĺèĭ¥èĦĳæľºæİ¥åı£":11144,"åĢĺèĭ¥éĿĴéĵľæĹ¶ä»£å´©æºĥæľªæĽ¾åıĳçĶŁ":11145,"å·¥ä¸ļè§Ħæ¨¡åĮĸ":11146,"åģıåĲĳ":11147,"å¹»è§ī":11148,"èĥ½éĩıåĬ¿åŀĴ":11149,"è½¬åıĺä¸º":11150,"çĽ¸äºĴç«ŀäºī":11151,"ä¿¡æģ¯ä¼łéĢĴ":11152,"èĥ½å¤Łå®ŀçİ°å¤§è§Ħæ¨¡çºłéĶĻ":11153,"åĨľä¸ļæŃīæĶ¶":11154,"æłĩåĩĨåĮĸçļĦ":11155,"æłĩåĩĨè¡¨è¿°":11156,"æłĩåĩĨå°Ĩå¦Ĥä½ķæ¼Ķåıĺ":11157,"çĶŁäº§æķĪçİĩ":11158,"ä¹ĭéĹ´çļĦæľ¬ä½ĵè®º":11159,"ä½Ĩåı¯èĥ½":11160,"ä½ĨéľĢ":11161,"æ¿ĢçĥĪ":11162,"æĸ¹å¼ıä¸įåĲĮ":11163,"å¾®è°ĥ":11164,"å®īæħ°":11165,"æ²īéĻį":11166,"åĨ³çŃĸåĪĨæŀĲ":11167,"æĺ¾èĳĹéĻįä½İäºĨ":11168,"è·¨å¤§è¥¿æ´ĭ":11169,"æµ·æ´ĭæŃ»":11170,"æµ·æ´ĭçĶŁæĢģç³»ç»Łä¸ŃçļĦ":11171,"æĸĩæľ¬æĦıä¹īçļĦ":11172,"onic":11173,"æĸ¹éĿ¢åŃĺåľ¨çļĦ":11174,"ä½İå»¶è¿Ł":11175,"åİĨåı²ä¸ĬçļĦ":11176,"è§ĦèĮĥè¡¨è¿°":11177,"å¤ªå¹³":11178,"æł¹æľ¬æĢ§è´¨çĸĳ":11179,"æ·±ç©º":11180,"å½¢å¼ıåĮĸ":11181,"æľĢåĲİ":11182,"æ²īç§¯å²©":11183,"æ°¸è¿ľ":11184,"çļĦå½¢æĪĲä¸İ":11185,"æĪĳä»¬çĲĨè§£":11186,"æĥ¯æĢ§":11187,"æıĲä¾ĽåħħåĪĨ":11188,"æıĲä¾ĽåĲ¯ç¤º":11189,"æıĲä¾Ľç§ĳåŃ¦ä¾Ŀæį®":11190,"æĬĢæľ¯çļĦåºĶçĶ¨":11191,"åħ·æľīåĵªäºĽ":11192,"æĦŁçŁ¥çļĦ":11193,"èģļåħī":11194,"ä»İèĢĮæĶ¹åıĺ":11195,"åİ»çī©è´¨åĮĸ":11196,"ä¼łç»ŁçļĦçº¿æĢ§åıĻäºĭ":11197,"ä¼ĺåħĪåħ³æ³¨":11198,"åĳĪçİ°æĮĩæķ°çº§å¢ŀéķ¿":11199,"è§£æŀĦæ®ĸæ°ĳ":11200,"èµĦæľ¬æµģåĬ¨æĢ§":11201,"å¦Ĥä½ķéĢļè¿ĩæĵįæİ§":11202,"æĬĺçº¸":11203,"æĭīé©¬åħĭ":11204,"éĩıåŃĲè®¡ç®Ĺæľº":11205,"ä¸ĬçļĦæł¹æľ¬å·®å¼Ĥ":11206,"è¿ĳæľŁ":11207,"ä¾ĿèµĸçļĦ":11208,"å¨ģå°¼æĸ¯":11209,"ä½ķç§įå½±åĵį":11210,"éļıåĲİ":11211,"å¼Ģè¾Ł":11212,"åĪ©çĶ¨æķĪçİĩ":11213,"ä¸ĵä¸ļæľ¯è¯Ńè§ĦèĮĥ":11214,"åĬŁåĪ©ä¸»ä¹īå¼ºè°ĥ":11215,"çĽ¸å¯¹è®ºçº§":11216,"ä¸»å¯¼ä¼ģä¸ļ":11217,"è¡¨è§ĤéģĹä¼łè°ĥæİ§":11218,"æĪĸå°Ĩå½»åºķéĿ©æĸ°":11219,"è´¢äº§":11220,"è¡¨çİ°ä¸»ä¹īèī²å½©çĲĨè®º":11221,"åıĺå¾Ĺå¤įæĿĤåĮĸ":11222,"éķ¿æľŁå½±åĵį":11223,"åĬŁèĥ½éļľç¢į":11224,"åĬ³åĬ¨åĬĽåıĤä¸İ":11225,"æľīæľĽå½»åºķéĿ©æĸ°":11226,"å°ºåº¦ä¸ĬçļĦ":11227,"è¥¿æ¬§":11228,"é¦ĨèĹı":11229,"ä¿ĿæĬ¤çŃĸçķ¥":11230,"ä¿ĿæĬ¤å®ŀè·µ":11231,"ä¿ĿæĬ¤æİªæĸ½":11232,"ä»ĭè´¨":11233,"åı¯èĥ½ä¼ļå¦Ĥä½ķåıĳå±ķ":11234,"ä¸İä¼łç»Łç¤¾åĮºä¸įåĲĮ":11235,"å¼ķåıĳäºĨå¯¹":11236,"åıłåĬłåİŁçĲĨ":11237,"åĲİçİ°ä»£ä¸»ä¹īå°ıè¯´ä¸Ń":11238,"ç»ĺçĶ»ä¸Ń":11239,"éĢļè¿ĩå°Ĩæķ°æį®å¤ĦçĲĨ":11240,"ç¾¤ä½ĵæľºåĻ¨äºº":11241,"æĽ´æ³¨éĩįåĵģæł¼åŁ¹åħ»":11242,"èĩªä¸»ç³»ç»Ł":11243,"å±ķçİ°åĩºæĽ´é«ĺçļĦ":11244,"æľºåĻ¨åŃ¦ä¹łæķĪçİĩ":11245,"åĮºåŁŁåĨħçļĦ":11246,"åĳ¨åĽ´":11247,"ç®¡çĲĨç³»ç»Ł":11248,"æĸĩèīºå¤įåħ´æĹ¶æľŁçļĦåŃ¦æľ¯":11249,"æĸĩèīºå¤įåħ´æĹ¶æľŁçļĦæĺİæļĹå¯¹çħ§æĬĢæ³ķ":11250,"åİ»ä¸Ńå¿ĥåĮĸåħ±è¯Ĩ":11251,"ä¸»è§ĤæĢ§":11252,"çļĦå½±åĵįå¼ķåıĳäºĨåĵªäºĽåľ°ç¼ĺæĶ¿æ²»åĲİæŀľ":11253,"çļ®éĴ¦":11254,"åĨ·æĪĺ":11255,"å¤©ä½ĵçī©çĲĨ":11256,"å¦ĤæŀľæļĹèĥ½éĩı":11257,"ä¼ļå¼ķåıĳåĵªäºĽè®¤è¯Ĩè®ºå±ĤéĿ¢çļĦæĮĳæĪĺ":11258,"æ°´å¹³çļĦ":11259,"åĽ°éļ¾":11260,"å·¥ä½ľä¼¦çĲĨ":11261,"éĩıåŃĲéĢĢçĽ¸å¹²æľºåĪ¶":11262,"åħīåŃ¦æľĽè¿ľéķľ":11263,"è¯¥ç¿»è¯ĳåĩĨç¡®":11264,"å®ŀæĹ¶æķ°æį®å¤ĦçĲĨ":11265,"ç»´å¤ļåĪ©äºļæĹ¶ä»£":11266,"ç»´å¤ļåĪ©äºļæĹ¶ä»£çļĦ":11267,"äº¤æĺĵçļĦ":11268,"å£°æ³¢":11269,"åĳĪæĮĩæķ°çº§ä¸ĭéĻį":11270,"ç¤¾åĮºä¸Ń":11271,"åĮĹæŀģåľ°åĮºçļĦ":11272,"åĮĹæŀģæµ·å²¸åľ°è²Į":11273,"ç¢³éħ¸çĽĲåĮĸåŃ¦":11274,"å®ıè§Ĥå°ºåº¦":11275,"DNAæĬĺçº¸":11276,"åĬłéĢŁäºĨçī©èģĶç½ĳ":11277,"æľīæľºç¤¾ä¼ļ":11278,"ational":11279,"è´§å¸ģæĶ¿çŃĸçļĦæľīæķĪæĢ§":11280,"æľĢå¤§éĻĲåº¦":11281,"åĲ«æľī":11282,"çĲĨæĢ§éĢīæĭ©çĲĨè®º":11283,"oli":11284,"æĹ¥çĽĬæĻ®åıĬ":11285,"æĹ¥çĽĬå¢ŀéķ¿çļĦ":11286,"çĽĳç®¡çļĦ":11287,"æĹłæ³ķè¢«":11288,"å¹¶ç½®æīĭæ³ķ":11289,"åħ¨æģ¯åİŁçĲĨçĲĨè®º":11290,"æĶ¿åºľåĢŁè´·":11291,"åħ¨çĲĥåĮĸè¿Ľç¨ĭ":11292,"åĨ²ç§¯æīĩå½¢æĪĲ":11293,"åĨ²ç§¯æīĩå½¢æĪĲäºİ":11294,"èį¯çĲĨåŃ¦":11295,"åĮ»çĸĹæīĭæ®µ":11296,"ä¸įæĸŃæ¼Ķåıĺ":11297,"åİŁåŃĲçº§åı¯è§ĨåĮĸ":11298,"æķ°åŃĹé¸¿æ²ŁåĽł":11299,"æ±ĩçİĩ":11300,"è¯ģæį®è¡¨æĺİ":11301,"æĬĺå°Ħåĩºä¸ĢæĪĺåĲİ":11302,"éĩıåŃĲåıłåĬłéĢļè¿ĩ":11303,"åħ³éĶ®ä½ľçĶ¨":11304,"omm":11305,"ç½ĳç»ľå®īåħ¨æ¼ıæ´ŀ":11306,"æľ¬ä½ĵè®ºåľ°ä½į":11307,"ature":11308,"ä½ıæĪ¿":11309,"èĻ½èĥ½":11310,"åĨħéĥ¨çļĦ":11311,"è·¨ä»£éĻħ":11312,"æįķæįīçŀ¬æģ¯ä¸ĩåıĺ":11313,"çļĦä¼¦çĲĨæĭħå¿§":11314,"å²Ľå±¿":11315,"æĬ¥åĳĬ":11316,"æŀģç®Ģä¸»ä¹īçļĦ":11317,"çĶŁçī©å¤ļæł·æĢ§çĥŃçĤ¹":11318,"è¿ģç§»ç®Ĺæ³ķ":11319,"å®¢è§Ĥä¼¦çĲĨ":11320,"çªģè§¦ä¿®åīª":11321,"æĹ¶éĹ´å°ºåº¦åĨħ":11322,"è¶ħå¯¼æĿĲæĸĻ":11323,"åĪ¶éĢłä¸ļä¾ĽåºĶéĵ¾":11324,"è½½èį·":11325,"çĶ»å»ĬæĪĲä¸ºä¸»æµģ":11326,"åĲİæ®ĸæ°ĳæĸĩåŃ¦ä¸Ń":11327,"åĲİæ®ĸæ°ĳæĸĩåŃ¦å¸¸éĢļè¿ĩ":11328,"çļĦæĹ¶éĹ´ç»´åº¦":11329,"çĤ¹å½©æ´¾èī²å½©çĲĨè®º":11330,"åĲĮè´¨æĢ§":11331,"èĻļæĭŁçİ°å®ŀçķĮéĿ¢":11332,"çļĦåħ´èµ·ä¸İ":11333,"å¤©ä½ĵçĶŁçī©åŃ¦çļĦçłĶç©¶":11334,"è¢«è¯ģå®ŀæĪĲç«ĭ":11335,"åĻ¨å®ĺçŁŃç¼º":11336,"ç¥ŀç»ıåħĥæ´»åĬ¨":11337,"åıªè¦ģ":11338,"è´¢æĶ¿æĶ¿çŃĸæľīæķĪæĢ§":11339,"èīºæľ¯è¿ĲåĬ¨ä¸Ń":11340,"è¯ºä¾ĿæĽ¼çĵ¶é¢Ī":11341,"ç½ĳç»ľç¤¾ä¼ļçĲĨè®º":11342,"åį°åĪ·æľºçļĦå¼ķåħ¥":11343,"å½¢æĪĲäºĨçĭ¬çī¹çļĦ":11344,"å¼ºçĥĪçļĦèī²å½©":11345,"åĸĢæĸ¯çī¹åľ°è²ĮéĢļè¿ĩåı¯æº¶æĢ§åŁºå²©çļĦ":11346,"è¯Ńæ³ķçĲĨè®º":11347,"è¾¹ç¼ĺè®¡ç®ĹéĢļè¿ĩåľ¨":11348,"æ²Ļé¾Ļ":11349,"éĹ´çļĦçĽ¸äºĴä½ľçĶ¨":11350,"çļĦç²¾åĩĨè°ĥæİ§":11351,"ä¹łå¾Ĺè¡Įä¸º":11352,"éģĵå¾·å®ŀåľ¨è®ºèĥ½åĲ¦åľ¨ä¸įè¯īè¯¸":11353,"æ±ĩèģļåŀĭæĿ¿åĿĹè¾¹çķĮ":11354,"çļĦæī¹åĪ¤æĢ§":11355,"éĩıåĮĸäºĨ":11356,"éļĶç»Ŀ":11357,"æŀĦéĢłæĿ¿åĿĹæ±ĩèģļ":11358,"éĿĴéĵľæĹ¶ä»£æĸĩæĺİçļĦè¡°èĲ½":11359,"äºĴæĸĩæĢ§æīĭæ³ķ":11360,"åľ°éĿ¢æĽ¿ä»£æĸ¹æ¡Ī":11361,"æ²ĥå°Ķ":11362,"åĲĮæŃ¥èĩªè½¬":11363,"çİĩçļĦä¸ĭéĻį":11364,"æľªèĥ½åħħåĪĨ":11365,"ä¿ĿçķĻäºĨåİŁæĸĩçļĦ":11366,"èįĴè¯ŀä¸»ä¹ī":11367,"çĶŁçī©å·¥ç¨ĭåĻ¨å®ĺ":11368,"åĲ¯èĴĻè¿ĲåĬ¨æĹ¶æľŁçļĦ":11369,"åįļçī©é¦Ĩè®¤åı¯":11370,"è´¸æĺĵè·¯çº¿çļĦ":11371,"éĺ¶çº§åĪĨå±Ĥ":11372,"Ġreal":11373,"è±¡å¾ģæĢ§èī²å½©":11374,"éģĵå¾·çī¹æ®Ĭä¸»ä¹īéĢļè¿ĩå¼ºè°ĥ":11375,"ä¸Ńä»ĭçļĦ":11376,"è¿ŀç»ŃçļĦ":11377,"è¿ŀç»ŃæĢ§":11378,"ments":11379,"çļĦæ¯Ķè¾ĥåĪĨæŀĲæıŃç¤ºäºĨäºĮèĢħåľ¨":11380,"åĵªäºĽæĬĢæľ¯æĮĳæĪĺ":11381,"å±Ĥæ¬¡åĪĨæĺİ":11382,"ç¢İçīĩåĮĸçļĦæĹ¶éĹ´çº¿":11383,"å§¿æĢģæĢ§ç¬Ķè§¦":11384,"éĩıåŃĲçºłç¼łæķĪåºĶ":11385,"è½¯ä½ĵ":11386,"èĩªåĬ¨é©¾é©¶æ±½è½¦çļĦå¹¿æ³ĽæĻ®åıĬ":11387,"åİ»ä¸Ńå¿ĥåĮĸèĩªæ²»ç»Ħç»ĩå¦Ĥä½ķéĢļè¿ĩ":11388,"å¯»æī¾":11389,"åıĮè¯Ńèĥ½åĬĽ":11390,"éģĵå¾·å®ŀåľ¨è®ºèĥ½åĲ¦ä¿ĿæĮģåħ¶":11391,"çİ°ä»£ä¸»ä¹īæĸĩåŃ¦ä¸ŃçļĦæĦıè¯Ĩæµģæīĭæ³ķ":11392,"åģ¥åº·æĮĩæłĩ":11393,"è®¤è¯Ĩè®ºå±ĤéĿ¢çļĦä¸įç¡®å®ļæĢ§":11394,"çĪ¶æ¯į":11395,"è¿Ĳä½ľæľºåĪ¶":11396,"çªģçĦ¶åģľæŃ¢":11397,"ä¿¡æģ¯ä¼łæĴŃæ¨¡å¼ı":11398,"çĵ¦ä¹Ķ":11399,"åı¯èĥ½åĤ¬çĶŁåĵªäºĽ":11400,"åĲİçİ°ä»£åħĥå°ıè¯´æĪĲä¸ºä¸»å¯¼":11401,"çļĦåŁºç¡Ģä¸Ĭ":11402,"æĸĹäºī":11403,"åľ¨æľªæĿ¥åĩłåįģå¹´åĨħ":11404,"èĭ¥èĦĳæľºæİ¥åı£å®ŀçİ°ç¥ŀç»ıåħ±çĶŁ":11405,"åĲ¯åıĳå¼ı":11406,"que":11407,"æķ°ä¸ªä¸ĸçºª":11408,"æłĳæŀĿçĬ¶æ°´ç³»æ¨¡å¼ı":11409,"ä¼ļäº§çĶŁåĵªäºĽè®¤è¯Ĩè®ºå±ĤéĿ¢çļĦæĮĳæĪĺ":11410,"åĪ¶çº¦äºĨ":11411,"èĢĮéĿŀåŁºäºİè§ĦåĪĻ":11412,"æĺİæļĹå¯¹æ¯Ķæ³ķ":11413,"åī©ä½Ļäº§åĵģ":11414,"çļĦä¸»è¦ģåªĴä»ĭ":11415,"æł¹æľ¬æĢ§çļĦéĩįæĸ°è®¾è®¡":11416,"åı¯èĥ½åıĳçĶŁæĢİæł·çļĦè½¬åıĺ":11417,"ized":11418,"è¡Ģç®¡":11419,"ä¸įåı¯éĢĨè½¬åľ°æĶ¹åıĺ":11420,"æŁĶæĢ§çĶµåŃĲåĻ¨ä»¶":11421,"åĢĺèĭ¥äºļåİĨå±±å¤§åĽ¾ä¹¦é¦Ĩå¾Ĺä»¥å®Įæķ´ä¿ĿåŃĺ":11422,"å¦Ĥæŀľå¾®çĶŁçī©ç»Ħç§»æ¤į":11423,"åĮĹæĸ¹":11424,"æİĮæİ§":11425,"ä¸¤ç§įæĪªçĦ¶ä¸įåĲĮçļĦ":11426,"ä»·åĢ¼è¯Ħä¼°ä½ĵç³»":11427,"è¯¥ç¿»è¯ĳåľ¨ä¿ĿæĮģä¸ĵä¸ļæĢ§çļĦåĲĮæĹ¶":11428,"åħ·æľīè´ŁæĬĺå°ĦçİĩçļĦè¶ħæĿĲæĸĻéĢļè¿ĩ":11429,"åĲİåį°è±¡æ´¾èī²å½©çĲĨè®º":11430,"åı¤åħ¸ç»ıæµİåŃ¦ä¸įåĲĮ":11431,"å¿ĥèº«äºĮåħĥè®º":11432,"ç½Ĺé©¬å¸ĿåĽ½çļĦ":11433,"åĳ¼åºĶ":11434,"çĭŃä¹īçĽ¸å¯¹è®ºä¸İ":11435,"èľ¡":11436,"çİĽéĽħ":11437,"é»ĳæł¼å°Ķè¾©è¯ģæ³ķè®¤ä¸º":11438,"å¸®åĬ©":11439,"æĪĲå¹´äºº":11440,"åŁºåĽłç¼ĸè¾ĳæĬĢæľ¯çļĦåıĳçİ°":11441,"ç¡®ç«ĭçļĦåĽ½å®¶ä¸»æĿĥ":11442,"å·´æ´Ľåħĭç»ĺçĶ»ä¸ŃçļĦ":11443,"éģŃåĪ°æ·ĺæ±°":11444,"prec":11445,"Ġnarra":11446,"ä¸İå¼Ĺæ´Ľä¼Ĭå¾·çļĦç²¾ç¥ŀåĪĨæŀĲ":11447,"è¡Ĺå¤´èīºæľ¯":11448,"çĶµåĬĽä¼łè¾ĵ":11449,"èĴĤåĽº":11450,"è·¨åĽ½ç§»æ°ĳæ¨¡å¼ı":11451,"èĻ«æ´ŀç¨³å®ļåĮĸ":11452,"çİ»çĴĥå¤©èĬ±æĿ¿æķĪåºĶ":11453,"æĪ´æ£®ç¾¤":11454,"æ¯Ķè¾ĥä¼ĺåĬ¿çĲĨè®ºæľªèĥ½è§£éĩĬ":11455,"Ġprocess":11456,"éĶĮæĮĩæł¸éħ¸éħ¶æĬĢæľ¯":11457,"å²ģä»¥ä¸Ĭ":11458,"å¤©ä½ĵçī©çĲĨåŃ¦åĴĮ":11459,"åĵªäºĽç¤¾ä¼ļè¯Ńè¨ĢåŃ¦åĽłç´ł":11460,"åı¯èĥ½åľ¨æľªæĿ¥åĩłåįģå¹´åĨħ":11461,"å¤ĸçļ®è´¨ç¥ŀç»ıæİ¥åı£":11462,"çĽ¸äºĴåĨ²çªģçļĦä¿¡å¿µ":11463,"çŁ¥è¯Ĩæº¢åĩºæķĪåºĶ":11464,"èį£æł¼çļĦåİŁåŀĭ":11465,"æ¬§æ´²ä¸Ńå¿ĥä¸»ä¹īåİĨåı²åıĻäºĭ":11466,"ä¸Ńå¾®åŃĲæĮ¯èį¡æ¨¡å¼ı":11467,"æĥħç»ªè°ĥèĬĤèĥ½åĬĽ":11468,"éĿŀä¾µåħ¥å¼ıé«ĺå¸¦å®½":11469,"èĩ³ä»Ĭä»įæĮģç»Ńå½±åĵįçĿĢ":11470,"æĽ´åĩĨç¡®åľ°":11471,"éļĨåįĩ":11472,"åĵªäºĽçĶŁçī©åĬĽåŃ¦":11473,"çĶŁæĢģå¥³æĢ§ä¸»ä¹īæĸĩåŃ¦":11474,"æ¸ħæ´ģèĥ½æºĲ":11475,"Ġtech":11476,"èĢĮçİ°ä»£ä¸»ä¹īä½ľåĵģ":11477,"ç²¾å¿ĥè®¾è®¡çļĦ":11478,"ç²ĴåŃĲçļĦäº§çĶŁåĴĮæ¹®çģŃ":11479,"çººç»ĩçĶŁäº§çļĦ":11480,"åĲ«æ°´å±Ĥ":11481,"èķ´åĲ«":11482,"åį°è±¡æ´¾ä¸İçĤ¹å½©æ´¾æĬĢæ³ķ":11483,"ä»İå°ģå»ºåĨľä¸ļ":11484,"åħ·å¤ĩæĦŁçŁ¥èĥ½åĬĽçļĦ":11485,"åħīä¼ıåıĳçĶµæķĪçİĩ":11486,"ç¥ŀç»ıè°ĥæİ§æ¤įåħ¥çī©":11487,"éĩıåŃĲéĢĢçĽ¸å¹²çĲĨè®ºè¯ķåĽ¾éĢļè¿ĩçİ¯å¢ĥçĽ¸äºĴä½ľçĶ¨":11488,"ä¸įå¾Ĺä¸į":11489,"å¼ķåıĳæ°ĶåĢĻçªģåıĺ":11490,"åĨįåº¦åħ´èµ·":11491,"éĽĩä¸»ä¸İéĽĩåĳĺ":11492,"èŀįèµĦçļĦæĶ¿åºľæĶ¯åĩº":11493,"æĥħæĬ¥æľºæŀĦ":11494,"aradig":11495,"ç»Ŀå¯¹çĶŁäº§çİĩå·®å¼Ĥ":11496,"å®ŀéªĮå®¤åŁ¹èĤ²èĤīå®ŀçİ°ä»·æł¼æĮģå¹³":11497,"ansformer":11498,"çģŃç»Ŀæ¨¡å¼ıä¸İäººç±»è¿ģå¾ĻæĹ¶éĹ´çº¿":11499,"LEN":11500,"ä¸ºä¸Ģä½ĵ":11501,"é¢ĩåħ·äºīè®®":11502,"æµ·éĿ¢æ¸©åº¦è¶ħè¿ĩ":11503,"å¥´éļ¶":11504,"Ġframeworks":11505,"æĭĵæīĳç»Ŀç¼ĺä½ĵåľ¨è¡¨éĿ¢å¯¼çĶµçļĦåĲĮæĹ¶åĨħéĥ¨":11506,"ä¸İæ¹¿å£ģçĶ»æĬĢæ³ķä¸įåĲĮ":11507,"ä¸İéĢ»è¾ĳå®ŀè¯ģä¸»ä¹īä¸įåĲĮ":11508,"æ²ĥå¤«åģĩè¯´":11509,
[...]
