#version: 0.2
â Ģ
ï ¼
ä ¸
ï¼ Į
è ¯
âĢ ľ
âĢ Ŀ
Ģ Ĥ
ç ļ
çļ Ħ
ã ĢĤ
å ı
å Ĳ
æ ĺ
æ ľ
æĺ ¯
æ Ī
æ ĸ
ç ¡
ç¡ ®
è ¿
è¯ ĳ
ç Ķ
è ¦
è¦ ģ
ç »
æĸ ĩ
t i
ä¸ Ń
å Ń
o n
» è¯ĳ
ç ¿
ç¿ »è¯ĳ
æ Ģ
åı ¥
ä »
ä ½
çĶ ¨
å ĩ
è¿ Ļ
a l
è¯ Ń
å ħ
ä º
æľ ¯
å ľ
è ¾
e r
i n
æ ŀ
ä ¿
e n
e s
ĥ ½
æ ¯
åĲ Ī
é ĩ
é ľ
æĢ §
éľ Ģ
åı ¯
Ľ ´
ä¸Ń æĸĩ
åĩ Ĩ
éľĢ è¦ģ
å º
è ĥ½
å Ī
è ®
ä ¹
è Ģ
æ¯ Ķ
¦ Ĥ
åĩĨ ç¡®
åľ ¨
å ¦Ĥ
å ¤
ti on
é Ģ
å ®
æľ¯ è¯Ń
åŃ Ĳ
ç» ĵ
ä¿ Ŀ
ä¸ º
a n
æ Ŀ
è ¡
ä» ¥
ä ¼
åĲ İ
i c
æľ ī
æ Ľ´
æ ķ
ç Ĳ
å İ
è¾ ¾
æ Ĺ
æ Ħ
âĢĿ ï¼Į
r e
æ ī
çĲ Ĩ
åı¯ èĥ½
å ¸
ç»ĵ æŀ
åŃ ¦
Ġ c
è §
æĪ ĸ
å Ĭ
å ¼
æ Ń
Ġ t
o r
åİ Ł
åı¥ åŃĲ
æĦ ı
æ µ
æ Į
åº Ķ
ä¸ ª
å Į
æ İ
è¡ ¨
éĩ Į
a t
s t
ç»ĵæŀ Ħ
ç ¬
¦ åĲĪ
æ ³
Ġ p
æĿ ¥
ç¬ ¦åĲĪ
ä¸ į
æī Ģ
æ ł
ç Ħ
æĪ ĳ
çĦ ¶
a r
æĪ Ĳ
åĮ ĸ
æĪ ·
çĶ¨ æĪ·
ç İ
éĢ ļ
å ¯
é ĢĤ
æİ ¥
è¡¨ è¾¾
æķ ´
æ ²
i t
è¿Ļ éĩĮ
r o
ç¡® ä¿Ŀ
å¸ ¸
ç ķ
æ¯Ķ å¦Ĥ
a tion
é ¢
å Ĵ
æīĢ ä»¥
åĴ Į
ä¸ ļ
æĹ ¶
æŃ £
æĺ¯ åĲ
Ġ m
é Ĺ
Ġ d
æ ĥ
e c
è ĩ
è °
æµ ģ
å Ĩ
ï¼ ļ
ä¸ ĭ
å Ľ
æĺ¯åĲ ¦
Ġ s
æ Ĭ
o l
. .
ä¸ ĵ
ä¸ Ģ
e d
æ² ¡
ä¹ ł
en t
è§ £
é Ŀ
é ģ
ä¸ »
ä¸ĵ ä¸ļ
ï¼Į âĢľ
ç¬¦åĲĪ ä¸Ńæĸĩ
i s
æŃ£ ç¡®
è° ĥ
èĢ ħ
å °
Ġ in
æĥ ¯
çķ ħ
ä¹ł æĥ¯
a c
ï¼ļ âĢľ
çİ °
æµģ çķħ
äº Ĩ
Ł ¥
Ģ æ
ç ī
e m
èĩ ª
æ ±
åħ Ī
ä½ ¿
åİŁ åı¥
âĢĿ ãĢĤ
ä¼ ł
ç¿»è¯ĳ æĪĲ
åĪ Ĩ
å ½
é ¦
æ²¡ æľī
éĹ ®
åĲ Į
å¯ ¹
o m
æľ Ģ
é¦ ĸ
æ³ ķ
å ¾
u r
ç §
Ġt h
in g
èĢ Į
r a
çĶ Ł
å¼ ı
é¦ĸ åħĪ
å Ł
è¾ ĥ
æ Ķ
ä½ Ĩ
Ġ f
èĩª çĦ¶
ä¹ ī
v e
æĮ ģ
æĸ ¹
æ £
æ± Ĥ
æĮ ĩ
åħ ³
ç¿»è¯ĳ ä¸º
è¿ ĩ
u l
æ¯Ķ è¾ĥ
Ģæ Ł¥
æ£ ĢæŁ¥
a s
ä¼ ļ
è ´
ä½ ĵ
è® º
è¡¨è¾¾ ä¹łæĥ¯
å į
è Ļ
ä¸Ń çļĦ
åĲĪ éĢĤ
ä ¾
e t
éĿ ¢
ä¸ĭ æĿ¥
è® ¤
è¯ Ŀ
å ¹
æĢ Ŀ
åºĶ è¯
o g
æİ¥ ä¸ĭæĿ¥
å ¿
ä½¿ çĶ¨
åĩ º
ç Ľ´
Ġ re
åĽ ł
ç» ı
åºĶè¯ ¥
è°ĥ æķ´
æ ģ
ti c
ç Ľ
ä¿Ŀ æĮģ
åĬ ¨
èĢ ĥ
æĦı æĢĿ
æĬ Ģ
i g
å® ŀ
ãĢĤ âĢľ
å ¥
æł ·
ic al
ä½ ķ
ç ®
ç ³
æĸĩ åĮĸ
é¢ ĺ
æ ¼
èĻ ĳ
Ġ e
å ·
åı¥ è¯Ŀ
ç³ »
åı¯ ä»¥
èĢĥ èĻĳ
å ĵ
æĪĳ éľĢè¦ģ
æ °
Ġ o
c e
çĲĨ è§£
çĦ¶ åĲİ
ä¸ĵä¸ļ æľ¯è¯Ń
ä¿ ¡
éģ Ĺ
è¿Ļ åı¥è¯Ŀ
è¯ į
Ġ b
Ġ [
I N
T H
IN K
TH INK
æľĢ åĲİ
äº İ
é ¡
åľ °
çļĦ æĺ¯
Ġ a
çļĦ æĦıæĢĿ
æµģçķħ æĢ§
å¥ ½
æģ ¯
l e
è µ
ã Ģ
ä¼ł è¾¾
å¤ ĸ
.. .
Ġ w
çļĦ ç»ĵæŀĦ
éĢļ å¸¸
æ³ ¨
ãĢĤ âĢĿ
ç Ń
å ±
ï¼ Ł
è¿Ļ æł·
ä¿¡ æģ¯
ä¸ Ĭ
æĪĸ èĢħ
æ¼ ı
ãĢ ģ
t er
åĲĮ æĹ¶
çī ©
éĢĤ åºĶ
éģĹ æ¼ı
æ ı
è¯ »
s i
ç ¤
ç¡® è®¤
å¥½ çļĦ
è¦ģ æ±Ĥ
å® ļ
å ī
å¤ Ħ
é Ķ
æ ĭ
æ³¨ æĦı
è¯ĳ ä¸º
ç» Ł
éĹ® é¢ĺ
åı¯èĥ½ éľĢè¦ģ
Ġ å¥½çļĦ
l y
æĸĩåĮĸ éĢĤåºĶ
ä¸» ä¹ī
u n
åı ĺ
åĩĨç¡® æĢ§
å¤Ħ çĲĨ
it y
l i
åĩĨç¡® ä¼łè¾¾
æĸĩåĮĸéĢĤåºĶ æĢ§
Ġc on
äº º
ç¬¦åĲĪä¸Ńæĸĩ è¡¨è¾¾ä¹łæĥ¯
çĽ´ æİ¥
å ¢
åĬ ł
è¿ ĺ
ä½ ľ
é ĥ
éĥ ¨
q u
Ġ h
ol og
åŁ Ł
çļĦ ç¿»è¯ĳ
æ Ļ
r i
o w
å¸¸ çĶ¨
åĪ °
Ġ n
¨ ¡
c i
å¼ º
t h
è¿Ļ ä¸ª
ç º
æ ¨¡
æŀ ľ
Ġth e
æĬĢ æľ¯
éĩ į
é¢ Ĩ
åº ı
âĢ ¦
u c
é¢Ĩ åŁŁ
at e
æı Ĳ
a b
éĥ¨ åĪĨ
éĢļ è¿ĩ
è ī
ç ¨
æ į
o d
è® ©
v er
r es
p h
Ġ g
éĩ ı
çĽ ¸
åĨ ħ
l o
æĺ İ
è¡ Į
ä¸Ģ ä¸ª
å¦Ĥ ä½ķ
ç» Ļ
. âĢĿ
ä¸ İ
m ent
æķ´ ä¸ª
e l
èµ ·
åı ĳ
åº ¦
ç§ ĳ
è¦ģ æ³¨æĦı
åħ ¶
è ĭ
æ¯ ı
è¯ ´
ti n
æł ĩ
h i
æ¯ı ä¸ª
åī į
Ġo f
æ²¡æľī éģĹæ¼ı
é¡ º
åİŁ æĦı
æĮĩ çļĦæĺ¯
å½ ¢
åı¥åŃĲ çļĦ
åŃ¦ æľ¯
åĬ Ľ
æ ´
äº Ľ
ä¹ Ł
çī ¹
ä¾ ĭ
è¯ ¯
è¯Ń åºı
ç ĸ
æĹ ¢
i st
éĹ ´
åı Ī
æĢ ģ
t u
st r
å® ¹
é Ļ
åĪ ¶
i z
u g
æľ ¬
å° Ĩ
è ¶
Ġp ro
åı¥åŃĲ ç»ĵæŀĦ
an d
Ġt o
ti ve
èµ· æĿ¥
i d
æľ º
è¦ģ ç¡®ä¿Ŀ
ation s
å¢ ĥ
p l
ç¬¦åĲĪä¸Ńæĸĩ çļĦ
åĲİ çļĦ
æĸ¹ éĿ¢
ç¿»è¯ĳæĪĲ ä¸Ńæĸĩ
ç Ĥ
Ġ l
æ ¡
ä» £
å¯ ¼
ec t
ç¨ ĭ
æķ °
ç ½
åı ¦
çĤ ¹
é ĥ½
æ° Ķ
å¤ §
èī º
ig h
ï¼Ł âĢĿ
åľ¨ è¿ĻéĩĮ
æ¯Ķè¾ĥ åĲĪéĢĤ
ug h
å¼º è°ĥ
å¦Ĥ æŀľ
åı¦ å¤ĸ
u s
a d
ç¿»è¯ĳ åĲİçļĦ
is m
ä¾ĭ å¦Ĥ
åĨ į
åľ¨ ä¸Ńæĸĩ
ç»ĵæŀ ľ
å ĳ
Ġ en
å Ģ
Ġe x
å ģ
æŃ ¤
åĨħ å®¹
o ul
åı Ĭ
åŁ º
c h
oul d
èĭ ±
ä» ĸ
tin g
ç¤ º
ro ugh
å¾ Ĺ
olog ical
éĢļ é¡º
i l
æ ¶
ec h
om p
éĶ ®
å½ ±
åºĶè¯¥ æĺ¯
æµ İ
æį ®
ç»ı æµİ
Ġ ac
o s
éĩ Ĭ
åħ³ éĶ®
æĶ ¹
ç»Ļ åĩº
å° ±
çĲĨ è®º
ä¸į åĲĮ
i m
ä» »
çİ° åľ¨
èĭ± æĸĩ
æĶ ¾
æłĩ åĩĨ
igh t
ï¼ Ī
ï¼ ī
å· ¥
ç³» ç»Ł
è¿ Ľ
æł ¹
f f
ç ľ
a in
ä» ¶
æĬ Ĭ
çĸ ĳ
ç® Ĺ
g e
ç ł
è®© æĪĳ
a p
åı¯èĥ½éľĢè¦ģ è°ĥæķ´
ç ©
es s
åĵ į
ç§ į
æ ¸
i es
çĶ¨æĪ· è®©æĪĳ
or m
æĹ ł
å½± åĵį
çĶ¨æĪ· çļĦ
è® ¡
è¯» èĢħ
è´ ¨
ç ±
ä¸ Ķ
èīº æľ¯
i r
ç¤ ¾
ä¸ĵä¸ļæľ¯è¯Ń çļĦ
ç¿»è¯ĳ æĹ¶
d i
çĶŁ çī©
æľ¯è¯Ń çļĦ
çĸĳ éĹ®
Ġs y
å ŀ
è§ ģ
it h
p er
i al
Ġ é¦ĸåħĪ
åı¯èĥ½ æĽ´
èĢĮ ä¸į
éĢ ī
åħ ¨
è ½
çĶ¨æĪ·è®©æĪĳ ç¿»è¯ĳ
si on
è¯ Ĩ
åĩĨç¡® çĲĨè§£
u t
æĿ ¡
å¤ ļ
ç ¼
ä¾ Ľ
ä¸ĵä¸ļ æĢ§
st em
è® ¾
åı ª
a m
è§£ éĩĬ
åŃ ĺ
è¯ĳ æ³ķ
åı¥åŃĲçļĦ æµģçķħæĢ§
å¤ į
ur al
å¹ ¶
ä¸į éľĢè¦ģ
ç Ł¥
èĩ ´
æľ Ł
æŀ Ħ
æĸ¹ å¼ı
ç» Ī
æĿ¡ ä»¶
Ģæ ´
æĺ¯åĲ¦ æŃ£ç¡®
è ±
æķ Ī
æ ·
en ce
å¼ ķ
æľĢ ç»Ī
è¿Ļ æĺ¯
åħ³ ç³»
æĶ¾ åľ¨
at es
æĪ ĺ
Ġ æĺ¯
æŀ Ĳ
ç® Ģæ´
ç®Ģæ´ ģ
èĢĮä¸į æĺ¯
åĽł ä¸º
ç¿»è¯ĳåĲİçļĦ åı¥åŃĲ
æĺ¯åĲ¦ æľī
å®ŀ çİ°
è± ¡
ç ¥
çİ ¯
åİŁ æĸĩ
åĪĨ æŀĲ
ç¬¦åĲĪä¸ŃæĸĩçļĦ è¡¨è¾¾ä¹łæĥ¯
ç± »
å¿ ĥ
çŃ Ķ
é ļ
Ġd e
å± ķ
æĭ ©
çĶ¨æĪ· åı¯èĥ½
è¿Ļæł· æĹ¢
å¿ ħ
u m
æĸĩ ç
éĩı åŃĲ
ä¸Ģ ä¸ĭ
å¸¸ è§ģ
æıĲ ä¾Ľ
æĸ °
è§ Ĥ
or k
éĢī æĭ©
ç¥ ŀ
Ġth rough
å¯¹ æ¯Ķ
r an
åŀ ĭ
æĽ´ èĩªçĦ¶
tion s
æĪĳ çİ°åľ¨
è ¢
c on
ic s
è¢ «
ä¼ł ç»Ł
Ġc h
éĶ Ļ
åĽł æŃ¤
æĦ Ł
æķ´ä¸ª åı¥åŃĲ
Ġ ar
è¦ģ èĢĥèĻĳ
åĪ «
æĽ´ åĲĪéĢĤ
åĽ ½
åį ³
f ic
tion al
åİŁåı¥ æĺ¯
æķ´ ä½ĵ
ç¤¾ ä¼ļ
æ º
ç ´
stem s
o p
å »
åĪ Ļ
ç» Ħ
ä»» ä½ķ
å¿ħ é¡
è¿ĺ è¦ģæ³¨æĦı
æĸĩ åŃ¦
Į ®
å¿ħé¡ »
åħ¶ ä»ĸ
al l
âĢ¦ âĢ¦
æ¨¡ å¼ı
æľĢåĲİ æ£ĢæŁ¥
æł¹ æį®
un d
æĸĩç Į®
çİ ĩ
ç» Ĩ
æ²¡ éĹ®é¢ĺ
æ¶ ī
Ġm od
ä¸Ĭ ä¸ĭ
ä¸Ńæĸĩ éĩĮ
æľ¯è¯Ń æŃ£ç¡®
é ĺ
ä¸Ĭä¸ĭ æĸĩ
æĢ »
str uc
n i
éĿ ŀ
w ork
å°± æĺ¯
Ġ and
ä¹ ĭ
ç Ĭ
d e
è¯ ·
åĩĨç¡®ä¼łè¾¾ äºĨ
çĶ µ
ç§ĳ æĬĢ
åİŁåı¥ ä¸ŃçļĦ
Ġin ter
ç¥ŀ ç»ı
çĲĨ åŃ¦
t s
æĶ ¿
Ġ st
åħ ī
Ġ v
è¯· æ±Ĥ
æĪĳçİ°åľ¨ éľĢè¦ģ
çĽ´ è¯ĳ
äº ĭ
èĭ±æĸĩ åı¥åŃĲ
ä¼ ¦
æŃ£ å¼ı
è¿Ļ äºĽ
æ¶ī åıĬ
çľ ĭ
ti v
è®¡ ç®Ĺ
Ġ em
in e
Ġc omp
çĬ ¶
è´ ´
çŃ ĸ
åĲĪéĢĤ çļĦ
ä¸į èĥ½
æĢ» ç»ĵ
å¿ µ
a g
ç§ĳ åŃ¦
ä¸ ¤
æŀ ¶
åĪ ĩ
æ¡ Ī
or y
em ent
åı į
åı¯ä»¥ è¯ĳä¸º
ro m
çĶ¨æĪ·è®©æĪĳç¿»è¯ĳ è¿Ļåı¥è¯Ŀ
Ġt ra
ç¡®ä¿Ŀ æ²¡æľīéģĹæ¼ı
åľ º
æĮ ĳ
è¿ ŀ
äº §
åŃ Ĺ
æĮĳ æĪĺ
çĽ´æİ¥ ç»Ļåĩº
Ġsy stems
æĹ¶ éĹ´
o us
å¯ Ĩ
åĩĨç¡® åıĪ
âĢĿ ï¼Ī
at ter
æ¯ıä¸ª æľ¯è¯Ń
çļĦ è¡¨è¾¾
âĢĿï¼Į âĢľ
è¾ ĳ
è ·
è Į
åı £
è½ ¬
? âĢĿ
å¸ Ĥ
è ĥ
Ġ è¿ĻéĩĮ
k e
et h
e x
en ti
çļĦ æľ¯è¯Ń
éĢ ł
f orm
ç ²
I f
è¯» èµ·æĿ¥
u b
H ow
ar y
æ Ľ
è¿ĩ ç¨ĭ
Ġ r
en c
al ly
Ġm ight
åĮ º
åį Ĭ
è¶ ħ
Ġw ith
åİŁåı¥ çļĦç»ĵæŀĦ
æİ¥ä¸ĭæĿ¥ æĺ¯
d uc
er e
åŃĺ åľ¨
ç½ ĳ
Ġt ech
p ro
è¯Ń æ°Ķ
åħ ·
ç¡® å®ļ
åĲ į
ation al
ran s
æĺ ĵ
Ġd is
æł ¼
éľĢè¦ģ åĩĨç¡®
æĸ Ļ
åģ ĩ
ab le
çĽ¸ åħ³
è® ¨
ç Ł
ä» ¬
èĮ ĥ
çł Ķ
åħ į
éĩį è¦ģ
ec on
æ¸ ħ
çĶ¨æĪ· æıĲä¾Ľ
Ġa d
² åŃ¦
è´´ åĪĩ
æº Ĳ
âĢĿãĢĤ âĢľ
o t
h e
ur es
å¹¶ ä¸Ķ
ç© ¶
ti es
éĢ Ł
re c
ç¡ ¬
er s
é ķ
éģ į
å¯¼ èĩ´
ç¿»è¯ĳ ç»ĵæŀľ
æĹł è¯¯
å½ ĵ
m e
å½¢ æĪĲ
o c
v ol
åĪ ©
å¾ ·
er g
å¹ ³
ç «
æī ĭ
æ° ĳ
an ce
çŃ ī
æĽ´ åĩĨç¡®
æĺ¯ åľ¨
è ģ
çĶŁ ç¡¬
æĶ¹ åıĺ
æ ¦Ĥ
éģ ¿
å¢ ŀ
è¯ ģ
æĸĩåĮĸéĢĤåºĶæĢ§ æĸ¹éĿ¢
åħ ¥
o st
çłĶ ç©¶
å± Ĥ
éģ¿ åħį
u re
éĿ ©
éĢļå¸¸ ä¼ļ
æīĢ æľī
æ ®
ä» Ķ
o ci
ä»Ķ ç»Ĩ
å¤ Ł
é Ľ
as s
çĸĳéĹ® åı¥
é ª
' s
å» º
å® Į
æĪĳçİ°åľ¨éľĢè¦ģ å¤ĦçĲĨ
å· ²
å Ŀ
u tion
äº ¤
æĺİ ç¡®
åı¯èĥ½éľĢè¦ģè°ĥæķ´ è¯Ńåºı
æĪĳéľĢè¦ģ åĩĨç¡®çĲĨè§£
æĥ ħ
n s
ä½ į
ç¬¦åĲĪä¸Ńæĸĩ ä¹łæĥ¯
éĶĻ è¯¯
åĲ «
i on
æľ Ľ
çŃĶ æ¡Ī
ç ¾
æ± ĩ
èĢĥèĻĳ åĪ°
æĻ °
æ¸ħ æĻ°
åīį éĿ¢
éģ ĵ
æĿ ĥ
ç ¢
éľĢè¦ģ ç¡®ä¿Ŀ
ç ĥ
an tu
antu m
y s
è¡¨ ç¤º
é¢ Ŀ
Ġ im
ç»ıæµİ åŃ¦
Ġp ar
æĸ¹ æ³ķ
å¸ Į
å¯¹ åºĶ
çķ Ļ
åİ Ĩ
çī¹ åĪ«
çĽ´æİ¥ç»Ļåĩº çŃĶæ¡Ī
åĲİ éĿ¢
ãĢģ âĢľ
æĻ ¯
äº Ĵ
æ¨¡ åŀĭ
å· ®
p or
åĵ ²åŃ¦
e tic
å¸ ¦
çĲ ĥ
é¢Ŀ å¤ĸ
ä» İ
éĢ »
èµ Ħ
éĢ» è¾ĳ
æµ ·
Ġe ff
ä½ľ ä¸º
Ġd i
éľĢè¦ģ è°ĥæķ´
Ġin t
æĪĳ è¦ģ
ç´ ł
work s
éĢļå¸¸ ç¿»è¯ĳä¸º
Ġ an
åĩĨç¡®ä¼łè¾¾äºĨ åİŁæĦı
è¾ ĵ
tic al
æ¦Ĥ å¿µ
f l
è®¨ è®º
è¯į æ±ĩ
æ ¬
åı¯ä»¥ ç¿»è¯ĳä¸º
åĬ ¡
ä¸» é¢ĺ
Ġn e
å Ĺ
åĽ ŀ
å¾ Ī
Ġcon t
åı ²
ç½ ®
s e
éķ ¿
æµ ĭ
ä¿Ŀ çķĻ
åĹ ¯
T he
Ġ al
c ess
all en
Ġb i
åı Ļ
ç» ľ
econ om
ç½ĳ ç»ľ
è ¨
Ġmod el
Ġ åĹ¯
åºĶ çĶ¨
ul t
åİŁåı¥ çļĦ
li ke
æľº åĪ¶
æŃ£ç¡® çļĦ
ä¸ĵä¸ļæľ¯è¯ŃçļĦ æŃ£ç¡®
æĸ ¯
åĵ ª
åģĩ è®¾
r y
p res
è¨ Ģ
åıĳ å±ķ
y n
Ġw ould
Ġp atter
Ġs p
æ¯ıä¸ª éĥ¨åĪĨ
æ£ĢæŁ¥ æĺ¯åĲ¦æľī
åĨ ³
åĲ ĳ
ä½ľ çĶ¨
Ġ res
Ĩ æŀ¶
ä¼ ĺ
iz ation
i an
æĶ¾åľ¨ åīįéĿ¢
æ² »
Ġt rans
æ¡ Ĩæŀ¶
ä¸Ń å¸¸çĶ¨
... âĢĿ
Ġ un
åĲĪ èµ·æĿ¥
çĶ¨æĪ·æıĲä¾Ľ çļĦ
æĦı è¯Ĩ
ä»»ä½ķ ä¿¡æģ¯
è§ Ħ
hi e
an t
çİ¯ å¢ĥ
ra ph
ä¸ ĸ
Ġthe ory
å·² ç»ı
çĬ¶ è¯Ń
ç» Ń
æľ¯è¯Ń åĩĨç¡®
u p
çİ° å®ŀ
åĬ¨ è¯į
å¼ Ĥ
è¿ŀ æİ¥
è§ Ĩ
å¸Į æľĽ
çĶ¨æĪ· è¦ģæ±Ĥ
æĻ ®
ä¸»é¢ĺ ä¸ĵä¸ļæĢ§
åĢ Ļ
æ´ ¾
å¹ ²
çļĦç¿»è¯ĳ è¯·æ±Ĥ
éª Į
æķ° åŃĹ
æĽ´ ç®Ģæ´ģ
u st
åĳ ½
it al
struc t
çº §
æĪĳ è¦ģç¡®ä¿Ŀ
æīĢä»¥ çĶ¨
W h
çİ° ä»£
æĪĳéľĢè¦ģ ç¡®ä¿Ŀ
h er
ä¸į è¿ĩ
åı¥åŃĲ çļĦç»ĵæŀĦ
ä¸Ĭ çļĦ
åĲİ åįĬ
ç»ĵ åĲĪ
æĺ ¾
è¯Ń æ³ķ
æ° ´
at er
Ġ è¿Ļæł·æĹ¢
åı¯èĥ½ ä¼ļ
Ġd o
Ġ A
æŃ §
è¿Ļä¸ª ç¿»è¯ĳ
æµģçķħ èĩªçĦ¶
ac t
Ġpatter ns
åı¯èĥ½ æĺ¯
æĿ Ĳ
è¿ Ĳ
åıĻ äºĭ
U n
en d
v i
åıĺ åĮĸ
è¯Ń æĺ¯
Ġf ra
or s
ed i
å® ¾
r ic
åī §
ç ģ
at ed
åľ¨ä¸Ńæĸĩ éĩĮ
Ġh ow
é «
ä¿ ®
ä¸Ģ éģį
Ġf or
é« ĺ
Ġmodel s
è¡Į ä¸º
æĺ Ł
é ħ
ç© º
è £
äºº ç±»
m a
qu antum
è¿Ļ éĥ¨åĪĨ
æĺ¯ æłĩåĩĨ
é £
ä¹ Ī
Ġb e
è¯´ æĺİ
è®¤ çŁ¥
èĥ½ å¤Ł
æĽ´ ç¬¦åĲĪä¸Ńæĸĩè¡¨è¾¾ä¹łæĥ¯
Un like
æľĢç»Ī çļĦç¿»è¯ĳ
çĶ¨æĪ·çļĦ è¦ģæ±Ĥ
Ġa p
åĵª äºĽ
Ġp er
è¯Ń å¢ĥ
åĩĨç¡®ä¼łè¾¾ åİŁæĦı
Ġ econom
æĿ¡ä»¶ åı¥
é ©
è Ĥ
ç»ĵæŀĦ æĺ¯
åºĶè¯¥ ç¿»è¯ĳæĪĲ
olog y
æĿĲ æĸĻ
Ġd ec
åİŁåı¥çļĦç»ĵæŀĦ æĺ¯
çĶ¨æĪ· çļĦç¿»è¯ĳè¯·æ±Ĥ
ç¿»è¯ĳ çļĦ
è¯Ń è¨Ģ
æİ §
ä¼¦ çĲĨ
èī ²
è¿ĻéĩĮ çļĦ
åİŁåı¥ çļĦæĦıæĢĿ
ç® ¡
è ŀ
è¿Ļåı¥è¯Ŀ ç¿»è¯ĳæĪĲä¸Ńæĸĩ
æĺ¯ æŃ£ç¡®çļĦ
ï¼ Ľ
æĽ´ è´´åĪĩ
di tional
ar k
ä¸į ä¼ļ
er n
èŀ į
enc y
ç¡® å®ŀ
æ· »
ç² ¾
é¢ĨåŁŁ çļĦ
ä¸Ńæĸĩ çļĦ
ech an
æ·» åĬł
æ Ĥ
æĺ¯ åĲĪéĢĤçļĦ
ç§ ¯
æĸ ½
æĿ Ĥ
é ĵ
å± ŀ
ve lo
é Ĥ
éģĹæ¼ı æĪĸ
åĲ« ä¹ī
ä¸Ńæĸĩ è¡¨è¾¾
æĽ´ ç¬¦åĲĪ
is tic
iz ed
å Ļ
Ġs oci
åºĶè¯¥ ç¿»è¯ĳä¸º
p re
Ġf rom
m s
æķ Ļ
Ġp h
æĺ¯åĲ¦ åĩĨç¡®
èĥ Į
æĢ§ çļĦ
erg y
as ed
Ġpro cess
åħ ´
g es
è° ĵ
il ity
è¯»èµ·æĿ¥ èĩªçĦ¶
æĹ¶ æľŁ
åį³ åı¯
ç» ´
åĻ ¨
éĩ ĩ
æĢ»ç»ĵ ä¸Ģä¸ĭ
åĨį æ£ĢæŁ¥
Ġp r
ç§ĳæĬĢ æĸĩçĮ®
è¿Ļ ç§į
ä¸Ńæĸĩ è¯»èĢħ
Ġac hie
a tive
ç« ĭ
åģ ı
åĽ ¾
ul ation
å £
åİĨ åı²
i ti
å° ı
ç¿»è¯ĳæĹ¶ è¦ģ
velo p
å¼ Ģ
æ® ĸ
æľ¯è¯Ń æĺ¯åĲ¦æŃ£ç¡®
çķ ¥
ac e
Ġc om
åĪĻ æĺ¯
è¿ °
v en
æĽ ²
æĺ¯åĲ¦ ç¬¦åĲĪ
çĶŁ æĢģ
æŃ§ ä¹ī
æ³ Ľ
c re
è Ħ
Ġre al
åĬ ©
æİ ¨
çĶ¨æĪ· ç»Ļ
åĩ ł
åľ¨ä¸Ńæĸĩ ä¸Ń
it er
ver s
or al
Ġch allen
om e
åĮ ħ
å¾ ª
çĶ ±
c al
åľ° è´¨
æĭ Ł
ç ª
é¢ Ħ
Ġg en
åħ ĥ
ç»Ħ åĲĪèµ·æĿ¥
åŃ¦ æľ¯è¯Ń
éľĢè¦ģ ä¿ĿæĮģ
tu re
èĥĮ æĻ¯
åĨ Ļ
å ²
Ġm echan
å¹ ¿
éĢĤ åĲĪ
çķ Į
æľ¯è¯ŃçļĦ åĩĨç¡®æĢ§
Ġtech n
åĽ º
çļĦ ä¿¡æģ¯
çĽ ®
Ġ on
ç®Ĺ æ³ķ
ac h
um an
å·® å¼Ĥ
æŀ ģ
ç» ¼
å® ¶
éĤ £
éľĢ æ±Ĥ
h a
äº ļ
æ¯Ķè¾ĥ åĩĨç¡®
åħ¨ çĲĥ
Ġf orm
Ġm o
åŁº åĽł
ï¼ī ãĢģâĢľ
åĪ Ľ
åĵ ģ
çª ģ
ce p
ä½ĵ ç³»
è¿Ļæĺ¯ ä¸Ģä¸ª
ãĢĤ "
ro p
åĲİåįĬ åı¥
æł¹æį® ä¸Ĭä¸ĭæĸĩ
ä¹ĭ éĹ´
åº ķ
æ®ĸ æ°ĳ
ä¿ ĥ
åĲĮæĹ¶ ä¿ĿæĮģ
ä¸ ¥
çº ¿
çĦ¶åĲİ æĺ¯
at ure
vol ution
åĩ ı
çĶ »
s ci
og raph
qu es
è¿ĻéĩĮ çĶ¨
æķĪ åºĶ
åŁ İ
ä¸ĵä¸ļæľ¯è¯ŃçļĦ åĩĨç¡®æĢ§
ism s
ult ural
åħ ¸
è£ ħ
å¤į æĿĤ
Ġfra me
èĥ½ åĬĽ
el l
è´ §
éĻ ħ
èĢĮ éĿŀ
fic ation
is ion
èĭ ¥
ç ¦
æ Ł
å¤ ª
å ¡
æ¯ıä¸ªæľ¯è¯Ń çļĦæĦıæĢĿ
è¡¨ çİ°
æı Ń
Ġ eth
å¸Ĥ åľº
ä½ Ļ
æł ¸
th rough
çĥ Ń
æ²¡æľīéģĹæ¼ı ä¿¡æģ¯
Ġen ergy
æľ¯è¯ŃçļĦ æŃ£ç¡®
ä¹Ł å°±æĺ¯
è°ĥæķ´ è¯Ńåºı
li m
è Ĭ
qu i
åĽŀ çŃĶ
å¸ ģ
åĨ ²
å¤ ©
og ni
å½¢ å¼ı
æıŃ ç¤º
åħ³éĶ® è¯į
è¯ Ħ
åľ¨è¿ĻéĩĮ æĺ¯
æĹ¢ åĩĨç¡®åıĪ
re d
åıĪ ç¬¦åĲĪä¸ŃæĸĩçļĦè¡¨è¾¾ä¹łæĥ¯
ä½¿çĶ¨ æŃ£ç¡®
æ³ ¢
ä¸» åı¥
çİ° è±¡
ä»ĸ ä»¬
è´§ å¸ģ
è¿Ľ è¡Į
ph as
éĽ Ĩ
æĸĩåĮĸéĢĤåºĶæĢ§ åĴĮ
éľĢè¦ģ ç¡®è®¤
èģ Ķ
Ġc ould
åĨ ľ
åı£ è¯Ń
ä¸Ģ èĩ´
æ ļ
å±ŀ äºİ
Ġp l
ç¾ İ
a ge
ä¸ĵä¸ļæľ¯è¯Ń æĺ¯åĲ¦æŃ£ç¡®
æĹłè¯¯ åĲİ
o si
éļ ı
Ġ quantum
è¦ģ æ£ĢæŁ¥
éģĵ å¾·
R I
è¿ĺ è¦ģèĢĥèĻĳ
çļĦ åľ°
è® ²
åŁİ å¸Ĥ
æł¹ æľ¬
Ġframe works
æŃ ¥
æĮģ ç»Ń
Ġde velop
Ġcomp u
æĬĬ è¿Ļåı¥è¯Ŀç¿»è¯ĳæĪĲä¸Ńæĸĩ
Ġ R
ar ra
è º
Ġp ol
es t
æķ° æį®
éĻ Ĳ
æ´ ²
ä» ħ
Ġtra ditional
Ġth an
å¼ķ åıĳ
åŃ¦æľ¯è¯Ń å¢ĥ
å½ »
èº «
æ¯ıä¸ªéĥ¨åĪĨ çļĦæĦıæĢĿ
en s
è¶ ³
å½» åºķ
P R
æ°Ķ åĢĻ
æĺ¯åĲ¦ éĢļé¡º
æĪĳçİ°åľ¨éľĢè¦ģå¤ĦçĲĨ çĶ¨æĪ·çļĦç¿»è¯ĳè¯·æ±Ĥ
åħ³éĶ® çĤ¹
Ġ or
çº ª
å± ±
S PR
C RI
CRI SPR
åı ¤
æĸ Ń
Ġd em
l es
o ver
å® ĩ
äºĨ ä¸Ģä¸ª
çĶ¨æĪ·åı¯èĥ½ å¸ĮæľĽ
g or
Ġ le
ff er
èĮĥ å¼ı
Ġc ol
åį ĩ
ç Ŀ
Ġcompu ting
åı Ĺ
åİŁåı¥ ç»ĵæŀĦæĺ¯
æŃ¤ å¤ĸ
enti al
æ Ĵ
Ġ struct
ç§ °
pl ic
å¡ ĳ
Ġc ap
å® Ļ
å®ĩ å®Ļ
æ¸ ©
ç»¼ åĲĪ
Ġl iter
å¹¿ æ³Ľ
Ġw h
Ġ E
åŁº ç¡
æľĢç»ĪçļĦç¿»è¯ĳ åºĶè¯¥æĺ¯
é£ İ
éĩį æĸ°
éģĹ ä¼ł
å ĸ
ater ial
åŁºç¡ Ģ
ç¼ ĸ
ç¡®è®¤ æĹłè¯¯åĲİ
è¿ĻäºĽ æľ¯è¯Ń
ç® Ģ
å ķ
æĶ¿ çŃĸ
s y
æį ¢
åĿ Ĺ
ti m
Ġ at
ä» ·
åĬł éĢŁ
éĢļ è¯»
ä¾ Ŀ
k ing
æĺ¯ ä¸Ģä¸ª
çĶ¨æĪ·è®©æĪĳç¿»è¯ĳ è¿Ļä¸ª
å¼ ł
ur r
ä¸¤ ä¸ª
ro s
ment al
æ´ ĭ
ri or
è¿Ļæł· æĽ´
Ġtech ni
ç¡®ä¿Ŀæ²¡æľīéģĹæ¼ı ä»»ä½ķä¿¡æģ¯
ä¸ĸ çºª
çĶŁçī© åŃ¦
æ¬ §
ig ital
Ġpar ad
åİŁæĸĩ çļĦæĦıæĢĿ
sci ous
Ġm an
åĬł åī§
ect s
Ġn et
åĬĽ åŃ¦
Ġex p
è¿Ļä¸ª æľ¯è¯Ń
äº§ çĶŁ
ä¸Ńæĸĩ éĢļå¸¸ä¼ļ
ri al
ry p
lo b
fl u
è®º æĸĩ
ç¡®ä¿Ŀæ²¡æľīéģĹæ¼ı ä¿¡æģ¯
åħ· ä½ĵ
b i
åĪ ¤
è į
Ġs ub
a ve
äºº å·¥
è½¬ åıĺ
ä¸Ń åĽ½
å¹ ´
tu al
æ´ »
åĨľ ä¸ļ
æ²¡æľī éĹ®é¢ĺ
å¾Ī éĩįè¦ģ
å½¢ æĢģ
åı¥åŃĲ æĺ¯
æīĢä»¥ ç¿»è¯ĳæĪĲ
åķ Ĩ
å¤ ´
m od
und a
åĬ Ł
ä¸ĵä¸ļæľ¯è¯ŃçļĦæŃ£ç¡® æĢ§
åı¥åŃĲ æĽ´
åĽł ç´ł
åį °
åı ·
å° Ħ
Wh at
duc tion
ħ §
å¾ ®
ab ility
çĶ¨æĪ·ç»Ļ äºĨä¸Ģä¸ª
æĶ¿ æ²»
str ate
èĻ ļ
iti z
ä½¿ åħ¶
ç¼ ĺ
çĶ¨ äºİ
å¤ ±
n ess
æľ ª
å¾ ĭ
åŃ¦ ä¹ł
è¾ĵ åĩº
Ġo ver
æī ¹
ä¼¦ çĲĨåŃ¦
li f
è¿ ĳ
é ¥
al s
å° Ķ
æ »
æīĢä»¥ ä¿ĿæĮģ
è¯ ¢
Ġprocess es
Ġre g
éľĢè¦ģ æ³¨æĦı
åĨį èĢĥèĻĳ
tiv es
æķ´ä¸ªåı¥åŃĲ çļĦç»ĵæŀĦ
åħ³ äºİ
ec tive
å¤ļ ä½Ļ
çļĦ è¯įæ±ĩ
åıª æľī
è İ
çī¹ å®ļ
çĶ¨æĪ·åı¯èĥ½ æĺ¯åľ¨
åı Ĥ
è¿ĻéĩĮ éĢīæĭ©
ç Ĺ
è¿ĺè¦ģæ³¨æĦı æĸĩåĮĸéĢĤåºĶæĢ§
æľī æ²¡æľī
å¹ »
åĬ ¿
è¿ĺ æĺ¯
çĲĨè§£ åİŁåı¥çļĦæĦıæĢĿ
W ere
å¼ķ å¯¼
l ed
åı£è¯Ń åĮĸ
èĤ ²
éĿ© åĳ½
å¤ĦçĲĨ ä¸º
o ur
Ġpr in
Ġn arra
å® ī
åı ĸ
å ĥ
a y
ç ħ§
æľĢåĲİ ç¡®è®¤
å·¥ ä¸ļ
çĶŁ äº§
Ġth at
åıĳ çĶŁ
b s
v es
éľĢè¦ģ åĩĨç¡®ä¼łè¾¾
Ġtechni ques
è¯¢ éĹ®
è¿Ļåı¥è¯Ŀ çļĦæĦıæĢĿ
ä¹ĭéĹ´ çļĦ
rior itiz
çĽ¸ äºĴ
l ass
ra in
t en
u per
pres sion
äº Į
çł ´
Ġstruct ures
æĺ¯åĲ ¦åĲĪ
Ġmechan isms
çľ Ł
ar d
yn am
è¡ ¡
åĬ© æīĭ
ic i
ï¼ī ãĢĤ
åĬł å¯Ĩ
ç¦ »
é¥ °
éĩĩ çĶ¨
ç¿»è¯ĳ åĬ©æīĭ
çŁ¥ è¯Ĩ
æĶ ¶
æķĪ çİĩ
åĽł æŀľ
åħ ĭ
ç»ĵåĲĪ ä¸Ĭä¸ĭæĸĩ
éĩ ĳ
åĨ µ
è¯´ æ³ķ
æ¼ Ķ
e g
çŁ Ń
ç Ĩ
Ġg e
Ġ B
æ ¿
æĻ º
å° ĳ
u al
å° ¤
çļĦ è¯ĳæ³ķ
ç¡®ä¿Ŀ æ²¡æľī
èĥ½ æºĲ
gor ith
çĶ¨ è¯į
æī ¾
Ġb ec
çİ°å®ŀ ä¸»ä¹ī
Ġe l
ç¾ ¤
åħ ¬
ä¸» è°ĵ
em por
ç¿»è¯ĳåĲİçļĦ åĨħå®¹
ement s
ce l
u th
p ar
ur ing
ig ms
æĺ¯åĲ¦åĲĪ éĢĤ
èĬ Ĥ
Ġm ark
ri b
pro ach
b ased
ç¢ ³
ch it
Ġ y
it s
ent r
éģ µ
è´ Ł
scious ness
è· ¯
éĥ½ åı¯ä»¥
å¸ ĥ
å½ ©
èĻļ æĭŁ
çĶ¨æĪ·ç»ĻäºĨä¸Ģä¸ª èĭ±æĸĩåı¥åŃĲ
éĢļè¯» ä¸Ģéģį
è® ®
olog ies
phas iz
lo s
çļĦåľ° æĸ¹
res s
åİ »
p it
p lo
Ġar t
æµģçķħæĢ§ åĴĮ
çī© è´¨
v ir
æĬ ¥
er m
ä¸Ńæĸĩ ç§ĳæĬĢæĸĩçĮ®
éĻ į
æ¶ Ī
æĭ ¬
çİ°ä»£ ä¸»ä¹ī
çļĦ è¯Ńæ°Ķ
t ain
Ġac c
æĸĩ æľ¬
åľ Ł
æĥħ åĨµ
è®² çļĦæĺ¯
tiv ity
cel er
Ġb y
ä»» åĬ¡
v id
an c
t ra
is e
åı¯èĥ½ çĶ¨
ä¸»è°ĵ å®¾
ä¸Ģ äºĽ
Ġ è¿Ļåı¥è¯Ŀ
æīĢæľī è¦ģæ±Ĥ
æľĢç»Ī ç¿»è¯ĳ
èĥ½ éĩı
æľī çļĦ
çļĦ å½±åĵį
åħ ±
Ġachie ve
i vers
è¶ Ĭ
è ĳ
ä»¥ åıĬ
åºĶ è¯ĳä¸º
ent ly
ç» Ŀ
èĦ ĳ
æĽ´ æŃ£å¼ı
æ² ī
h ould
åĽº å®ļ
è´ ¸
çī¹åĪ« æĺ¯
æŁ Ĳ
ç¿»è¯ĳåĲİçļĦåı¥åŃĲ åºĶè¯¥æĺ¯
åį ı
æİ ¢
ä¸Ńæĸĩ ä¸Ń
g an
è§ ī
ti l
ç©º éĹ´
èĭ±æĸĩåı¥åŃĲ ç¿»è¯ĳæĪĲä¸Ńæĸĩ
v al
æĥ ³
è´¸ æĺĵ
è§ Ĵ
on ic
è¡¨è¾¾ æĸ¹å¼ı
è¿Ĳ åĬ¨
å·¥ ç¨ĭ
æµ· æ´ĭ
ä¸¤ èĢħ
è· ¨
ha vi
a ting
å¯¼èĩ´ çļĦ
çĿ Ģ
è Ĳ
i ties
er v
åĮħ æĭ¬
il l
æ· ±
æī ©
a st
æĪĳéľĢè¦ģ çĲĨè§£
C omp
Ġ ro
lass ical
Ġ I
éĤ£ ä¹Ī
æķ´ä¸ª åı¥åŃĲç»ĵæŀĦ
... âĢĿï¼Į
ä¿® é¥°
åĩĨç¡® çļĦ
Ġap proach
å®Į æķ´
Ġan al
è®¾ è®¡
éħ į
åĽłæŀľ åħ³ç³»
éĢļ çĶ¨
u ro
ç¨ ³
å¦Ĥä½ķ å½±åĵį
ogni tive
c omp
Ġh uman
è ħ
åĩĨç¡® ç¿»è¯ĳ
Ġè¿Ļæł·æĹ¢ åĩĨç¡®ä¼łè¾¾äºĨåİŁæĦı
éĢļå¸¸ è¯ĳä¸º
Ġar chit
åĥ ı
å¤ ĩ
Ġm et
åĬ¨ æĢģ
è§£éĩĬ æĪĸ
ç¿»è¯ĳ åĩĨç¡®
æŃ ª
èµĦ æºĲ
æŃª æĽ²
çº ¦
o u
å ª
lob al
Ġm e
æĽ´ å¸¸çĶ¨
og en
åŃ¦æľ¯ æĪĸ
çĽ Ĳ
æŀ¶ æŀĦ
N e
æıĲ åĩº
ment s
Ġcom m
å¾ª çİ¯
Ġs ur
åĨ³ çŃĸ
çĨ Ł
ä»¥ ä¸Ĭ
ç§ »
æĺ ł
åĲį è¯į
Ġdi ffer
å Ĥ
ynam ics
Ġre l
çĽ¸ å¯¹
ä¸»é¢ĺä¸ĵä¸ļæĢ§ æĸ¹éĿ¢
å® ĥ
çĽ´æİ¥ ç¿»è¯ĳ
åŃ¦ çĶŁ
a tic
çł ģ
å°ı è¯´
çī© çĲĨåŃ¦
çº ³
ve l
æĴ Ń
hi le
åª Ĵ
éĺ ħ
çĦ¶åĲİ èĢĥèĻĳ
æłĩåĩĨ è¯ĳæ³ķ
c ol
ig n
æ ĵ
Ġprin ci
æ²¡æľī å¤ļä½Ļ
æ¯Ķè¾ĥ èĩªçĦ¶
Ġal ter
æĿ¥ è¡¨è¾¾
er ic
æĻº èĥ½
li z
çī ĩ
è¯ĳ åĲį
åıĪç¬¦åĲĪä¸ŃæĸĩçļĦè¡¨è¾¾ä¹łæĥ¯ åĴĮ
çļĦ éĹ®é¢ĺ
å² ©
vir on
ac y
Ġc o
çĦ¶åĲİ æ£ĢæŁ¥
åĢ ¼
ä¸Ń å¿ĥ
ä¼ł æĴŃ
ä»İ åı¥
ä¸» è¯Ńæĺ¯
Ġ C
i p
åĮĸ çļĦ
b o
d ust
ç¿»è¯ĳæĹ¶è¦ģ ä¿ĿæĮģ
re l
æĪĳ å¾Ĺ
ä¹Ł æĺ¯
è¿ĻéĩĮ è¦ģæ³¨æĦı
éĢļå¸¸ çĶ¨
or ph
hi p
Ġeff ici
éĵ ¾
Ġin flu
åĨ °
t r
éĢ»è¾ĳ åħ³ç³»
Ġd id
ä½ ł
qui re
åĲĳ äºİ
è¦ģæ±Ĥ ç¿»è¯ĳæĪĲä¸Ńæĸĩ
Ġmark et
æľ¯è¯Ń ä½¿çĶ¨æŃ£ç¡®
è¿ĻéĩĮ æĮĩçļĦæĺ¯
æĪĳéľĢè¦ģ ç¿»è¯ĳ
åĳ Ĭ
çģ «
Ġd es
ç»¼åĲĪ ä»¥ä¸Ĭ
æĵ į
ul ar
æı ı
o ph
Ġa g
æ¿ Ģ
Ġparad igms
b an
è°ĥæķ´ ä¸º
åİŁåı¥æĺ¯ ä¸Ģä¸ª
² Į
è ²Į
Ġh y
æ· ·
æĽ´ ç¬¦åĲĪä¸Ńæĸĩä¹łæĥ¯
è¿Ļæł·æĹ¢ åĩĨç¡®åıĪ
é Ł
å®ī åħ¨
an e
å¢ŀ å¼º
èİ ·
ac es
èĳ Ĺ
å¤į åħ´
ow er
æĪĳéľĢè¦ģ æĬĬè¿Ļåı¥è¯Ŀç¿»è¯ĳæĪĲä¸Ńæĸĩ
ç¨³ å®ļ
åİŁ åĽł
éģ¿åħį çĽ´è¯ĳ
Ġapproach es
å°¤ åħ¶
f or
æİ¥ä¸ĭæĿ¥ è¦ģèĢĥèĻĳ
æĽ ¿
Ġ k
çĶ¨æĪ·è®©æĪĳç¿»è¯ĳè¿Ļä¸ª åı¥åŃĲ
çĸ Ĺ
è¿ĺè¦ģèĢĥèĻĳ æĸĩåĮĸéĢĤåºĶæĢ§
on ial
th etic
æıĲ åĪ°
éļ Ĳ
ç¨ĭ åº¦
å¿ĥ çĲĨåŃ¦
u d
Ġp re
åŁº äºİ
åĪ¶ åº¦
è¯Ńæ³ķ éĶĻè¯¯
Ġchallen ges
ç» ĩ
Ġ as
è¯»èĢħ çļĦ
pres ent
çļĦç¿»è¯ĳ è¦ģæ±Ĥ
ä» Ģ
Ġp rec
P ost
å¾ ģ
åĬ ³
Ġdevelop ment
sy ch
é Ĵ
ve als
è¦ģ åĩĨç¡®
f ra
æ» ¡
Ġ ec
c om
ryp t
o re
form ation
osi tion
åľ°è´¨ åŃ¦
ç»ı åħ¸
ac tion
hi f
æĪĳçİ°åľ¨éľĢè¦ģå¤ĦçĲĨ çĶ¨æĪ·çļĦ
u e
se qu
le x
åĢ ¾
enc es
è¿Ļ ä¸Ģ
åı¯èĥ½ æĢ§
å¾Ĺ åĪ°
ä½ İ
æ¬ ¡
æĮ ī
g en
c or
ä¸Ģèĩ´ æĢ§
or ies
ä½¿ å¾Ĺ
en a
è Ī
ros s
é© ±
Ġf e
ä¸» å¹²
æĺ¯ çļĦ
ä¼ ¼
m ic
çī© çĲĨ
æĶ¾åľ¨ åı¥
ç¡®ä¿Ŀ åı¥åŃĲ
æĺ¯æłĩåĩĨ è¯ĳæ³ķ
Ġc or
ç² Ĵ
ç¿»è¯ĳçļĦ åĩĨç¡®æĢ§
Ġanal ys
æ¬§ æ´²
âĢĿ ãĢģâĢľ
å» ¶
æıĲ åįĩ
Ġè¿ĻéĩĮ çļĦ
æĪĳéľĢè¦ģ ä»Ķç»Ĩ
on g
å°Ĩ å¦Ĥä½ķ
ä¹ ¦
éĢ Ģ
ä¼ĺ åħĪ
entr al
Ġnet works
é¡º åºı
åį ķ
æĬ ĺ
h ow
äº ī
åľ° è²Į
s p
åĲĪ æĪĲ
æĤ ī
é Ń
åĩı å°ĳ
çĨŁ æĤī
æĸĩ èīº
éĺħ è¯»
Ġm eth
æīĭ æ³ķ
Ġne ural
æĸĩèīº å¤įåħ´
Ġm edi
åħ³éĶ®è¯į æĺ¯
os ph
ä½Ĩ æł¹æį®
S hould
ä½į ç½®
ä¸» å¼ł
å¼Ģ å¤´
éĥ½ æĺ¯
åİŁ çĲĨ
å¸¸çĶ¨ æľ¯è¯Ń
ä¸ŃæĸĩéĢļå¸¸ä¼ļ æĬĬ
é©± åĬ¨
è¦ Ĩ
æ³ķ å¾ĭ
ä¸ĵä¸ļæľ¯è¯Ń æŃ£ç¡®
ä¸»ä¹ī çļĦ
åĮ »
Ġv al
æĪĳéľĢè¦ģåĩĨç¡®çĲĨè§£ æ¯ıä¸ªæľ¯è¯ŃçļĦæĦıæĢĿ
æ²ī ç§¯
æł¸ å¿ĥ
plic ations
å Ľ´
ä¸Ģ ç§į
as es
at a
Ġliter ature
éŃ Ķ
Ġf unda
çĶ¨æĪ· ç»Ļåĩº
åı¯ è¡Į
Ġeth ics
Ġad v
æĬ¥ åĳĬ
åĬ³ åĬ¨
ä¸»å¹² æĺ¯
è¯Ń åı¥
æļ Ĺ
Ġeff ects
æķ´ä½ĵ ç»ĵæŀĦ
å¸¦ æĿ¥
æ£ĢæŁ¥æĺ¯åĲ¦æľī éģĹæ¼ı
ä¸įéľĢè¦ģ é¢Ŀå¤ĸ
æĹ¶æľŁ çļĦ
Ġ ra
rec t
æĻ® éģį
Ġarchit ect
åĲ ¦
æľº åĻ¨
æī¾ åĪ°
ç Ļ
i b
æķ £
r on
æĿ¥ è¿ŀæİ¥
is s
âĢĿ ï¼Ł
n e
ä¹ī åĬ¡
ain s
ç £
ä¹ ħ
Ġdo es
dust rial
æ»¡ è¶³
çĲĨ æĢ§
éĩıåŃĲ è®¡ç®Ĺ
åĲİéĿ¢ æİ¥
è¡Į æĺŁ
Ġar ti
æĻ® åıĬ
Ġc re
åŃ¦æľ¯ è®¨è®º
Ġ it
ä»Ģ ä¹Ī
éľĢè¦ģè°ĥæķ´ è¯Ńåºı
Ġeffici ency
ab i
éŃĶ å¹»
çļĦè¡¨è¾¾ æĸ¹å¼ı
çļĦ è¯Ŀ
si ve
å¼ ±
æĪĳéľĢè¦ģ å¤ĦçĲĨ
åĢ¾ åĲĳäºİ
ç¿»è¯ĳæĹ¶ è¦ģç¡®ä¿Ŀ
Ġreal ism
ment ally
èµ ĸ
ç²¾ ç¡®
an g
å¢ŀ åĬł
æķĻ èĤ²
èī² å½©
åħ³éĶ® æľ¯è¯Ń
çĽ® æłĩ
å° ½
æĶ ¯
Ġin cre
è¦ģ å¤ĦçĲĨ
çĶŁæĢģ ç³»ç»Ł
ä¸įèĥ½ éļı
ir c
éŃĶå¹» çİ°å®ŀä¸»ä¹ī
çĽ ĳ
èģ ļ
Ġs uper
ä¾Ŀ èµĸ
Ġ M
æĦŁ çŁ¥
æĪĳè¦ģ ä»Ķç»Ĩ
i f
è¾ ¹
Ġal gorith
éŁ ³
èĩªçĦ¶ æµģçķħ
åĲİ æ®ĸæ°ĳ
ac k
çŃ ĳ
åħĥ ç´ł
æ ¢
Ġp ost
Comp ar
çĹ ħ
åľ¨è¿ĻéĩĮ æĮĩçļĦæĺ¯
å°± åı¯ä»¥
ivers al
e p
Ġsoci al
å»º çŃĳ
åİŁæĸĩ çļĦ
n ow
c k
ä¼łç»Ł çļĦ
å¤§ æ°Ķ
p os
Ġem phasiz
Ġen able
ç£ ģ
u istic
Ġ und
los oph
è§ ¦
urr ent
c an
çĦ¶åĲİ è¦ģèĢĥèĻĳ
ä½Ĩ èĢĥèĻĳåĪ°
âĢ¦âĢ¦ âĢĿ
Ġd igital
Ġen viron
æĿ ¿
æľī æĹ¶
p rec
è®¾ æĸ½
mod ern
ä¸įåĲĮ çļĦ
Ġor gan
æ± ł
æĪĲ ä¸º
ç¡®ä¿Ŀ æľ¯è¯ŃæŃ£ç¡®
èĻ ½
æıı è¿°
ä¼ĺ åĬ¿
æĬ ¤
æĮī çħ§
ä¸¥ æł¼
n ing
åıª è¾ĵåĩº
Ġanalys is
w e
æ´» åĬ¨
o th
Ġc irc
æķ´ä¸ª åı¥åŃĲçļĦæµģçķħæĢ§
åĪ Ĺ
t y
Ġè¿Ļæł·æĹ¢ åĩĨç¡®åıĪ
ç¬ ¬
æµģçķħæĢ§ æĸ¹éĿ¢
çŃĸ çķ¥
è®¤ ä¸º
åĲİ èĢħ
æīĢä»¥ æķ´
id e
åĩĨç¡®æĢ§ åĴĮ
ç ĭ
çĶµ æ±ł
Ġa uth
åīį èĢħ
åĳ Ī
f er
Ġs e
åħ »
ing uistic
æľ¯è¯ŃçļĦæŃ£ç¡® æĢ§
Ġex pl
ic e
Ġre quire
åĪ© çĶ¨
æ® µ
C as
å·¥ ä½ľ
æ° ¸
æĺ¯åĲ¦ èĩªçĦ¶
Ġel ect
åı¯èĥ½ çĶ¨æĪ·
Ġm aterial
åľ° åĮº
ä¿ĥ è¿Ľ
ar b
æĸĩçĮ® ä¸Ń
æĺ¯ æĮĩ
Ġdem on
çī Ī
æĺ¾ èĳĹ
å®ļ ä¹ī
è¿Ļä¸ªç¿»è¯ĳ è¯·æ±Ĥ
æľī æ²¡æľīéģĹæ¼ı
ä¸ŃæĸĩéĩĮ å¸¸çĶ¨
æĸĩåĮĸéĢĤåºĶæĢ§åĴĮ ä¸»é¢ĺä¸ĵä¸ļæĢ§
åĩł ä½ķ
Ġin s
N A
æ£ĢæŁ¥æĺ¯åĲ¦æľī éģĹæ¼ıæĪĸ
å· ±
èĻ½ çĦ¶
åĲ Ħ
å® ¤
ä¸Ģ å®ļ
ical ly
æĸ¹å¼ı çĬ¶è¯Ń
per i
åı¯èĥ½ çļĦç¿»è¯ĳ
o f
r ation
æ ½
ä¸įä¼ļ æľī
èĩª å·±
åĳ ĺ
é¢ ł
åŁº æľ¬
s ub
åŁºç¡Ģ è®¾æĸ½
ap t
é© ¬
çĶ¨æĪ·ç»Ļåĩº çļĦ
åıĺ å¾Ĺ
åĮĸ ä¸º
Ġgen er
ograph y
Ġd ist
å®Į åħ¨
é¢ł è¦Ĩ
åĪĨ è§£
Ġs ol
ç± ³
Ġp rioritiz
Ġpro t
è§Ħ æ¨¡
å ¨
çĶ¨æĪ· å¼ºè°ĥ
å §
åľ¨ äºİ
çŁŃ è¯Ń
æĭ ī
hi losoph
åĽ½ å®¶
strate g
f aces
åªĴ ä½ĵ
å¿ħé¡» åĩĨç¡®
v ed
ä¸Ńæĸĩ åı¥åŃĲ
pl es
éªĮ è¯ģ
r up
åĲİ æŀľ
ä¸ĵ æľī
Ġr ates
æĺ¯åĲ¦ éľĢè¦ģ
arb on
Ġpar tic
Ġen ab
å¯¼èĩ´çļĦ çĶŁç¡¬
osph eric
é¢Ħ æµĭ
o und
is sion
æĢ İ
å°½ ç®¡
åħ¶ä»ĸ åĨħå®¹
èµĦ æľ¬
æİ¥ åı£
å¯Ĩ çłģ
Ġad op
åĪĨ å¸ĥ
plo y
Ġp hilosoph
éĻĲ åĪ¶
ens ity
Ġg lobal
éļ ¾
p le
åı¯èĥ½ å¯¹
ä¿ĿæĮģ äºĨ
ä¸ĵæľī åĲįè¯į
æ²¡æľīéģĹæ¼ı ä»»ä½ķä¿¡æģ¯
åıį æĺł
å¯Ĩ åº¦
æĽ´ ç¬¦åĲĪä¸Ńæĸĩ
Ġp ower
éģµ å¾ª
éĻ Ĩ
Ġp ers
Ġpol ic
åĨ »
e ar
è¦ģ ä¿ĿæĮģ
æİ Ĵ
æĥħ æĦŁ
a w
æĺ¯ åĩĨç¡®çļĦ
ä» ĭ
æĪĳéľĢè¦ģåĩĨç¡®çĲĨè§£ æ¯ıä¸ªéĥ¨åĪĨçļĦæĦıæĢĿ
ac tic
Ġd ynamics
ä¸» åĬ¨
qu e
æ¯Ķè¾ĥ çĽ´æİ¥
Ġd ata
Ġinflu ence
åį ļ
et e
on t
pl ement
éħ ¸
æĽ´ å¸¸è§ģ
è Ĵ
çŁ ³
Ġy ou
... ï¼Į
è´ £
ç¼ĸ è¾ĳ
en e
ç¢ İ
ç¡®ä¿Ŀ ç¿»è¯ĳåĲİçļĦåı¥åŃĲ
çĽ ¾
æĹł éľĢ
Ġv i
Ġcon s
ic t
æĸĩåĮĸ èĥĮæĻ¯
æĶ¹ åĬ¨
ä¸Ńæĸĩç§ĳæĬĢæĸĩçĮ® ä¸Ńå¸¸çĶ¨
éģ¿åħįçĽ´è¯ĳ å¯¼èĩ´çļĦçĶŁç¡¬
Ġs hif
è´ ¯
æĬ ½
Ġen g
æ£ĢæŁ¥ ä¸Ģä¸ĭ
Ġac celer
ç²Ĵ åŃĲ
ä¸» è¯Ń
çİ¯ æµģ
æĹ ¥
Ġm oral
i fication
åºĶè¯¥ æ²¡éĹ®é¢ĺ
éĢ ı
è® °
ä½ľä¸º ç¿»è¯ĳåĬ©æīĭ
ä¸Ńæĸĩ ä¹łæĥ¯
Ġcon sciousness
Ġ lo
æī¾åĪ° åĲĪéĢĤçļĦ
Ġdec ision
o un
çĲĨè§£ åİŁæĸĩçļĦæĦıæĢĿ
è¿ĺ è¦ģæ£ĢæŁ¥
çļĦ è¯´æ³ķ
æĬ½ è±¡
ä¸ ī
ä¸ĵä¸ļæľ¯è¯ŃçļĦ ä½¿çĶ¨
ograph ic
i tical
è§Ħ èĮĥ
è¯ĳ æĸĩ
Ġn o
in ter
ä½¿ åı¥åŃĲæĽ´
åį° è±¡
æĹ¶ ä»£
ti me
ä¸ĵä¸ļæĢ§ åĴĮ
çĽ¸äºĴ ä½ľçĶ¨
å£ «
col onial
ä½ľ åĵģ
å¨ ģ
å®ŀ æĸ½
æ¼Ķ åıĺ
ro l
ma king
è§£ æŀĦ
æĦıæĢĿ æĺ¯
ä½Ĩ ç»ĵåĲĪä¸Ĭä¸ĭæĸĩ
Ġre present
Ġ is
åĲĪ çĲĨ
çļĦ æĥħåĨµ
ä¸Ńæĸĩ éĢļå¸¸
è° ¨
Ġtra de
b l
Ġprinci ples
c ome
æľĢç»Ī ç¡®å®ļ
re am
Ġtechn ologies
å¢ŀ éķ¿
è¿Ļä¸ªæľ¯è¯Ń åľ¨
æ²¡æľī è¯Ńæ³ķéĶĻè¯¯
Ġsy n
Ġwh at
è¿ŀ è´¯
Ġo p
struc ture
äºĴ åĬ¨
as e
æĭ ĵ
è¡¨è¾¾ åĩº
Ġbe havi
æĿ¥ å¼ķå¯¼
Ġo bs
æĸ¯ çī¹
ä¸¥ è°¨
åı¯èĥ½ ä¸į
Ġh e
Ġmo re
ç» ĺ
åıĪ ç¬¦åĲĪä¸Ńæĸĩè¡¨è¾¾ä¹łæĥ¯
äºĨ è§£
é¡º çķħ
æķ´ åĲĪ
b ri
ver g
è®¤ è¯Ĩ
Ġs up
æĺ¯åĲ¦ç¬¦åĲĪ çĶ¨æĪ·çļĦè¦ģæ±Ĥ
Ġeth ical
ç»¼åĲĪä»¥ä¸Ĭ åĪĨæŀĲ
ä¼ļ å¦Ĥä½ķ
åı¯ä»¥ çĶ¨
åķĨ ä¸ļ
a ti
ä¸ŃæĸĩçļĦ è¯Ńåºı
å¿ «
èĻļæĭŁ è¯Ńæ°Ķ
å¿ĥ çĲĨ
ur ban
æĽ´ å¼ºè°ĥ
æĬĢ æ³ķ
th rop
èĮĥ åĽ´
åį ł
Ġadop tion
åĩº çİ°
äººå·¥ æĻºèĥ½
at her
çģ« å±±
Ġarchitect ures
æİ§ åĪ¶
Ġthe ories
am e
Ġim p
æģ °
lim ate
æĬ Ĺ
Ġ ass
æ²¡æľī çĶŁç¡¬
åİ ĭ
Ġcomm un
p end
ä¼ °
æĽ´ æµģçķħ
ch allen
åıĤ ä¸İ
ag n
Ġeconom ics
åı¯èĥ½éľĢè¦ģè°ĥæķ´ ç»ĵæŀĦ
è§£ åĨ³
Ġmeth od
æİ¥ åıĹ
æ² ³
ä¾ µ
æ²¡æľīå¤ļä½Ļ åĨħå®¹
æ¯ıä¸ª æľ¯è¯ŃçļĦ
ä½Ĩ åİŁåı¥
åľ° çĲĥ
æĹ ©
ä¿ĿæĮģ åİŁ
Ġk now
ena iss
enaiss ance
æİ¥ä¸ĭæĿ¥ è¦ģç¡®ä¿Ŀ
æģ° å½ĵ
ec tion
el f
åĪ¶ éĢł
et we
etwe en
åı °
Ġex peri
æ£ĢæŁ¥æĺ¯åĲ¦æľīéģĹæ¼ı çļĦä¿¡æģ¯
g ment
Ġbec ome
fic ial
çĶ¨æĪ·æıĲä¾ĽçļĦ èĭ±æĸĩåı¥åŃĲç¿»è¯ĳæĪĲä¸Ńæĸĩ
åº Ń
æĦı ä¹ī
æģ ©
è¿Ļåı¥è¯Ŀ è®²çļĦæĺ¯
æ Ł¥
æŃªæĽ² ä¿¡æģ¯
çĶ¨ æ³ķ
ul ations
åİŁåı¥çļĦç»ĵæŀĦ åĴĮ
t o
è ļ
Ġcon cep
æī¹ è¯Ħ
Ġ S
Ġh ave
Ġeconom ic
iz e
æĢİ æł·
Ġ j
ç¼ ©
åİŁ åĪĻ
éļ ľ
çĶ¨æĪ·åı¯èĥ½ æĺ¯
cal e
is h
æķ´ä¸ª åı¥åŃĲçļĦ
Ġc lassical
Ġtrans form
c ent
ç¢ į
Ġmod ern
2 0
åºĶè¯¥ çĶ¨
æŀĦ éĢł
Ġcol l
åį°è±¡ æ´¾
d s
æī ĳ
è¶ħ è¶Ĭ
åĤ ¨
çĽ´æİ¥ ä½¿çĶ¨
æī¹ åĪ¤
æĭĵ æīĳ
p on
Ġnarra tives
id es
ç¡®ä¿Ŀ æľ¯è¯Ń
ine er
Ġ er
æ¡ £
åĢ Ĵ
åĽ½ éĻħ
Ġ D
ist em
pre ad
ç¢İ çīĩ
çļĦç»ĵæŀĦ åĴĮ
re at
si st
ä¸įèĥ½éļı æĦı
æĺ¯ åħ³éĶ®
ce an
ç»Ħ ç»ĩ
åįı è®®
li ties
æĿ¿ åĿĹ
ol s
ä½ĵ çİ°
Ġcon ven
è®¤è¯Ĩ è®º
æĽ´ ä¸ĵä¸ļ
è®ºæĸĩ æĪĸ
åħī åŃĲ
ä¸ĵä¸ļæľ¯è¯ŃçļĦæŃ£ç¡® ä½¿çĶ¨
Ġ ver
éĢ Ĳ
ç¬¦åĲĪ åŃ¦æľ¯
åıª èĥ½
çļĦ ä¸įåĲĮ
ere as
es is
çĶ¨æĪ·çļĦ æīĢæľīè¦ģæ±Ĥ
åĮº åĿĹ
ĺ èĭ¥
åĢ ĺèĭ¥
åıªæľī ç¿»è¯ĳåĲİçļĦåĨħå®¹
d em
Ġc urrent
çŁ Ľ
åĲ ¯
åĩ ¯
åĮºåĿĹ éĵ¾
å±ķ ç¤º
over n
æ¯ıä¸ªæľ¯è¯Ń åĴĮ
ä» į
h y
ar i
çŁĽ çĽ¾
ar ian
ent ed
Q u
èĥ½ åĲ¦
é¦ Ī
éľĢè¦ģ æ£ĢæŁ¥
åıį é¦Ī
æ¯Ķå¦Ĥ æĬĬ
åŃ¦ ä¸ŃçļĦ
æ°¸ ä¹ħ
f in
åıį åºĶ
Ġè¿Ļåı¥è¯Ŀ æ¶īåıĬ
Qu antum
t rans
æ¯Ķè¾ĥ è´´åĪĩ
çļĦ å½¢æĪĲ
å¤§ éĻĨ
Ġnarra tive
os y
èħ Ķ
ç¤¾ äº¤
Ġchallen ge
led ge
Ġw e
ides pread
ï¼ī ãĢģ
å¤į æķ°
è Ĩ
èĩ ³
um p
ä»· åĢ¼
çĽ¸å¯¹ è®º
æģ© æĸ¯
... âĢĿãĢĤ
ab or
enti ally
éĢļå¸¸ä¼ļ çĶ¨
åĩ¯ æģ©æĸ¯
âĢ¦âĢ¦ ï¼Į
Ġe p
è½ ¨
Ġph ot
çĽ ĸ
Ġle ar
en sion
åĨĻ ä½ľ
en om
om et
Ġo ut
ä¸» è¦ģ
¥ ¿
è ¥¿
ç¼ º
æĬĢæľ¯ çļĦ
éĹ® åı¥
åīį åįĬ
è®© åı¥åŃĲæĽ´
æľ į
Ġc ri
éĺ ³
æĪĳéľĢè¦ģç¿»è¯ĳ è¿Ļåı¥è¯Ŀ
éľĢè¦ģ æī¾åĪ°åĲĪéĢĤçļĦ
d er
d is
çļĦ åĲ«ä¹ī
åİŁåı¥çļĦ ä¸»å¹²æĺ¯
åĬŁ åĪ©
e volution
at ural
æľī ä¸Ģå®ļ
Ġf l
ver t
åĽŀçŃĶ éĹ®é¢ĺ
prec ed
Ġdist rib
m et
Ġc rypt
çĶµ åŃĲ
ä¸ ´
Ġh ist
è¿Ļä¸ª è¯į
ti tu
Ġph ys
ä¹īåĬ¡ è®º
åĪĨ åŃĲ
è§Ĥ çĤ¹
æĪĳè¦ģ åĩĨç¡®çĲĨè§£
æĶ¾åľ¨ åĲİéĿ¢
èĥ Ģ
å¹³ åı°
ic es
ci pit
op ol
éķ¿ æľŁ
u sion
Ġc ultural
Ī è®º
m ospheric
ac tions
ç«ĭ ä½ĵ
åı¤ åħ¸
æĪĳ çļĦ
Ġre veals
ä¸Ńæĸĩè¯»èĢħ åı¯èĥ½å¯¹
ç¿»è¯ĳ èħĶ
åĮĸ åŃ¦
è¿ ¹
æĸĩ æĺİ
Ġc ognitive
äºº åı£
Ġpro duction
Ġreg ion
ä½Ĩ çĶ¨æĪ·è¦ģæ±Ĥ
ä¿Ŀ æĬ¤
æīĢä»¥ ç»ĵæŀĦ
åģ ļ
çĭ ¬
è¡¨ è§Ĥ
empor al
Ġsp ec
åĬł ä¸Ĭ
æ¯ıä¸ªéĥ¨åĪĨ éĥ½
act ors
è®© åı¥åŃĲ
Ġint eg
a re
è¿ĺè¦ģæ³¨æĦı åı¥åŃĲçļĦæµģçķħæĢ§
ç¥ŀç»ı ç½ĳç»ľ
ag ical
è£ħ ç½®
ä½¿ åı¥åŃĲ
è¡¨è§Ĥ éģĹä¼ł
p ost
Ġm in
Ġ strateg
Ġec osy
æ½ ľ
æ¨¡ æĭŁ
Ġper cep
è¡¨ éĿ¢
è¿ĻéĩĮ åı¯èĥ½éľĢè¦ģ
å¸¸çĶ¨ è¡¨è¾¾
Ġw ere
å®Į æĪĲ
åįļ å¼
ä¸ª äºº
Ġin fra
a red
æ ¹
Ġlear ning
ra ti
å± Ģ
Ġm on
èĩª åĬ¨
æ·· åĲĪ
é¢Ŀå¤ĸ åĨħå®¹
ä¸įéľĢè¦ģé¢Ŀå¤ĸ è§£éĩĬ
åºĶè¯¥ è¯ĳä¸º
æıŃç¤º äºĨ
ç»Ļåĩº ç¿»è¯ĳç»ĵæŀľ
çĶ¨æĪ·æıĲä¾ĽçļĦ åı¥åŃĲæĺ¯
ç¿»è¯ĳ åĨħå®¹
Ġl ight
Ġ æĪĸèĢħ
å½»åºķ æĶ¹åıĺ
entral ized
at h
è¡Įä¸º ç»ıæµİåŃ¦
æł¹æľ¬ æĢ§
æĬ ķ
ig en
Ġb etween
ur ity
è´ ¢
Ġim plement
æĪĳéľĢè¦ģ ç¡®è®¤
è¿Ľ åĮĸ
åĪ Ĵ
ä¿ĿæĮģ åİŁæĦı
å° º
et ary
preced ented
ä¸į åı¯
ä»İ èĢĮ
Ġcon sequ
ç¦» åŃĲ
rect ly
y z
åıĺ éĿ©
ä¸»åı¥ æĺ¯
æĸĩ æ¡£
ç®¡ çĲĨ
æĪĳå¾Ĺ ä»Ķç»Ĩ
ä» ½
ç¬¦åĲĪ çĶ¨æĪ·çļĦè¦ģæ±Ĥ
ä¸ĵä¸ļæľ¯è¯Ń åĩĨç¡®
è¿ĺ è¦ģ
orph ic
éĿŀ å¸¸
and ard
Ġ æĪĳéľĢè¦ģ
æĮĩ æķ°
æĿĥ åĬĽ
our ce
æĹ© æľŁ
åįļå¼ Īè®º
o od
g ra
Ġd et
åĿ ĩ
Ġch an
æĪĳçİ°åľ¨ è¦ģå¤ĦçĲĨ
çº¿ æĢ§
æį ķ
ent s
æĵį æİ§
è¾¾ åĪ°
åīį æīĢ
æīĢä»¥æķ´ åı¥
in es
Ġp ain
ç¬¦åĲĪä¸Ńæĸĩ è¯»èĢħçļĦ
es ian
Ġad apt
ä¸Ńæĸĩ åı¥åŃĲç»ĵæŀĦ
å¹³ çŃī
Ġ lim
é¢Ŀå¤ĸ ä¿¡æģ¯
çĸĳéĹ® è¯Ńæ°Ķ
ç±» ä¼¼
æĿ Ł
æľī æķĪ
åĪ¤ æĸŃ
æĶ¶ åħ¥
Ġdis s
Ġhist or
p ly
y c
èĥ½å¤Ł å®ŀçİ°
åĬŁåĪ© ä¸»ä¹ī
t a
Ģ æĸ¯çī¹
çļĦ éĥ¨åĪĨ
åĸ Ģæĸ¯çī¹
åīįæīĢ æľª
u rom
Ġt r
å¾ Ħ
ro w
æīĢä»¥ ä¸įéľĢè¦ģ
Ġm ain
pression ist
ran si
è¿ŀæİ¥ è¯į
æĽ´ å¥½çļĦ
ç¬¦åĲĪä¸ŃæĸĩçļĦ è¯Ńåºı
æµĭ éĩı
Ġre c
Ġform ation
ç¥ŀç»ı å½¢æĢģ
çľĭ èµ·æĿ¥
Ġap plications
por t
Ġinter faces
ar m
« ł
æĸĩç «ł
æĪĳè¦ģç¡®ä¿Ŀ åĩĨç¡®çĲĨè§£
ric ultural
äºİ çĲĨè§£
è¾ĥ ä¸º
é¡ ¹
äºº åĳĺ
çĶ¨ äºĨ
èĢ Ĺ
Ġf re
pl an
Ġl and
éĢļå¸¸ ä½¿çĶ¨
è¶ £
m ain
ç®Ģ åĮĸä¸º
æ ¤
ç´ §
èļ Ģ
åı¯ä»¥ å¤ĦçĲĨä¸º
pit e
l ight
è¢« åĬ¨
çĬ¶ æĢģ
å®¾ è¯Ńæĺ¯
an ti
ä¼łè¾¾ åĩº
åĨį éĢļè¯»ä¸Ģéģį
èĪ ª
Ġ åºĶè¯¥ç¿»è¯ĳæĪĲ
ä¸» å¯¼
è¯¯ è¯ĳ
è½¬ æį¢
éľĢè¦ģåĩĨç¡® è¡¨è¾¾
m an
çļĦ è¯Ńå¢ĥ
Ġw ork
Ġun iversal
åĩł ä¸ª
éĢŁ åº¦
it arian
æİ¢ è®¨
Ġre con
åĨ³ å®ļ
éĩĳ èŀį
é ¸
æĽ´ éĢļé¡º
çľĭ çľĭ
Ġbi ological
åģı å·®
çĽ® çļĦ
åĬŁ èĥ½
è¶ħ æĿĲæĸĻ
æ²¡æľī ç¿»è¯ĳèħĶ
çľ ģ
éĹ® çļĦæĺ¯
èĩªçĦ¶ æĢ§
æ³¨ éĩį
å¿ ł
ä¼ĺåħĪ èĢĥèĻĳ
ä¿ĥ ä½¿
Ġ è¿Ļæł·
ex tual
å¤ª éĺ³
èĴ Ļ
Ġs c
ä¸¤ ç§į
Ġund er
çĶ¨æĪ·ç»ĻåĩºçļĦ åı¥åŃĲæĺ¯
Ġp res
æķĪ æŀľ
åħ· æľī
p osition
åŁºåĽł ç¼ĸè¾ĳ
ic on
om in
Ġsy stem
åħ´ è¶£
Ġgen e
éĿ© æĸ°
æľī çĤ¹
Ġreal ity
åħĪ è¯´
e ties
ang u
å® ĺ
ul ti
åľº æĻ¯
on om
èĨ ¨
è¿Ļæł·æĽ´ ç¬¦åĲĪä¸ŃæĸĩçļĦè¡¨è¾¾ä¹łæĥ¯
è¿Ļ ä¸¤ä¸ª
Ġin formation
ä¾ ¿
Ġalgorith ms
v ing
ä½Ĩ æł¹æį®ä¸Ĭä¸ĭæĸĩ
str ates
å¯¼ ä½ĵ
æłĩåĩĨ æľ¯è¯Ń
i el
Â ·
æĸĩåŃ¦ çĲĨè®º
duc t
oc ols
u v
çī¹ æĢ§
åĨįæ£ĢæŁ¥ ä¸Ģä¸ĭ
åİŁåı¥ç»ĵæŀĦæĺ¯ ä¸»è°ĵå®¾
ï¼Ł âĢľ
ur y
Ġg ra
å¹³ è¡¡
é£İ æł¼
as tic
å¯¹æ¯Ķ åħ³ç³»
å°º åº¦
Ġenviron mental
en si
å®¹ æĺĵ
çļĦ åıĳå±ķ
ç¿»è¯ĳ è¯·æ±Ĥ
Ġp sych
ä¸į ä»ħ
åīįæīĢæľª æľīçļĦ
çľģ çķ¥
æİ ª
æľīæ²¡æľīéģĹæ¼ı çļĦä¿¡æģ¯
å¿ł å®ŀ
æĪĳ ä»¬
ä» ¿
èº« ä»½
abi lities
åĨ» åľŁ
èĭ±æĸĩ ä¸įåĲĮ
æ¤ į
é¢ ľ
åĬ³åĬ¨ åĬĽ
an sion
æ²¡æľīéģĹæ¼ı æĪĸ
èĦĳ æľº
Ġint ell
ç»ĦåĲĪèµ·æĿ¥ å°±æĺ¯
ogni tion
ç¾¤ ä½ĵ
æ²¡æľī æŃ§ä¹ī
çĽ¸ æ¯Ķ
å½ĵ åīį
æ³¢ åĬ¨
Ġp red
è§Ĥ å¿µ
åĮħ åĲ«
åĢĴ è£ħ
verg ent
p ir
in ation
è® ¸
ä¿ĿæĮģ åı¥åŃĲçļĦ
åĪĨ å±Ĥ
å¼ķ èµ·
oci al
æīĢä»¥ åı¯èĥ½éľĢè¦ģ
æĦıè¯Ĩ æµģ
éģĹæ¼ıæĪĸ æŃªæĽ²ä¿¡æģ¯
æĭ ľ
ä¸Ģä¸ª ç¿»è¯ĳè¯·æ±Ĥ
æ¯ıä¸ª æľ¯è¯ŃçļĦæŃ£ç¡®
ç»ĵæŀĦ æ¸ħæĻ°
Ġd ensity
u rop
ec urity
æĹ¶éĹ´ çĬ¶è¯Ń
Ġc limate
åĳĪ çİ°
çłĶç©¶ èĢħ
c ap
è¿ĻéĩĮçļĦ åħ³éĶ®è¯įæĺ¯
i fic
er ge
éĻ ©
Ġbi ology
h ap
æĬĢæľ¯ æĸĩæ¡£
ç¿»è¯ĳ è¦ģæ±Ĥ
æĺĵ äºİçĲĨè§£
æ²¡ éĶĻ
è¿Ļæł· çļĦç»ĵæŀĦ
åĲİåįĬ éĥ¨åĪĨ
åº ·
è¿ĻéĩĮ åı¯èĥ½
ä½Ĩ ä¹Ł
çĽĲ çİ¯æµģ
æŃ£ç¡® ç¿»è¯ĳ
æ ĳ
åĲ ¬
de pend
Ġcor rel
éĢ Ĵ
* *
ç¢İçīĩ åĮĸ
éľĢè¦ģ ç¿»è¯ĳæĪĲä¸Ńæĸĩ
Ġs im
æ ĩ
ä¹ĭ åīį
çĶ± äºİ
Ġ z
ç¥ŀç»ı ç§ĳåŃ¦
Wh ereas
å°¤åħ¶ æĺ¯åľ¨
gen er
åħ ħ
åİŁåı¥æĺ¯ çĸĳéĹ®åı¥
æŀĦ å»º
ç»´ æĮģ
çīĪ æľ¬
Ġen c
æ¶īåıĬ åĪ°
ä»ĸä»¬ çļĦ
å¯Ĩçłģ åŃ¦
m ission
Ġknow ledge
Ġst ates
å ł
æĮĩ æłĩ
ig ni
èĢĥèĻĳ åı¥åŃĲçļĦæµģçķħæĢ§
çĶŁ æĪĲ
è¯Ń æĢģ
urom orphic
æķ´ä½ĵ åı¥åŃĲç»ĵæŀĦ
æİ¨ åĬ¨
Ġman ip
éľĢè¦ģ å¤ĦçĲĨ
Ġd ri
æĬĬ çĶ¨æĪ·æıĲä¾ĽçļĦèĭ±æĸĩåı¥åŃĲç¿»è¯ĳæĪĲä¸Ńæĸĩ
Ġfunda mentally
o x
çĶ¨æĪ·çļĦ éľĢæ±Ĥ
h uman
å® Ī
èĦĳæľº æİ¥åı£
ä¾ §
Ġcont ra
è¿Ľ æŃ¥
åĬ¨ åĬĽåŃ¦
è¿Ļæł· æĽ´ç¬¦åĲĪä¸Ńæĸĩè¡¨è¾¾ä¹łæĥ¯
æĩ Ĥ
vol ve
åľ¨ èīºæľ¯
å· §
è¡Į ä¸ļ
ç»ıæµİåŃ¦ ä¸ŃçļĦ
æľ¯è¯ŃçļĦ ä¸Ģèĩ´æĢ§
Ġcap ital
åı¯èĥ½çļĦç¿»è¯ĳ æĺ¯
åįł åºŃ
Ġregion s
æĭľ åįłåºŃ
åĳ ³
E p
ä¼ł è¾ĵ
è¯¯ è§£
éľĢè¦ģç¡®ä¿Ŀ æľ¯è¯ŃåĩĨç¡®
è¡¨çİ° ä¸»ä¹ī
urop e
çĽ Ĭ
æĪĳè¦ģ çĲĨè§£
Ġecosy stems
æīĢä»¥ å¿ħé¡»
è°ĵ è¯Ńæĺ¯
Ġp os
æĶ¾åľ¨åı¥ é¦ĸ
c op
erv ation
åŃ¦ ä¸Ń
ç»ı éªĮ
éĩįæĸ° å®ļä¹ī
æĹ¢åĩĨç¡®åıĪ èĩªçĦ¶
di tions
qu al
ol ution
åį ģ
Ġg overn
Ġtechn ology
istem ological
å ´
æĺ¯åĲ¦æľī éģĹæ¼ıæĪĸ
æĺ¯åĲ¦ ç¬¦åĲĪä¸Ńæĸĩè¡¨è¾¾ä¹łæĥ¯
åı ł
Ġrel a
ä¿Ŀ åŃĺ
å¼º åĮĸ
Ġc arbon
åºĶ å¯¹
ff ect
çĸĳéĹ® çļĦè¯Ńæ°Ķ
éľĢè¦ģåĩĨç¡® çļĦæľ¯è¯Ń
ç»Ŀ ç¼ĺ
enti fic
èŀį åĮĸ
å¯¹ åºĶè¯
Ġb as
æķ´ä½ĵ åı¥åŃĲ
éĢļå¸¸ä¼ļ æĬĬ
l ine
èĩª çĶ±
åĵ ¥
b it
æ¯Ķå¦Ĥ ä½¿çĶ¨
æĦŁ åħ´è¶£
å¯¹åºĶè¯ į
è¯ Ĺ
ech n
Ġprot ocols
æĺĵ æĩĤ
åĩĨç¡® ä¸Ķ
å¾ Ģ
æ Ĳ
å° ģ
her ence
n ational
åĨ Ĺ
èİ· åıĸ
åı¯èĥ½æĽ´ èĩªçĦ¶
cor por
E x
åıĳ çİ°
åĪ ·
p rioritiz
Ġmedi a
n o
Ġl angu
Ġcomp lex
è¯Ńå¢ĥ ä¸Ń
éĢļå¸¸ æĮĩ
åı¥åŃĲç»ĵæŀĦ ç¬¦åĲĪä¸Ńæĸĩä¹łæĥ¯
Ġa bo
ex t
ĠR evolution
çº³ ç±³
f ace
è¶ ĭ
æĦı åĳ³
è°ĥ åĴĮ
çĽ¸åħ³ é¢ĨåŁŁ
è¾ĵ åħ¥
é£ Ł
I n
è¿ ģ
ec ess
Ġa ut
æł¼ å¼ı
Ġsp ace
åĨįèĢĥèĻĳ æĸĩåĮĸéĢĤåºĶæĢ§
ä¸Ń ä¸ĸçºª
Ġprocess ing
ä¸Ńæĸĩ ç§ĳæĬĢ
èĩª æĪĳ
éĻ ¤
Ġexp ansion
åį° åĪ·
è´ ¹
ç Ī
åĳ ¨
ane ous
æĬĢ å·§
æĶ¹ éĿ©
æĪĳçİ°åľ¨éľĢè¦ģå¤ĦçĲĨçĶ¨æĪ·çļĦ ä¸Ģä¸ªç¿»è¯ĳè¯·æ±Ĥ
æĬĺ å°Ħ
å¯ Ł
ç¼ ĵ
é¦ Ĩ
Ġw hile
éĩį çĤ¹
è¡ °
Ġtrans mission
åĪĽ æĸ°
æĽ´æŃ£å¼ı ä¸ĢäºĽ
çĻ ½
ag ement
o ut
Ġabo ut
æĸĩåŃ¦ ä¸ŃçļĦ
Ġe ar
æº ¶
ont ological
Ġ W
åıĪç¬¦åĲĪä¸ŃæĸĩçļĦè¡¨è¾¾ä¹łæĥ¯åĴĮ ä¸ĵä¸ļæľ¯è¯ŃçļĦä½¿çĶ¨
Ġ L
Compar ing
Ġ u
ec ular
ä¸ĵä¸ļ é¢ĨåŁŁ
æľĢç»Īç¡®å®ļ ç¿»è¯ĳä¸º
åĽ °
æ° §
èĲ ½
Ġadv ant
ar c
r or
Ġa m
å¸¦ æľī
æĽ´ ä¸º
th e
ä¸Ńæĸĩ ç¿»è¯ĳ
Ġf actors
Ġcon tin
è¿Ļæł·æĹ¢ åĩĨç¡®ä¼łè¾¾äºĨåİŁæĦı
åħ³éĶ®çĤ¹ éĥ½
è¿Ļåı¥è¯Ŀ æ¶īåıĬ
res t
pre t
Ġno vel
uv ial
on e
edi ment
Ġemphasiz es
m ight
Ġcon c
åı¯èĥ½æĽ´ åĢ¾åĲĳäºİ
on d
çĶ¨ è¯Ń
åĸĢæĸ¯çī¹ åľ°è²Į
æīĢä»¥ éĢīæĭ©
åı¯èĥ½æĽ´ åĲĪéĢĤ
åĮº åŁŁ
un c
æĮĩæķ° çº§
Ġ str
ä¸Ģ çĤ¹
ci al
agn etic
Ġthe y
éľĢè¦ģ èĩªçĦ¶
og ical
ä¸Ģ åı¥
tin c
éļľ ç¢į
çļĦ ä¹łæĥ¯
æµģ æ´¾
äº¤ æµģ
Ġs ci
in s
åģĩ è¯´
al ine
ä½Ĩ åİŁåı¥ä¸ŃçļĦ
i a
åĩĨç¡® åľ°
in t
åĪ º
comp u
Ġ Ċ
æīĢä»¥ æķ´ä¸ª
åħ·ä½ĵ è¦ģæ±Ĥ
ä¼ Ĺ
éĿŀå¸¸ éĩįè¦ģ
Ġac ross
us e
éĺ ¶
çī¹åĪ« å¼ºè°ĥ
Ġintell ig
o h
å½ĵ ä»£
ä½¿ ä¸Ńæĸĩ
Ġb rain
é »
éĥ½ æŃ£ç¡®
çļĦ åıĺåĮĸ
äº ¿
å¦Ĥä½ķ éĢļè¿ĩ
Ġfra gment
éĵ ¶
æŁĲ ç§į
Ġa b
con sciousness
åĬłå¯Ĩ è´§å¸ģ
å¾Ĺ ä»¥
ag es
k s
æľĢç»Īç¿»è¯ĳ åºĶè¯¥æĺ¯
on al
åĪ Ŀ
çī¹ å¾ģ
Ġinfra structure
åı¥ å¼ı
ç¬ ¦
æĮĩ ä»£
çļĦ æ¦Ĥå¿µ
æľ¯è¯Ń åĴĮ
åĨ ·
åİŁæĸĩ ä¸ŃçļĦ
igni fic
Ġof ten
p lif
åİŁåı¥ ç»ĵæŀĦ
è®© è¯»èĢħ
hip s
compu ter
en able
ç¤¾äº¤ åªĴä½ĵ
åħ³ èģĶ
ä½ĵ éªĮ
èģ Į
d es
f unda
ol ecular
å°Ĩ è¿Ļåı¥è¯Ŀç¿»è¯ĳæĪĲä¸Ńæĸĩ
ent al
Ġcirc ulation
åı¯èĥ½æĽ´ åĩĨç¡®
Ġdistrib ution
K e
di vid
Ġsoci eties
åĨ² ç§¯
Ġ G
ä¸Ģ ä½į
åİŁ åŃĲ
til itarian
ist ential
yn esian
Ġnet work
lif er
è¾ĥä¸º æŃ£å¼ı
èĨ¨ èĥĢ
ä½ľ èĢħ
c ri
åĲİ çİ°ä»£
éĻį ä½İ
l l
ĠE urope
b ack
æ´ ŀ
Ġph enom
è· µ
èĢĮä¸įæĺ¯ åħ¶ä»ĸ
ros cop
Ġ urban
åĪĨæŀĲ åı¥åŃĲç»ĵæŀĦ
éģµ å®Ī
ç»ĺ çĶ»
1 9
æ¯Ķè¾ĥ ä¼ĺåĬ¿
åı¯èĥ½éľĢè¦ģ ç¡®è®¤
Ġinter actions
Ġdis rup
çĽ®æłĩ è¯»èĢħ
Ke ynesian
Ġl inguistic
åĮ» åŃ¦
æ²¡æľīçĶŁç¡¬ çļĦåľ°æĸ¹
åĩ¯æģ©æĸ¯ ä¸»ä¹ī
çļĦ äºº
o tional
å®ŀ è·µ
çļĦ åĨħå®¹
éľĢè¦ģåĩĨç¡® ç¿»è¯ĳ
åıªæľī ç¿»è¯ĳåĨħå®¹
f act
åŃĺåľ¨ ä¸»ä¹ī
ä¸į å¹³çŃī
æ¸© çĽĲçİ¯æµģ
en ab
con t
Ġat mospheric
rest rial
il it
æĪĳçļĦ ä»»åĬ¡
çļĦ ä½įç½®
çľŁ å®ŀ
å®ĥ ä»¬
æīĢä»¥ çĽ´æİ¥
è¿Ĳ çĶ¨
åİŁåı¥æĺ¯ä¸Ģä¸ª çĸĳéĹ®åı¥
æĶ¯ æĮģ
å¤ªéĺ³ èĥ½
æĽ´ å¥½
åŃ¦ æ´¾
Ġc os
å¹¶ä¸Ķ è¦ģ
Ġliter ary
Ġpr actic
tra ditional
bri d
éģ¿åħį ä½¿çĶ¨
c o
åĲĮæĹ¶ ç¡®ä¿Ŀ
è§Ĩ è§Ĵ
ä¸¥è°¨ æĢ§
æ°¸ä¹ħ åĨ»åľŁ
çĶ ²
Ġem erg
æĺ¯åĲ¦ éľĢè¦ģè°ĥæķ´
Ġv ol
Ġrel ations
å® Ĺ
re g
ro st
çĶµ ç£ģ
åħ³éĶ®çĤ¹ åľ¨äºİ
åİ» ä¸Ńå¿ĥ
ä¿ ¯
tic s
çº¦ æĿŁ
è¿Ļä¸Ģ çĤ¹
Ġre volution
oh aline
ignific ant
empor ary
æĮĩ åĩº
ä¿¯ åĨ²
æīĢä»¥ è¿Ļéĥ¨åĪĨ
åĿ ı
æĪĸ åħ¶ä»ĸ
çĶŁ åĳ½
èĭ±æĸĩ ç¿»è¯ĳæĪĲä¸Ńæĸĩ
èĲ ¥
å®ŀ éªĮ
é£İ éĻ©
om es
çģ µ
ä¸įä¼ļæľī æŃ§ä¹ī
æ²¡æľī æ·»åĬł
in for
åľ¨ ä¸ŃåĽ½
éĢŁ çİĩ
ryp tion
ed back
æīĢæľī åħ³éĶ®çĤ¹éĥ½
éĿ Ĵ
çªģ çł´
Ġarti ficial
æľīæĹ¶ åĢĻ
ä¾µ èļĢ
è°ĥ æİ§
å¸¸è§ģ çļĦ
çī© ç§į
Ġbi as
æĽ´ é«ĺ
en g
ac hie
ä¸įéľĢè¦ģ è°ĥæķ´
Ġtechn ological
æ² Ł
æķ´ä¸ª ç¿»è¯ĳ
æľ¬ è´¨
Ġst andard
Ġl abor
ç¤¾ä¼ļ åŃ¦
å®ŀ è¯ģ
åĨ² çªģ
èĢĮ æĺ¯
å¹² é¢Ħ
Ġacc ur
äºĭ ä»¶
Ġh as
è¯Ńåı¥ éĢļé¡º
è¡¨ æĺİ
å®¾ è¯Ń
ogen ic
igen etic
tin e
Ġge omet
éĩį æŀĦ
åİĭ åĬĽ
åľº åĲĪ
å¼ķ åĬĽ
çģ Ń
è§Ĩ è§ī
Ġeng ineer
Ġin her
å®ŀ éĻħ
çłĶç©¶ äººåĳĺ
èŀį åĲĪ
æĽ¿ ä»£
æľī åĽºå®ļ
lo ck
è°ĥ èĬĤ
è¿ĻéĩĮ éľĢè¦ģ
æĺİ äºĨ
ä¸Ńæĸĩè¯»èĢħ åı¯èĥ½æĽ´
çĶ¨æĪ·åı¯èĥ½æĺ¯ ä¸Ģä½į
si b
Ġsy m
Ġmo v
åıįé¦Ī å¾ªçİ¯
ul ate
è¿Ļåı¥è¯Ŀ çļĦ
è¿ĩ äºİ
è´´ è¿ĳ
åŃ¦çĶŁ æĪĸ
é¦ĸåħĪ å¤ĦçĲĨ
çļĦç»ĵæŀĦ æĺ¯
å¾® çĶŁçī©
æīĢä»¥ä¿ĿæĮģ åİŁ
ar st
Ġpro p
æĺ¯åĲ¦ åĩĨç¡®ä¼łè¾¾
çĶ¨æĪ·è¦ģæ±Ĥ çĽ´æİ¥ç»ĻåĩºçŃĶæ¡Ī
æĪĳéľĢè¦ģç¡®ä¿Ŀ åĩĨç¡®çĲĨè§£
ä¼¦çĲĨ æ¡Ĩæŀ¶
åĪĽ éĢł
raph ic
ĠR enaissance
æľī åĩłä¸ª
Ġpers p
m er
ac ter
ç¼ĺ æĶ¿æ²»
Ġintellig ence
Ġcon f
åħ· å¤ĩ
è®© ä¸Ńæĸĩ
ä¸Ńæĸĩ ç»ĵæŀĦ
å· Ŀ
çŁ ¿
p et
çĽ¸ è¾ĥ
è¯Ħ ä¼°
d ec
ç¿»è¯ĳæĹ¶ è¦ģæ³¨æĦı
on s
eth ical
åĪ© äºļ
ä»ħ æĺ¯
em per
u fact
åħ³éĶ® ä¿¡æģ¯
Ġres ource
Ġhistor ical
c ould
ac tive
åħī åŃ¦
è®¡ç®Ĺ æľº
Ġr ational
æĤ ²
ati al
å´ ©
c ultural
è¿Ļæł·æĹ¢åĩĨç¡®åıĪ ç¬¦åĲĪä¸Ńæĸĩè¡¨è¾¾ä¹łæĥ¯
é¢ ĳ
Ġm ulti
åĪĨè§£ åı¥åŃĲç»ĵæŀĦ
ib le
å®Ĺ æķĻ
çĽ¸è¾ĥ äºİ
åĨ° å·Ŀ
Ġphilosoph y
e val
å¤ ®
f rost
ç³»ç»Ł æĢ§
å£ °
åīįåįĬ åı¥
è¿Ļåı¥è¯Ŀ çļĦç»ĵæŀĦåĴĮ
çĸĳéĹ® è¯į
çĦ¶åĲİèĢĥèĻĳ æµģçķħæĢ§
æİª æĸ½
Ġint o
ç§° ä¸º
æĪĳçİ°åľ¨éľĢè¦ģå¤ĦçĲĨçĶ¨æĪ·çļĦ è¿Ļä¸ªç¿»è¯ĳè¯·æ±Ĥ
ç¡®ä¿Ŀ æķ´ä¸ªåı¥åŃĲ
åľ¨ åŃ¦æľ¯
åħ³ éĩįè¦ģ
èĩ³ åħ³éĩįè¦ģ
åŁ ¹
ma frost
urr ency
æ²³ æµģ
e havi
Ġeconom ies
åī Ĭ
ä¿ĿçķĻ äºĨ
ufact uring
a x
a k
Ġ ide
Ġc yc
åľ¨è¿ĻéĩĮ è¡¨ç¤º
Ġem erge
Ġcont rol
æīĢä»¥ åı¯èĥ½
åĪĨ éħį
ecess it
ci es
Ġm ic
å¯¹ è±¡
å¿ Ĺ
è¯Ĩ åĪ«
Ġde v
am aterial
Ġshif ts
çĦ¶åĲİ è¦ģç¡®ä¿Ŀ
å®¹æĺĵ çĲĨè§£
Ġmanip ulation
èĩª ä¸»
duc ed
æĺİç¡® è¯´æĺİ
æĽ´ åı£è¯ŃåĮĸ
éĽ ķ
lifer ation
d ress
åĩº æĿ¥
è¿ĩç¨ĭ ä¸Ń
æĺ¯æłĩåĩĨ æľ¯è¯Ń
Ġp ress
å¤ļ æł·
æĿĲæĸĻ ç§ĳåŃ¦
è¿Ľè¡Į ç¿»è¯ĳ
å®ŀçİ° äºĨ
Ġ all
it ations
ate ly
c es
qu ently
æŀĦ æĪĲ
åĪĽ ä½ľ
ight s
Ġp op
pl ete
im ension
æĪĺ çķ¥
ä¼ĺ åĮĸ
ä¸ĵä¸ļæľ¯è¯ŃçļĦæŃ£ç¡® ç¿»è¯ĳ
åĩĨç¡® æĹłè¯¯
æĸ¹ æ¡Ī
Ġprec ise
æī §
è´¨ çĸĳ
Ġauth or
é ²
åıł åĬł
at ory
æļĹ èĥ½éĩı
å° ¾
é¢ĨåŁŁ çļĦæľ¯è¯Ń
Ġt ransi
Ġpractic es
åĲĮ æł·
çĽ´è¯ĳ çļĦ
å»º æ¨¡
ic tion
å¤ª ç©º
ç¨³å®ļ æĢ§
Ġpro per
å® ı
æľº æ¢
bi ological
çł´ åĿı
Ġt emporal
åħ¨ æ°ĳ
æĮĳæĪĺ äºĨ
åŁºæľ¬ æĶ¶åħ¥
ä¸įéľĢè¦ģ æ·»åĬł
Ġc i
åħ¨ æģ¯
è§Ĥ å¯Ł
Ġcap abilities
iel d
è¶³ å¤Ł
æĪĳéľĢè¦ģä»Ķç»Ĩ åĪĨæŀĲ
æĤ² åī§
æľºæ¢ °
f y
æ²¡æľī åħ¶ä»ĸ
ä½Ĩ ä¸ŃæĸĩéĩĮ
æīĭ æ®µ
ci le
Ġen h
r ics
åĿĩ è¡¡
at ors
ç¿»è¯ĳåĲİçļĦåı¥åŃĲ åºĶè¯¥
å¤© ä½ĵ
v ision
çļ ®
as ing
Ġo cean
Ġstrateg ies
æľºåĻ¨ äºº
çİ° æľīçļĦ
åĲ¬ èµ·æĿ¥
w ith
æľ¬ èº«
å°¤åħ¶ æĺ¯
at form
Ġex pression
åĲİ ç»ĵæŀĦ
çº ł
id enti
åĲ¯ èĴĻ
é¢ľ æĸĻ
ä¸Ńæĸĩ è¡¨è¾¾ä¹łæĥ¯
ä½Ĩ çĶ¨æĪ·
æĽ¿ æį¢
Ġenc ryption
p ass
çİ° æľī
å¯¹æ¯Ķ ç»ĵæŀĦ
Ġc al
ä¾ĭ åŃĲ
l d
re m
èĢ ģ
Ġs cal
æį Ł
åħ¶ä»ĸ éĹ®é¢ĺ
æµģçķħæĢ§åĴĮ æĸĩåĮĸéĢĤåºĶæĢ§
ar g
s tic
æīĢä»¥ è¿ĻéĩĮ
å ĺ
Ġme as
ic ation
plif y
éĽķ å¡ĳ
è¦ģ èĩªçĦ¶
åı¯ä»¥ è°ĥæķ´ä¸º
åĩĨç¡®æĢ§ æĸ¹éĿ¢
çĽ¸ å¹²
çĶ¨æĪ·åı¯èĥ½æĺ¯åľ¨ åŃ¦æľ¯æĪĸ
åıªè¾ĵåĩº ç¿»è¯ĳç»ĵæŀľ
æĶ¹ éĢł
åĽŀçŃĶ åħ¶ä»ĸéĹ®é¢ĺ
Ġme an
ä¸ Ŀ
pet u
it e
en cies
çļĦ è§£éĩĬ
åľ° ä½į
ma tic
ç¬¦ åı·
ir m
æł¹æľ¬ ä¸Ĭ
åĤ ¬
ä¸Ńæĸĩ å¯¹åºĶè¯į
æ·± åº¦
åº ľ
å® ¡
u es
æµģ åĬ¨
è¿Ļæł· ç¿»è¯ĳ
Ġn on
Ġex t
éĽĨ ä½ĵ
çĦ¶åĲİè¦ģèĢĥèĻĳ åı¥åŃĲçļĦæµģçķħæĢ§
ar acter
Ġh igh
çļĦ è¿ĩç¨ĭ
Ġin d
Ġthe ir
çĸ ¾
æĸĩèīºå¤įåħ´ æĹ¶æľŁçļĦ
è¿Ļæł· çļĦ
æ²» çĲĨ
æĺ¾ å¾Ĺ
P h
å±Ĥ éĿ¢
æº ĥ
Ġr ather
åŃĺåľ¨ çļĦ
edi ting
ar ies
æĶ¿ åºľ
Ġc ur
å¸¸çĶ¨ è¯ĳæ³ķ
è¯»èµ·æĿ¥ é¡ºçķħ
çİ°è±¡ åŃ¦
struct ural
æµģçķħæĢ§åĴĮ èĩªçĦ¶æĢ§
èĩªåĬ¨ åĮĸ
om ic
å´© æºĥ
u ce
åı Į
è° ±
æŃ£ç¡® çļĦç¿»è¯ĳ
ä½Ĩ è¿ĻéĩĮ
Ġadvant age
i ed
Ġ li
åŃ¦æľ¯è¯Ńå¢ĥ ä¸Ń
Ġ ed
M agical
vi liz
æİ ī
éĺ ²
Ġinter pret
æİ¨ è¿Ľ
Ġcol or
ehavi oral
éĢļ ä¿¡
Ġb ut
åŀ Ĥ
å¸ Ŀ
Ġth er
ç³»ç»Ł çļĦ
Ġfunda mental
åŀĤ çĽ´
b ers
Ġ tim
æĽ´ æĶ¹
ac ts
Ġag ricultural
åı ²åŃ¦
at or
çĥ ·
Ġres pon
Ġun precedented
æĹ¢åĩĨç¡®åıĪ ç¬¦åĲĪä¸Ńæĸĩè¡¨è¾¾ä¹łæĥ¯
æķ´ä¸ªåı¥åŃĲçļĦç»ĵæŀĦ éľĢè¦ģè°ĥæķ´
çĶ² çĥ·
j ective
Ġp ot
è£ Ĥ
ç¡®ä¿Ŀæ²¡æľīéģĹæ¼ı æĪĸ
åĲĪæĪĲ çĶŁçī©åŃ¦
è¾¹ ç¼ĺ
ç«ĭä½ĵ ä¸»ä¹ī
ch ain
éĺ Ĳ
par ad
Ġdem and
m edi
å¸¦æĿ¥ çļĦ
Ġexpl ain
divid ual
Ġd uring
çĽ¸ å½ĵ
æºĲ äºİ
ç« ¯
Ġ âĢľ
Ġpercep tion
D NA
m pressionist
åĴĮ ä¸ĵä¸ļæĢ§
åĬ¨ ä½ľ
ult aneous
d igital
åľ° ç¼ĺæĶ¿æ²»
ch an
æ²» çĸĹ
éľĢè¦ģæī¾åĪ°åĲĪéĢĤçļĦ ä¸Ńæĸĩè¡¨è¾¾
ä¸Ń ä½¿çĶ¨
éĿ¢ ä¸´
Ġ P
od ern
g ed
an tine
è®¨è®º çļĦæĺ¯
åı¯èĥ½æĺ¯ æĮĩ
yz antine
Ġprec ision
ç¤¾ åĮº
ä¸įèĥ½ æľī
Ġa ffect
ter n
Ġmain tain
lock chain
s ur
h ol
dem on
çĸ¾ çĹħ
ç¬¦åĲĪä¸ŃæĸĩçļĦ è¡¨è¾¾æĸ¹å¼ı
ç« ŀ
Ġ åºĶè¯¥ç¿»è¯ĳä¸º
æıĲ é«ĺ
s ting
Ġ ä½Ĩ
Ġne uro
econom ic
Ġacc oun
p oth
æĿ İ
Ġachie ves
Ġwh en
ä¸ŃæĸĩçļĦè¯Ńåºı åĴĮ
åĲİ çİ°ä»£ä¸»ä¹ī
Ġe volution
éĢł æĪĲ
å£ ģ
Ġmarket s
ach ine
erm in
Ġci viliz
ä½ ı
æĺ¯åĲ¦ åĩĨç¡®ä¼łè¾¾äºĨåİŁæĦı
éĵ¶ è¡Į
åĲ Ĺ
æĿ¡ä»¶ ä»İåı¥
æľĢåĲİæ£ĢæŁ¥ æĺ¯åĲ¦æľīéģĹæ¼ıæĪĸ
ç¡®å®ļ æĢ§
è®¡ç®Ĺ æŀ¶æŀĦ
åĳ¨ æľŁ
ä¸Ń å¤®
re e
æ¯Ķè¾ĥ å¸¸è§ģ
yn thetic
Ġfe edback
Ġin st
ä¸įèĥ½ éģĹæ¼ıæĪĸæŃªæĽ²ä¿¡æģ¯
æ¶Ī è´¹
Ġlangu age
è¿ ľ
al th
åŃ¦æľ¯ æĢ§
b er
æīĢä»¥ æ²¡éĹ®é¢ĺ
ï¼ī ï¼Į
ä¾Ľ åºĶ
çĶ¨æĪ·åı¯èĥ½ çļĦ
tiv ism
åħ· è±¡
çĶ¨æĪ·ç»Ļ çļĦ
åĮº åĪ«
Ġpre cipit
g al
challen ge
æĪĳè¦ģåĩĨç¡®çĲĨè§£ è¿Ļåı¥è¯ĿçļĦæĦıæĢĿ
åŃ¦æľ¯ ç¿»è¯ĳ
åĢ Ł
ç ĩ
Ġcont ent
åĨįæ£ĢæŁ¥ ä¸Ģéģį
Ġman ufacturing
Ġb ound
å¤ĸ è¡ĮæĺŁ
å¯¼ çĶµ
èģļ åıĺ
è¯ ķ
ç´ ¯
æľĢåĲİæ£ĢæŁ¥ æķ´ä½ĵ
æĽ´ å¤ļ
å¿ Ĩ
åı¯èĥ½ä¼ļ å¦Ĥä½ķ
åĲ §
åĽ ¢
Ġw ave
Ġpain ting
Ġeff ect
åĲİç»ĵæŀĦ ä¸»ä¹ī
åİŁåı¥çļĦç»ĵæŀĦæĺ¯ ä¸»è°ĵå®¾
éĢı è§Ĩ
çĥ Ī
çİ¯å¢ĥ ç§ĳåŃ¦
Compar ative
ä¼łè¾¾ äºĨ
ç²¾ åĩĨ
ear ch
æī ĵ
st and
éĩį å¡ĳ
æĹ¢ ä¸ĵä¸ļ
plo ys
Ġs h
åħ³éĶ®è¯į åĮħæĭ¬
æī© å±ķ
Ġlo op
em phasiz
é¦ĸåħĪ çľĭ
åıĤ èĢĥ
æľºåĻ¨ åŃ¦ä¹ł
åı¯ å¡ĳ
è¿ĩ æĹ¶
çĽ´æİ¥ç»Ļåĩº ç¿»è¯ĳ
æ²īç§¯ çī©
Ġpolic ies
åİ»ä¸Ńå¿ĥ åĮĸ
ä¸» è§Ĥ
å° ¼
æĹł æ³ķ
çļĦ çĲĨè®º
è¿ Ł
æīĢä»¥ æľ¯è¯Ń
Ġe qui
éģ¿åħį æŃ§ä¹ī
hap e
Ġto p
ç½ Ĺ
ar t
åı¯èĥ½éľĢè¦ģ çĶ¨
vid e
ä¸ĵä¸ļæĢ§åĴĮ åĩĨç¡®æĢ§
Ġconven tional
T her
Ġlim itations
ç¬ Ķ
Ġpsych ological
em ical
æĽ´ç¬¦åĲĪä¸Ńæĸĩ è¡¨è¾¾
æĸĩçĮ® ä¸ŃçļĦ
H ad
æĢĿ æĥ³
ä¸į æ·»åĬł
è¿ĺ æľī
æŀ Ĺ
Ġpolic y
en tic
Ġc ell
re veals
è¯ģ æĺİ
ä¸ŃæĸĩéĢļå¸¸ä¼ļ çĶ¨
Ġmet rics
æĽ´ è´´è¿ĳ
åĩĨç¡®æĢ§åĴĮ ä¸ĵä¸ļæĢ§
éĩıåŃĲ åĬĽåŃ¦
åı ī
Ġwith in
ç»Ŀç¼ĺ ä½ĵ
åĺ ī
æ¨¡ ä»¿
op ological
Ġè¿Ļæł·æĹ¢åĩĨç¡®åıĪ ç¬¦åĲĪä¸Ńæĸĩè¡¨è¾¾ä¹łæĥ¯
è½¨ éģĵ
a il
Ġs ignificant
è¾¹ çķĮ
ven tion
æĿİ åĺī
æĿİåĺī åĽ¾
æĪĳçİ°åľ¨éľĢè¦ģ æĬĬè¿Ļåı¥è¯Ŀç¿»è¯ĳæĪĲä¸Ńæĸĩ
i er
Ġc an
äºº ä»¬
å·¥ä¸ļ éĿ©åĳ½
å°±åı¯ä»¥ ç»Ļåĩº
Ġcommun ication
å¸Ŀ åĽ½
åĩ »
ad er
j ect
Ġt er
st ream
ä¼ł éĢĴ
åŃ¦æľ¯ åĨĻä½ľ
èĭ±æĸĩ ä¸ŃçļĦ
çŃī çº§
Ġdi rectly
Ġ lif
éĢ»è¾ĳ æ¸ħæĻ°
åīĬ å¼±
w h
è¿ĺè¦ģæ³¨æĦı ä¸ĵä¸ļæľ¯è¯ŃçļĦåĩĨç¡®æĢ§
åĬłåī§ äºĨ
åıĸ ä»£
ç¼ĵ è§£
b y
a ke
Ġ identi
ä¹ ±
rib ut
o vol
ç¾İ åŃ¦
æ¦Ĥ çİĩ
ç¢³ éħ¸
bl em
ç«ŀ äºī
éľĢè¦ģ èĢĥèĻĳ
ä¼ Ĭ
éĿ ł
æłĩåĩĨ åĮĸ
åı¥åŃĲ æµģçķħèĩªçĦ¶
éĺ »
ä»İ æł¹æľ¬ä¸Ĭ
Ġel ements
çļĦæĦıæĢĿ æĺ¯
å§ ĭ
çļĦ æĬĢæľ¯
å®ĩå®Ļ åŃ¦
Ġear ly
éľ ¸
æĭ Ĩ
æĤ ĸ
onom ous
es thetic
åħ³ æ³¨
ä¹Ł åı¯ä»¥
econ struc
Ġcri ti
e w
ä¸į æĺ¯
ç³» å¤ĸè¡ĮæĺŁ
ç¿»è¯ĳæĪĲä¸Ńæĸĩ æĹ¶
n atural
æĭĵæīĳ ç»Ŀç¼ĺä½ĵ
no v
éľ¸ æĿĥ
Ġin come
ä½Ĩ è¦ģæ³¨æĦı
ç¡®å®ŀ æĺ¯
Ġmean ing
åľ¨ åĵ²åŃ¦
åĮ Ĺ
åıĻ è¿°
åĮ» çĸĹ
çĻ ¾
o ch
ä¼ ı
or d
å¸¸ è¯ĳä¸º
Ġin dustrial
ç´ ¢
v ent
æĪ ¿
Ġins ul
Ġrepresent ation
ar ti
ä¸įéľĢè¦ģ æĶ¹åĬ¨
äº¤ åıī
æī© æķ£
èĢĥ éĩı
åºĶè¯¥æĺ¯ æĮĩ
ä»ħ ä»ħæĺ¯
Ġdes pite
Ġphys ics
? âĢĿï¼Į
c ur
æĺ¯åĲ¦ åĩĨç¡®ä¼łè¾¾äºĨ
Ġg row
æł¹æį®ä¸Ĭä¸ĭæĸĩ éĢīæĭ©
Ġexperi ence
æľį åĬ¡
l ing
çļĦ è½¬åıĺ
å¯ Į
ap se
s cap
Ġe volve
str act
è¯Ńè¨Ģ åŃ¦
Ġpol ar
åħ¨æ°ĳ åŁºæľ¬æĶ¶åħ¥
ver se
ä¸ĸ çķĮ
éĵ ľ
å»¶ ç»Ń
æĹ¢ä¸ĵä¸ļ åıĪ
er o
æĿ¥ çľĭ
p sych
æĹ¶ åĢĻ
åıį çī©è´¨
å¾Ī å¸¸è§ģ
Ġres earch
trans form
Ġem otional
çĶ¨æĪ·æıĲä¾ĽçļĦ èĭ±æĸĩåı¥åŃĲ
Ġpl atform
Ġdemon strate
imension al
åı¥åŃĲç»ĵæŀĦ éĢļé¡º
titu tional
Ġciviliz ations
Ġst rati
èİ· å¾Ĺ
æĪĳçļĦä»»åĬ¡ æĺ¯
æĸĩçĮ® ä¸Ńå¸¸çĶ¨
æī§ è¡Į
èĮĥåĽ´ åĨħ
Ġengineer ing
æĢ»ç»ĵ ä¸ĭæĿ¥
Ġhy poth
Ġdev ices
åı¯å¡ĳ æĢ§
in d
Ġc ent
p e
åı¯èĥ½ æĮĩ
è¯ģ å®ŀ
Ġhe at
åº· å¾·
ĠE x
Ġmet a
Ġenab led
Ġloop s
Ġre vision
o plan
æĶ¾ å¤§
sp ec
æĪĸèĢħ æĺ¯åĲ¦
äºº ä¸º
Ġè¿Ļæł·æĹ¢åĩĨç¡®åıĪ æµģçķħ
ä¿ĿæĮģåİŁ ç»ĵæŀĦ
åĢĴè£ħ ç»ĵæŀĦ
çĶ¨æĪ· æıĲåĪ°
arm ing
Ġconsequ ences
ä¸Ń æĺ¯
ol ete
æĪĸèĢħ æĽ´ç®Ģæ´ģ
ç¡®è®¤ æ²¡æľīéģĹæ¼ıä¿¡æģ¯
ol ic
è¿Ľ ç¨ĭ
çĶ¨æĪ·åı¯èĥ½å¸ĮæľĽ ç¿»è¯ĳåĲİçļĦåı¥åŃĲ
æĺ¯ä¸Ģä¸ª ç¿»è¯ĳåĬ©æīĭ
å®ı è§Ĥ
ç¨ į
è´£ ä»»
y ond
è¡¨è¾¾ çļĦæĺ¯
éķ ľ
è§Ĵ èī²
Ġr is
Ġs elf
å®ŀ ä½ĵ
Ther m
çļĦ æĸ¹å¼ı
¿ æ²Ł
Ġ CRISPR
é¸ ¿æ²Ł
C on
æĬĢæľ¯ é¢ĨåŁŁ
æ¶ µ
èħ Ĭ
å¿ħ è¦ģ
gorith mic
æĶ¹åıĺ äºĨ
ç®Ģ åįķ
è¯ ¥
ç¡®ä¿Ŀ æľ¯è¯ŃåĩĨç¡®
è§Ĥ æµĭ
å¸Į èħĬ
éĢĢ çĽ¸å¹²
ä¸įèĥ½éļıæĦı æĽ´æĶ¹
Ġenab les
æĤĸ è®º
Ġ editing
de velop
pir ical
astic ity
å¯¹ ç§°
oc urrency
çĦ¶åĲİæ£ĢæŁ¥ æµģçķħæĢ§
è´¢ æĶ¿
æī ¿
æĪĳéľĢè¦ģ ç¡®å®ļ
duc tivity
åįģ å¹´
çļĦ ç¤¾ä¼ļ
Ġf unc
Ġre de
Ġv is
Ġmechan ics
æĵį ä½ľ
ä¹¦ éĿ¢
å® ¢
å¤ļ ä¸ª
Ġsoci et
ar ine
å¤§ èĦĳ
è´§å¸ģ æĶ¿çŃĸ
Ġmethod s
Ġ ç¿»è¯ĳæĪĲ
Ġd omin
ä¸» æµģ
Ġcon struc
äº¤ æĺĵ
Ġs ediment
Ġth is
å®ļ è¯Ń
di ffer
è¶ħ è¿ĩ
æĬ½è±¡ è¡¨çİ°ä¸»ä¹ī
ç¨ İ
æ°ĶåĢĻ åıĺåĮĸ
åı¯èĥ½ä¸į å¤Ł
è¾ĵåħ¥ çļĦéĹ®é¢ĺ
çĦ¶åĲİ è¦ģæ£ĢæŁ¥
å¸¸è§ģ æľ¯è¯Ń
Ġexp on
anc es
f ine
ç¡®è®¤ æ²¡æľīéģĹæ¼ıä»»ä½ķä¿¡æģ¯
ph ys
åľ¨è¿ĻéĩĮ ç¿»è¯ĳä¸º
di an
èį ¯
p t
åľ° å½¢
rom agnetic
åģı è§ģ
éģĹä¼ł åŃ¦
ä¸¥æł¼ æĮīçħ§
çļĦ åħ³ç³»
æĪ ı
Ġch o
å»¶ è¿Ł
r c
on es
æĦı åĽ¾
Ġland scap
ä¿¯åĨ² å¸¦
Ġaccur acy
çļĦ åı¥åŃĲ
æŃ£ç¡® æĹłè¯¯
æİ¥ä¸ĭæĿ¥ è¦ģæ£ĢæŁ¥
Ġem ploy
æĸ¹æ³ķ è®º
Ġec ological
ac ilit
åį «
åĽŀçŃĶ è¾ĵåħ¥çļĦéĹ®é¢ĺ
çļĦ åĲĮæĹ¶
Ġp ri
Ġ qu
ä¸ĭ éĻį
åģı è¯¯
åĸ »
è¿Ľ å±ķ
åħ¨ éĿ¢
äº ĳ
ect ed
Ġsol ar
st ate
æīĢä»¥ æľĢç»ĪçļĦç¿»è¯ĳåºĶè¯¥æĺ¯
æ¯ıä¸ª è¯į
ç»Ħ è£ħ
èŀį åħ¥
éĢ Ĩ
å± ħ
åı¯èĥ½æĽ´ è´´åĪĩ
abi liz
d ri
è¡¨è¾¾ äºĨ
odern ist
åĨ Ľ
Ġre fl
Ġc r
è¡¨ è¿°
æĸĩèīºå¤įåħ´ æĹ¶æľŁ
emper ature
ï¼Į "
æĪĲä¸º åı¯èĥ½
åı¯èĥ½ æ¶īåıĬ
çĽĳ ç®¡
irm ation
è½ ¦
si der
hi bit
åľ¨è¿ĻéĩĮ ç¿»è¯ĳæĪĲ
è¿ «
æī °
éĩį å¤į
Ġex tr
Ġprinci ple
throp ogenic
a v
l ac
æ²¡æľī çī¹åĪ«
ä¸Ńæĸĩè¡¨è¾¾ çļĦ
éĿĴ éĵľ
éľĢè¦ģ æĺİç¡®
æĪĲ æľ¬
ac celer
åĬ¨ çī©
çĶ¨äºİ è®ºæĸĩæĪĸ
Ġè¿ĻéĩĮçļĦ åħ³éĶ®è¯įæĺ¯
æĪĸ è®¸
æĪĲ åĪĨ
è¡ ¥
æİ¥ä¸ĭæĿ¥ çļĦ
ç»Ł ä¸Ģ
çļĦç¿»è¯ĳ ä»»åĬ¡
è°ĥæķ´è¯Ńåºı ä¸º
æīĢä»¥ ä½¿çĶ¨
å¥ ³
æ¸ Ĳ
ç»Ŀ å¯¹
er b
åľ¨ æĸĩåŃ¦
ç¡®ä¿Ŀ ä¸Ńæĸĩ
åĲİéĿ¢ çļĦ
åı¯èĥ½çĶ¨æĪ· æĺ¯
è¦ģ åĩĨç¡®ä¼łè¾¾
Ġc l
æĮĩ ç¤º
åŁºåĽłç¼ĸè¾ĳ æĬĢæľ¯
æľĢåĲİæ£ĢæŁ¥ ä¸ĵä¸ļæľ¯è¯Ńæĺ¯åĲ¦æŃ£ç¡®
Ġinter action
çĩ ĥ
ç¬¦åĲĪä¸Ńæĸĩ è¯Ńæ³ķ
è®¾ å¤ĩ
å¤ļæł· æĢ§
åħī åĲĪ
lob ally
è®©åı¥åŃĲæĽ´ éĢļé¡º
åĪº æ¿Ģ
Ġgrow th
æ¯ıä¸ªæľ¯è¯ŃçļĦ åĲ«ä¹ī
f r
ç¡ ħ
åĴĮ ä¸ĵä¸ļ
Ġpro blem
Ġ æĪĳçļĦä»»åĬ¡æĺ¯
Ġc lo
Ġs ecurity
Ġin e
é¡ ¿
åľ¨ ç»ıæµİåŃ¦
çĦ¶åĲİ çľĭ
ç¬Ķ è§¦
ä¸ĵä¸ļ ä¸Ķ
ac erb
å·¥ä¸ļ åĮĸ
oplan et
in dustrial
Ġp o
åĴĮ èĩªçĦ¶
æľĢ å¤§
Ġh ier
Ġn an
å·¥ åħ·
åĲį ç§°
æĺ¾ ç¤º
æĺ¯åĲ¦ å¸¸çĶ¨
ç¡®è®¤ åģıè¯¯
æľª æĿ¥
ump tion
p r
ç®Ģæ´ģ æĺİäºĨ
oc us
å¹¿æ³Ľ éĩĩçĶ¨
æľī æľº
æĽ´ æĺİç¡®
æĻ ¶
æ¸ ¸
è¯Ħ è®º
æĪĳçİ°åľ¨è¦ģå¤ĦçĲĨ çĶ¨æĪ·çļĦç¿»è¯ĳè¯·æ±Ĥ
åĽ Ľ
åį ¡
th esis
æ¸© åº¦
è´Ł è´£
funda mentally
end er
æıĲåĩº çļĦ
cent ury
æĪĳéľĢè¦ģç¡®ä¿Ŀ ç¿»è¯ĳ
ä¿ĥ æĪĲ
' t
ä» ¤
æŃ Į
æ£ĢæŁ¥ ä¸ĵä¸ļæľ¯è¯Ńæĺ¯åĲ¦æŃ£ç¡®
æĦıè¯Ĩ å½¢æĢģ
æ¯Ķå¦Ĥ å°Ĩ
Ġcom plete
Ġbas ic
M et
Ġinteg r
ä¸įåĲĮ äºİ
Ġbound aries
U r
èĥ ŀ
infor c
ç§ ģ
çļĦ ä½¿çĶ¨
æ² ¿
Ġincre ased
æ£ĢæŁ¥ æµģçķħæĢ§
opol itical
Ġo c
Ġn ot
çĽ¸å½ĵ äºİ
l ess
éĩį å¤§
çĹ ķ
Ġshif t
å¿« éĢŁ
æ¯ıä¸ªæľ¯è¯ŃçļĦæŃ£ç¡® ç¿»è¯ĳ
Ur ban
al ism
arc hi
ä¸ ľ
æĿ¥ æııè¿°
è¿Ļæł· è¯»èµ·æĿ¥
åīį åĲİ
å¹¿æ³Ľ åºĶçĶ¨
èīºæľ¯ åı²
æ² ¹
éĩį è§Ĩ
æĪĺ åĲİ
æĸ° çļĦ
è· Ł
T opological
åŃ¦æľ¯ ä¸¥è°¨æĢ§
ect onic
æľī æ²¡æľīéģĹæ¼ıä¿¡æģ¯
åİŁåı¥ä¸ŃçļĦ æ¯ıä¸ªéĥ¨åĪĨéĥ½
æ¶Ī èĢĹ
ä½Ĩ åı¯èĥ½éľĢè¦ģ
äºº çļĦ
ut ational
Ġim per
æ°´ å¹³
æľīæ²¡æľī æĽ´å¥½çļĦ
æīĢä»¥ åı¯èĥ½éľĢè¦ģè°ĥæķ´è¯Ńåºı
om orph
æ¯Ķè¾ĥä¼ĺåĬ¿ çĲĨè®º
w hile
Ġf iction
æľº æŀĦ
èĢĮä¸į ä»ħä»ħæĺ¯
ç»Ĩ èĥŀ
èį Ĳ
anc ements
æ¶µ çĽĸ
ä¸ŃçļĦ ä¸Ģä¸ª
æķ° åŃ¦
çĶ¨æĪ·å¼ºè°ĥ å¿ħé¡»
ä¸Ĭ åįĩ
æĿĥ å¨ģ
Ġfragment ation
Ġcal c
f ig
æī ĺ
æİ¨ èįĲ
Ġpl ate
c ognitive
æĽ´ çĽ´æİ¥
æ£ Ģ
åįı è°ĥ
éĿĴéĵľ æĹ¶ä»£
çĸĳéĹ®åı¥ çļĦç»ĵæŀĦ
anc ed
æİ¥ è¿ĳ
æĪĳéľĢè¦ģä»Ķç»Ĩ éĺħè¯»
Ġcos m
o sion
Ġ Ne
è¿ĺè¦ģæ³¨æĦı ä¸ĵä¸ļæľ¯è¯ŃçļĦæŃ£ç¡®æĢ§
åĽ¾ ä¹¦
Ġer osion
åĽ¾ä¹¦ é¦Ĩ
en ergy
ç¿»è¯ĳæĹ¶ ä¿ĿæĮģ
çªģ åĩº
or gan
èµĦ æĸĻ
çĹķ è¿¹
o es
ç¬¦åĲĪä¸Ńæĸĩ ç§ĳæĬĢæĸĩçĮ®
Ġbi ases
çĭ¬ çī¹
Ġz ones
Ħ æĸŃ
ä½Ĩ åľ¨
å®ŀ æĹ¶
ç¬¦åĲĪä¸Ńæĸĩ è¡¨è¾¾
éĩį åķĨ
åŀ ĦæĸŃ
åı¤ ä»£
ast al
re con
Ġin corpor
Ġthe ore
èį Ĵ
ç¡®ä¿Ŀ ç¿»è¯ĳ
å±ķ çİ°
u tions
Ġf ield
åĪ° ä½į
åħī ä¼ı
çĽ¸åħ³ çļĦ
æĬĺå°Ħ çİĩ
A I
ti liz
éľĢè¦ģç¡®ä¿Ŀ æľ¯è¯ŃæŃ£ç¡®
åĩĨç¡® å¯¹åºĶ
Ġform s
Ġv ir
çº³ åħ¥
æĲ Ń
çļĦ ä¸Ńæĸĩ
èĲ¥ åħ»
ç¬¦åĲĪ çĶ¨æĪ·çļĦæīĢæľīè¦ģæ±Ĥ
éĩĬ æĶ¾
åı¥åŃĲ æµģçķħ
ç»ĵæŀĦ çļĦ
Ġin nov
åı¯èĥ½éľĢè¦ģè°ĥæķ´ ä¸º
Ġhy d
çĲĨæĢ§ éĢīæĭ©
å¤ĦçĲĨ æĪĲ
åĨį è¯´
æľīä¸Ģå®ļ çļĦ
æĽ´ æ¸ħæĻ°
Ġcon st
Ġch aracter
Ġem phas
åĽº æĢģ
æ°§ åĮĸ
al ter
çĦ¶åĲİèĢĥèĻĳ åı¥åŃĲçļĦæµģçķħæĢ§
åĲİæ®ĸæ°ĳ æĸĩåŃ¦
Ġconven tions
æ½ľ åľ¨
æķ ı
st s
ç¬¦åĲĪ åŃ¦æľ¯è¯Ńå¢ĥ
ph ot
æĺ¯åľ¨ éĹ®
äºļ åİĨ
æ£ĢæŁ¥æĺ¯åĲ¦æľīéģĹæ¼ıæĪĸ éĶĻè¯¯
A n
ap p
æľ «
as ible
è¿Ļæł·æĹ¢ ä¿ĿæĮģäºĨ
æĥħ å¢ĥ
æĪĳéľĢè¦ģç¿»è¯ĳ è¿Ļä¸ª
Ġth aw
åİŁåı¥æĺ¯ æĿ¡ä»¶åı¥
Ġgen etic
Ġmic ro
æľŁ éĹ´
è±¡ å¾ģ
olog raphic
Ġbec omes
æĹ¶ æĢģ
æĿ¡ä»¶ æĶ¾åľ¨åīįéĿ¢
Ġsp atial
æĺŁ éĻħ
ç¿»è¯ĳçļĦ è¦ģæ±Ĥ
æ·± å±Ĥ
Ġgener al
B ehavioral
çĶ¨æĪ· çī¹åĪ«å¼ºè°ĥ
å¤ļ åĪ©äºļ
ç»´ å¤ļåĪ©äºļ
åŁºåĽł é©±åĬ¨
æĮģç»Ń åŃĺåľ¨
P l
åĬ ±
æŃ£ç¡® æĢ§
ä¸ŃæĸĩéĩĮ éĢļå¸¸ä¼ļçĶ¨
structural ist
o herence
å°Ĩ è¿Ļåı¥è¯Ŀ
Ġbehavi or
chan ge
æľī çī¹å®ļ
ä¸» ä½ĵ
Ġcon sider
Ġdis c
ç¦ ı
å±± å¤§
Ġdemon strates
äºļåİĨ å±±å¤§
å½¢æĪĲ çļĦ
ĠA ge
æľīä¸Ģå®ļ äºĨè§£
5 0
ç¿»è¯ĳ ä¸Ń
çĽ´æİ¥ç»Ļåĩº ç¿»è¯ĳç»ĵæŀľ
åľ¨ çĽ¸åħ³é¢ĨåŁŁ
ç¡®ä¿Ŀ ç¿»è¯ĳç»ĵæŀľ
å°Ĩ éľĢè¦ģ
G ame
ç¬¦åĲĪ ä¸ŃåĽ½
Ġm atter
è½¬ æĬĺ
Ġpol itical
in flu
æµ ĵ
ä¸į å¤ª
æ£ĢæŁ¥ æľ¯è¯Ńæĺ¯åĲ¦æŃ£ç¡®
å¤§ è§Ħæ¨¡
å² ¸
æīĢä»¥ åı¯ä»¥ç¿»è¯ĳä¸º
Ġo per
si m
è®¤çŁ¥ åģıå·®
èĬ ¯
å¼ķåıĳ åĵªäºĽ
åı¯è¡Į æĢ§
é² ľ
ç¢³éħ¸ çĽĲ
archi es
æ¯Ķè¾ĥ æŃ£å¼ı
çĶ¨æĪ·åı¯èĥ½ å¯¹
Ġun i
Ġrelations hips
åĲĮæĹ¶ éģµå¾ª
çĽ´æİ¥ ç¿»è¯ĳä¸º
è¦ģæ³¨æĦı ä¸ĵä¸ļæľ¯è¯ŃçļĦåĩĨç¡®æĢ§
ç½ ²
åľ¨è¿ĻéĩĮ æĮĩ
s uper
Ġform ations
èµĦæľ¬ ä¸»ä¹ī
Ġpos its
éĢ Ķ
Ġin dividual
uc le
æĸ¹éĿ¢ çļĦ
Ġv ari
Ġad dress
Ġne g
æĪĳéľĢè¦ģçĲĨè§£ æ¯ıä¸ªæľ¯è¯ŃçļĦæĦıæĢĿ
C ould
æĪ ª
èģĶ ç½ĳ
æķ ħ
åħ¨çĲĥ èĮĥåĽ´åĨħ
Ġdes ign
è¿Ļæł·æĹ¢åĩĨç¡®åıĪ æµģçķħ
éĢļå¸¸ä½¿çĶ¨ è¾ĥä¸ºæŃ£å¼ı
è¿Ļæł· æĽ´èĩªçĦ¶
ta ic
çĶ¨æĪ· è¿ĺ
ä½Ĩ éľĢè¦ģç¡®è®¤
Ġb an
un iversal
Ġcont ain
åĩĨç¡®æĢ§åĴĮ æµģçķħæĢ§
æł ĳ
Ġw idespread
å¤įæĿĤ çļĦ
æ¢ ¯
æĺ¯åĲ¦ æģ°å½ĵ
ç»ı å¸¸
å¥ ¥
æĪĳè¦ģä»Ķç»Ĩ çĲĨè§£åİŁåı¥çļĦæĦıæĢĿ
Ġs ch
èĢĮ ä¸Ķ
èĢĥèĻĳ æĸĩåĮĸéĢĤåºĶæĢ§
è·¯ å¾Ħ
æĹ¥ å¸¸
a tives
åĪ »
Ġdis tinc
èĩªå·± æĺ¯ä¸Ģä¸ªç¿»è¯ĳåĬ©æīĭ
Ġmethod ologies
Therm ohaline
ä¸į åĬł
éļ Ķ
æıĲä¾Ľ ç¿»è¯ĳç»ĵæŀľ
ç» ¸
et work
ç²¾ åº¦
ç¬¬ äºĮ
Ġcons umption
Ġimp acts
çĶ¨æĪ· å¸ĮæľĽ
æķ°åŃĹ é¸¿æ²Ł
å¡ĳ éĢł
æĲŃ éħį
v it
çļĦ æĹ¶éĹ´
åľ £
éĥ¨ ç½²
uc tu
è¯Ńæ³ķ åĴĮ
ä½¿åı¥åŃĲæĽ´ éĢļé¡º
æ²¡æľīæ·»åĬł æĪĸ
æĺ¯ éĢļè¿ĩ
el ect
ä¸Ŀ ç»¸
g lobal
éĹ Ń
å»º æŀĦ
Ġparad ox
çĶ¨æĪ· æĺİç¡®è¯´æĺİ
ä¸ŃçļĦ æłĩåĩĨè¯ĳæ³ķ
é©±åĬ¨ çļĦ
ä¸ª ä½ĵ
Ġnovel s
achie ve
ä¸º äºĨ
æłĩåĩĨ è¯ĳåĲį
æī© å¼ł
è® Ń
re volution
æŃ£ç¡® ä½¿çĶ¨
Ġauth entic
æīĢä»¥ ç¿»è¯ĳ
ust ain
éĴ Ļ
æ¯ıä¸ªæľ¯è¯ŃçļĦ åĩĨç¡®ç¿»è¯ĳ
ump tions
Ph ot
o ugh
it ance
rom atic
ä¼¦çĲĨ éĹ®é¢ĺ
æĿ¥ å¯¹åºĶ
åľ° çĲĨåŃ¦
çĶ¨æĪ·è®©æĪĳç¿»è¯ĳè¿Ļä¸ª åħ³äºİ
è¶ħ èĩªçĦ¶
Ġarti stic
é» ĳ
v is
ad es
ä¸Ķ ä¸ĵä¸ļ
Ġachie ved
åªĴ ä»ĭ
in ing
en ment
åı¯èĥ½ çļĦ
light enment
ç¡®ä¿Ŀ è¯»èĢħ
äº¤ æį¢
Ġpartic le
Ġsup ply
åħīåĲĪ ä½ľçĶ¨
å¼º çĥĪ
ä¹ĭ è·¯
Ġpl an
éĩįåķĨ ä¸»ä¹ī
äºļåİĨå±±å¤§ åĽ¾ä¹¦é¦Ĩ
ä¸Ŀç»¸ ä¹ĭè·¯
n lightenment
æľī ä½ķ
æĹ ¦
æīĢä»¥ éľĢè¦ģ
ve al
Ġver ification
Ġgovern ance
u ation
Ġre d
è´¨ éĩı
åıª è´Łè´£
Ġorgan isms
é¢ĨåŁŁ å¸¸çĶ¨
Ġst ud
äºĮ æ°§åĮĸ
Ġro ck
Ġsyn thetic
Ġrela tivity
ä¼ ¤
åľ° çĲĨ
çĽ¸åħ³ æĢ§
è¯ģ æį®
M odernist
æŃ£ç¡® çļĦæľ¯è¯Ń
Ġchan ge
ä½Ĩ éľĢè¦ģç¡®ä¿Ŀ
ä½ķ ç§į
åįĬ å¯¼ä½ĵ
ä»į çĦ¶
w ar
ogen etic
è¢« åĩĨç¡®ä¼łè¾¾
Ġfre quently
åĨĹ éķ¿
Ġed uc
ä¸Ģ æĹ¦
is es
åľ¨ä¸Ńæĸĩ è¯Ńå¢ĥä¸Ń
Ġac cess
ific ations
C an
æľī æľĽ
æĹ ı
è¿ĻéĩĮ éľĢè¦ģæ³¨æĦı
Ġcorrel ates
å¯¹ æĸ¹
ç¼ĸ ç¨ĭ
Ġproper ties
æĪĳéľĢè¦ģ æĬĬçĶ¨æĪ·æıĲä¾ĽçļĦèĭ±æĸĩåı¥åŃĲç¿»è¯ĳæĪĲä¸Ńæĸĩ
éĥ½ æĺ¯æłĩåĩĨè¯ĳæ³ķ
çĽ´è¯ĳ çļĦè¯Ŀ
ä¸į ç¡®å®ļæĢ§
n er
Ġ F
Ġ ri
å¯¹ è¯Ŀ
ä¸ĵä¸ļæľ¯è¯Ń ä½¿çĶ¨æŃ£ç¡®
è¿Ļæł· çĶ¨æĪ·
pl ac
Ġvi able
Ġlandscap es
d imensional
åĪĨ åı¥
åıĳ æĺİ
éĽ ¶
com es
Ġval ue
roscop ic
p id
z e
åľ Ī
Ġcon fl
å¼ķ åħ¥
åĪĿ æŃ¥
? âĢĿãĢĤ
éĢ ģ
çĶ¨æĪ·æıĲä¾Ľ çļĦç¿»è¯ĳä»»åĬ¡
æĪª çĦ¶
W hile
li st
çĶŁçī© ç¥ŀç»ıç½ĳç»ľ
åĤ¬ çĶŁ
ä¸Ń å¸¸è§ģ
åı¯èĥ½ æĮĩçļĦæĺ¯
at ures
Ġge ological
d ing
u x
Ġ time
in cre
å¼º åº¦
Ġpro g
è®° å¿Ĩ
å¿łå®ŀ äºİ
æĹ ĭ
æĽ´èĩªçĦ¶ çļĦè¡¨è¾¾
æĦŁ è§ī
åĪ ł
ä½¿çĶ¨ äºĨ
åĲĮæĹ¶ ç¬¦åĲĪä¸ŃæĸĩçļĦè¡¨è¾¾ä¹łæĥ¯
Ġem ploys
è¡¨ç¤º åı¯èĥ½æĢ§
Ġprioritiz e
Ġinteg ration
Ġinher itance
æīĢä»¥ ä¸Ńæĸĩ
ri es
æµĵ åº¦
è¦ģ ç¿»è¯ĳæĪĲ
å¤į åĪ¶
è¢«åĬ¨ è¯ŃæĢģ
è¾ ¨
åı¯èĥ½ è¿ĺ
or ld
æĺ¯åĲ¦ æµģçķħ
æĺİ æļĹ
æĿ¡ä»¶ çĬ¶è¯Ń
åľ¨ åŃ¦æľ¯è¯Ńå¢ĥä¸Ń
éĹ ¨
è®¡ åĪĴ
Ġimplement ed
åľ¨ åĲİ
Ġn atural
ub l
è¶ħ å¯¼ä½ĵ
çĦ¶åĲİæĺ¯ æµģçķħæĢ§
æĹ¢åĩĨç¡®åıĪ æµģçķħ
ä¸Ńæĸĩè¯»èĢħåı¯èĥ½æĽ´ ä¹łæĥ¯
Ġmov ements
åį ´
Ġprioritiz es
éĺĲ éĩĬ
Ġexpon entially
çļĦ è§£éĩĬæĪĸ
æīĢä»¥ è°ĥæķ´
æľĢåĲİ åĨįéĢļè¯»ä¸Ģéģį
å¹¶ ç½®
æľĢåĲİæ£ĢæŁ¥ ä¸Ģéģį
éĻį æ°´
Ġimp act
t echn
æĽ´ æ³¨éĩį
åŃ¦æľ¯ çķĮ
å Ķ
ç¿»è¯ĳ åı¯èĥ½æĺ¯
è® ¢
æľĢåĲİæ£ĢæŁ¥ æķ´ä¸ªåı¥åŃĲ
Ġcoll apse
æĢ§ åĴĮ
ç§¯ ç´¯
æŁĲ ä¸ª
s ocial
Ġ H
ç»Ħ åĲĪ
éľĢè¦ģåĩĨç¡®çļĦæľ¯è¯Ń ç¿»è¯ĳ
æĭ ħ
iz ing
Ġdec oherence
Ġenviron ments
Ġsci entific
ä¸ĭ çļĦ
vers us
æľĢåĲİ éĢļè¯»ä¸Ģéģį
çĲĨè®º çļĦ
ä¿® æĶ¹
ä¿ĥè¿Ľ äºĨ
Ġcho ice
è¿Ļ åľ¨
éģĹæ¼ı ä¿¡æģ¯
åľ¨ä¸Ńæĸĩ æĸĩçĮ®ä¸Ń
ç¤¾ä¼ļ ç»ıæµİ
æµ· å²¸
ä¸Ńå¤® éĵ¶è¡Į
Ġstrati fication
c lassical
è¶ĭ åĬ¿
t e
åºĶ ä¸º
æ²¡æľī ä½¿çĶ¨
å¥ ĩ
Wh y
çļĦæĥħåĨµ ä¸ĭ
m m
o bs
å¦Ĥä½ķ æĮĳæĪĺ
çĶ¨æĪ·çļĦ è¿Ļä¸ªç¿»è¯ĳè¯·æ±Ĥ
åĮĹ æŀģ
Ġ **
å¹¶ä¸Ķ æľī
è¯ º
æĺ¯ è¯´
æ¯Ķ çĽ´è¯ĳ
äºī è®®
Ġout comes
æŁ ĵ
çĽ´æİ¥ç¿»è¯ĳ åį³åı¯
stand ing
Ġc ognition
Ġf in
Ġa re
å°± èĥ½
çĥ ¯
Ġcont emporary
Ġper sist
æŀģ ç«¯
è½¨ è¿¹
Ġg lobally
çŁ¥ éģĵ
Ġst ability
çļĦ åĩĨç¡®æĢ§
å¤įæķ° å½¢å¼ı
ä¸Ńæĸĩ ä¸Ńå¸¸çĶ¨
Ġr ights
Ġ ir
ï¼Ľ âĢľ
ug ges
ar dian
åĪĨ ç±»
çº ¯
éĩį ç»Ħ
iti g
è¯Ĺ æŃĮ
b ital
l ow
ultaneous ly
Ġcontain ment
i od
Ġa bs
å®¤ æ¸©
Ġpres ervation
äºĮæ°§åĮĸ ç¢³
åıª éľĢ
æ¹ ¿
æĽ´é«ĺ çļĦ
åĪł åĩı
çļĦ å¯¹æ¯Ķ
æĺ¯ ä¸ĵä¸ļæľ¯è¯Ń
æķ° éĩı
å¤įæĿĤ æĢ§
Ġrec ognition
æº¶ è§£
lac ial
er ed
åľ¨ å¤ļ
ç¬¦åĲĪ è¦ģæ±Ĥ
ä½Ĩ æľīæĹ¶åĢĻ
Ġdi vergent
è¥¿ æĸ¹
æĦıåĳ³ çĿĢ
åĽºæĢģ çĶµæ±ł
c os
è¿ ½
äº ²
tu e
ä¿® è®¢
ha ul
åĬ³åĬ¨åĬĽ å¸Ĥåľº
æŃ ¢
Ġa esthetic
Ġcomm er
Ġfe asible
è¿ģ ç§»
Ġ its
ä¸Ń éĢļå¸¸ç¿»è¯ĳä¸º
çĲĨ å¿µ
Ġd ark
ä¸İ ä¼łç»Ł
åħī è°±
é¢Ŀå¤ĸ è§£éĩĬ
ä¿® æŃ£
éĢĤåĲĪ åŃ¦æľ¯è¯Ńå¢ĥ
Ġtransi tion
æ¯Ķ çī¹
ic ardian
et s
çĸĹ æ³ķ
ä¸Ģ æŃ¥
ä½Ĩ ä¸Ńæĸĩä¸Ń
çī¹å®ļ çļĦç¿»è¯ĳè¦ģæ±Ĥ
Ġass umptions
depend ent
æ£ĢæŁ¥ åĩĨç¡®æĢ§
ad e
ex ts
Ġphys ical
Ġsc ul
ł éĩĬ
æĿ¥ ä¼łè¾¾
åİĨ åı²åŃ¦
æĺ¯åĲ¦ç¬¦åĲĪ æīĢæľīè¦ģæ±Ĥ
åħ¨çĲĥ åĮĸ
Post colonial
con tin
ä¸ŃæĸĩéĩĮ éĢļå¸¸çĶ¨
p ol
Ġ T
æĽ´ ç¬¦åĲĪä¸ŃæĸĩçļĦ
çĸ «
æľĢåĲİæ£ĢæŁ¥ ä¸Ģä¸ĭ
Ġim pro
çĥŃ å¸¦
Ġcap ac
til ity
Ġra d
æĬķ èµĦ
s oci
æĹ¶ ç©º
æ± ½
åĨħ éĥ¨
æĺİ æĺ¾
ict or
æĪĳè¦ģçĲĨè§£ è¿Ļåı¥è¯ĿçļĦæĦıæĢĿ
Ġine qual
Ġ up
Ġb l
æłĩ å¿Ĺ
åħ³éĶ® æĺ¯
Ġinter national
Ep igenetic
Ġa st
æĺł å°Ħ
Ġcre ate
æĸ¹å¼ıçĬ¶è¯Ń æĶ¾åľ¨åīįéĿ¢
R enaissance
Ġs tim
om ation
ci ent
æ· ĺ
å¼ķèµ· æŃ§ä¹ī
åł Ĩ
I mpressionist
è¯ łéĩĬ
ul sion
Ġo b
åı¥åŃĲçļĦ æķ´ä½ĵç»ĵæŀĦ
è§Ĥ ä¼Ĺ
åĮº åĪĨ
Ġtra ditions
è§£éĩĬæĪĸ é¢Ŀå¤ĸä¿¡æģ¯
éĻ ·
æľĢåĲİæ£ĢæŁ¥ æľ¯è¯Ńæĺ¯åĲ¦æŃ£ç¡®
ç¾İ æ´²
n on
t extual
Ľ åħĭ
æ± °
æł¼ å±Ģ
Ġlif e
ä¸Ńæĸĩè¡¨è¾¾çļĦ æµģçķħæĢ§
Ġhier archies
æ·ĺ æ±°
Ġè¿ĻéĩĮ æĮĩçļĦæĺ¯
Ġmodel ing
åĽ° å¢ĥ
C ub
Ġre le
ãĢ Ĭ
ãĢ ĭ
Post modern
Ġl ine
ç§ĳæĬĢ é¢ĨåŁŁ
æŀģ åĮĸ
ell ar
å¸¸ å¸¸
æ°ĳ ä¸»
æł¹æľ¬ æĢ§çļĦ
åħ·ä½ĵ çļĦç¿»è¯ĳè¦ģæ±Ĥ
å®¢ è§Ĥ
s cale
æĽ´ ç¬¦åĲĪä¸ŃæĸĩçļĦè¡¨è¾¾ä¹łæĥ¯
åı ¸
åı¥åŃĲ éĢļé¡º
Ġac tivity
influ ence
t ap
Ġre fr
æ¼ı æİī
Ġsuper position
Ġcyc les
Ġpop ulations
c oun
æīĢä»¥ æĪĳè¦ģç¡®ä¿Ŀ
ç»ı åİĨ
cor rel
Ġevolution ary
m ore
éĻ Ī
ä¹ĭ ç±»
éª ¤
æķ´ä¸ªåı¥åŃĲçļĦç»ĵæŀĦ æĺ¯
Ġ æĮĩçļĦæĺ¯
Ġplatform s
r ational
Ġ è¿Ļéĥ¨åĪĨ
åĲ ¸
ar ity
åıĳ çĶµ
ux tap
S ocial
Ġ éľĢè¦ģç¿»è¯ĳæĪĲä¸Ńæĸĩ
Ġw ill
åĩĨ å¤ĩ
æľĢåĲİæ£ĢæŁ¥æĺ¯åĲ¦æľīéģĹæ¼ıæĪĸ éĶĻè¯¯
ug ment
erg o
Ġeconom y
Ġmeas ure
è¾ ©
æĮ ¯
æľĢåĲİ æĺ¯
Ġcon ditions
Ġper iod
Ġther ap
Met amaterial
ä¸ ¢
çļĦ èĥ½åĬĽ
æīĢä»¥ ç¿»è¯ĳæĹ¶è¦ģ
å¤ĦçĲĨ ä¸ĵä¸ļæľ¯è¯Ń
ir ror
åĪĨæŀĲ åİŁåı¥çļĦç»ĵæŀĦåĴĮ
Ġcomp ar
ç¾İ å¾·
åħ¨æģ¯ åİŁçĲĨ
Ġaccoun t
phys ical
åľ¨ åīį
Ġm em
Ġo ur
hi st
å¤§ æĦı
åı¯èĥ½æĽ´ éĢĤåĲĪ
æĪĳçİ°åľ¨éľĢè¦ģ æĬĬçĶ¨æĪ·æıĲä¾ĽçļĦèĭ±æĸĩåı¥åŃĲç¿»è¯ĳæĪĲä¸Ńæĸĩ
é²ľ æĺİ
a u
ç¿»è¯ĳ åĪ°ä½į
éĤ£ äºĽ
æļ ´
con duct
åĲİåįĬåı¥ çļĦ
å¼ķå¯¼ çļĦ
Ġdri ves
Ġphenom ena
on ance
è¿ĩ åİ»
oc ene
ç¨ĭåº¦ ä¸Ĭ
ç¡®ä¿Ŀåı¥åŃĲ è¯»èµ·æĿ¥èĩªçĦ¶
Ġpolar ization
em erg
ä¼ļ æĽ´èĩªçĦ¶
pre cipit
åĢŁ åĬ©
æ ¥
åŁºåĽł ç»Ħ
can ic
åıĳ èĤ²
æ°Ķ ä½ĵ
e ff
éĢ»è¾ĳ é¡ºåºı
ĠA I
ä¸Ńæĸĩè¯»èĢħ å¯¹
çİ°ä»£ä¸»ä¹ī æĸĩåŃ¦
** ï¼ļ
in al
b e
Ġp osi
æīĢä»¥ åı¯ä»¥
åĪĨ è¾¨
ä½ľä¸º ä¸»è¯Ń
Ġrecon cile
åİŁåı¥ å¼ºè°ĥ
æ¼ ł
Ġimplement ation
Ġ V
åľ° çĤ¹
si de
éŁ³ è¯ĳ
Ġinsul ators
Ġ è¿Ļæĺ¯ä¸Ģä¸ª
çļĦ è¯į
ä¼ Ĳ
re al
åĬł å¼º
è¿Ľ ä¸ĢæŃ¥
åıĻäºĭ ç»ĵæŀĦ
ĠæĪĸèĢħ æĽ´ç®Ģæ´ģ
ä¼ ģ
ç¡®ä¿Ŀ ä¸ĵä¸ļæľ¯è¯ŃæŃ£ç¡®
è¿Ļæł· çļĦè¡¨è¾¾
Ġconcep ts
er tain
ä¸º ä»Ģä¹Ī
Ġre main
åı¥åŃĲç»ĵæŀĦ åĲĪçĲĨ
åĵ Ī
éĩıåŃĲ æ¯Ķçī¹
è¯Ńæ³ķ ç»ĵæŀĦ
å¹¶ åĪĹ
æ¯ıä¸ªæľ¯è¯Ń éĥ½æŃ£ç¡®
éĽ ·
æĪĳéľĢè¦ģå¤ĦçĲĨ çĶ¨æĪ·çļĦç¿»è¯ĳè¯·æ±Ĥ
Ġstud ies
g er
éĩ İ
æĢ§ åĮĸ
ä¿¡æģ¯ å®Įæķ´
Ġpro liferation
pos its
Ġcriti que
åĪĨè¾¨ çİĩ
åİŁåı¥ è®²çļĦæĺ¯
åīį ç½®
Ġl ong
ç»Ļåĩº æľĢç»Īç¿»è¯ĳ
å² Ľ
Ġinst all
è¿ĻéĩĮ æĮĩ
tic ally
ä¸įéľĢè¦ģ è§£éĩĬ
éĩıåŃĲ éĢĢçĽ¸å¹²
èĻļæĭŁ æĿ¡ä»¶åı¥
ä¸¢ å¤±
li bri
ow n
çĥŃ åĬĽåŃ¦
å±ķç¤º äºĨ
Ġm achine
çĤ¹ å½©
Ġmod ifications
Ġint ensi
æ°´ æĸĩ
æİĴ æĶ¾
åĵ¥ ä¼¦
çļĦ çİ°è±¡
æī ĩ
éĩıåŃĲ åĬłå¯Ĩ
W idespread
è¯ ¦
ä¸į æĸŃ
pl ace
çĶ¨æĪ·è¦ģæ±Ĥ å°Ĩ
ä¹īåĬ¡è®º ä¼¦çĲĨåŃ¦
è¦ģæ³¨æĦı åı¥åŃĲçļĦæµģçķħæĢ§
å·²ç»ı è¶³å¤Ł
Ġhy brid
è¯¦ ç»Ĩ
h ood
æĽ ¼
Ġdec entralized
èĦ ±
æļ Ĥ
Ġobs olete
éĢĲ æ¸Ĳ
Ġunder standing
v est
en ological
åľº è®º
æľ¬ ä½ĵ
è¡¨ç¤º åģĩè®¾
å ¦
Ġde b
å¹³ åİŁ
åħ´ èµ·
cent ric
éĻ ¢
èīºæľ¯ å®¶
ç»¼ åĲĪèµ·æĿ¥
Ġgeomet ric
ecessit ate
åįģå¹´ åĨħ
e an
åıĳçĶŁ æĢİæł·
Comp ared
Post structuralist
is cal
è¿Ļä¸ª æ²¡éĹ®é¢ĺ
Ġde p
éļĲ ç§ģ
a f
i tion
å¼Ģ åıĳ
çĽ´è¯ĳçļĦ çĹķè¿¹
æ¯Ķ ä¾ĭ
æ¯Ķè¾ĥ çĨŁæĤī
as c
con tra
end s
èĬ¯ çīĩ
ç ı
å¸¸ è¢«
æ¯Ķè¾ĥ ç»ĵæŀĦ
éĩıåŃĲ åľºè®º
ar s
åĵª ä¸ª
çļĦ è¦ģæ±Ĥ
Ġt extual
ä¸ª æĢ§åĮĸ
çī¹ çĤ¹
å¦Ĥæŀľ æĺ¯
æ£ĢæŁ¥æĺ¯åĲ¦æľī æĸĩåĮĸéĢĤåºĶæĢ§
t ed
ç¬¦åĲĪ ä¸ĵä¸ļ
åºı åĪĹ
çĽ¸åħ³ é¢ĨåŁŁçļĦ
æĺ¯åĲ¦ç¬¦åĲĪ çĶ¨æĪ·çļĦæīĢæľīè¦ģæ±Ĥ
Ġle vel
è¿ĻäºĽæľ¯è¯Ń åľ¨ä¸Ńæĸĩ
Ġsur pass
line ar
Ġconsider ations
éĢ Ĺ
åı¯èĥ½ ç¿»è¯ĳä¸º
çĶµç£ģ æ³¢
åĵ¥ä¼¦ å¸ĥ
å½ ķ
æĪĸèĢħ æĺ¯åĲ¦æľī
åŃĺ åĤ¨
åĲĮæĹ¶ä¿ĿæĮģ åİŁæĦı
æīĢä»¥ç»ĵæŀĦ åºĶè¯¥æĺ¯
éĻĪ è¿°
Ġp ath
å¯¹ åĲ§
æİ¢ æµĭ
éĢĹ åı·
i ve
s es
ä¸Ń æµ·
Ġf ocus
è¿ĻäºĽ è¦ģæ±Ĥ
å¤ĸ æĺŁ
Ġcon n
Ġn ar
ä¸įä¼ļ è®©è¯»èĢħ
çī Ľ
di rectly
å¼Ģ å§ĭ
ĠæĪĳçļĦä»»åĬ¡æĺ¯ å°Ĩè¿Ļåı¥è¯Ŀ
m oral
å¼ Ĺ
ec ture
ed s
ä¿ĿæĮģ ç®Ģæ´ģ
ç¡®è®¤ æľ¯è¯ŃæŃ£ç¡®
æĸĩåŃ¦ æī¹è¯Ħ
åĲİéĿ¢ è·Ł
æ³Ľ å¿ĥ
çĥŃ éĩı
è¿ĳ ä»£
ç®Ģåįķ çļĦ
ä¹ĭ å¤Ħ
ç½ĳç»ľ å®īåħ¨
Ġelect romagnetic
ec tivity
éĩıåŃĲ éľ¸æĿĥ
Ġwith out
can ti
äº¿ äº¿
çĻ¾ äº¿äº¿
åĪĿæŃ¥ ç¿»è¯ĳåı¯èĥ½æĺ¯
çŃī ç¦»åŃĲ
æ²¡æľīæ·»åĬłæĪĸ åĪłåĩı
Ġ us
er y
å¤ ľ
ä¸º ä½ķ
èĢħ çļĦ
çĶŁç¡¬ çļĦåľ°æĸ¹
æĪĳéľĢè¦ģåĩĨç¡®çĲĨè§£ æ¯ıä¸ªæľ¯è¯ŃåĴĮ
pl ant
å¿ħé¡» ç¡®ä¿Ŀ
Ġsignificant ly
c rypt
å ĭ
æī Ń
Ġs em
istential ist
ac ross
å¯¹ ä¼łç»Ł
Ġde position
æĽ´ç¬¦åĲĪ åŃ¦æľ¯è¯Ńå¢ĥ
å¤įæĿĤ åĮĸ
Ġm olecular
ç»ıæµİåŃ¦ æľ¯è¯Ń
Ġemphasiz e
æĹłéľĢ è°ĥæķ´
æĳ Ħ
æ£Ģ æµĭ
çļĦ å¤ĦçĲĨ
åĪĨ æŃ§
è§£éĩĬ äºĨ
æł¸ èģļåıĺ
Ġcap ture
Ġsur face
çĽĳ æİ§
ç»Ļåĩºç¿»è¯ĳç»ĵæŀľ äºĨ
åĨ²ç§¯ æīĩ
çĶ¨æĪ·æĺİç¡®è¯´æĺİ èĩªå·±æĺ¯ä¸Ģä¸ªç¿»è¯ĳåĬ©æīĭ
o b
åŃ¦æľ¯ çĶ¨è¯Ń
å£ ³
è¿ĻäºĽæľ¯è¯Ń åľ¨
Ġpersp ec
c arbon
Ġm ay
iz es
é¢Ħ æľŁ
åıªè¾ĵåĩº ç¿»è¯ĳåĲİçļĦåĨħå®¹
æĪĳå¾Ĺä»Ķç»Ĩ çĲĨè§£åİŁåı¥çļĦæĦıæĢĿ
å¤ «
æĪĸ åŃ¦çĶŁ
Ġmaterial s
dri ven
æ³Ľå¿ĥ è®º
ç¿»è¯ĳæĹ¶ åı¯èĥ½éľĢè¦ģè°ĥæķ´è¯Ńåºı
ç¿»è¯ĳæĹ¶è¦ģç¡®ä¿Ŀ æľ¯è¯ŃåĩĨç¡®
Ġconc entr
éľĢè¦ģ è¡¨è¾¾åĩº
ä¹ī çĽ¸å¯¹è®º
çĽ´è¯ĳ æĺ¯
åĸ ·
Ġover haul
å°±åı¯ä»¥ ç»Ļåĩºç¿»è¯ĳç»ĵæŀľäºĨ
Ġcrypt ographic
ç¤¾äº¤åªĴä½ĵ ç®Ĺæ³ķ
æĿ¥ æĮĩä»£
Ġm er
å¤§ ç¨ĭåº¦ä¸Ĭ
eng ineer
B i
p ture
æĶ¾åľ¨ åĬ¨è¯į
o economic
çĲĨè§£ è¿Ļåı¥è¯ĿçļĦæĦıæĢĿ
ç»´ åº¦
Ġpred ic
ç¿»è¯ĳ åĲİ
åı¯èĥ½ æľī
éĢļå¸¸ ç§°ä¸º
li an
Ġexp os
çĶŁäº§ åĬĽ
å°¤ ä¸º
æ²¹ çĶ»
l and
çĲĨè§£ æ¯ıä¸ªéĥ¨åĪĨçļĦæĦıæĢĿ
åĨĹ ä½Ļ
Ġu tilitarian
åŀĤçĽ´ åĨľä¸ļ
æĻ¶ ä½ĵ
ä½Ĩ ç»ĵåĲĪ
å¯¹æ¯Ķ äºĨ
å» Ĭ
1 8
Ġc ost
éĿ Ļ
è§Ħ åĪĴ
ron ze
éľĢè¦ģå¤ĦçĲĨ æĪĲ
å£ģ çĶ»
ç» ĥ
åı¯èĥ½ å¦Ĥä½ķ
å°ı è¡ĮæĺŁ
Ġobs erv
åį ±
Ġcomp ared
éľĢè¦ģåĩĨç¡® çļĦç¿»è¯ĳ
åĨĽ äºĭ
e ti
g ing
æ£ ®
Ġmedi eval
å°ģ å»º
æľīåĽºå®ļ è¯ĳæ³ķ
çļ® å±Ĥ
r ary
è° ·
æıŃç¤º åĩº
Ġalgorith mic
Ġacceler ates
Ġmon etary
çĤ¹å½© æ´¾
m in
æĺ¯åĲ¦ æ¯Ķ
åŃ¦æľ¯ è®ºæĸĩ
Ġprop ulsion
b olic
åľ° ä¸Ńæµ·
Ġaut onomous
n arra
çĽ´ è¯ĳä¸º
æĪĳéľĢè¦ģ èĢĥèĻĳ
ate gor
Ġpost modern
Ġop tim
æ¯ į
æīĢä»¥ åı¯ä»¥è¯ĳä¸º
Ġd il
ä¿ĿæĮģ åı¥åŃĲçļĦæµģçķħæĢ§
ç¥ŀç»ı åı¯å¡ĳæĢ§
äººç±» æ´»åĬ¨
æ¶Ī éĻ¤
gener ational
emphasiz es
åĨįè¯´ ç»ĵæŀľ
æľ¬ä½ĵ è®º
åĩ Ŀ
col l
ä¸¥æł¼ éģµå®Ī
çļĦ ç»ıæµİ
an cial
çĶ¨æĪ·çļĦ åħ·ä½ĵè¦ģæ±Ĥ
åĽłä¸º å®ĥ
ä½¿åħ¶ åľ¨ä¸Ńæĸĩä¸Ń
Ġfl uctu
å¯ ¡
çĽ®æłĩ è¯»èĢħçļĦ
Ġdiss olution
åľ¨å¤ļ å¤§ç¨ĭåº¦ä¸Ĭ
æ²¡æľī åħ¶ä»ĸåĨħå®¹
å¥ ¹
è·¨ ä»£
Ġeng agement
æ°¸ä¹ħåĨ»åľŁ èŀįåĮĸ
Ġpot ential
æīŃ æĽ²
n el
çļĦ è¡¨è¾¾ä¹łæĥ¯
çĲĨè®º ä¸Ĭ
im ic
ex pl
Ġtrans fer
Ġincre asing
æľīçĤ¹ çĶŁç¡¬
des pite
st ellar
ä¸» æĿĥ
em ination
æľº ä¼ļ
å¿ħé¡» åĩĨç¡®ä¼łè¾¾åİŁæĦı
èĦ ī
èĥ½éĩı å¯Ĩåº¦
Ġrepresent ational
gra mm
A l
å¯¹ ç«ĭ
å®ĩå®Ļ èĨ¨èĥĢ
çĶ¨ çļĦæĺ¯
åĴĮ åĩĨç¡®æĢ§
ä½Ĩ çĶ¨æĪ·åı¯èĥ½å¸ĮæľĽ
æĶ¹ è¿Ľ
Ġde ontological
Ġsp ect
Ġman agement
bi os
åħĭ æľį
erm al
ç¬¦åĲĪä¸Ńæĸĩè¯»èĢħçļĦ ä¹łæĥ¯
æ¯ıä¸ªè¯į çļĦæĦıæĢĿ
K arst
è¿ĻéĩĮ æ¶īåıĬ
æīĢä»¥ æľĢç»Īç¿»è¯ĳåºĶè¯¥æĺ¯
åħī éģĹä¼łåŃ¦
éģ¿åħį è¿ĩäºİ
åĳĪ æĮĩæķ°çº§
Ġvis ual
æķ´ä½ĵ æĦıæĢĿ
Ġem pirical
tim atter
Ġcontin ental
æĿĥ åĪ©
ç»ĵæŀĦ åĲĪçĲĨ
ç¡®ä¿Ŀ æµģçķħèĩªçĦ¶
èį ·
t emperature
ä¼ ª
åı¯ä»¥ èĢĥèĻĳ
çº ¢
ä¸įèĥ½ ç®ĢåĮĸä¸º
ç¿»è¯ĳçļĦ æĹ¶åĢĻ
éļı çĿĢ
pression ism
Ġalter ed
Ġop tical
è£ħç½® èīºæľ¯
Ġhypoth esis
Ġconst rain
p atter
re quire
æŃ »
æīĢä»¥ è°ĥæķ´ä¸º
ä½Ĩ åı¯èĥ½éľĢè¦ģè°ĥæķ´è¯Ńåºı
ç¡®ä¿Ŀæ²¡æľī æ·»åĬł
éĺħè¯» ä¹łæĥ¯
inforc ement
t on
en h
ar ri
ç³ Ĭ
é¢ĨåŁŁ æĺ¯
val ence
ä¸»åĬ¨ è¯ŃæĢģ
Ġoc cur
ä¸į åıĺ
éĩĩ çŁ¿
åĨįèĢĥèĻĳ æµģçķħæĢ§
Ġbehavi ors
èģĮ ä¸ļ
Ġscul pture
libri um
è¿ĳä»£ æĹ©æľŁ
æĪĳ ä¸įèĥ½
ar ch
li ber
æĶ¾åľ¨åı¥ å°¾
åĨ³å®ļ è®º
ç¡ħ åŁº
çŃīç¦»åŃĲ ä½ĵ
ç¿»è¯ĳ éĢļå¸¸
ä¸ŃçļĦ æľ¯è¯Ń
æ³¨ éĩĬ
å¯¼èĩ´ äºĨ
Ġsub vert
èĪ ¬
Ġval id
æīĢä»¥ä¿ĿæĮģåİŁ ç»ĵæŀĦ
ictor ian
f t
å¼ķ åĩº
ç±» æĸĩç«ł
åŁİå¸Ĥ åĮĸ
o tic
åı¥åŃĲç»ĵæŀĦ ç¬¦åĲĪä¸Ńæĸĩè¡¨è¾¾ä¹łæĥ¯
æ¯ıä¸ªæľ¯è¯Ń éĥ½
çķĮ éĻĲ
å°Ķ æĸĩ
éħį ç½®
åĨ²ç§¯ å¹³åİŁ
æīĢä»¥ ç¿»è¯ĳæĹ¶è¦ģä¿ĿæĮģ
Ġn ucle
ç²¾ ç¥ŀ
å¼ķåıĳ çļĦ
åķĨ åĵģ
åħ± çĶŁ
åıĤèĢĥ ç¿»è¯ĳ
éĢĶ å¾Ħ
çļĦ é£İæł¼
li e
ä¸Ńæĸĩåı¥åŃĲ éľĢè¦ģèĩªçĦ¶
å Ħ
çļĦ ä¸Ńæĸĩè¡¨è¾¾
Ġre ader
éĶ Ĥ
éľĢè¦ģåĩĨç¡® å¯¹åºĶ
ä¸ŃæĸĩçļĦ è¡¨è¾¾ä¹łæĥ¯
åĨĻ å®ŀ
Ġcol onial
Ġarchit ecture
ne uro
ç¾İå¾· ä¼¦çĲĨåŃ¦
er al
è¾¾ å°Ķæĸĩ
ol id
is ting
tic ism
èĢĥèĻĳ åı¥åŃĲçļĦç»ĵæŀĦ
è´¸æĺĵ ç½ĳç»ľ
Ġauthor ity
rc tic
çīĽ é¡¿
çļĦ çīĪæľ¬
Ġm ig
ç»ı è¿ĩ
ä¸įä¼ļ åĽŀçŃĶéĹ®é¢ĺ
éļ¾ ä»¥
ĠæĪĳéľĢè¦ģ åħĪ
ç ŀ
åħ °
å½¢ èĢĮ
çĸĳéĹ® ç»ĵæŀĦ
åıĤ æķ°
åı¥ æ³ķ
Ġbe yond
Ġvi ew
çĶ¨æĪ· æıĲåĩºçļĦ
ä¸ŃçļĦ åºĶçĶ¨
ç¿»è¯ĳåĲİçļĦ ä¸Ńæĸĩ
ç±» åŀĭ
duc es
b ility
cep tual
çĶ» å»Ĭ
ç»ĵæŀĦ ä¸Ĭ
åľ° ä¸ĭ
çŃĸ å±ķ
ot echn
rop ical
ç¢³éħ¸çĽĲ å²©
i at
ra tic
åĪ¶ å®ļ
æıĲä¾Ľ äºĨ
ven tions
ä¸ī è§Ĵ
j ust
m eric
y p
Ġ 20
è¾ Ĳ
Ġb atter
æ¨¡ ç³Ĭ
åħī çº¿
æıĲåĩº äºĨ
ç¼© åĨĻ
å¯¡ å¤´
a ys
çļĦ çĲĨè§£
Ġg re
tiv istic
è· Ŀ
å¹¶ä¸Ķ ä½ľä¸ºç¿»è¯ĳåĬ©æīĭ
ä¿ĿçķĻ åİŁ
è´Ł æĬĺå°Ħçİĩ
æĪĳéľĢè¦ģçĲĨè§£ è¿Ļåı¥è¯ĿçļĦæĦıæĢĿ
Ġdiffer ently
Ġmulti ple
b ab
å½ Ĵ
os a
ç© ¿
Ġim plications
Ġpost colonial
åĮºåĿĹéĵ¾ çļĦ
Ġcrypt ography
è®©åı¥åŃĲ æĽ´èĩªçĦ¶
Ġtim es
çļĦ æŃ£ç¡®ç¿»è¯ĳ
åĲĮæĹ¶ä¿ĿæĮģ åı¥åŃĲçļĦ
å¤© æĸĩåŃ¦
Ġmeth ane
ç¬¦åĲĪä¸Ńæĸĩè¯»èĢħçļĦ çĲĨè§£
ç¥ŀç»ıå½¢æĢģ è®¡ç®Ĺ
R icardian
ic h
èĢĥèĻĳ æµģçķħæĢ§
åĲĮæĹ¶ ç¬¦åĲĪä¸Ńæĸĩè¡¨è¾¾ä¹łæĥ¯
åĪ° çļĦ
åĨįæ£ĢæŁ¥ æµģçķħæĢ§
è¿ŀè´¯ æĢ§
challen ges
plac ement
ä¼ģ ä¸ļ
a us
å¸¸è§ģ çĶ¨æ³ķ
æĦıè¯Ĩæµģ åıĻäºĭ
çº³ç±³ æĬĢæľ¯
Ġ use
et ry
å¼ķ çĶ¨
ater restrial
ib rary
å½¢èĢĮ ä¸Ĭ
D igital
in k
è¿ĻéĩĮ è¦ģ
ï¼Ł âĢĿãĢĤ
æ¸ħ æ¥
Ġne uromorphic
Ġexpl ains
Ġspec ies
Ġneg ative
æ¸ħæ¥ ļ
åĨį çİ°
å¸¸è§ģ çļĦè¯ĳæ³ķ
éľĢè¦ģåĩĨç¡® çļĦ
ç¢³ æįķ
Ġ K
ad ing
ä¸ŃæĸĩéĩĮ åı¯ä»¥çĶ¨
Ġstruct ural
æĦŁåħ´è¶£ çļĦäºº
ovol taic
æĢ ¥
Ġch am
è½¬ ç§»
Ġy our
Ġidenti ty
Ġsociet al
æµģçķħ åĴĮèĩªçĦ¶
Ģæ ¨¡
è¡Į åĬ¨
Ġpers onal
at ency
äºº æł¼
ç»Ĩ èĬĤ
è¿Ļæĺ¯ä¸Ģä¸ª ä¸ĵä¸ļæľ¯è¯Ń
ç¡®ä¿Ŀæ²¡æľī è¯Ńæ³ķéĶĻè¯¯
æİ¢ ç´¢
åİŁåŃĲ çº§
ç¬¦åĲĪ åŃ¦æľ¯è®¨è®º
ol d
ac roscopic
çĶ¨æĪ·è¦ģæ±Ĥ ç¿»è¯ĳ
æŃ¥ éª¤
æ¿Ģ å¢ŀ
å½ĵåīį çļĦ
åĩĨç¡®åľ° ç¿»è¯ĳæĪĲä¸Ńæĸĩ
çĻ¾äº¿äº¿ æ¬¡
è¿ĻéĩĮ ç¿»è¯ĳæĪĲ
æĸ° åı¤åħ¸
Ġres olution
ne ural
Ġbehavi oral
econstruc ts
è¾Ĳ å°Ħ
o per
Ġ Keynesian
in ten
æĢ§ åĪ«
Ġm ass
åĨħ çļĦ
Ġfor ce
æĸĩåĮĸéĢĤåºĶæĢ§åĴĮ ä¸ĵä¸ļæĢ§
Ġle gal
ç§» æ¤į
åŃ¦çĶŁæĪĸ çłĶç©¶èĢħ
ä¸ŃæĸĩçļĦè¯ŃåºıåĴĮ èĭ±æĸĩä¸įåĲĮ
è¡¥ åħħ
åıª éľĢè¦ģ
Ġprin ting
æīĢä»¥æķ´ åı¥è¯Ŀ
Ġphilosoph ies
Ġcell s
Ġ N
Ġcomp utational
æĹ¶éĹ´ å°ºåº¦
ç¡®å®ŀ å¸¸çĶ¨
éĽĨ ä¸Ń
æĭĨ è§£
çĭ¬çī¹ çļĦ
ough t
ç ¯
Ġd ra
as cale
ç³»ç»Ł ä¸Ń
å»º ç«ĭ
end ing
è¿ĻäºĽæľ¯è¯Ń åľ¨ä¸Ńæĸĩä¸Ń
fer ence
åīįåįĬ éĥ¨åĪĨ
c ation
m as
ä¸Ń éĢļå¸¸è¯ĳä¸º
åĪĨ è¯į
æ¿Ģ åĬ±
sib le
a king
ad v
è´§å¸ģ ä¸»ä¹ī
Ġra di
Ġpo etry
çļĦ æĻ®åıĬ
re present
ç¡®ä¿Ŀ ç¿»è¯ĳåĩĨç¡®
äºĨ ä¸Ģåı¥
em bl
å¢ ¨
èĪª å¤©
T o
çļĦ åıĳæĺİ
éľ ²
æİ¥ çĿĢ
ä¸ŃçļĦ æłĩåĩĨæľ¯è¯Ń
ter m
è®¨è®º ä¸Ń
pre d
å¾Ģ å¾Ģ
Ġext ent
parad igms
è ĵ
æľī æīĢ
åĴĮ ç»ĵæŀľ
ä½¿çĶ¨ æŃ£ç¡®çļĦ
è¿Ļæł· çļĦç¿»è¯ĳ
èĢĮä¸įæĺ¯ çĽ´è¯ĳ
um ulation
ä¸įèĥ½éļı ä¾¿
Ġ versus
æĺ¯åĲ¦ æ¸ħæĻ°
Ġst or
Ġpartic ip
vit ational
Ġp ubl
æķ´ åı¥è¯Ŀ
æīĢä»¥ çĽ´æİ¥ä½¿çĶ¨
ä¿ĿæĮģ åİŁåı¥çļĦ
å¤ĸ éĥ¨
Ġl ay
èİ İ
Ġ ve
æıĲ äº¤
âĢ¦âĢ¦ âĢĿãĢĤ
æĪĳè¦ģç¡®ä¿Ŀ åĩĨç¡®ä¼łè¾¾
åĪĨå¸ĥ å¼ı
å¯¹ æĬĹ
ä¸ĵä¸ļæľ¯è¯Ń ä½¿çĶ¨
è¦ģç¡®ä¿Ŀ æľ¯è¯ŃåĩĨç¡®
Ġde ep
åŃĺåľ¨ä¸»ä¹ī åĵ²åŃ¦
æľĢå¤§ åĮĸ
D e
æĺ¯ ä»Ģä¹Ī
å® ³
è¿Ļç§į åģĩè®¾
å½»åºķ éĿ©æĸ°
Ġpersp ective
çĽ´è¯ĳçļĦè¯Ŀ åı¯èĥ½æĺ¯
o ff
al le
Ġm arine
Ġre li
åı¥åŃĲçļĦ éĢ»è¾ĳåħ³ç³»
il istic
åĬłéĢŁ äºĨ
åį°åĪ· æľº
Ġtop ography
ç¨į å¾®
çĩĥ æĸĻ
bab ilistic
f ul
m ark
Ġ æ£ĢæŁ¥ä¸Ģä¸ĭ
ä¼ ´
at al
æŁĲ äºĽ
ĠæĪĳéľĢè¦ģ åĩĨç¡®åľ°
Ġconf irmation
å¹ ħ
un precedented
æłĩ çĤ¹
æķ°åŃĹ èīºæľ¯
éĿ©åĳ½ æĢ§
Ġspec ial
rem acy
Ġcalc ulations
å±ķçİ° åĩº
å°ıè¡ĮæĺŁ éĩĩçŁ¿
ä¸Ńæĸĩ éĢļå¸¸çĶ¨
æľī åĬĽ
ä¸Ģä¸ª åĲĪéĢĤçļĦ
ap tive
éĿŀ çº¿æĢ§
Ġinter n
èĢĥèĻĳåĪ° ä¸Ĭä¸ĭæĸĩ
å·²ç»ı å¾Ī
åħ¬ åħ±
Ġphot os
å±Ģ éĻĲ
¹ ģ
ç ¹ģ
ul us
åĨį ç¡®è®¤
Ġmod ification
ĠA meric
int eg
sib ility
åĪĨ æķ£
ä¸ŃæĸĩéĩĮ åľ¨
Ġcur ation
å¤§æĦı æĺ¯
è ı
åľ¨ å¿ĥçĲĨåŃ¦
an tic
åı¯èĥ½ æ¯Ķ
ç¡®è®¤ ç¿»è¯ĳåĲİçļĦåı¥åŃĲ
fl ation
è°ĵ è¯Ń
ä»ĸä»¬ åı¯èĥ½
ill usion
è®° å½ķ
åŁºåĽłé©±åĬ¨ æĬĢæľ¯
en viron
æİ¥ è§¦
ac tical
Ġpro ductivity
éļĲ å½¢
åį°åĪ· æľ¯
Ġocean ic
æ·±å±Ĥ éľĢæ±Ĥ
å½¢èĢĮä¸Ĭ åŃ¦
tion ing
å½¢ å®¹
Ġincre ases
petu ates
y m
Ġ ice
es tern
æļ ĸ
åıĺå¾Ĺ åı¯è¡Į
Ġrefr active
çļĦ å¯¹è±¡
çĶ¨ æĿ¥
æĺ¯åĲ¦ ç¬¦åĲĪä¸Ńæĸĩä¹łæĥ¯
å°Ĩ èĭ±æĸĩç¿»è¯ĳæĪĲä¸Ńæĸĩ
ä¸įéľĢè¦ģ ä»»ä½ķ
è¶ħ å¯¼
osi tions
ĠI n
Ġsup remacy
æķ´ åı¥
Ġde ploy
enab les
åİŁåı¥ éĹ®çļĦæĺ¯
sequ ent
sub vert
...ï¼Į ...
ĠD NA
çľŁå®ŀ æĢ§
åĽ¢ ç»ĵ
ol low
em ploy
Ġst ream
Ġdiss emination
ä¸Ģä¸ĭ åİŁåı¥
Ġro bo
Ġarchitect ural
demon strate
Ġcent ury
o in
Ġm y
æ²¡æľī ä¿¡æģ¯
çĶŁçī© ä½ĵ
ran ean
æĪĳçİ°åľ¨éľĢè¦ģå¤ĦçĲĨ çĶ¨æĪ·æıĲä¾ĽçļĦç¿»è¯ĳä»»åĬ¡
è¿Ļæł·æĽ´ ç¬¦åĲĪä¸ŃæĸĩçļĦ
æĶ¾åľ¨åı¥ æľ«
æĪı åī§
ä¸įå¤ª çĨŁæĤī
çļĦ åİĨåı²
ä¸Ńæĸĩ æľ¯è¯Ń
æī į
Ġb oth
åħ¶ ä¸Ń
çĿ £
Ġsub st
ä¸ŃæĸĩéĢļå¸¸ åħĪè¯´
æĽ´ä¸ĵä¸ļ çļĦæľ¯è¯Ń
çĭ¬ ç«ĭ
Ġmin ing
Ġsci ence
Ġinterpret ation
äºĨä¸Ģåı¥ èĭ±æĸĩåı¥åŃĲ
a ut
ro und
æĬĢæľ¯ æľ¯è¯Ń
è§Ħ åĪĻ
åĲĮæĹ¶ä¿ĿæĮģ äºĨ
ç®Ģ åĮĸ
è·¨ åĽ½
Ġmodern ist
æ¢¯ åº¦
¿ åĳ½
Ġs ens
Ġf usion
æ¯Ķè¾ĥ éĢļé¡º
å· ´
ä¹Ł ä¼ļ
Ġex hibit
Ġcosm ological
Ġred uce
Ġ ent
Ġs il
ĠA lex
Ne ural
åĦ ¿
Ġmig ration
å ³
ç¿»è¯ĳ æŃ£ç¡®
æģ ¶
è½ »
Ġpatter n
æīĢä»¥ æķ´ä¸ªåı¥åŃĲ
å·¥ ç»ıæµİ
åŃĹ éĿ¢
éħ¸ åĮĸ
éĽ¶ å·¥ç»ıæµİ
çĽ´æİ¥ ç¿»è¯ĳæĪĲ
ç ĵ
èīºæľ¯ è¿ĲåĬ¨
é²ľæĺİ å¯¹æ¯Ķ
Ġlevel s
çŀ ¬
§ æĪ¿
å¯ »
Ġn orm
è¢« æŃ£ç¡®
èĮ §æĪ¿
çĶ¨æĪ·æıĲä¾Ľ çļĦç¿»è¯ĳè¯·æ±Ĥ
æĪĳéľĢè¦ģåĩĨç¡®çĲĨè§£ åİŁåı¥çļĦæĦıæĢĿ
æĿ¿åĿĹ æŀĦéĢł
æ²¡æľīæ·»åĬłæĪĸåĪłåĩı åĨħå®¹
c en
w ave
åľ¨ åħ¨çĲĥèĮĥåĽ´åĨħ
ri a
el ines
çº§ èģĶ
Ġra pid
çĪ ±
ç¿»è¯ĳ ä¸įä»ħ
åĩĨç¡® ç¿»è¯ĳæĪĲä¸Ńæĸĩ
Ġex ist
æĿĥ è¡¡
Ġper f
Ġstr ong
åŁ¹ åħ»
e ign
çĦ ¦
Ġe vid
åĽŀ éŁ³
over eign
rup t
åķĨä¸ļ åĮĸ
Ġu tiliz
è¿Ļæł·çĶ¨æĪ· å¾ĹåĪ°
in ish
æĺ¯åĲ¦ ä¼ļ
æĪĸèĢħ æĺ¯åĲ¦éľĢè¦ģ
åĪ© çİĩ
Ġne w
ĠB yzantine
Ġstor age
ĠAlex and
P er
p li
æľī åĵªäºĽ
Ġs o
åı¯èĥ½çĶ¨æĪ· éľĢè¦ģ
ä¸īè§Ĵ æ´²
h ic
ç¡® ç«ĭ
éľ ĩ
è¡¨è¾¾ ä¸º
æĺ¯åĲ¦æľī éģĹæ¼ı
Ġbec ame
å±ĤéĿ¢ çļĦ
g u
çļĦ æķĪçİĩ
æ¯Ķå¦Ĥ çĶ¨
Ġw as
è¿Ľ èĢĮ
åıįæĺł äºĨ
ĠAlexand ria
éľĢè¦ģ ä¼łè¾¾åĩº
åĪĨ åĮĸ
im inish
ç¿»è¯ĳç»ĵæŀľ åºĶè¯¥æĺ¯
Ġtrans port
Ġpartic les
d uring
i x
j ects
w in
çļĦ æĸ¹æ³ķ
åı ¶
Ġf u
ä¼ļ å¼ķåıĳåĵªäºĽ
ig m
arti ficial
è®Ń ç»ĥ
æĮĩ å¯¼
åºĶè¯¥ ä¿ĿæĮģ
Ġl aw
åģ ľ
ech o
èĥ½æºĲ æ¶ĪèĢĹ
Ep istemological
o k
ul ner
æĬĢ èĥ½
æĦıè¯Ĩ çļĦ
ä»· æł¼
åĪ¶éĢł ä¸ļ
otechn ology
ä¸Ģ èĪ¬
Ġf arming
åľ° å£³
å¸¸è§ģ çļĦæľ¯è¯Ń
Ġsp e
åĬ¨è¯į æĺ¯
è´Ł éĿ¢
Ġsim ultaneously
conduct ors
æĹ ±
ï¼Ł âĢĿï¼Į
éĿŀ æ¬§
ç¡®ä¿Ŀæľ¯è¯Ń åĴĮ
ä½¿åı¥åŃĲ æĽ´èĩªçĦ¶
åı¯èĥ½ å®ŀçİ°
ro ph
æ¯Ķå¦Ĥ è°ĥæķ´è¯Ńåºı
éĩıåŃĲ åıłåĬł
rain age
è¡¨è§ĤéģĹä¼ł æľºåĪ¶
å¹¶ä¸Ķè¦ģ éģµå¾ª
åĶ ¯
æ¹¿ å£ģçĶ»
Ġcham bers
A ll
è¦ģç¡®ä¿Ŀ æľ¯è¯ŃæŃ£ç¡®
ç¼ ł
èī²å½© çĲĨè®º
Ġstrateg ic
a uth
ä¸Ń æĢ§
ä¹ Ĳ
Ġt reat
Ġpar ity
Ġper mafrost
è·¨ æĸĩåĮĸ
åıªèĥ½ è¿Ľè¡Įç¿»è¯ĳ
ĠL ibrary
Ġdisrup tions
æµģåĬ¨ æĢ§
çļĦ éģĵå¾·
éľĢè¦ģ ä¿ĿçķĻ
æıĲ éĹ®
æĺŁ ç³»
æľĢåĲİç¡®è®¤ æĺ¯åĲ¦
æĬ¥åĳĬ æĪĸ
prioritiz e
ax im
åı¯ æĮģç»Ń
åĴĮ æµģçķħæĢ§
æĪĸèĢħ çĶ¨
com m
Ġd ue
äº§ åĵģ
çªģ è§¦
æľīæ²¡æľīéģĹæ¼ı æĪĸ
æľīä½ķ ä¸įåĲĮ
S t
¼ å¤ľ
æĺ ¼å¤ľ
æ² Ļ
Ġb r
åı¯èĥ½æĽ´ å¸¸çĶ¨
åħ¶ä»ĸ è¯ĳæ³ķ
Ġco un
Ġcoll ective
precipit ated
å°¤ä¸º éĩįè¦ģ
m echan
on ization
è¿ĻéĩĮ åºĶè¯¥ç¿»è¯ĳä¸º
Ġm axim
éĿ ¶
Ġf acilit
ä¹Ł éľĢè¦ģä¿ĿæĮģ
Ġar ise
éħ ¶
ç¡®å®ŀ ç¿»è¯ĳä¸º
ä½¿çĶ¨æŃ£ç¡® çļĦæľ¯è¯Ń
Ġline ar
a ir
as on
æģ Ĵ
ç¥ŀç»ı åħĥ
yn thesis
æĭĵæīĳ éĩıåŃĲè®¡ç®Ĺ
æĿ¡ä»¶çĬ¶è¯Ń ä»İåı¥
b od
re ak
Ġf ound
ç¨ Ģ
Ġen ti
çĶŁçī© å¤ļæł·æĢ§
åģı å¥½
Ġstandard s
Ġre duction
èĥ ģ
éĢĤåĲĪ åŃ¦æľ¯æĪĸ
éĢĤåĲĪ çĽ®æłĩè¯»èĢħ
ä¸¤èĢħ åľ¨
æŃªæĽ² åİŁæĦı
Ġep istemological
é£Ł çī©
çļĦ æł¸å¿ĥ
ä¸ĵä¸ļ é¢ĨåŁŁçļĦ
æ¶ ²
åİŁæĸĩ æĺ¯
è¿Ļæł·æĹ¢ ä¿ĿçķĻäºĨ
åĽ½ åĨħ
ell ing
äº§çĶŁ çļĦ
åħ¬ åı¸
æŃ£ç¡®çļĦç¿»è¯ĳ åºĶè¯¥æĺ¯
éĺ» ç¢į
åĽŀéŁ³ å®¤
Ġ like
å¯¹åºĶ çļĦ
åºĶçĶ¨ äºİ
çĽ¸ ä¼¼
oc rati
ynam ic
çĶ¨æĪ·å¼ºè°ĥ çĽ´æİ¥ç»ĻåĩºçŃĶæ¡Ī
B yzantine
æĺ¯ æŃ£ç¡®çļĦæľ¯è¯Ń
æĽ´ é¡ºçķħ
Ġs ustain
Ġn ations
éĢļè¿ĩ å°Ĩ
Ġreg ulation
çºł éĶĻ
Ġequi librium
Ġ ç¿»è¯ĳä¸º
Ġc hi
è¯´ è¯Ŀ
ä¸įéľĢè¦ģ çī¹åĪ«
ä¸ŃæĸĩçļĦ æµģçķħæĢ§
æŀģ ç®Ģ
Ġab str
çºł ç¼ł
è¿Ļ ç±»
ç»ĵæŀĦ ä¸º
åī ¯
Ġdis par
ä¸įä¼ļ å¼ķèµ·æŃ§ä¹ī
éĢļçĶ¨ çļĦ
åħīåŃĲ è®¡ç®Ĺ
Ġcrypt ocurrency
icon duct
æĸĩåŃ¦ä¸ŃçļĦ éŃĶå¹»çİ°å®ŀä¸»ä¹ī
p ot
æīĢä»¥ ç¿»è¯ĳæĹ¶
ä¸ĵä¸ļæľ¯è¯Ń æĸ¹éĿ¢
lo cation
è½ ½
Ġem ission
æĺ¾èĳĹ å·®å¼Ĥ
rol ogical
hy brid
roscop y
t emporal
re li
å®¹ éĶĻ
end ed
Ġcirc u
å¨ģ èĥģ
å¿łå®ŀ åİŁæĦı
Ġban king
ç Į
en ess
ad apt
åİŁåı¥çļĦç»ĵæŀĦæĺ¯ çĸĳéĹ®åı¥
sy m
ä¸ŃæĸĩçļĦè¯Ńåºı åı¯èĥ½éľĢè¦ģè°ĥæķ´
çĽ´æİ¥ å½±åĵį
Ġtra ject
Ġeff ective
æĺ¯æłĩåĩĨ çļĦ
åĸ Ħ
Ġsur faces
Ġsuper natural
ä½ĨçĶ¨æĪ·è¦ģæ±Ĥ çĽ´æİ¥ç»ĻåĩºçŃĶæ¡Ī
Ġdet ermin
Ġam plify
æ£ĢæŁ¥æĺ¯åĲ¦æľīæĸĩåĮĸéĢĤåºĶæĢ§ éĹ®é¢ĺ
l ation
æŀ Ŀ
ä¸ĵ æ³¨
pl asticity
å¼ºè°ĥ çļĦæĺ¯
æĽ´åĲĪéĢĤ çļĦè¯įæ±ĩ
åı£è¯ŃåĮĸ çļĦè¡¨è¾¾
å²© çŁ³
Ġelect ron
æĹ¥ çĽĬ
ero id
w ould
in duced
re fl
åı¯ä»¥ ç®ĢåĮĸä¸º
åģ ¥
ut y
cal es
å¹¿ ä¹īçĽ¸å¯¹è®º
èĬĤ å¾ĭ
éĺħè¯» åİŁåı¥
ä½ĨçĶ¨æĪ·è¦ģæ±Ĥ çĽ´æİ¥ç¿»è¯ĳ
è´¢ å¯Į
enab led
Ġeduc ational
patter ns
b ec
åľ¨ ç§ĳåŃ¦
æµ ª
çļĦç»ĵæŀĦ åºĶè¯¥æĺ¯
æŃ£å¼ı åĴĮ
ç¼ĸ çłģ
æľĢåĲİç¡®è®¤ æ²¡æľīéģĹæ¼ıä¿¡æģ¯
éļ¾ é¢ĺ
åıįåºĶ åłĨ
æ²¡æľīéģĹæ¼ıæĪĸ éĶĻè¯¯
ribut e
Cub ist
ur g
Ġre t
å®ļ çĲĨ
è¿ĺè¦ģæ³¨æĦı æµģçķħæĢ§
å½¢æĪĲ é²ľæĺİå¯¹æ¯Ķ
uro centric
main tain
è¡° éĢĢ
ä½ľèĢħ æĦıåĽ¾
åľ¨ ç¿»è¯ĳä¸Ń
æĪĲ åĬŁ
ä¿¡æģ¯ èĮ§æĪ¿
æĦŁ å®ĺ
Ġsuper conductors
Ġrevolution ize
Ġfin ancial
éĶĤ ç¦»åŃĲ
m on
çļĦ ç»ĵæŀľ
ä¿ Ĺ
è° ¢
em a
Ġf an
el t
ç¤º ä¾ĭ
åģĩè®¾ æĢ§çļĦ
Ġdec ades
Ġpl ains
æµģçķħæĢ§åĴĮ åĩĨç¡®æĢ§
ec tions
Ġs uc
å¼ķåıĳ äºĨ
åıªèĥ½ ç¿»è¯ĳ
Ġcorrel ate
os c
Ġdi ff
ä¸ĬçļĦ ä¸įåĲĮ
çĽĲ åº¦
ĠEurope an
æĪªçĦ¶ ä¸įåĲĮçļĦ
Ġprog ress
è Ľ
Ġs el
æĥ¯ ä¾ĭ
Ġre veal
th er
å¤§ å¹ħ
Ġge omorph
åİŁåı¥æĺ¯ä¸Ģä¸ª éĹ®åı¥
åĲĦ ä¸ª
æ½ ®
æĪĸèĢħæĺ¯åĲ¦ åºĶè¯¥çĶ¨
µ Į
å µĮ
é ¾
çļĦ æĸĩåĮĸ
çļĦ è®¤çŁ¥
ç¿»è¯ĳ äºĨ
æīĢä»¥ ä¿ĿçķĻ
å¹² æĹ±
ast er
åĩĨç¡®ä¸Ķ æµģçķħ
prioritiz es
å¥³ æĢ§
h igh
s elf
æĪĳéľĢè¦ģ å°Ĩ
çĶ¨äºİè®ºæĸĩæĪĸ æĬ¥åĳĬ
Ġinnov ations
N etwork
er ns
äºº æľº
C ognitive
s hif
è¿ĻéĩĮ æľīåĩłä¸ª
å¸¸çĶ¨ è¯´æ³ķ
æŃ£å¼ı æĢ§
ä¸įèĥ½ ç¿»è¯ĳæĪĲ
Ġdi vide
ard ing
çŁ³ å¢¨
åĽ½éĻħ è´¸æĺĵ
æľīæķĪ æĢ§
è¡° èĲ½
éĺ¶ å±Ĥ
æ²¿ æµ·
æĪĳéľĢè¦ģç¿»è¯ĳè¿Ļä¸ª åı¥åŃĲ
å¼ ¹
æ£ĢæŁ¥ åı¥åŃĲçļĦæµģçķħæĢ§
çĶ¨æĪ·è®©æĪĳ æĬĬè¿Ļåı¥è¯Ŀç¿»è¯ĳæĪĲä¸Ńæĸĩ
our ces
Ġacc umulation
Ġund ergo
æĮīçħ§ çĶ¨æĪ·çļĦè¦ģæ±Ĥ
narra tive
l inguistic
Ġd ual
Ġs ugges
çī¹åĪ« æĺ¯åľ¨
sy stem
å»¶ éķ¿
depend ence
æİ¨åĬ¨ äºĨ
Al gorithmic
çŁ³å¢¨ çĥ¯
ä¸į åĽŀçŃĶéĹ®é¢ĺ
et ar
Ġre ason
æ¨¡å¼ı è¯ĨåĪ«
ç¼º éĻ·
æĪĳè¦ģç¡®ä¿ĿåĩĨç¡®çĲĨè§£ åİŁåı¥çļĦæĦıæĢĿ
æ£ĢæŁ¥ æĺ¯åĲ¦
å®ŀ åľ¨
çļĦæĺ¯ ä¸Ģä¸ª
ap tic
ç¥ŀ åŃ¦
æİ¨ çĲĨ
plic ate
Ġcommun ities
ä¾ĽåºĶ éĵ¾
ç¿»è¯ĳ åºĶè¯¥æĺ¯
ç¿»è¯ĳ è¿ĩç¨ĭä¸Ń
åĲİ ç»Ń
æ¯Ķè¾ĥ ç®Ģæ´ģ
Ġa ugment
å² Ĺ
ä¸ī ç»´
è¶ħèĩªçĦ¶ åħĥç´ł
è½ ®
æĿĥåĬĽ ç»ĵæŀĦ
Ġabstr action
åĩ ĳ
Ġs overeign
Ġb arri
Ġh ad
per s
ä¸ŃåĽ½ è¯»èĢħ
Ġconfl ic
ĠæĪĳéľĢè¦ģåĩĨç¡®åľ° å°Ĩè¿Ļåı¥è¯Ŀç¿»è¯ĳæĪĲä¸Ńæĸĩ
l ement
åħĪ ä»Ķç»Ĩ
æĽ² è§£
Ne uromorphic
åĪĨåŃĲ ç»Ħè£ħ
ç´§ åĩĳ
ä¸ĵæ³¨ äºİ
åı¯ä»¥ ç¿»è¯ĳæĪĲ
åı¥åŃĲç»ĵæŀĦ èĩªçĦ¶
å¹³ éĿ¢
ential ist
Ġdiffer ent
Ġvi ability
åİŁåı¥çļĦç»ĵæŀĦåĴĮ æĦıæĢĿ
Ġperspec tives
y bers
æ¯Ķ åĸ»
Ġd rainage
æĸĩåŃ¦ åĪĨæŀĲ
äº¤ éĢļ
åĲĦ é¡¹
gra d
hist or
ybers ecurity
ä»¥ éĢĤåºĶ
æĽ´ å¿«
çī© èģĶç½ĳ
åıĺ æļĸ
éĢļè¿ĩ æ¯Ķè¾ĥ
struct ures
æļĹèĥ½éĩı å¯Ĩåº¦
åį« æĺŁ
Ġinequal ity
æ¯Ķ äºļ
ar osc
Ġm osa
æ£ĢæŁ¥ æķ´ä¸ªåı¥åŃĲçļĦæµģçķħæĢ§
Ġac id
di vergent
Ġint ent
ç¡®ä¿Ŀåı¥åŃĲ æµģçķħ
åħĥç´ł éĥ½
arg et
arosc uro
f e
çļĦ å¸¸çĶ¨è¡¨è¾¾
Ġc ategor
åį Ĺ
è¿Ļæł· ç¿»è¯ĳåĲİçļĦåı¥åŃĲ
è¿Ļæĺ¯ ä¸ĵä¸ļæľ¯è¯Ń
éĺ Ī
éľĢè¦ģåĩĨç¡® å¤ĦçĲĨ
Ne uro
åħħ åĪĨ
Ġdeb ates
d et
æĿ¥ å®ŀçİ°
æµģ è¡Į
ä»£ éĻħ
å·¥ èīº
æ® Ĭ
åľ¨ä¸ŃæĸĩéĩĮ å¸¸çĶ¨
çªģ çĦ¶
åľ°åĮº çļĦ
æ½ľ åĬĽ
Ġchan ges
Ġscal es
æľīä¸Ģå®ļçļĦ äºĨè§£
æ²¡æľī éĶĻè¯¯
il d
çİ¯å¢ĥ ä¸Ń
vi ous
Ġse qu
è¾¹ç¼ĺ è®¡ç®Ĺ
Ġri ver
å®¤æ¸© è¶ħå¯¼ä½ĵ
k es
çļĦ ä½ľçĶ¨
Ġc asc
å¯ ¿åĳ½
Ġre m
è¿Ļåı¥è¯Ŀ è®¨è®ºçļĦæĺ¯
ç¡®è®¤ æĺ¯åĲ¦
åĨħ åľ¨
ç»ĵæŀľ æĶ¾åľ¨åĲİéĿ¢
ç¤¾ä¼ļ åĪĨå±Ĥ
ç¾İ åĽ½
éľĢè¦ģåĩĨç¡®ä¼łè¾¾ åĩº
æ¬§æ´² ä¸Ńå¿ĥ
Ġind ices
æİ¨è¿Ľ ç³»ç»Ł
Ġrefl ect
æĽ´ æĸ°
æĿ¥ å¼ºè°ĥ
åı¯ä»¥ çľģçķ¥
åı¥åŃĲç»ĵæŀĦ æ¸ħæĻ°
par tic
petu ate
p ut
æ¯Ķå¦Ĥ åİŁåı¥ä¸ŃçļĦ
æīĢä»¥ æķ´ä½ĵ
æŃ£ åľ¨
ä¿ĿæĮģ ä¸ĵä¸ļæĢ§
éĢīæĭ© æĢ§
æĪĳéľĢè¦ģç¡®ä¿Ŀ ç¿»è¯ĳçļĦåĩĨç¡®æĢ§
åĪĽ ä¼¤
ç¡®ä¿Ŀæ²¡æľī ä½¿çĶ¨
å¤©ä½ĵ çĶŁçī©åŃ¦
f re
çļĦ èīºæľ¯
å¿ §
ä¹ĭ åĲİ
æĿ¥è¿ŀæİ¥ åīįåĲİ
Ġelect ric
Ġrede fine
éĴĻ åĮĸ
å¿łå®ŀäºİ åİŁæĸĩ
èı Į
çī¹ æ®Ĭ
æľĢåĲİæ£ĢæŁ¥ åĩĨç¡®æĢ§
å±Ĥ æ¬¡
å½¢å¼ı çļĦ
è¾ĵåĩº ç¿»è¯ĳç»ĵæŀľ
èĲ ¨
ç¿»è¯ĳæĹ¶è¦ģç¡®ä¿Ŀ ä¸ĵä¸ļæľ¯è¯ŃåĩĨç¡®
e le
in corpor
æīĢä»¥ åĩĨç¡®æĢ§åĴĮä¸ĵä¸ļæĢ§
Ġs he
Ġg u
æľ¯è¯ŃæŃ£ç¡® æĢ§
Ġinter ventions
ä¿ĿæĮģåı¥åŃĲçļĦ ç®Ģæ´ģ
ä¹ĭåīį çļĦ
é¢ĳ çİĩ
éĺĪ åĢ¼
è½¬ åĲĳ
äºĴ æĸĩ
å¹» çģŃ
æĺ¼å¤ľ èĬĤå¾ĭ
c urrent
è¯ »è¯ĳ
åĲĮ è´¨
çĬ¶è¯Ń æĶ¾åľ¨åīįéĿ¢
åĩı å¼±
åľ¨è¿ĻéĩĮæĺ¯ åĬ¨è¯į
mod el
fra gment
ä¾§ éĩį
ç¡®ä¿Ŀä¸Ńæĸĩ è¯»èµ·æĿ¥èĩªçĦ¶
è¯»è¯ĳ æĸĩ
çļĦ åºĶçĶ¨
çļĦ å·®å¼Ĥ
éĢļ è¯»è¯ĳæĸĩ
ä¸ĵä¸ļ çļĦæľ¯è¯Ń
Ġe v
çĲĨè§£ æ¯ıä¸ªæľ¯è¯ŃçļĦæĦıæĢĿ
Ġex acerb
Ġint ensity
æīĢä»¥ç»ĵæŀĦ ä¸Ĭ
S ub
æľ¯è¯Ń åĩĨç¡®æĢ§
Ġc entral
ä½¿çĶ¨ åĲĪéĢĤçļĦ
è¿Ļç§į ç»ĵæŀĦ
Ġcarbon ate
ç¬¦åĲĪä¸Ńæĸĩè¯»èĢħçļĦçĲĨè§£ ä¹łæĥ¯
All uvial
l ish
æĸ ¥
èĥ½ æķĪ
æµ ¸
em ic
Ġf iscal
éĶ ģ
ç´ Ĭ
æľĢåĲİæ£ĢæŁ¥ æĺ¯åĲ¦ç¬¦åĲĪçĶ¨æĪ·çļĦè¦ģæ±Ĥ
æł¹æį®ä¸Ĭä¸ĭæĸĩ åĪ¤æĸŃ
Ġconc erns
æ²¡æľīéģĹæ¼ı ä»»ä½ķ
us h
und ane
äººç±» è®¤çŁ¥
åĻ¨ å®ĺ
åľºåĲĪ ä½¿çĶ¨
éĢıè§Ĩ æ³ķ
ç½Ĺ é©¬
techn ological
åĲĦé¡¹ è¦ģæ±Ĥ
ç´Ĭ ä¹±
è¦ģ éĢļé¡º
æ£ĢæŁ¥ ä¸Ģéģį
èīºæľ¯ é¢ĨåŁŁçļĦ
tiv ation
åĳ½ ä»¤
åĨ² åĩ»
Ġsub jective
ç²¾ç¡® çļĦ
è´¢æĶ¿ æĶ¿çŃĸ
åĩ ¡
Ġh olographic
è¿Ļä¸ª è¯ĳæ³ķ
åĵ¥ çī¹
Ġhigh er
Ġemphas is
Ġsch ol
æ±½ è½¦
ĠAmeric an
an psych
ul ture
um er
æ£ĢæŁ¥æĺ¯åĲ¦æľīéģĹæ¼ıæĪĸ è¯¯è¯ĳ
Ġconstruc tion
anpsych ism
åĴĮ ç»ĵæŀĦ
Ġst ate
å·® è·Ŀ
çľŁ çĲĨ
hy d
åĭ Ĵ
Ġ structure
ä¸Ńæĸĩ åı¯èĥ½éľĢè¦ģè°ĥæķ´è¯Ńåºı
ar ge
æĢĿ ç»´
æį ī
res ist
il k
å¤į åĲĪ
åĽłä¸º æ¶īåıĬ
çĶµ ç½ĳ
Ġbe en
è¡¨çİ° åĩº
ä½¿åħ¶ ç¬¦åĲĪä¸Ńæĸĩè¡¨è¾¾ä¹łæĥ¯
éĢļçĶ¨ æĻºèĥ½
æīĢä»¥æľ¯è¯Ń å¿ħé¡»åĩĨç¡®
canti list
è¿Ļ åı¥
å® ½
ç¡®ä¿Ŀ åĩĨç¡®æĢ§
æĺ¯åĲ¦ éľĢè¦ģè°ĥæķ´è¯Ńåºı
ed iter
å¹ Ķ
Ġpro pos
Ġex oplanet
ag ation
ç»ĦåĲĪèµ·æĿ¥ çļĦè¯Ŀ
over y
çĶ¨æĪ·è®©æĪĳç¿»è¯ĳè¿Ļä¸ª èĭ±æĸĩåı¥åŃĲ
ç¡®ä¿Ŀæ²¡æľī éĶĻè¯¯
æľīæ²¡æľīæĽ´å¥½çļĦ è¡¨è¾¾æĸ¹å¼ı
Ġve hic
editer ranean
4 0
i or
Ġ ess
çļĦ æĮĳæĪĺ
åı¯èĥ½ åľ¨
Ġm itig
Ġre inforcement
åĨį æ¬¡
Ġinflu enc
åĬŁåĪ©ä¸»ä¹ī ä¼¦çĲĨåŃ¦
Ġfragment ed
Ġdil em
çļĦ åı¯
Ġch romatic
Ġdis e
åģĩè®¾ æĿ¡ä»¶
äººå·¥ éĢļçĶ¨æĻºèĥ½
bo und
ud al
Ġcre ating
In cre
Ġprecipit ated
æĹ¢ä¸ĵä¸ļåıĪ æĺĵäºİçĲĨè§£
åľ£ åĥı
A d
è Ĺ
éľĢè¦ģ å¤ĦçĲĨä¸º
éĢī é¡¹
åıª è¿Ľè¡Įç¿»è¯ĳ
çĥŃ å²Ľ
çĶ¨æĪ·ç»ĻäºĨä¸Ģä¸ª åı¥åŃĲ
è·¯ çº¿
æ²ī æµ¸
å£« æ¯Ķäºļ
Ġprecipit ation
Ġmem ory
æĳĦ å½±
èİİ å£«æ¯Ķäºļ
ä½Ĩ åİŁåı¥æĺ¯
æĢģ åº¦
pro cess
èĦ Ĩ
çĶ¨æĪ·å¼ºè°ĥå¿ħé¡» çĽ´æİ¥ç»ĻåĩºçŃĶæ¡Ī
çļĦ ä½ľåĵģ
åı¯èĥ½ ç¿»è¯ĳæĪĲ
Ġcon di
Ġar c
tiv ist
å¯Ĩ åĪĩ
éĢł å±±
éĽĨ æĪĲ
hol ds
environ mental
m aterial
or t
æĪĳéľĢè¦ģåĩĨç¡®çĲĨè§£ æ¯ıä¸ªæľ¯è¯Ń
ä¸»åı¥ éĥ¨åĪĨ
åı¯èĥ½çĶ¨æĪ· å¸ĮæľĽ
å°ģ åŃĺ
l ong
am et
oc lassical
è¯Ńå¢ĥ ä¸ĭ
æĪĳéľĢè¦ģçĲĨè§£ æ¯ıä¸ªéĥ¨åĪĨçļĦæĦıæĢĿ
Ġro om
sive ly
é©¬ èµ
çĲĨè§£åİŁæĸĩçļĦæĦıæĢĿ å¾Īéĩįè¦ģ
ä¸įèĥ½éļıæĦı æĶ¹åĬ¨
ä¸ ģ
Ġin vest
åİŁåı¥ ä¸Ń
çĲĨè§£ åħ¶
é© ¾
åŁİå¸Ĥ è§ĦåĪĴ
ivers ity
Ġag ency
Ġextr action
l u
åºĶ ä¿ĿæĮģ
ç¡®ä¿Ŀ æīĢæľī
ç§į ç¾¤
çģ °
Ġorgan iz
Ġconcep tual
eff ici
åį± æľº
illusion ment
ocrati z
0 0
r onic
Ġ å°±æĺ¯
ģ è®¸
åħ ģè®¸
è§£ è¯»
çļĦç»ĵæŀĦ æ¯Ķè¾ĥåĲĪéĢĤ
am plify
çī¹åĪ« è¯´æĺİ
æĪĳè¦ģç¡®ä¿Ŀ ç¿»è¯ĳåĩĨç¡®
æķ°æį® ä¼łè¾ĵ
åıĹ åĪ°
åĤ¨ åŃĺ
anti an
ä¸Ńæĸĩè¯»èĢħåı¯èĥ½æĽ´ çĨŁæĤī
Ġinterpret ations
çŃīçº§ åĪ¶åº¦
çļĦ é¢ĨåŁŁ
ac coun
ç»ıæµİ ä½ĵ
per sist
und er
Ġcomp eti
èĻļæĭŁ çİ°å®ŀ
a tility
t ransi
ab lish
im al
åĩĨç¡®ä¼łè¾¾äºĨ åİŁæĸĩçļĦ
Ġan cient
Ġval uation
Ġsol id
çĶ¨æĪ·åı¯èĥ½çļĦ èĥĮæĻ¯
Ġnan otechnology
Ġcoun ter
Ġbarri ers
çļĦ æĦıåĳ³
ab it
å¦Ĥä½ķ åľ¨
çĶŁæĢģ æī¹è¯Ħ
erm ohaline
ä¾Ŀèµĸ äºİ
ensi tive
æķı æĦŁ
èĵ Ħ
etar ist
èĦĨ å¼±
åľ¨ çī©çĲĨåŃ¦
äºº çī©
åĳ ¼
æķĻ åŃ¦
ä¾Ŀ åŃĺ
R NA
éĢļå¸¸ æĺ¯
æ´ Ľ
æłĩåĩĨ ç¿»è¯ĳ
äº¤ äºĴ
ä¸Ńæĸĩç§ĳæĬĢ ç¿»è¯ĳéĢļå¸¸
Ġconn ectivity
é©¬èµ Ľåħĭ
¡ æĶ¹
è Ń
çļĦ å½¢å¼ı
è¿ĺ è¦ģç¡®ä¿Ŀ
ri st
Ġst ory
è¶ħ çİ°å®ŀä¸»ä¹ī
Ġmo un
est ablish
æİ¥ä¸ĭæĿ¥è¦ģèĢĥèĻĳ åı¥åŃĲçļĦæµģçķħæĢ§
çĽĳ çĿ£
ç¯ ¡æĶ¹
roph ic
iconduct or
Incre ased
åĴĮ èĩªçĦ¶æĢ§
é¡ ¾
Ġn ature
æĦŁ åĪ°
Ġan y
æĪĳè¦ģç¡®ä¿Ŀ ç¿»è¯ĳçļĦåĩĨç¡®æĢ§
åŁºåĽł è¡¨è¾¾
Ġdevelop ed
ĠR o
åİŁåı¥æĺ¯ä¸Ģä¸ª æĿ¡ä»¶åı¥
å§ Ķ
b stract
è¿Ļ æĦıåĳ³çĿĢ
åı¯èĥ½ çļĦè¯ĳæ³ķ
res co
Ġde fin
de ontological
æĽ ¾
å·²ç»ı æĺ¯
åħĥ å°ıè¯´
å±± èĦī
æµ·æ´ĭ éħ¸åĮĸ
åľ°è´¨åŃ¦ ä¸Ń
Ġwork s
ä½Ĩä¹Ł åı¯ä»¥èĢĥèĻĳ
èŃ ¦
B lockchain
çļĦ åı¯èĥ½æĢ§
en ch
æīĢä»¥ éľĢè¦ģç¡®ä¿Ŀ
ol es
æ£ĢæŁ¥ æķ´ä¸ªåı¥åŃĲ
ä½¿çĶ¨ ä¸ĵä¸ļæľ¯è¯Ń
ig ur
Ġv ulner
äºĮ åħĥ
åħ± è¯Ĩ
Ġacceler ated
Ġmoun tain
e volve
Ġs cale
å¤§ äº¤æį¢
est abiliz
Ġexp lo
æł¸å¿ĥ æ¦Ĥå¿µ
uxtap os
ĠRo ad
ç¿»è¯ĳ åĩºæĿ¥
Ġc hips
æīĢä»¥ è°ĥæķ´è¯Ńåºıä¸º
çĽ Ĩ
é£ ŀ
å¹¿æ³Ľ æİ¥åıĹ
æİĴ æ°´
åľ°çĲĥ åĮĸ
è¿Ļæł·æĹ¢ä¿ĿæĮģäºĨ åİŁæĦı
Ġvari ations
Ġcompar ative
æŀģç®Ģ ä¸»ä¹ī
a ult
çļĦ ä¼łæĴŃ
æµ ®
åĩº éĶĻ
Ġad just
æĤ ¬
äº§çĶŁ æŃ§ä¹ī
å¹´ ä»£
è®¾è®¡ çļĦ
å®ŀéĻħ åºĶçĶ¨
èĽ ĭ
' re
è¿ ħ
éĢĤ çĶ¨
ä½Ĩ åı¯èĥ½
Ġf ood
æ£ĢæŁ¥ æĺ¯åĲ¦ç¬¦åĲĪçĶ¨æĪ·çļĦè¦ģæ±Ĥ
as ma
çļĦç»ĵæŀĦ æĿ¥è¡¨è¾¾
èĤ ī
DNA åºıåĪĹ
represent ational
Ĩ Ĵ
æŃ ¦
æĿ¥ è§£éĩĬ
è¿ĻéĩĮ åºĶè¯¥ç¿»è¯ĳæĪĲ
è¿ĻéĩĮ éľĢè¦ģä¿ĿæĮģ
is ing
od iversity
éĻ Ħ
åĨį çĶŁ
åıª æıĲä¾Ľç¿»è¯ĳç»ĵæŀľ
ç« Ļ
ä¸įè¿ĩ åİŁåı¥ä¸ŃçļĦ
æĺ¯æłĩåĩĨ çļĦè¯ĳæ³ķ
èµĦæºĲ åĪĨéħį
19 50
æĭħ å¿§
Ġcommer cial
Ġevid ence
åĩĨç¡® çļĦç¿»è¯ĳ
æĿ¥ èĩª
ä½Ĩ éľĢè¦ģ
æ¶ Į
ĠE nlightenment
åı£è¯ŃåĮĸ è¡¨è¾¾
Ġsystem ic
Ġrede fin
åĵ¥ä¼¦å¸ĥ å¤§äº¤æį¢
çĥŃå²Ľ æķĪåºĶ
åĪĨ å½¢
å· ¨
Ġac tions
åģı åĲĳ
lim in
Ġro le
igen ous
Ġtr uth
è¯¥ é¢ĨåŁŁçļĦ
Ġcapac ity
Ġsovereign ty
p ri
çļĦ ä¸į
Ġin dust
æİ¥ä¸ĭæĿ¥ çļĦéĥ¨åĪĨ
çº µ
ç³»ç»Ł ä¸ŃçļĦ
con s
Ġcomp osition
çŃī ä»·
åĨįæ£ĢæŁ¥ æĸĩåĮĸéĢĤåºĶæĢ§
å£ ¤
sci entific
Ġsub duction
with in
C ol
v acy
ti fication
æĪĸ å°Ĩ
è¿ĻéĩĮ åı¯èĥ½çĶ¨
æĺ¯åĲ¦ ç¬¦åĲĪä¸ŃæĸĩçļĦè¡¨è¾¾ä¹łæĥ¯
ä¸ĵä¸ļ è¯įæ±ĩ
è´ ¦
åľ° å¹Ķ
ç»Ł è®¡
è¿Ļä¸ª éĹ®é¢ĺ
çĶ¨æĪ·è®©æĪĳ æĬĬ
oc ratic
ä¿® å¤į
å±ŀ æĢ§
Ġor bital
åĩĿ èģļ
Ġconstrain ts
ton ian
çĻ¾äº¿äº¿æ¬¡ è®¡ç®Ĺ
Ġsil icon
ä¸Ń å¸¸è¯ĳä¸º
åħ ¼
ç¼ Ŀ
ex p
of ten
Ġcontra d
æĪĳéľĢè¦ģç¡®ä¿Ŀç¿»è¯ĳ åĩĨç¡®ä¼łè¾¾åİŁæĦı
re de
æĪĳ ä¼ļ
ol er
ä¸Ģ è¯į
çİ¯å¢ĥ çĽ¸äºĴä½ľçĶ¨
äººå·¥ æĦıè¯Ĩ
ä½¿åħ¶ æĽ´ç¬¦åĲĪä¸Ńæĸĩè¡¨è¾¾ä¹łæĥ¯
Ġver tical
Ġscal ability
çļĦ ä¼łç»Ł
å¸ ®
æ¯Ķè¾ĥ çļĦæĺ¯
åı¯èĥ½éľĢè¦ģ è¯ĳä¸º
å½¢æĪĲ è¿ĩç¨ĭ
ear ly
å®¡ è§Ĩ
Ġuni verse
Ġauthentic ity
A ut
on ics
è¿ĻéĩĮ åºĶè¯¥çĶ¨
ä¸ĵä¸ļ åĮĸ
å± ı
qu is
Ġof f
form ing
ç¥ŀç»ıå½¢æĢģ è®¡ç®Ĺæŀ¶æŀĦ
Ġ if
è¯ ŀ
al gorithmic
ç»ĵæŀĦ ç¬¦åĲĪä¸Ńæĸĩä¹łæĥ¯
çĶŁçī© æłĩå¿Ĺ
con f
ä¸ŃæĸĩçļĦ çĸĳéĹ®åı¥
erv ice
Ġass embl
Ġpress ures
Ġreason ing
Ġs ect
ig ns
æĪĸèĢħ å¯¹
Ġg raph
um b
æĹ¶éĹ´ ä¸ĬçļĦ
Ġdis placement
åģı åĲĳäºİ
æįķ é£Ł
å¯¡å¤´ åŀĦæĸŃ
Ġrobo tics
æĹ ¨
at omic
ä¸į éģĹæ¼ı
ar win
Ġth ought
ä½Ĩ åľ¨è¿ĻéĩĮ
ig opol
æĪĳéľĢè¦ģ æĬĬ
res sion
çĲĨè®º æ¡Ĩæŀ¶
tr uc
Ġcondi tioning
ä¸ ¾
ç» ķ
åı¯èĥ½ çļĦç»ĵæŀĦæĺ¯
Ġl atency
ä¸įä¼ļ åĽŀçŃĶè¾ĵåħ¥çļĦéĹ®é¢ĺ
éļĲ èº«
éĴ ¥
åı¯èĥ½ä¸į å¤ª
Ġmain stream
Ġz one
funda mental
eng th
Ġrad ical
å²Ĺ ä½į
æ ħ
ç» ª
ç» ¿
ä¸įè¿ĩ æł¹æį®
åĨ° çĽĸ
ä¸įåı¯ éĿł
j ection
æĺ¯ å¯¹
å¼ ĥ
æµģ å¤±
åºĶè¯¥ èĥ½
è¦ģæ³¨æĦı åı¥åŃĲçļĦç»ĵæŀĦ
åıį å°Ħ
Ġtra ining
pro por
ĠA n
çĲĨè§£åİŁåı¥çļĦæĦıæĢĿ å¾Īéĩįè¦ģ
Ġco astal
Ġpath w
w tonian
ç» §
åº ĵ
æĽ´ éĩįè§Ĩ
æĬ µ
åĬł åħ¥
pro liferation
Ġbe lie
ä¸Ńæĸĩåı¥åŃĲç»ĵæŀĦ éĢļå¸¸
Ġrecon fig
åıªè´Łè´£ å°Ĩèĭ±æĸĩç¿»è¯ĳæĪĲä¸Ńæĸĩ
quis ition
Ġassembl ers
D oes
n a
Ġt exts
äºº å£«
el ity
id elity
å¾Ĺ å½ĵ
Ġde pend
äººç±» ä¸ĸ
éĢĤåĲĪ ä¸Ńæĸĩè¯»èĢħ
ä¿®é¥° è¯Ń
ç¡®ä¿Ŀåı¥åŃĲ éĢļé¡º
recon cile
Ġexpos ure
t elling
å¦Ĥä½ķ è§£éĩĬ
åİŁåı¥æĺ¯ éĹ®
åħ¶ä»ĸ ä¿¡æģ¯
éľĢè¦ģåĩĨç¡® ä¸Ķä¸ĵä¸ļ
é© ¶
ç¡®å®ŀ æĺ¯æĮĩ
ä¸ĵä¸ļæĢ§åĴĮ æµģçķħæĢ§
æĪĳçİ°åľ¨è¦ģå¤ĦçĲĨ çĶ¨æĪ·çļĦè¿Ļä¸ªç¿»è¯ĳè¯·æ±Ĥ
Ġtimes cales
æľ¯è¯Ń ä½¿çĶ¨
æĹ ħ
æĸĩåĮĸ ä¹łæĥ¯
åıĪ ä¿ĿæĮģäºĨ
Ġr hy
æıı ç»ĺ
ang lement
Ġcomplex ity
k ill
s ynthetic
Ġinter vention
çĽ¸äºĴ ä¾ĿåŃĺ
æ¹ ¾
Ġgra di
éĺ¶ æ®µ
è®¡ç®Ĺæľº ç§ĳåŃ¦
Ġtim elines
r ates
ä¸Ńæĸĩ éľĢè¦ģè°ĥæķ´è¯Ńåºı
åľ° éľĩ
Ġg all
å¤ļ åħĥ
èģĶ ç³»
ç²¾ç¡® æĢ§
åľ¨èīºæľ¯ é¢ĨåŁŁ
Ġvol canic
Ġris ks
æĭ Ĵ
li matic
ç§ĳ æĻ®
è± ª
è¯Ħ ä»·
å®ĹæķĻ æĶ¹éĿ©
n eg
o cean
æµ Ĩ
æĺ¯åĲ¦ çĶ¨
ra m
æĸ° åŀĭ
çľĭèµ·æĿ¥ æ²¡éĹ®é¢ĺ
Ġcos mic
é©¾ é©¶
Ġ è¿Ļä¸ªç¿»è¯ĳ
åĨ ¯
ç¬¦åĲĪä¸Ńæĸĩ è¯Ńåºı
å¹ ¸
Ġre duced
æķ´ä½ĵ æµģçķħæĢ§
è¡¨ç¤º å¯¹æ¯Ķ
ç»ĦåĲĪèµ·æĿ¥ åºĶè¯¥æĺ¯
çĶ¨æĪ·åı¯èĥ½å¸ĮæľĽ ç¿»è¯ĳ
dec entralized
å°±åı¯ä»¥ç»Ļåĩº ç¿»è¯ĳäºĨ
contin ental
p ower
ä¸Ń ä»ĭ
æĿ¥ è¯´
ä¸į åĽŀçŃĶåħ¶ä»ĸéĹ®é¢ĺ
æīĢä»¥ åı¯èĥ½éľĢè¦ģè°ĥæķ´
Ġm ed
âĢ¦ âĢĿ
ç»Ħ æĪĲ
éĺ µ
éļı æĹ¶éĹ´
çĶ¨æĪ·åı¯èĥ½æĺ¯åľ¨ åŃ¦ä¹ł
ä¸įèĥ½éļıæĦı æĽ¿æį¢
æįķ æįī
ä¸Ńæĸĩç§ĳæĬĢ ç±»æĸĩç«ł
Con tra
Ġthaw ing
ä¸Ń æĸŃ
åı¯èĥ½æĽ´ ç®Ģæ´ģ
Ġint ro
Ġres ist
ors hip
ä¼¦çĲĨ èĢĥéĩı
ç¥ŀç»ıå½¢æĢģ èĬ¯çīĩ
cont emporary
Ġeffective ly
s ensitive
ä¸Ń éĹ´
al e
èĢħ æķĪåºĶ
Ġin form
ä¸ĵä¸ļæľ¯è¯Ń åĴĮ
res holds
Ġan throp
æĽ´ç®Ģæ´ģ çļĦè¡¨è¾¾
æĿĲæĸĻ çļĦ
è¿Ļç§į å¯¹æ¯Ķåħ³ç³»
æŀģ åľ°
å¤± è°ĥ
å¢ŀå¼º çİ°å®ŀ
æŁ¥ è¯ģ
ĠW estern
æ²¡æľīä¿¡æģ¯ ä¸¢å¤±
æĪĳ è¦ģèĢĥèĻĳ
Ġin vention
ä¹Ł è¦ģä¿ĿæĮģ
æ· Ĩ
ä¸¤ä¸ª åĪĨåı¥
æ¬§ äºļ
çĶ¨è¯į åĩĨç¡®
å¦Ĥä½ķå½±åĵį äºĨ
æ·· æ·Ĩ
ä½¿åı¥åŃĲæĽ´ æµģçķħ
ç¬¦åĲĪåŃ¦æľ¯ çĶ¨è¯Ń
Ġdet ection
ĠIn dustrial
Ġstory telling
ol ing
ul atory
Ġac quisition
Ġsoci oeconomic
Ġsur ve
man ip
æīĢä»¥æķ´ä¸ª çŁŃè¯Ń
ä¼Ĭ æĸ¯
v ity
çļĦ æĦŁè§ī
æıĲ åīį
åŃ¦æľ¯ çłĶç©¶
çİ°åľ¨ åĪĨè¯į
åĩĨç¡®ä¼łè¾¾äºĨ åİŁåı¥çļĦ
æ·»åĬł ä»»ä½ķ
å¼Ģ éĩĩ
åĮħæĭ¬ çĽ´æİ¥ç»ĻåĩºçŃĶæ¡Ī
å²© æµĨ
åħ³éĶ®æľ¯è¯Ń æĺ¯
åħ³éĶ®æľ¯è¯Ń åĮħæĭ¬
ä»ĭ è¯į
c ertain
i ved
ä¹ ı
å¸¸ è§Ħ
æīĢä»¥ ç¿»è¯ĳä¸º
Ġd uty
ver y
æłĩ è®°
Ġal location
è¿ĻéĩĮçļĦ åħ³éĶ®æĺ¯
Ġadv ancements
Ġins titutional
èĴ ¸
post modern
Ġpot entially
çĶ¨æĪ·æıĲåĩºçļĦ åĲĦé¡¹è¦ģæ±Ĥ
å¯ĨåĪĩ çĽ¸åħ³
åŃ¦ ç§ĳ
åľ¨ä¸Ńæĸĩ ç§ĳæĬĢæĸĩçĮ®
å½±åĵį çļĦ
èĮĥå¼ı è½¬åıĺ
Ġge opolitical
éĴ Ī
plant ation
è¿ħ éĢŁ
çĶ¨ åľ°
åı¯èĥ½ ä¸įéľĢè¦ģ
æĹł æĦı
çĶŁçī© å·¥ç¨ĭ
éĢļè¯» æķ´ä¸ªç¿»è¯ĳ
Ġutilitarian ism
ä¸į éģĹæ¼ıæĪĸæŃªæĽ²ä¿¡æģ¯
om ogen
è®¤ åı¯
è¿ŀ ç»Ń
Ġbi os
ten tion
é¡¹ çĽ®
è¿½ æ±Ĥ
9 0
i tions
âĢľ ...
æľ¬ åľ°
æĸ° è¾¾å°Ķæĸĩ
rec tion
ä½¿åħ¶ ç¬¦åĲĪä¸ŃæĸĩçļĦè¡¨è¾¾ä¹łæĥ¯
strateg ic
Ġacceler ate
è¡¨éĿ¢ å¯¼çĶµ
å®ŀåľ¨ è®º
ä¸ŃçļĦ å¸¸çĶ¨æľ¯è¯Ń
éĥ¨åĪĨ æĺ¯
ä¸įèĥ½ åĩºéĶĻ
Ġtheore tically
ä¹ĭç±» çļĦ
d ist
at mospheric
li de
Ġn ecessitate
èĭ±æĸĩ çļĦ
å¸¦æĿ¥ äºĨ
prec ise
Ġconcep t
ç³»å¤ĸè¡ĮæĺŁ å¤§æ°Ķ
engineer ed
bios is
ush work
s ol
¶ åµĮ
Ġ ill
it hi
çļĦç¿»è¯ĳ ç»ĵæŀľ
è¿Ļä¸ª ç»ĵæŀĦ
ä¾Ľ ç»Ļ
ç¤¾ä¼ļ ç»ĵæŀĦ
Ġinter est
ç§ĳåŃ¦ éĿ©åĳ½
éķ ¶åµĮ
åĲİåįĬåı¥ æĺ¯
æľ¯è¯ŃçļĦæŃ£ç¡® ä½¿çĶ¨
çī¹å®ļ çļĦ
æĪĳéľĢè¦ģç¡®è®¤ æ¯ıä¸ªæľ¯è¯ŃçļĦåĩĨç¡®ç¿»è¯ĳ
iel ds
U tilitarian
r in
è®¤ åĲĮ
ce ed
ä¿¡ å¿µ
Ġg o
åı¯èĥ½æĽ´ ç¬¦åĲĪä¸Ńæĸĩè¡¨è¾¾ä¹łæĥ¯
ut e
åİŁåı¥æĺ¯ éĹ®åı¥
æīĢä»¥çĶ¨ è¯į
æİ¥ä¸ĭæĿ¥è¦ģèĢĥèĻĳ çļĦæĺ¯
Ġsc en
Ġexpression ism
es sion
Ġpro gramm
æĻ® éĢļ
å¹² æī°
æ°´ ç³»
åľ¨ä¸ŃæĸĩéĩĮ å·²ç»ı
è¿Ļéĥ¨åĪĨ æ¯Ķè¾ĥçĽ´æİ¥
å®Įæķ´ ä¼łè¾¾
åŁºäºİ CRISPR
å°Ĩå¦Ĥä½ķ è°ĥæķ´
Ġbatter y
å½¢å®¹ è¯į
arwin ian
it or
åıĤä¸İ åº¦
Ġgre ater
S p
æĢ§ çĸ¾çĹħ
éģ ĩ
Ġb al
si l
æŃ§ è§Ĩ
è¿ĻéĩĮåı¯èĥ½ æĮĩçļĦæĺ¯
Ġter restrial
åıĻè¿° èĢħ
resist ant
d omin
çļĦ æ¯Ķè¾ĥ
æīĢä»¥ åĲĪèµ·æĿ¥
Ġin cen
Ġe qu
ag ing
ç®Ĺæ³ķ æİ¨èįĲ
Ġcre ation
Ġcapital ism
çĽĨ åľ°
Ġrhy th
Contra sting
t ext
ol igopol
Ġch emical
çľĭ ä¸Ģä¸ĭåİŁåı¥
psych ological
Ġtraject ories
s ediment
ä¸ŃçļĦ å¸¸è§ģæľ¯è¯Ń
Ġpro vide
Ġex isting
éĩıåŃĲ å¯ĨçłģåŃ¦
con sequ
æķ°åŃĹ åĮĸ
Ġper man
åĨįèĢĥèĻĳ åı¥åŃĲçļĦæµģçķħæĢ§
è¿Ļæł·æĹ¢åĩĨç¡®åıĪ èĩªçĦ¶
åĲ¸ æĶ¶
Ġdilem mas
Ġ echo
et y
th at
è½¬ åĮĸä¸º
ex pon
éĤ ¦
æĽ´ç¬¦åĲĪ ä¹¦éĿ¢
æĪĳéľĢè¦ģå¤ĦçĲĨ çĶ¨æĪ·æıĲä¾ĽçļĦ
ä¸įä¼ļæľī çĲĨè§£
Ġhe alth
éĢĲ åŃĹ
åĪĨåŃĲ çº³ç±³æĬĢæľ¯
ä¸»å¯¼ åľ°ä½į
ecessit ates
ç¡®ä¿Ŀæ²¡æľīéģĹæ¼ıæĪĸ éĶĻè¯¯
Ġsh ar
çĦ¶åĲİçľĭ åĲİåįĬåı¥
Ġscen ari
Ģæ´ »
çĽ¸åħ³ æĸĩçĮ®
éģ¿åħį åĨĹéķ¿
Ġtechni que
å°ıè¯´ ä¸ŃçļĦ
Ġep och
pr in
åį¡ å°Ķ
umb ian
åľ° å±Ĥ
åĩł çĤ¹
Ġor ig
æ¿ Ģæ´»
if y
åĲİæ®ĸæ°ĳ åıĻäºĭ
ç¬¦åĲĪåŃ¦æľ¯ åĨĻä½ľ
é¢ľ èī²
ç¬¦åĲĪ åİŁæĦı
ä¸į è¶³
ä½Ĩ åİŁåı¥çļĦç»ĵæŀĦæĺ¯
å¼Ĥ å¸¸
Ġreal ities
Ġ è¦ģæ±Ĥç¿»è¯ĳæĪĲä¸Ńæĸĩ
Ġc aus
Ġm irror
ci ally
éļĲ åĸ»
è§Ħæ¨¡ åĮĸ
çĽ®çļĦ è®º
æĪĺçķ¥ åĨ³çŃĸ
åĲ¯èĴĻ è¿ĲåĬ¨
æłĳ æŀĿ
Ġelectric ity
O pt
çļĦ åŁºç¡Ģ
ä¿¡ åı·
con scious
ot e
éª ¨
Ġexperi ences
åĽ½éĻħ åħ³ç³»
Ġpri m
çĶ¨æĪ·å¸ĮæľĽ å°Ĩ
Ġdispar ities
Opt ogenetic
Ġs hould
ra forming
éĩı åĮĸ
ä¸İ A
ä¸ŃæĸĩéĩĮ éĢļå¸¸ä¼ļæĬĬ
æľīæ²¡æľī çĶŁç¡¬çļĦåľ°æĸ¹
åľŁ å£¤
Ġmedi um
ne uromorphic
èĩªåĬ¨ é©¾é©¶
å°¼ éĩĩ
Ġparticip ation
è¿Ļ çĤ¹
åº Ł
å¼ §
æīĢä»¥ è°ĥæķ´è¯Ńåºı
æīĢä»¥ åīįåįĬåı¥
ä¸Ĭä¸ĭæĸĩ ä¸Ń
æĺ¯æłĩåĩĨ è¯ĳåĲį
éľĢè¦ģä¿ĿæĮģ çĸĳéĹ®çļĦè¯Ńæ°Ķ
èĥ½åĬĽ çļĦ
è§£åĨ³ æĸ¹æ¡Ī
åĨįæ£ĢæŁ¥ä¸Ģä¸ĭ æľ¯è¯Ńæĺ¯åĲ¦æŃ£ç¡®
é¦ĸåħĪçľĭ åİŁæĸĩ
æĹ¨ åľ¨
æĢ§ èĥ½
æľ¯è¯Ń å¢ĥ
Ġd at
le y
æ³¨æĦı åĬĽ
åı¯èĥ½éľĢè¦ģ æ³¨æĦı
od es
åĬĽ éĩı
åĨįæ£ĢæŁ¥ æľ¯è¯Ńæĺ¯åĲ¦æŃ£ç¡®
åľ°è´¨ åŃ¦æľ¯è¯Ń
Ġat t
éĢłæĪĲ çļĦ
ord ers
uc lide
æ°ĳ æĹı
Ġan thropogenic
è¿Ļä¸ªç¿»è¯ĳ ä»»åĬ¡
é©¬ åħĭ
Ġphot onic
è¯¦ç»Ĩ çļĦç¿»è¯ĳè¦ģæ±Ĥ
propor tion
æĿ¥ ç¿»è¯ĳ
è°ĥæķ´ åĲİ
di rect
æĥħ ç»ª
éļĲ åĲ«
Ġsym bolic
correl ates
inten si
ithi um
æĺ¯ åħ³äºİ
es es
åĪĨ éļĶ
çĶŁ æ´»
æ¯Ķè¾ĥ ä¸ĵä¸ļ
ter s
ä¸Ķ ç¬¦åĲĪä¸Ńæĸĩè¡¨è¾¾ä¹łæĥ¯
am less
ç¤¾ä¼ļ ä¸Ń
å¹¶ä¸Ķ ç¬¦åĲĪä¸ŃæĸĩçļĦè¡¨è¾¾ä¹łæĥ¯
ä¸įè¿ĩ åİŁåı¥
ĠA rctic
æ¼Ķ åĮĸ
æ²¡æľīå¤ļä½Ļ çļĦè§£éĩĬ
Ġcontra sting
æĸ¹ ç¨ĭ
åľ° æĤ²åī§
Ġg ri
ç¤¾ä¼ļ ç§ĳåŃ¦
econ struct
åĽŀ è·¯
Ġdec re
Ġacceler ation
æķ´ä¸ªåı¥åŃĲçļĦ éĢ»è¾ĳ
ç»ıéªĮ éªĮè¯ģ
Ġenh ance
vis ed
åĪĨæŀĲåİŁåı¥çļĦç»ĵæŀĦåĴĮ åĨħå®¹
uclide an
b rain
t uring
ti s
on hood
æ± ¡
åĩº çīĪ
éĢļè¿ĩ æŁĲç§į
åı¥åŃĲç»ĵæŀĦ è¦ģ
åĳ ¢
æ±ĩ èģļ
è¿Ļä¸ªç¿»è¯ĳ çĶ¨äºİ
åĮħ è±ª
Ġcol onization
ene w
Ġhistor i
Ex istentialist
Ġextr aterrestrial
èįĴ è¯ŀ
Ġdistinc t
åĮħè±ª æĸ¯
å¾ ħ
Ġw arming
ph al
Ġl ed
âĢ¦âĢ¦ ï¼ŁâĢĿ
åĽ¾ æ¡Ī
åħ³éĶ®è¯į æľī
plic ation
w ater
ç¡®ä¿Ŀ åľ¨
æ³ķ å®ļ
ä½Ĩ åīįèĢħ
å¸¸çĶ¨ ç¿»è¯ĳ
Ġex change
Ġtra ged
æĪĳéľĢè¦ģåĩĨç¡®çĲĨè§£ æ¯ıä¸ªæľ¯è¯ŃçļĦåĲ«ä¹ī
Ġpr actical
æī¾ ä¸Ģä¸ªåĲĪéĢĤçļĦ
ill ance
Ġis land
Ġprop agation
æĪĲ çĨŁ
ä¸ĵä¸ļæľ¯è¯ŃçļĦ ä¸Ģèĩ´æĢ§
è½¬ åŀĭ
å¹¶ä¸Ķ ç¬¦åĲĪä¸Ńæĸĩè¡¨è¾¾ä¹łæĥ¯
å½¢æĪĲ å¯¹æ¯Ķ
éľĢæ±Ĥ ä¾§
åĨľä¸ļ éĿ©åĳ½
æĭī ä¸ģ
æĿİåĺīåĽ¾ çŃīä»·
æĪĲ ç«ĭ
æĬ ĳ
Ġan om
æĹ¢åĩĨç¡®åıĪ æĺĵäºİçĲĨè§£
åĨľä¸ļ çĶ¨åľ°
Ġacc es
anc ement
ep istemological
æļ´ éľ²
Ġinstall ations
liber ate
æľīæīĢ ä¸įåĲĮ
å³ ¡
Ġfu el
a im
s yn
çļĦ å¢ŀåĬł
èĢĮä¸įæĺ¯ ç®ĢåįķçļĦ
åĽłä¸º æĮĩçļĦæĺ¯
æķ´ä½ĵ æĿ¥çľĭ
æĪĳéľĢè¦ģç¡®ä¿Ŀ ç¿»è¯ĳåĩĨç¡®
ç¼ĸ ç»ĩ
ä¾Ŀ æĽ¼
Ġman if
Ġer ror
ç¼º ä¹ı
éĺ¶ çº§
Ġstandard ized
Ġide ological
Ġauthor ial
è¯º ä¾ĿæĽ¼
ĠæĪĳçļĦä»»åĬ¡æĺ¯å°Ĩè¿Ļåı¥è¯Ŀ åĩĨç¡®åľ°ç¿»è¯ĳæĪĲä¸Ńæĸĩ
æĺ¯åĲ¦æľīéģĹæ¼ı çļĦä¿¡æģ¯
éĶĤç¦»åŃĲ çĶµæ±ł
ä¸İ ç»ıåħ¸
ven tional
åŁİå¸Ĥ çĥŃå²ĽæķĪåºĶ
ä¸Ńæĸĩç§ĳæĬĢæĸĩçĮ® éĢļå¸¸ä½¿çĶ¨è¾ĥä¸ºæŃ£å¼ı
Ġprioritiz ed
åĤ¨ èĵĦ
âĢ Ķ
æĽ´ èĥ½
æĺ¯åĲ¦ èĥ½
Ġth ree
Ġb lockchain
å¤Ħ äºİ
å¸¸çĶ¨ çļĦ
è¿Ļæĺ¯ ç»ıæµİåŃ¦ä¸ŃçļĦ
çĶŁç¡¬ çĽ´è¯ĳ
Ġint act
è¿Ļéĥ¨åĪĨ æ²¡éĹ®é¢ĺ
æĶ¶ éĽĨ
Ġvir tue
Ġbelie f
f ies
çļĦ åŃĺåľ¨
åı¯èĥ½ æĺ¯åľ¨
çĶŁ åŃĺ
èĢĥ åı¤
è¿Ļä¸ª é¢ĨåŁŁ
ver ages
ke y
her ent
èĤ ĸ
æīĵ çł´
Ġfunc tional
app ing
æ°ĳä¸» åĮĸ
ä¼ª éĢł
alle l
fre quently
c limate
l abor
Ġ 1
æĺ¯ å¤įæķ°
è¦ģ ç´ł
æī ®
Ġp ig
Ġp ric
Ġm acroscopic
åĩĨç¡®ä¼łè¾¾äºĨ åİŁæĸĩçļĦæĦıæĢĿ
Ġdi rect
ä¸Ńæĸĩåı¥åŃĲ éľĢè¦ģ
æŁ¥ éĺħ
enom enological
å®ŀè¯ģ ä¸»ä¹ī
ç»Ŀå¯¹ åĳ½ä»¤
Ġclo aking
å»ºæŀĦ ä¸»ä¹ī
g overn
çļĦ èĥĮæĻ¯
çļĦ åĮºåĪ«
ä¼ ĳ
èµ ĭ
ä»£ è°¢
åħ» èĢģ
Ġwe ather
Ġchan nel
onom y
Ġgra vitational
Ġconcentr ations
æ³ķå®ļ è´§å¸ģ
éĢļ éģĵ
ra d
æľ¬ åľŁ
æĽ´èĩªçĦ¶ çļĦè¯´æ³ķ
çĥŃéĩı åĪĨå¸ĥ
æĽ´ å¹¿æ³Ľ
ä¸į éĢļé¡º
ä¸į ç¨³å®ļ
æĹ¢ åĩĨç¡®ä¼łè¾¾äºĨåİŁæĦı
éľĢè¦ģè°ĥæķ´ ç»ĵæŀĦ
å¤© çĦ¶
çĽ¸äºĴ ä¾Ŀèµĸ
if ied
Ġno tions
Ġpain ts
Ġdiss onance
åıłåĬł æĢģ
fy ing
æĺ¾å¾Ĺ çĶŁç¡¬
å ©
æĦı å¿Ĺ
éĩĮ å£«
æĿ¥ ä¿ĿæĮģ
Ġth resholds
ex acerb
å®¶ åºŃ
ä¾§ éĩįçĤ¹
Ġall uvial
ä¸įæ·»åĬł ä»»ä½ķ
éĿ¶ åĲĳ
éĴĪ å¯¹
S uper
g raphic
æĿ ĳ
æĪĲ æ¯Ķä¾ĭ
åħĪ äºİ
om an
æģ Ĳ
è¿Ļåı¥è¯Ŀ å±ŀäºİ
å¤ļ å¾·
Ġde grad
èĤ ¯
æ·· æĿĤ
ä½İ æ¸©
ä¸ŃæĸĩéĢļå¸¸ä¼ļæĬĬ æĸ¹å¼ıçĬ¶è¯ŃæĶ¾åľ¨åīįéĿ¢
æ³¢åĬ¨ æĢ§
ä¸įèĥ½æľī åħ¶ä»ĸåĨħå®¹
Y ou
m eth
en ot
æīĢä»¥ åı¯èĥ½éľĢè¦ģè°ĥæķ´ç»ĵæŀĦ
æĪĳéľĢè¦ģ å°Ĩè¿Ļåı¥è¯Ŀç¿»è¯ĳæĪĲä¸Ńæĸĩ
Ġw ater
åĲį åŃĹ
äºļ éĩĮå£«
ä¹ĭéĹ´çļĦ åħ³ç³»
è´¸æĺĵ è·¯çº¿
åĲ¦ åĪĻ
Ġincre ase
Ġè¿Ļæł· ç¿»è¯ĳ
Ġclo ud
æ±¡ æŁĵ
äºļéĩĮå£« å¤ļå¾·
åĴĮ çĶ¨è¯į
éĹ® åı·
ul ated
åĩĨç¡®ä¼łè¾¾ åİŁæĸĩçļĦ
Ġim m
Ġsup port
æīĢä»¥æķ´ä¸ª éĥ¨åĪĨ
Ġther mod
çĲĨæĢ§éĢīæĭ© çĲĨè®º
æķħ äºĭ
çļĦæĺ¯ä¸Ģä¸ª èĭ±æĸĩåı¥åŃĲ
an al
ç¡®ä¿Ŀ å®Įåħ¨
Ġf ollow
Ġa ir
Ġsol utions
met ry
ribut ed
çĦ¦ èĻĳ
Ġtreat ment
æįķé£Ł èĢħ
M oral
f ied
it u
åľ° éĿ¢
éĢļè¿ĩ ç®Ĺæ³ķ
è¦ģæ³¨æĦı æĸĩåĮĸéĢĤåºĶæĢ§
æĹł ç¼Ŀ
æŀĦ åĽ¾
äºĭ å®ŀ
çĬ¶ çģ«å±±
å¾· å°Ķ
Ġpl asticity
è¿Ļæł·æĽ´ éĢļé¡º
åħ¬ åľ°æĤ²åī§
Ġemphasiz ing
sur pass
åı¯èĥ½æĽ´éĢĤåĲĪ çĶ¨
åĲĮè´¨ åĮĸ
è´¦ æľ¬
o ti
Ġf ace
éĩıåŃĲ çĶŁçī©åŃ¦
æľ¯è¯ŃçļĦæŃ£ç¡® ç¿»è¯ĳ
çĦ¶åĲİè¦ģèĢĥèĻĳ åı¥åŃĲçļĦç»ĵæŀĦ
Ġgener ation
æ¤į çī©
ä¸įéĢļé¡º çļĦåľ°æĸ¹
Ġ es
åĲĪ çī©
è® ½
Ġc los
è¿Ļæĺ¯ æłĩåĩĨè¯ĳæ³ķ
æĺ¯åĲ¦æľī æĽ´å¸¸çĶ¨
è¿ĺè¦ģæ£ĢæŁ¥ ä¸ĵä¸ļæľ¯è¯Ńæĺ¯åĲ¦æŃ£ç¡®
Ġlangu ages
crypt ographic
æıĲåĩºäºĨ æĮĳæĪĺ
h as
k now
åľ¨ çĶŁçī©åŃ¦
åľ¨ æĸĩåŃ¦çĲĨè®º
æĽ´ åĬł
Ġc ybersecurity
éĢļ èĥĢ
è¿ĻéĩĮ ä½¿çĶ¨
Ġm agn
çļĦç¿»è¯ĳ æĺ¯
éĥ½ åĩĨç¡®ä¼łè¾¾
åı¯èĥ½æĽ´ ç¬¦åĲĪä¸Ńæĸĩä¹łæĥ¯
æľĢç»ĪçļĦç¿»è¯ĳ åºĶè¯¥
æĽ² çº¿
è´§å¸ģ ä¾ĽåºĶ
Ġover come
our se
æķĻèĤ² ä¸įå¹³çŃī
æĹħ è¡Į
æī® æ¼Ķ
d ark
åŃ Ł
er a
in form
Ġt ectonic
è¿Ļåı¥è¯Ŀ éĹ®çļĦæĺ¯
od e
æľ¯è¯ŃçļĦ ä½¿çĶ¨
Ġst abiliz
Ġbi odiversity
åħ·è±¡ èīºæľ¯
æĪĳè¦ģ çĲĨè§£åİŁåı¥çļĦæĦıæĢĿ
empor ally
atic ally
Ġorgan ic
æĿ¥å¼ķå¯¼ éĹ®é¢ĺ
throp ocene
demon strates
ä¸»è§Ĥ ä½ĵéªĮ
äºĮåħĥ è®º
w o
an thropogenic
çŁŃ æļĤ
è¦Ĩ çĽĸ
å®ŀéªĮ å®¤
åŃ¦çĶŁæĪĸ çłĶç©¶äººåĳĺ
Ġproper ty
T h
äº ¡
ä¿Ŀ çľŁ
è¿ĻéĩĮ çļĦæĦıæĢĿæĺ¯
æīĢä»¥ éľĢè¦ģä¿ĿæĮģ
åı¯ä»¥ æİ¥åıĹ
åĩĨç¡®æĢ§ æĺ¯åħ³éĶ®
Ġtra um
ç¡®ä¿Ŀæ²¡æľīéģĹæ¼ı åħ³éĶ®ä¿¡æģ¯
Ġliter acy
æķ´ä¸ªåı¥åŃĲç»ĵæŀĦ éľĢè¦ģè°ĥæķ´
èĻ½çĦ¶ ä¸¤èĢħ
Ġpercep tual
Ġrespon ses
æ²¡æľīçī¹åĪ« ä¸ĵä¸ļçļĦæľ¯è¯Ń
Ġast eroid
Bi o
Per mafrost
f acilit
åĲİ å·¥ä¸ļ
æ² ĥ
æĹ¶ çļĦ
ol inguistic
ra id
åı¯ä»¥ æĺ¯
ly ing
æ¸ ¡
å¿ħé¡» æŃ£ç¡®
æĹ¶éĹ´ çº¿
ä¸¥ éĩį
è´Ł åĪ©çİĩ
åıĪç¬¦åĲĪä¸ŃæĸĩçļĦè¡¨è¾¾ä¹łæĥ¯åĴĮ æĸĩåĮĸèĥĮæĻ¯
åıĪç¬¦åĲĪä¸Ńæĸĩè¡¨è¾¾ä¹łæĥ¯ åĴĮ
æ¸©çĽĲçİ¯æµģ æ¨¡å¼ı
Ġemerg ed
Ġstim ulus
amet ers
Ġshar ply
Ġ los
çļĦ çī¹çĤ¹
æ£ĢæŁ¥ åı¥åŃĲçļĦç»ĵæŀĦ
ri tic
åĨį è®²
è¢« åĩĨç¡®ç¿»è¯ĳ
éĢļå¸¸ä¼ļ è¯´
æĪĳéľĢè¦ģåĩĨç¡®çĲĨè§£ æ¯ıä¸ªè¯įçļĦæĦıæĢĿ
Ġun certain
end ritic
æĺ¯åĲ¦ç¬¦åĲĪ è¦ģæ±Ĥ
ivers ally
ĠC O
fra me
sp ace
åħ³éĶ®æľ¯è¯Ń æľī
ish ing
éľĢè¦ģæ£ĢæŁ¥ æľ¯è¯Ńæĺ¯åĲ¦æŃ£ç¡®
è¿Ļä¸¤ä¸ª æľ¯è¯Ń
Ġdemand s
æĽ´ åĢ¾åĲĳäºİ
Ġo il
ad ian
åıª æĺ¯
ä¸įéľĢè¦ģ è§£éĩĬæĪĸ
æŃ£å¼ı ä¸ĢäºĽ
duc ing
å¹³ åĩ¡
æĪĳè¦ģç¡®ä¿Ŀ ç¿»è¯ĳ
è¯Ńè¨Ģ ç»ĵæŀĦ
cre ate
Ġreg arding
erm ine
éĢı éķľ
ĠEx pressionism
pol itical
Ġnucle ar
æłĳæŀĿ çĬ¶
r ather
æľ¯è¯Ń æĺ¯åĲ¦åĩĨç¡®
åŃ¦ é¢ĨåŁŁ
ä¹ł å¾Ĺ
Ġin flation
Ġw orld
æĬĬ å®ĥ
comp ared
çģ«å±± æ´»åĬ¨
åĬłå¯Ĩè´§å¸ģ çļĦ
Ġrevolution ized
Ġmov ement
spec ific
äºĮæ°§åĮĸç¢³ æµĵåº¦
åħ¼ é¡¾
ä¼Ĭæĸ¯ åħ°
å³¡ æ¹¾
E uclidean
è¦ģ æĺİç¡®
ç» ħ
éľĢè¦ģ ç¿»è¯ĳ
Ġc ry
ç¬¦åĲĪ æīĢæľīè¦ģæ±Ĥ
æµģçķħ åº¦
ve y
æ²¡æľīéģĹæ¼ı åħ³éĶ®ä¿¡æģ¯
ut ri
åĽłä¸º è¿Ļæĺ¯
Ġres hape
åĽ¾ åĥı
åĬ¨æĢģ éĽķå¡ĳ
Ġco h
Ġcri tical
ç±»ä¼¼ çļĦ
åĪ» æĦı
éľĢè¦ģåĩĨç¡®çļĦ åŃ¦æľ¯ç¿»è¯ĳ
çļĦ çłĶç©¶
Ġc ross
åĴĮ èĭ±æĸĩä¸įåĲĮ
æµģ ç¨ĭ
å¯¹ çħ§
Ġth ere
çī¹ æĮĩ
çĶ¨æĪ·çļĦ æĮĩç¤º
æ¨¡å¼ı æĪĸ
çĬ ¯
åĵ²åŃ¦ åĴĮ
èį ¡
æľª èĥ½
Ġphilosoph ical
ç¬¦åĲĪä¸Ńæĸĩè¯»èĢħçļĦ éĺħè¯»ä¹łæĥ¯
éľĢè¦ģåĩĨç¡®çļĦæľ¯è¯Ń åĴĮ
ĠEx change
èį¯ çī©
Ġ J
Ġp rior
ing ual
æ¼ «
è¿Ļä¸ª æ¦Ĥå¿µ
å¾Ī åĲĪéĢĤ
Ġon t
åĵģ æł¼
è¿ĻéĩĮéĢīæĭ© åīįèĢħ
Ġdes igns
for ce
æĪĲä¸º ä¸»æµģ
æĹłéľĢ æĶ¹åĬ¨
æīĢä»¥çĽ´æİ¥ ç¿»è¯ĳä¸º
çģŃ ç»Ŀ
Ġpop ulation
ä¸İA ä¸įåĲĮ
i e
ï¼Į ...
Ġs er
è¯Ŀ è¯Ń
ä¿¡ ä»»
æľŁ æľĽ
con n
Ġdis illusionment
åħį çĸ«
çķĮ éĿ¢
qui res
ĠB ronze
åĮºåĿĹéĵ¾ æĬĢæľ¯
Ġvol atility
åĸ· åıĳ
å²©çŁ³ åľĪ
è¦ģ çĽ´æİ¥ç»ĻåĩºçŃĶæ¡Ī
ä¹ °
æĽ´ éĩįè¦ģ
è¿Ļæł· åºĶè¯¥
è§ģ è§£
åı¯èĥ½æĽ´ å¼ºè°ĥ
è¿ĻäºĽ éĥ½æĺ¯
åĩł éĩĮ
æŀģ éĻĲ
Ġmo bility
æĭĨ åĪĨ
Ġemphas ized
Ġstrong ly
truc turing
a use
è¯ ¾
åŃ ¤
Ġd iminish
åı¯èĥ½éľĢè¦ģ ä¿ĿçķĻ
åŃ¦æľ¯ è®ºæĸĩæĪĸ
åŃ¦æľ¯ çłĶç©¶èĢħ
çł į
vol ving
é«ĺ åº¦
ens us
çģ« æĺŁ
ç¬¬ ä¸Ģç§į
è¡¨è§ĤéģĹä¼ł ä¿®é¥°
post colonial
å½»åºķæĶ¹åıĺ äºĨ
æ·±åº¦ ä¼ªéĢł
Ġdra matic
åĩłéĩĮ å¾Ĺ
or ation
or tical
æł ¡
çĦ¶ èĢĮ
è¿ĻéĩĮ éľĢè¦ģç¡®è®¤
åı¯èĥ½éľĢè¦ģ ä¿ĿæĮģ
ä¸įèĥ½ åĽŀçŃĶéĹ®é¢ĺ
Ġne ur
åĨįæ£ĢæŁ¥ ä¸ĵä¸ļæľ¯è¯Ńæĺ¯åĲ¦æŃ£ç¡®
åĲĮæĹ¶ä¿ĿæĮģ åİŁåı¥çļĦ
è¿Ļæł·æĽ´ ç¬¦åĲĪä¸ŃæĸĩçļĦè¯Ńåºı
æİ¥ä¸ĭæĿ¥è¦ģèĢĥèĻĳ åı¥åŃĲçļĦç»ĵæŀĦ
æŀĦéĢł æĿ¿åĿĹ
éĢĨ è½¬
æī° ä¹±
çı Ń
èĹ ı
D arwinian
E n
æĺ¯åĲ¦ åºĶè¯¥è¯ĳä¸º
ra ting
ä½Ĩ ä¸ºäºĨ
le vel
å¦Ĥä½ķ åı¯èĥ½
Ġr ise
Ġint en
è¿Ĳ è¾ĵ
æĽ´ç¬¦åĲĪ ä¹łæĥ¯
æİ¨ æµĭ
è¿ĻéĩĮåı¯èĥ½ æĮĩ
åł ¡
åĽ° éļ¾
éĿĻ æĢģ
å±ĢéĻĲ æĢ§
åŁºäºİCRISPR çļĦ
æĭīä¸ģ ç¾İæ´²
éľĢè¦ģ çĶ¨
çİ »
æĸĩåĮĸ ä¸ĬçļĦ
res pon
ä»£ æĽ¿
ut es
oc ortical
å®Į åĸĦ
çĶ» å®¶
é£İ åĮĸ
Ġparad igm
åħ¬ è®¤
å·¥ç¨ĭ é¢ĨåŁŁ
éĢ»è¾ĳåħ³ç³» æ¸ħæĻ°
äºī è®º
åĲĦ éĥ¨åĪĨ
å¥ĩ å¹»
åģ¥ åº·
æŃ£ åıįé¦Īå¾ªçİ¯
è¿Ļæł· çĶ¨æĪ·çļĦéľĢæ±Ĥ
ä½ľ çī©
æĬĢæľ¯ åıĳå±ķ
omp osition
è¿ĻäºĽ æŃ¥éª¤
è¿Ĳ ä½ľ
æ³¢ éķ¿
Ġglobal ization
çĪ ¶
A s
c celer
v as
æĢ§ è´¨
ç¬¦åĲĪ ç§ĳæĬĢæĸĩçĮ®
æ¯Ķè¾ĥ çļĦå¯¹è±¡
çĽ´æİ¥ è¯ĳä¸º
çĽ´æİ¥ è¯´
ver sion
æ°Ķ è±¡
çİ°åľ¨ ç»ĦåĲĪèµ·æĿ¥
æķ´ä¸ªåı¥åŃĲ éľĢè¦ģ
ç®Ĺæ³ķ åģıè§ģ
Ġalter ing
æķ´ä½ĵåı¥åŃĲ æĺ¯åĲ¦éĢļé¡º
ç¡®ä¿Ŀæ²¡æľīéģĹæ¼ıæĪĸ è¯¯è¯ĳ
Ġcost s
åħ»èĢģ éĩĳ
i ous
s ch
åŃ¦ åĴĮ
æŃ£ç¡® ç¿»è¯ĳä¸º
æĮģ ä¹ħ
è®¤ è¯ģ
Ġan timatter
ç»¼åĲĪ è¿ĻäºĽ
æ» ŀ
æ³ķå¾ĭ æ¡Ĩæŀ¶
è¿ĽåĮĸ çĶŁçī©åŃ¦
Ġfre e
åıįçī©è´¨ çº¦æĿŁ
oin til
äºĴæĸĩ æĢ§
Ġdefin itions
Ġindust ries
c up
o id
Ġf ail
ä½ĵ åĪ¶
åıª ç¿»è¯ĳ
con ventional
Ġinter stellar
éĩįè¦ģ æĢ§
bi ome
æ¯ıä¸ªæľ¯è¯ŃçļĦæŃ£ç¡® ä¸Ńæĸĩå¯¹åºĶè¯į
cri ti
Ad v
r is
è¯Ń ä¹ī
æ²¡æľī é¢Ŀå¤ĸåĨħå®¹
å¹ ķ
åºĶè¯¥ ä¿ĿçķĻ
çĽ´æİ¥ çĽ¸åħ³
åĵį åºĶ
åŀĭ åĮĸ
æĺ¯æłĩåĩĨ ç¿»è¯ĳ
åĨĻ è®ºæĸĩ
åħ± åĲĮ
Ġcor rection
Ġins ights
æĹ¶éĹ´çĬ¶è¯Ń æĶ¾åľ¨åīįéĿ¢
Ġsem iconductor
Ġoptim ization
Ģæ¨¡ åŀĭ
Ġradi ation
é¾ Ħ
ç¡®ä¿Ŀ ä¿¡æģ¯
ec ological
æ± ī
ç»Ł æ²»
ad vert
è¿ĺè¦ģæ³¨æĦı åı¥åŃĲçļĦç»ĵæŀĦ
Ġè¿ĻéĩĮ æľīåĩłä¸ª
Ġchallen ged
èĭ¥ èĥ½
ĠI mpressionist
çĽ´æİ¥ç¿»è¯ĳ åı¯èĥ½ä¼ļ
æĹ¶ä»£ çļĦ
ä»ĸä»¬çļĦ éľĢæ±Ĥ
å¤ªéĺ³èĥ½ åıĳçĶµ
Ġuni que
Ġfluctu ations
å¥³æĢ§ ä¸»ä¹ī
advert ently
d ynamics
Ġ â
è¦ģ è¡¨è¾¾çļĦæĺ¯
åĩĨç¡® è¡¨è¾¾
æĦı ä¸º
Ġa v
æĮĩçļĦæĺ¯ åľ¨
æĶ¹ ä¸º
éĢī çĶ¨
åİŁåı¥çļĦ ä¸»è¯Ńæĺ¯
ĠS ilk
Ġmin d
f ake
Ġth em
ul ative
Ġl ace
åı¯èĥ½æĽ´ ç¬¦åĲĪ
æķ´ä¸ªåı¥åŃĲ çļĦæĦıæĢĿ
å¤© åŁº
for est
åĲİç»ĵæŀĦä¸»ä¹ī æĸĩåŃ¦çĲĨè®º
æ¶Į çİ°
çłį ä¼Ĳ
o T
æĸĩ åŃĹ
åı¯ ç¼ĸç¨ĭ
åŃ¦ çļĦ
æ£ĢæŁ¥ æĸĩåĮĸéĢĤåºĶæĢ§
ç³ ħ
è¦ģèĢĥèĻĳ æĸĩåĮĸéĢĤåºĶæĢ§
çĶµ è·¯
éª ¼
ç½ĳç»ľ ç¤¾ä¼ļ
æľĢåĲİç¡®è®¤ æľ¯è¯Ńæĺ¯åĲ¦æŃ£ç¡®
æ¬§æ´² çļĦ
ç¡®ä¿Ŀæľ¯è¯Ń ç¬¦åĲĪä¸Ńæĸĩ
Ġacid ification
éª¨ éª¼
Ġdegrad ation
çļĦ ä¼¦çĲĨ
æ¯ Ĵ
Ġf aster
ad dress
ant le
è¿Ĳ è¡Į
äººç±» ä¸»ä¹ī
æľĢç»ĪçļĦç¿»è¯ĳ ç»ĵæŀľ
çĿ ¡
Ġwe alth
æĪĳéľĢè¦ģç¡®ä¿ĿåĩĨç¡®çĲĨè§£ æ¯ıä¸ªæľ¯è¯ŃçļĦæĦıæĢĿ
çļĦè§£éĩĬæĪĸ è¯´æĺİ
æĪĳéľĢè¦ģèĢĥèĻĳ ç¿»è¯ĳçļĦåĩĨç¡®æĢ§
Ġresist ance
p an
æĿ ¾
æ³ ¡
Ġinter dependence
æķ°æį® å¤ĦçĲĨ
oth ic
ä½Ĩä¹Ł è¦ģä¿ĿæĮģ
Ġrela tivistic
æĹłæĦı ä¸Ń
c are
æĺ¯ åĽºå®ļ
è¿ĻéĩĮ åºĶè¯¥æĺ¯æĮĩ
Ġm imic
ä¹Ł åĩĨç¡®
åİŁåı¥æĺ¯ èĻļæĭŁè¯Ńæ°Ķ
å±Ĥ çº§
å®Į å¥½
Ġan ti
è¯Ńæ³ķ ä¹łæĥ¯
æĽ´ç¬¦åĲĪ åŃ¦æľ¯çĶ¨è¯Ń
çī©çĲĨåŃ¦ ä¸ŃçļĦ
Ġrepresent ations
ĠæĪĸèĢħæĽ´ç®Ģæ´ģ ä¸ĢçĤ¹
åŃŁ å¾·å°Ķ
E nlightenment
çī© é¦Ĩ
æĹ¢ å¿łå®ŀåİŁæĦı
è½ ¯
con duc
Ġform al
è¯Ńåı¥ æµģçķħèĩªçĦ¶
åįļ çī©é¦Ĩ
çŁĽçĽ¾ çļĦ
è¿ĺè¦ģ æ£ĢæŁ¥æĺ¯åĲ¦æľīéģĹæ¼ıçļĦä¿¡æģ¯
reli able
Ġinvest ment
åĨįçĶŁ èĥ½æºĲ
Ġ icon
æĪĲ åĥı
é¦ĸåħĪ ç¡®å®ļ
æĸ¹ åĲĳ
æĺ¯åĲ¦æľī æĽ´å¥½çļĦ
ä¸ŃæĸĩéĩĮ éĢļå¸¸
ag ricultural
éĵ ģ
åİĨåı² åĴĮ
Ġtechn ical
çĦ¶åĲİæ£ĢæŁ¥ åı¥åŃĲçļĦæµģçķħæĢ§
åŃ¦æľ¯ç¿»è¯ĳ éĢļå¸¸
å®ĩå®ĻåŃ¦ æ¨¡åŀĭ
æĻ¶ä½ĵ ç®¡
Aut omation
Ġ O
Ġ ques
éľĢè¦ģ éĢīæĭ©
æľ¯è¯Ń å¿ħé¡»åĩĨç¡®
åİŁ ä½ı
éĥ½ æľī
å®Į ç¾İ
æīĢä»¥è¿Ļéĥ¨åĪĨ åı¯ä»¥è¯ĳä¸º
æľĢåĲİæ£ĢæŁ¥æķ´ä¸ªåı¥åŃĲ æĺ¯åĲ¦éĢļé¡º
è¾© è¯ģ
æłĩçĤ¹ ç¬¦åı·
åĪĨåŃĲç»Ħè£ħ æľº
çļĦ åħī
çĶ¨æĪ· æĺİç¡®
èĩª éĢĤåºĶ
æľĢåĲİ ç¡®å®ļ
åĲĮæĹ¶ è®©åı¥åŃĲ
ç¤¾ä¼ļ æĶ¿æ²»
éģĵå¾· å®ŀåľ¨è®º
èĳ Ľ
åĨ° æľŁ
Ġprec ed
Ġcons umer
åĲ¯ åıĳ
åĨ· åĨ»
Ġsociet y
cos m
shif t
Ġsurve illance
ç¬ Ľ
it ual
è®º è¯ģ
æ¶ ¨
ç§ĳæĬĢ é¢ĨåŁŁçļĦ
éľĢè¦ģåĩĨç¡® è¡¨è¾¾åĩº
ç¡®å®ŀ æľī
éĩįæĸ° è®¾è®¡
æĸĩæľ¬ çļĦ
ç¡®ä¿Ŀåı¥åŃĲ æµģçķħèĩªçĦ¶
æ»¡è¶³ çĶ¨æĪ·çļĦéľĢæ±Ĥ
ä¿ĿæĮģåİŁ æł·
è¢«åĬ¨ ç»ĵæŀĦ
Ġtheore tical
èįĴ æ¼ł
Ġbr ushwork
Ġmaxim ization
éľĢè¦ģåĩĨç¡®ä¸Ķä¸ĵä¸ļ çļĦç¿»è¯ĳ
æĬĬå®ĥ ç¿»è¯ĳæĪĲä¸Ńæĸĩ
m ulti
è¦ģ ä¿ĿçķĻ
in formation
æīĢä»¥ æľ¯è¯ŃçļĦåĩĨç¡®æĢ§
æīĢä»¥ ä¸Ńæĸĩç»ĵæŀĦ
Ġs ign
ig ger
å¿ħé¡» çĽ´æİ¥ç»ĻåĩºçŃĶæ¡Ī
ç½ĳç»ľ çĲĨè®º
ç¿»è¯ĳçļĦ è¯Ŀ
æĽ´è´´åĪĩ çļĦè¯įæ±ĩ
è¿Ļæĺ¯ä¸Ģä¸ª æĿ¡ä»¶åı¥
è®©åı¥åŃĲæĽ´ æµģçķħ
Ġpred ict
Ġcontra st
äº¤åıī æĢ§
éĩįåķĨä¸»ä¹ī æĶ¿çŃĸ
å¹¶ä¸Ķæľī åħ·ä½ĵçļĦç¿»è¯ĳè¦ģæ±Ĥ
Ġimpro ve
æīį èĥ½
Ġinfluenc ed
uxtapos es
æĸ°è¾¾å°Ķæĸĩ ä¸»ä¹ī
b ut
x i
çĲĨ æĥ³
æĪĳ è¦ģæ³¨æĦı
ro biological
æĺ¯åĲ¦ åºĶè¯¥çĶ¨
Ġs et
è°ĥæķ´ ä¸Ģä¸ĭ
åıĪ ç¬¦åĲĪä¸ŃæĸĩçļĦ
ç»ıæµİ è¡°éĢĢ
æķ´ä½ĵ ç¿»è¯ĳ
æĪĳè¦ģ ç¡®è®¤
è®¤çŁ¥ å¤±è°ĥ
ha kes
æĴ ŀ
éĩĳ å±ŀ
æĥħåĨµ ä¸ĭ
ä¸Ńæĸĩä¸Ń éĢļå¸¸çĶ¨
mic ro
ĠM editerranean
Ġtransform ations
ath ema
Ġsym biosis
pe are
hakes peare
athema tical
. âĢĿãĢĤ
Ġ qual
æĢ Ģ
Ġc entralized
Ġin iti
æľĢ åĲĪéĢĤçļĦ
æĶ »
åĪ° äºĨ
Ġof fer
Ġpro babilistic
éĩıåŃĲ èī²
Ġdis orders
æĪĳéľĢè¦ģåĩĨç¡®çĲĨè§£ åİŁæĸĩçļĦæĦıæĢĿ
åľŁ åľ°
çĦ¶åĲİæ£ĢæŁ¥ ä¸ĵä¸ļæľ¯è¯Ńæĺ¯åĲ¦æŃ£ç¡®
Ġanalys es
sp atial
åŃ¦æľ¯è®¨è®º æĪĸ
çĶ¨æĪ·ç»ĻåĩºçļĦ èĭ±æĸĩåı¥åŃĲ
Ġfl ow
Ġdisrup t
Ġpri vacy
acceler ates
neg ative
o v
äº Ī
Ġs a
åĪĨ åıĳ
éĥ½ å¸Ĥ
åŁº å²©
å°± ä¸ļ
å·²ç»ı æ¯Ķè¾ĥ
vid es
å¢ŀå¼º æĬĢæľ¯
ä¸´ çķĮ
Ġab stract
æ¶Īè´¹ èĢħ
è¯ķ åĽ¾
ä¹Łä¼ļ çĶ¨
éĩıåŃĲèī² åĬ¨åĬĽåŃ¦
çļĦ è§ĦèĮĥ
éĹ®é¢ĺ æĺ¯åľ¨éĹ®
th ermal
åĬ¨è¯į çŁŃè¯Ń
çĶ¨äºİ è®ºæĸĩ
è¿ĺè¦ģæ£ĢæŁ¥ æĸĩåĮĸéĢĤåºĶæĢ§
äº¤åıī é¢ĨåŁŁ
Phot onic
Ġnar r
Ġperf ect
Ġemission s
Ġsolid arity
è¯ĳ ä½ľ
åĲĪ ä½ľ
re ements
æµģ ä½ĵ
Ġex istential
çĸĳéĹ® éĥ¨åĪĨ
åıį å¯¹
è¯»èµ·æĿ¥ æĽ´èĩªçĦ¶
æĸ¯ å¤ļ
ä¸Ńæĸĩç§ĳæĬĢæĸĩçĮ® ä¸Ń
Ġconcep tions
the ore
é¦ĸåħĪçľĭ åİŁåı¥
Ġpubl ic
Ġsubst anti
t le
ar iti
Ġd el
æĺ¯åĲ¦ ä¼łè¾¾äºĨ
åħ³ ç¨İ
ä¹Ł æŃ£ç¡®
åİĨåı² åıĻäºĭ
åİŁåĽł æĶ¾åľ¨åīįéĿ¢
reat y
æĪĳå¾Ĺä»Ķç»Ĩ çľĭçľĭ
Ġdri ve
æĪĸèĢħæĽ´ç®Ģæ´ģ ä¸ĢçĤ¹
Ġqu bit
ĠNe wtonian
revolution ize
åģĩè®¾æĢ§çļĦ éĹ®é¢ĺ
hakespeare an
ariti me
ä½¿ èĥ½å¤Ł
å¾ Ļ
è¿Ļä¸ª åľ¨
åĽłæŃ¤ åĩĨç¡®æĢ§åĴĮä¸ĵä¸ļæĢ§
æĹ¶éĹ´ é¡ºåºı
Ġcom b
Ġframe work
ä¸»åı¥ åĬł
æķ°æį® éĽĨ
comp lex
Ġpre vent
æĪĳéľĢè¦ģå¤ĦçĲĨ çĶ¨æĪ·æıĲä¾ĽçļĦç¿»è¯ĳè¯·æ±Ĥ
è¿ģ å¾Ļ
Ġrhyth m
èĤ¯ å®ļ
æĸ¯å¤ļ èĳĽ
f il
m achine
w idespread
ĵ è¨Ģ
çļĦ ä¸ĵä¸ļæľ¯è¯Ń
çļĦ ç¢İçīĩåĮĸ
ro gen
æĺ¯åĲ¦ åĩĨç¡®ä¼łè¾¾åİŁæĦı
è¿ĩ æ¸¡
åī ©
å¸¸çĶ¨ çļĦæľ¯è¯Ń
ä»» æĦı
æľĢåĲİæ£ĢæŁ¥ æķ´ä¸ªåı¥åŃĲçļĦæµģçķħæĢ§
ç² ¹
æī© å¤§
åıĪç¬¦åĲĪä¸ŃæĸĩçļĦè¡¨è¾¾ä¹łæĥ¯åĴĮ ä¸ĵä¸ļæľ¯è¯Ńä½¿çĶ¨
can oes
çģ«å±± å¼§
Ġphotos ynthesis
èĽĭ çĻ½
vas ive
åĮĸ çŁ³
ro up
æ¯Ķè¾ĥ ç¬¦åĲĪä¸Ńæĸĩè¡¨è¾¾ä¹łæĥ¯
å¿ ½
çī© ä½ĵ
è®© ä¸Ńæĸĩè¯»èĢħ
éĢļé¡º èĩªçĦ¶
im p
æĿ¡ çº¦
Ġr ender
æĪĳéľĢè¦ģåĩĨç¡®çĲĨè§£ è¿Ļåı¥è¯ĿçļĦæĦıæĢĿ
æĪĳè¦ģç¡®ä¿Ŀ æľ¯è¯ŃåĩĨç¡®
å¾® è§Ĥ
åĽłæŀľåħ³ç³» çļĦ
å¢ŀåĬł äºĨ
Ġadapt ation
æĶ¾åľ¨åĬ¨è¯į åīįéĿ¢
è¯´è¯Ŀ èĢħ
åİŁä½ı æ°ĳ
ç¬Ľ åį¡å°Ķ
T ra
Ġ ion
Ġg ood
ug g
æĿ¡ä»¶ åıįå°Ħ
æĦŁ åıĹ
çĶ¨æĪ·æıĲä¾Ľ äºĨä¸Ģåı¥èĭ±æĸĩåı¥åŃĲ
omet ric
éģ¿åħįä½¿çĶ¨ ä¸į
parad ox
Ġdomin ant
åħīä¼ı çĶµæ±ł
Ġexist ence
Ġgradi ents
çĶ¨æĪ·ç»ĻåĩºçļĦèĭ±æĸĩåı¥åŃĲ æĺ¯
ä»»æĦı åŃĲ
¢ å¤į
èĥ½ åĬ¨
åı¯èĥ½ å¸¦æľī
ol e
æ¯Ķè¾ĥ å¯¹è±¡
et al
æģ ¢å¤į
æĪĺ äºī
æĺ¯åĲ¦æľī åħ¶ä»ĸ
æľĢåĲİæ£ĢæŁ¥ æķ´ä¸ªåı¥åŃĲçļĦ
ç¡®ä¿Ŀæ²¡æľīéģĹæ¼ı ä»»ä½ķ
æīĢä»¥è¿Ļéĥ¨åĪĨ åı¯ä»¥ç¿»è¯ĳä¸º
Ġmaintain ing
åº·å¾· çļĦ
Ġqu anti
Ġproblem s
expl ain
Ġspect roscopy
æĭĨè§£ åı¥åŃĲç»ĵæŀĦ
C rypt
G ç½ĳç»ľ
r act
ä» ª
ow ard
Ġg al
Ġar ch
ä¾Ŀ çĦ¶
çł´ è§£
èĥ½æºĲ ä¼łè¾ĵ
ide ly
Ġspec ific
Ġgovern ment
æĹ¢ä¸ĵä¸ļåıĪ æĺĵæĩĤ
æ¸¸ æĪı
éĿĴéĵľæĹ¶ä»£ æĸĩæĺİ
Ġinnov ation
Ġtransport ation
S olid
çļĦ åģĩè®¾
åľ¨ éĹ®
æĿ¥ æĮĳæĪĺ
ar th
ç¡®ä¿Ŀ åĩĨç¡®çĲĨè§£
Ġs ervice
ä¸Ģ æ¬¡
ä½Ĩ éĢļå¸¸
Ġb ack
è¡Į æĶ¿
è¦ģæ³¨æĦı ä¸ĵä¸ļæľ¯è¯ŃçļĦæŃ£ç¡®æĢ§
åľ¨ä¸ŃæĸĩéĩĮ éĢļå¸¸ç¿»è¯ĳä¸º
ä¼¦çĲĨ åĽ°å¢ĥ
è£ħ é¥°
Ġwh ich
ä¸ĸçºª åĪĿ
ä¹¦ ä¿¡
åĽ½å®¶ ä¸»æĿĥ
Ġj us
Ġcontin u
ç¿»è¯ĳ éľĢè¦ģ
en ting
æ³ķ åĽ½
ç»ı éĻ¢
Ġad aptive
æĺ¯åĲ¦ç¬¦åĲĪ ç¿»è¯ĳè¦ģæ±Ĥ
uman n
æµģçķħæĢ§åĴĮ ä¸ĵä¸ļæĢ§
ĠW est
ĠNe umann
Ġrele ase
Ġtherap ies
be yond
mark et
Ġbios ign
Ġâ ĨĴ
m it
ä¸į è¦ģ
å¯ ĵè¨Ģ
Ġm agical
em in
Ġf resco
ä½¿çĶ¨ è¾ĥä¸ºæŃ£å¼ı
Ġh omogen
åıĪ ç¬¦åĲĪä¸ŃæĸĩçļĦè¡¨è¾¾æĸ¹å¼ı
ç¿»è¯ĳæĹ¶ éľĢè¦ģä¿ĿæĮģ
æŃ£å¼ı åľºåĲĪ
ub b
åħ·ä½ĵ çļĦ
ä¸Ńæĸĩä¸Ń éĢļå¸¸ä¼ļçĶ¨
Ġco oling
verg ence
å¾Ĺä»¥ å®ŀçİ°
effici ent
æĿİåĺīåĽ¾çŃīä»· å®ļçĲĨ
è° Ī
è¿Ļä¸ª æĦıæĢĿ
ect onics
è¢« è¯ģæĺİ
æİ¥ä¸ĭæĿ¥æĺ¯ åĲİåįĬåı¥
ost atic
æĥħ æĻ¯
Ġpar ameters
ä¸Ńæĸĩè¡¨è¾¾ è¦ģèĩªçĦ¶
äº§çĶŁ äºĨ
Ġalter n
åı¯è¡Į çļĦ
ä¸įåı¯ ç¯¡æĶ¹
sur face
Ġvir tual
æ£® æŀĹ
æĽ´æĸ° ä¸ĸ
Ġev ents
æĭĴ ç»Ŀ
a ffect
ç ĳ
çļĦ è°ĥæķ´
çļĦ æłĩåĩĨ
åŃ ©
æĽ´ æľī
or ts
åĨ ¶
æĪĳçİ°åľ¨éľĢè¦ģ æĬĬ
çĶ¨æĪ·æıĲä¾ĽçļĦ åıĤèĢĥç¿»è¯ĳ
Ġfor ces
æİ¢ ç©¶
ib ility
Ġout come
sim il
åıªè´Łè´£ ç¿»è¯ĳ
çļĦ å´©æºĥ
å® ª
æĿ¥ å¼ķåĩº
åĪĨ ç¦»
Ġf idelity
è¿Ļæł· çļĦæľ¯è¯Ń
Ġl ithium
è¢« è¯ģå®ŀ
æ£ĢæŁ¥æĺ¯åĲ¦æľī ä¸ĵä¸ļæľ¯è¯Ń
åĨĻ çļĦ
ä¾Ŀ æį®
Ġcor por
Ġsyn thesis
å®ĮæĪĲ åĲİ
Ġpsych ology
æĿİåĺīåĽ¾ çļĦ
partic le
æµģ åŁŁ
é¢ĨåŁŁ åĨħ
id ity
å¸¸è§ģ çļĦç¿»è¯ĳ
å¿ħé¡» åĩĨç¡®ä¼łè¾¾
è¯»èµ·æĿ¥ æĺ¯åĲ¦èĩªçĦ¶
Ġres ources
å½»åºķ çļĦ
Ġhy per
æ£ĢæŁ¥ä¸Ģä¸ĭ æľ¯è¯Ńæĺ¯åĲ¦æŃ£ç¡®
éĢı æĺİ
met a
æľ¯è¯ŃåĴĮ è¡¨è¾¾
Ġemerg es
çģµ æ´»
econstruc tion
çº§èģĶ æķĪåºĶ
ä¸Ńæĸĩ çļĦç»ĵæŀĦ
Ġc urr
è¿ĻéĩĮ åı¯ä»¥è¯ĳä¸º
ur as
Ġb ubb
è¿ĺ åİŁ
å¤§ éĩı
Ġex am
æİ¥ä¸ĭæĿ¥æĺ¯ æµģçķħæĢ§
Ġmechan ical
Ġgener ations
Ġj ust
åįļå¼Īè®º åľ¨
åĮħåĲ« åľ¨
ç¦ı åĪ©
è¦ģ çĤ¹
æ£ĢæŁ¥ æķ´ä¸ªåı¥åŃĲçļĦ
åħī çļĦ
Ġat omic
çĽ¸å¯¹ ä¸»ä¹ī
æĪĳéľĢè¦ģå¤ĦçĲĨ çĶ¨æĪ·çļĦè¿Ļä¸ªç¿»è¯ĳè¯·æ±Ĥ
Ġenh ancement
bod y
Ġconflic ts
limin ate
æīĢä»¥ ç»ĦåĲĪèµ·æĿ¥å°±æĺ¯
ver si
ä¸İ èĭ±æĸĩä¸įåĲĮ
äºĴ èģĶ
äººç±» ä¸Ńå¿ĥ
æļĹ çī©è´¨
Ġcre ates
Ġexpl an
æł¹æľ¬æĢ§ è½¬åıĺ
ä»ĸä»¬åı¯èĥ½ å¸ĮæľĽ
Ġsequ ences
ä¾§éĩį äºİ
ar chit
ri fication
èīºæľ¯ é¢ĨåŁŁ
ç¿»è¯ĳåĲİçļĦåı¥åŃĲ åºĶ
ç§ĳåŃ¦ åĲ«ä¹ī
ä½ľä¸º åĬ¨è¯į
ä¸įè¿ĩ çĶ¨æĪ·è¦ģæ±Ĥ
åİĨåı² èĥĮæĻ¯
bi lities
pir ically
Sub duction
o ol
çĽ´æİ¥ å¯¹åºĶ
ver ts
ch emical
Ġtra vel
Ġr ate
åĵ²åŃ¦ ä¸ŃçļĦ
è¿Ļç§į éĢ»è¾ĳåħ³ç³»
ä¸ĸçºª çļĦ
Ġsub sequent
æĶ¯ åĩº
Ġj ob
Ġphenom en
with out
è¿Ļæł·è¯»èµ·æĿ¥ æĽ´èĩªçĦ¶
Ġdisc ourse
éĻįæ°´ æ¨¡å¼ı
å¯¡å¤´åŀĦæĸŃ å¸Ĥåľº
äº «
æ¯Ķå¦Ĥ åľ¨
èµ ¤
èµ °
qu ately
Ġex ten
am ic
åı¥åŃĲçļĦç»ĵæŀĦ éľĢè¦ģè°ĥæķ´
åľ¨ä¸ŃæĸĩéĩĮ éĢļå¸¸
ç¿»è¯ĳæĹ¶è¦ģ ä¿ĿçķĻ
åŃ¦æľ¯è®¨è®º ä¸Ń
pos e
ä½ĨåİŁåı¥ æ²¡æľī
éľĢè¦ģæī¾åĪ°åĲĪéĢĤçļĦ ä¸Ńæĸĩå¯¹åºĶè¯į
ç¦»åŃĲ éĢļéģĵ
Ġdep th
Ġnorm s
Ġgraph ene
èĤĸ åĥı
çļĦ è§ĤçĤ¹
æĺ¯ æŃ£ç¡®çļĦç¿»è¯ĳ
Ġt ectonics
æĿ¥ çļĦ
ro ck
éĢĤåºĶ æĢ§
çĽ´æİ¥ ç¿»è¯ĳçļĦè¯Ŀ
å¤ļ ç§į
æĿ¡ä»¶ åħ³ç³»
åħ¶ä»ĸ è§£éĩĬ
å¹¿æ³Ľ ä½¿çĶ¨
è¯¢éĹ® çļĦæĺ¯
äºĮ ç»´
æ»¡è¶³ çĶ¨æĪ·çļĦæīĢæľīè¦ģæ±Ĥ
Ġcommun ity
ĠV ictorian
Ġremain ed
Ġt ension
å®ŀ çĶ¨
æĭ ¥
çľ ł
å¿ħé¡» åıªæľīç¿»è¯ĳåĲİçļĦåĨħå®¹
ine tic
å¯Ĩ éĽĨ
åĵª ç§į
æ» ¤
åĬłå¯Ĩ åįıè®®
ä¸¤èĢħ ä¹ĭéĹ´çļĦ
åķĨä¸ļ åı¯è¡ĮæĢ§
è®©ä¸Ńæĸĩ æĽ´éĢļé¡º
Ġequi valence
å®ļè¯Ń ä»İåı¥
Ġspe eds
Ġsect ors
know ledge
f unc
é ī
éĢ Ŀ
ç¬¦åĲĪ çĽ®æłĩè¯»èĢħçļĦ
æīĢä»¥ å¼Ģå¤´
åĴĮ æĸĩåĮĸèĥĮæĻ¯
åľ° å¤ĸ
å¦Ĥä½ķ è°ĥæķ´
ä¸ĵä¸ļæĢ§ è¦ģæ±Ĥ
ä¸įéľĢè¦ģ åĬł
è¢« æ·ĺæ±°
è¶ħ åĩº
æµ· å¹³éĿ¢
ç¿»è¯ĳæĹ¶è¦ģ åĩĨç¡®ä¼łè¾¾
åĽłæŀľåħ³ç³» æĺİç¡®
ä¸ŃæĸĩéĢļå¸¸ä¼ļæĬĬ æĿ¡ä»¶æĶ¾åľ¨åīįéĿ¢
æł¸å¿ĥ æĺ¯
éŁ³ ä¹Ĳ
å¨ģ æĸ¯çī¹
achie ves
develop ment
éī ´
M ight
ä¼ ¯
åħĪ è¿Ľ
è´ Ń
å¤§ åĬłéĢŁ
Ġres tructuring
ä¸ĸ ä»£
æĿĤ ç³ħ
è´Ł èį·
éĢĢ åĮĸ
æ²īç§¯ ä½ľçĶ¨
æīĢä»¥ä¸įéľĢè¦ģ ä»»ä½ķ
è½¬æį¢ ä¸º
human ist
æ²¡æľīåħ¶ä»ĸ è§£éĩĬ
éĺ² æŃ¢
Ġrefl ects
åľ¨ç»ıæµİåŃ¦ ä¸Ń
ä¼Ĳ åĪ©äºļ
ä¸įä¼ļè®©è¯»èĢħ æĦŁåĪ°
ä¿ĿçķĻåİŁ åĲį
çĵ ¦
å¨ģæĸ¯çī¹ ä¼ĲåĪ©äºļ
R e
m agical
çļĦ éĢīæĭ©
çļĦ çİ¯å¢ĥ
çļĦ åĬ¨æĢģ
ä¸Ńæĸĩ ä¹ŁéľĢè¦ģä¿ĿæĮģ
ç»ĵæŀĦ æŃ£ç¡®
æīĢä»¥ è¿ĻéĩĮçĶ¨
å½¢ çĬ¶
èīºæľ¯ æµģæ´¾
åĸ ľ
Ġis ol
åĨ· åį´
Ġhypoth eses
æĺİæļĹ å¯¹çħ§
Ġscenari os
phal ia
C h
p tion
es ion
è¡ į
æĿ¥ ä½ĵçİ°
å° ļ
åĲĪéĢĤ çļĦç¿»è¯ĳ
Ġre comm
æ´ ª
åħī éĢŁ
ä¸įèĥ½ éģĹæ¼ı
è§Ĩ ä¸º
åľ°è´¨ æĹ¶éĹ´å°ºåº¦
æ°ĶåĢĻ å»ºæ¨¡
å®Įæķ´ æĢ§
åĲİéĿ¢æİ¥ ç»ĵæŀľ
Ġenab ling
plan etary
è¿Ļåı¥è¯ĿçļĦç»ĵæŀĦåĴĮ åĨħå®¹
åıĮ åĲĳ
Ġdisc overy
æĹ¥å¸¸ å¯¹è¯Ŀ
St ream
èĦĨå¼± æĢ§
Ġincen tives
æĽ´ éĢļçĶ¨
è¡¨ åŀĭ
Ġm ix
Ġd own
ent rification
Ġh er
å¯Ĩ éĴ¥
åĪ© çĽĬ
com mer
ple tion
æİĴ æĸ¥
çº¿æĢ§ åıĻäºĭ
èĪª æµ·
é¢ĳ ç¹ģ
Ġmeas ures
Ġoper ations
Ġmosa ic
éĢĲåŃĹ ç¿»è¯ĳ
P ro
t al
Ġ æ£ĢæŁ¥
es ts
æīĢä»¥ ä¸ŃæĸĩéĩĮ
ci rc
Ġl ens
Ġch rom
æīĢæľī åħĥç´łéĥ½
åĿ ¡
äºĴ èģĶç½ĳ
æ¨¡åŀĭ çļĦ
ç¾¤ èĲ½
Ġag ain
è¦ģåĩĨç¡® è¡¨è¾¾
çļĦ å¤§æĦıæĺ¯
ç¬¦åĲĪ çĶ¨æĪ·è¦ģæ±Ĥ
æīĢä»¥ ä¸įéľĢè¦ģé¢Ŀå¤ĸè§£éĩĬ
Ġd econstructs
em otional
åį ĥ
... ï¼ŁâĢĿ
åŃ¦æľ¯ é¢ĨåŁŁ
åľ¨è¿ĻéĩĮ è¯ĳä¸º
Ġch ains
Ġres onance
åİĨåı² æĪĸ
èģĶ æĥ³
éģ¿åħįçĽ´è¯ĳ éĢłæĪĲçļĦ
Ġinher ent
Ġaccoun ts
ä»İæł¹æľ¬ä¸Ĭ æĶ¹åıĺäºĨ
æİ¥çĿĢ æĺ¯
ç»¼åĲĪè¿ĻäºĽ åĽłç´ł
forest ation
Ġrecomm end
l ength
u tic
æĺ¯ å¸¸çĶ¨æľ¯è¯Ń
åı¯ åĨįçĶŁèĥ½æºĲ
æİ¥ä¸ĭæĿ¥ çľĭ
ism ic
èīºæľ¯ åĵģ
ç¤¾ä¼ļ åŃ¦ä¸ŃçļĦ
ä¸įèĥ½ æ·»åĬł
çĽ¸åħ³ èģĶ
æİ¥ä¸ĭæĿ¥è¦ģç¡®ä¿Ŀ æľ¯è¯ŃåĩĨç¡®
èģĮ ä½į
æĪĳéľĢè¦ģç¿»è¯ĳè¿Ļä¸ª èĭ±æĸĩåı¥åŃĲ
éĻĪè¿° åı¥
d own
n etwork
p osi
s o
è¿ĻéĩĮ è¡¨ç¤º
ex hibit
éĢļè¯»ä¸Ģéģį è¯ĳæĸĩ
æ·± æµ·
æ³ķå¾ĭ ä½ĵç³»
fer ences
Ġpers onhood
ä¸Ńæĸĩä¹łæĥ¯ åħĪè¯´
ä¸Ńæĸĩåı¥åŃĲç»ĵæŀĦ åı¯èĥ½éľĢè¦ģè°ĥæķ´
æĪĳä»¬ å¯¹
tern al
æŀģç«¯ å¾®çĶŁçī©
histor ical
Ġont ological
C ry
t actic
ä¸Ń éľĢè¦ģ
ç¡®ä¿Ŀ çĶ¨è¯į
ä¿ĿæĮģ æľ¯è¯ŃçļĦä¸Ģèĩ´æĢ§
æ° ¢
çŃ Ľ
äºº åĲį
pro t
çłĶç©¶ è¡¨æĺİ
æ¨¡åŀĭ ä¸Ń
Ġè¿Ļæł·æĹ¢ ä¿ĿæĮģäºĨ
Ġdec omposition
è¯»èµ·æĿ¥èĩªçĦ¶ æµģçķħ
æİ¥ä¸ĭæĿ¥è¦ģèĢĥèĻĳ ç¿»è¯ĳçļĦåĩĨç¡®æĢ§
ç»ĩ ç½ĳ
éĢĹåı· åĪĨéļĶ
Ġsens ory
èĥ½åĬ¨ æĢ§
c rib
Ġt ax
æīĢä»¥ æķ´ä½ĵç»ĵæŀĦ
åĴĮ çº¦
ri an
el ting
Ġch ain
Ġcomp on
form ance
éĢ»è¾ĳ è¿ŀè´¯
åĽŀ å¤į
Ġexp ect
par ts
modern ist
Ġinfra structures
ĠæĪĳéľĢè¦ģ æĬĬå®ĥç¿»è¯ĳæĪĲä¸Ńæĸĩ
the y
Ġ ä¸ŃçļĦ
ï¼ ģ
æĢ§ éĹ®é¢ĺ
çĶ¨æĪ· çļĦç¿»è¯ĳè¦ģæ±Ĥ
Ġm agnetic
Ġb ed
å¸¸è§ģ ç¿»è¯ĳ
Ġr enew
ä¸įè¿ĩ çĶ¨æĪ·
Ġdec line
è¿ĺè¦ģèĢĥèĻĳ åı¥åŃĲçļĦæµģçķħæĢ§
æĮģç»Ń çļĦ
å½»åºķ æĶ¹éĿ©
val ent
Ġdiffer ential
æĪĳè¦ģåĩĨç¡®çĲĨè§£ åİŁåı¥çļĦæĦıæĢĿ
æİ¢è®¨ å¦Ĥæŀľ
å¯» æī¾
V ictorian
c ence
ç¡®è®¤ æīĢæľī
lo od
æį¢ æĪĲ
é¸ £
Ġrela tivism
åı¯èĥ½ä¸įå¤Ł èĩªçĦ¶
Ġent anglement
T ectonic
a un
a tin
i li
Ġ velo
on y
è¡ Ķ
åı¯èĥ½ éĢļè¿ĩ
as h
ä¿ĿæĮģ æľ¯è¯ŃçļĦåĩĨç¡®æĢ§
åı¯ä»¥ æıĲäº¤
éĢļè¿ĩ å¼ºè°ĥ
åĪĨæŀĲ åı¥åŃĲçļĦç»ĵæŀĦ
de ep
çĶµ å½±
åıĳå±ķ çļĦ
ç»¼åĲĪä»¥ä¸Ĭ åĽłç´ł
dis rup
ĠG reat
revolution ized
ĠWest phalia
ä½Ĩ ä¸Ńæĸĩ
è°ĥæķ´ ç»ĵæŀĦ
qu ency
ut ed
ä¸įèĥ½ çľģçķ¥
åŃĺåľ¨ æĺ¾èĳĹå·®å¼Ĥ
Ġchallen ging
ha us
ast e
ta x
å®¾è¯Ń ä»İåı¥
åŃ¦æľ¯åĨĻä½ľ æĪĸ
çº¯ ç²¹
çĮ İ
O cean
Ġ åı¯ä»¥è¯ĳä¸º
ä¸º ä¸Ńå¿ĥ
æĿ¥ è¡¨ç¤º
æĬĢæľ¯ å®ŀçİ°
å¤ļ éĩį
Ġinter ference
æŃ£å¼ı ä½Ĩ
éĢ»è¾ĳ ç»ĵæŀĦ
çĶ¨æĪ·æıĲä¾ĽçļĦ ä¾ĭåŃĲ
åıĪç¬¦åĲĪä¸ŃæĸĩçļĦè¡¨è¾¾ä¹łæĥ¯åĴĮ ä¸ĵä¸ļæĢ§è¦ģæ±Ĥ
Ġco herence
Ġlim its
Ġcontra sts
no vel
Ġinstall ation
å¹¶ä¸Ķè¦ģéģµå¾ª çī¹å®ļçļĦç¿»è¯ĳè¦ģæ±Ĥ
auth or
Ġcurr encies
Ġrecommend ation
çŃĽ éĢī
' ll
i le
ç¡®ä¿Ŀ æµģçķħ
Ġm undane
ing s
Ġre actors
å°± ä¼ļ
ith ospheric
æ· ¡
æķ´ä¸ªåı¥åŃĲ éľĢè¦ģä¿ĿæĮģ
ç¥ŀç»ı ç»ĩç½ĳ
ag ma
oc ent
éĢ»è¾ĳ å®ŀè¯ģä¸»ä¹ī
ograph ical
æĴ °
Ġse a
åľ°çĤ¹ çĬ¶è¯Ń
atal yz
accoun t
e y
s up
Ġ "
ä½ ³
Ġs ome
Ġw ar
Ġh abit
åŃ¦æľ¯ ä¸Ĭ
åĪ¶ åĨ·
ap proach
è¢« å¹¿æ³Ľæİ¥åıĹ
ä¸¤ éĥ¨åĪĨ
åħ¨çĲĥ æ°ĶåĢĻ
Ġdemon str
Ġgener ate
ä½ĨåİŁåı¥ çĶ¨äºĨ
è¿ŀæİ¥è¯į çļĦä½¿çĶ¨
Ġspace time
åŁ¹ èĤ²
ä¿ĥæĪĲ äºĨ
Ġchi aroscuro
åī¯ è¯į
Ġsugges ts
arget ed
oligopol istic
A bstract
Ĵ å¼ĥ
çļĦ å¼ºè°ĥ
ä¸Ńæĸĩ åĬ¨è¯į
re ad
å¾ ¡
Ġne ed
çº§ è®¡ç®Ĺ
vers ity
éľĢè¦ģæ³¨æĦı æľ¯è¯ŃçļĦåĩĨç¡®æĢ§
Ġaut omation
çĶ¨æĪ·ç»ĻçļĦ èĭ±æĸĩåı¥åŃĲç¿»è¯ĳæĪĲä¸Ńæĸĩ
Ġintensi fy
coll ective
aim s
c l
c end
Ġt emperature
Ġd oc
åĪĨ åĪ«
æ²¡æľī åĨĹä½Ļ
å¸¸çĶ¨ è¯įæ±ĩ
éĺ ¿
åıĺåĮĸ çļĦ
è¿Ļéĥ¨åĪĨ æĺ¯åħ³éĶ®
ĠE urocentric
ä¹Łæĺ¯ å¸¸çĶ¨æľ¯è¯Ń
å¼ķèµ· çļĦ
æĳ Ĵå¼ĥ
infor ce
åĤ¬ åĮĸ
Ġcriti ques
æĺİæļĹ å¯¹æ¯Ķ
mechan isms
ocent ric
b r
c lo
Ġt wo
éĢĤ å½ĵ
Ġd on
èĩª æĹĭ
è¿ĩ æ»¤
le ist
éĹ´ çļĦ
å¤§ çļĦ
åľ¨è¿ĻéĩĮ ä¸įæĺ¯
Ġst at
åĵ²åŃ¦ è®¨è®º
åıĻäºĭ æĬĢå·§
ä¸Ńæĸĩè¯»èĢħ æĺ¯åĲ¦
çŁ¥è¯Ĩ çļĦ
è¯Ńåı¥ æµģçķħ
æīĢä»¥åı¯èĥ½éľĢè¦ģ ä¿ĿæĮģ
èģĮ åľº
Ġphenom enological
Ġimper ial
au haus
æ²¹çĶ» é¢ľæĸĻ
ç¢³æįķ éĽĨ
fragment ed
Ġess ence
åĪĨå½¢ åĩłä½ķ
cceler ation
leist ocene
æĺ¯ åĬ¨è¯į
ä¸Ń å¯¹
er ve
åº Ĭ
å¼ ¦
ur ization
æĮĩ æ¶ī
Ġg et
çĽ¸ åıį
æłĩåĩĨ çļĦè¯ĳæ³ķ
Ġar gu
ç§ĳæĬĢ æĪĸ
å¹³ ä»·
æµ· æ°´
ĠA cceleration
ä½¿åħ¶ æĽ´èĩªçĦ¶
åĲįè¯į çŁŃè¯Ń
æĵį çºµ
åŁºäºİ åĮºåĿĹéĵ¾çļĦ
æĢİæł· çļĦ
Ġep igenetic
Ġadvant ages
è¿Ļåı¥è¯ĿçļĦ ä¸»å¹²æĺ¯
ä¸įæ·»åĬł åħ¶ä»ĸåĨħå®¹
Ġris k
Ġhyd rological
å¼ºçĥĪ çļĦ
i re
ig ation
Ġh im
per mafrost
æĺ¯åľ¨ æ¯Ķè¾ĥ
æĸĩæľ¬ æĿĥå¨ģ
Ġauth orship
ear s
Ġcons ensus
ç¢İçīĩ åĮĸçļĦ
met ric
å®¡ ç¾İ
ree k
b ed
s l
çļĦ ç²¾ç¡®
ä¸Ń å¸¸
çĶŁ æ®ĸ
as tical
è®© æŃ¥
im plement
ä¸įèĥ½ åĽŀçŃĶè¾ĵåħ¥çļĦéĹ®é¢ĺ
æİ¥ä¸ĭæĿ¥æĺ¯ åĩĨç¡®æĢ§
æ¸© å®¤
Ġreg im
Ġro utes
Ġdist or
è¿ĺè¦ģæ£ĢæŁ¥ æľ¯è¯Ńæĺ¯åĲ¦æŃ£ç¡®
æľīçĤ¹ å¤įæĿĤ
å®ŀè¯ģ éªĮè¯ģ
æĵįä½ľ æĢ§
ä¸¥æł¼æĮīçħ§ è¦ģæ±Ĥ
ä¸ľ è¥¿
Ġdeploy ed
è¿Ļæł·æĹ¢ä¿ĿçķĻäºĨ åİŁæĦı
æĺ¼å¤ľèĬĤå¾ĭ ç´Ĭä¹±
Ġschol ars
l ogical
æ¯ ģ
å¤ ¸
ä¿Ŀ éļľ
ç¡®ä¿Ŀ åĩĨç¡®ä¼łè¾¾åİŁæĦı
æīĢä»¥ æĪĳçļĦä»»åĬ¡
åĲĮ æŃ¥
æł¹æį® çĶ¨æĪ·çļĦè¦ģæ±Ĥ
åħ± é¸£
æīĢæľīåħ³éĶ®çĤ¹éĥ½ åĩĨç¡®ä¼łè¾¾
wh at
Ġnar ration
ä¸ĵä¸ļé¢ĨåŁŁçļĦ åĩĨç¡®æĢ§
Ġvehic le
establish ed
ç»ħ å£«
M on
ä¸Ńæĸĩ çļĦç»ĵæŀĦåĴĮ
an y
èĩª ç»Ħè£ħ
æ¯Ķè¾ĥ çº§
çĽ Ł
çĽ¸ åĲĮ
åĪĻ å¼ºè°ĥ
éĿŀ çĲĨæĢ§
Ġim mer
è¯Ńè¨Ģ çļĦ
ç§° åĳ¼
éĩįæĸ° éħįç½®
åĨ³çŃĸ è¿ĩç¨ĭ
éĴ Ł
åįł æį®
æķ´ä¸ªç¿»è¯ĳ è¿ĩç¨ĭ
ç¬¦åĲĪä¸ĵä¸ļ è¦ģæ±Ĥ
Ġpredic tive
Ġcircu it
Neuro plasticity
æĬĳ åĪ¶
Ġ ran
æĪĸèĢħ æĺ¯åĲ¦éľĢè¦ģè°ĥæķ´
æĬĢæľ¯ åĴĮ
å¼ķ åı·
um e
åħ¶ä»ĸ è¯įæ±ĩ
åİŁåı¥çļĦç»ĵæŀĦæĺ¯ æĿ¡ä»¶åı¥
æĽ´ç¬¦åĲĪ åŃ¦æľ¯è®¨è®º
æĸĩåĮĸéĢĤåºĶæĢ§åĴĮ æľ¯è¯ŃæŃ£ç¡®æĢ§
Ġtr ends
ä½¿ä¸Ńæĸĩ æĽ´éĢļé¡º
æī©å±ķ æĢ§
æĹ¶æĢģ åĴĮ
Ġposi tivism
model s
ä¿ĿçľŁ åº¦
c hi
u di
çļĦ çī¹æĢ§
æĺ¯ å¦Ĥä½ķ
ä¸Ńæĸĩ éľĢè¦ģä¿ĿæĮģ
Ġt oward
çķ ´
æĺ¯åĲ¦ è¿ĺæľī
ä¸ĵä¸ļ äººå£«
èĻ «
åľ° åĪ©
åĬł å¿«
èīºæľ¯ è¯Ħè®º
æĸ° åħ´
éĺ Ł
çĶµ åĬĽ
åĲİéĿ¢ æĺ¯
åĬŁèĥ½ ä¸»ä¹ī
ä¸Ģåı¥ èĭ±æĸĩåı¥åŃĲç¿»è¯ĳæĪĲä¸Ńæĸĩ
å¼ķåĬĽ éĢıéķľ
Pl asma
å¥¥ åľ°åĪ©
Ġintro duction
expon entially
Ġhistori ography
Ġcoh esion
ç»ħå£« åĮĸ
A r
ä¸ ĩ
åı ĭ
re ader
ç»ĵæŀĦ æµģçķħ
åĴĮ æµģçķħ
ig ious
Ġpro m
Ġac t
åİŁæĸĩ çļĦç»ĵæŀĦåĴĮ
æµĭ è¯ķ
æ®ĸæ°ĳ åľ°
èĬ ±
åıĳçĶŁ çļĦ
å¾ªçİ¯ ç»ıæµİ
gen etic
Ġfe udal
éģ¿åħįçĽ´è¯ĳå¯¼èĩ´çļĦçĶŁç¡¬ æĦŁ
Ġmeta fic
å¹¸ ç¦ı
c ross
è ¸
è¦ģ ç¬¦åĲĪä¸ŃæĸĩçļĦè¡¨è¾¾ä¹łæĥ¯
ä¸Ń å¾®
ä» Ĭ
å¤ º
ä¸į æĪĲæ¯Ķä¾ĭ
è¿ĻéĩĮ æıĲåĪ°
æľĢåĲİ çļĦ
è¯´ çļĦæĺ¯
ä»£ çĲĨ
çİ°åľ¨ å¼Ģå§ĭ
istic s
å¹¿æ³Ľ æĻ®åıĬ
Ġpre vious
Ġpartic ular
åľ¨èīºæľ¯ åı²
æĪĸèĢħæĽ´ç®Ģæ´ģ çļĦ
å¿ħè¦ģ çļĦ
åĲĮæĹ¶éģµå¾ª çĶ¨æĪ·çļĦåħ·ä½ĵè¦ģæ±Ĥ
ç¡®ä¿Ŀæľ¯è¯ŃåĴĮ è¡¨è¾¾æĸ¹å¼ı
pot entially
Ġthermod ynamics
m irror
èĩª åıĳ
æĬĢæľ¯ é¢ĨåŁŁçļĦ
æĬĢæľ¯ è¿ĽæŃ¥
ä¸İ B
Ġch em
æľĢåĲİæ£ĢæŁ¥ è¯Ńæ³ķåĴĮ
Ġst e
é«ĺ æķĪ
åĻ¨ çļĦ
åĨľ æĿĳ
å®ĩå®Ļ çļĦ
Ġdual ism
transi tion
rede fine
cosm ological
archit ect
g row
in ess
åľ¨ çī©çĲĨ
tic e
æĬĢæľ¯ éļľç¢į
Ġg roup
è¦ģæ³¨æĦı ä¸ĵä¸ļæľ¯è¯ŃçļĦæŃ£ç¡®ä½¿çĶ¨
åľ¨è¿ĻéĩĮ çĶ¨
åıª åĮħåĲ«
èĮĥ çķ´
éģ¿åħį åı£è¯ŃåĮĸè¡¨è¾¾
ä¸Ńæĸĩè¡¨è¾¾ éľĢè¦ģèĩªçĦ¶
bi otic
è§£éĩĬæĪĸ è¯´æĺİ
åıĺå¾Ĺ å¤įæĿĤ
ä¾µ åħ¥
och emical
Ġcl aims
åĨĻå®ŀ ä¸»ä¹ī
éĻĦ åĬł
å¸® åĬ©
Ġpathw ays
æģĲ æĢ
çļĦ ä¸Ģä¸ª
er ing
æľ¯è¯Ń æĸ¹éĿ¢
æĽ´ æľīæķĪ
åŃ¦ æĪĸ
ä¸į çĶŁç¡¬
æĢĿ èĢĥ
å¹¶ è¡Į
ç®Ģæ´ģ åĩĨç¡®
æĮĳæĪĺ ä¼łç»Ł
Ġsp aces
æĽ´ç¬¦åĲĪ è¯Ńå¢ĥ
åĲĮæĹ¶ä¿ĿæĮģ ä¸ŃæĸĩçļĦ
éģĵå¾· ä¹īåĬ¡
Ġdem ographic
æĪĳå¾Ĺ åĩĨç¡®çĲĨè§£
çĽĳ æµĭ
ä¸»è¦ģ æĺ¯
ç«ĭä½ĵ æ´¾
è¶ĭ äºİ
éĹŃ çİ¯
éĽ· è¾¾
æģ¶ åĮĸ
Ġaugment ation
conf irmation
Ġpig ment
ç¿ »
åĴĮ è¡¨è¾¾ä¹łæĥ¯
Ġd ur
åĲĮ åĮĸ
åĬ¨ åĬĽ
åľ° æĸ¹
Ġw a
åģı ç¦»
åĩł åįģå¹´åĨħ
åľ¨ä¸Ńæĸĩä¸Ń éĢļå¸¸
æ°ĶåĢĻ ç§ĳåŃ¦
ç»¼åĲĪ èĢĥèĻĳ
çİ°ä»£ä¸»ä¹ī è¯ĹæŃĮ
çº³ ä»Ģ
Ġgeomet ry
rem oph
æľīæľĽ å®ŀçİ°
simil ation
C o
E c
I m
è¦ģ ç¡®è®¤
ä»¥ ä¾¿
åİŁ åŀĭ
Ġp anpsychism
é¡ ¶
le v
ç¨ĭ åºı
éĢļé¡º çļĦ
Ġres ol
èµĦæºĲ å¼Ģéĩĩ
gen e
å°Ĩå¦Ĥä½ķ æ¼Ķåıĺ
Ġcapac ities
Ġtraum a
Ġicon ography
Ġbed rock
Ġ Y
çļĦ éľĢæ±Ĥ
æĸ Ĺ
è¾ ŀ
or ption
è¿ĻéĩĮ åı¯ä»¥ç¿»è¯ĳä¸º
em phas
ä¼ł æĦŁ
ä¸ŃçļĦ å¸¸çĶ¨è¡¨è¾¾
Ġcon vey
æĹ¢ å¿łå®ŀäºİåİŁæĸĩ
çĶŁçī© ç¥ŀç»ı
éĩıåŃĲ æĢģ
Ġr ul
Ġan xi
åľ°è´¨ è¿ĩç¨ĭ
ä¸Ńæĸĩä¹łæĥ¯ æĬĬ
Ġphot ovoltaic
çĪ Ĩ
ins titutional
å¸ĮèħĬ æĤ²åī§
ç»´å¤ļåĪ©äºļ æĹ¶æľŁçļĦ
åı¯èĥ½è¿ĺ éľĢè¦ģèĢĥèĻĳ
iat urization
ç¨Ģ ç¼º
åħ¬åı¸ æ²»çĲĨ
éĺ»ç¢į äºĨ
Ġrem ains
ocratiz ed
conduc ting
å¨ģæĸ¯çī¹ä¼ĲåĪ©äºļ åĴĮçº¦
æľī åĬ©
em pirical
ç¡®è®¤ æ¯ıä¸ªéĥ¨åĪĨéĥ½
è¿Ļä¸ª åı¥åŃĲ
ting u
ex oplanet
ç¡®å®ļ ä¸ĵä¸ļæľ¯è¯ŃçļĦæŃ£ç¡®ç¿»è¯ĳ
åıĻäºĭ æīĭæ³ķ
ma y
ä½¿åħ¶ æĽ´ç¬¦åĲĪä¸Ńæĸĩä¹łæĥ¯
åĥ ļ
ç¿»è¯ĳæĹ¶è¦ģä¿ĿæĮģ çĸĳéĹ®çļĦè¯Ńæ°Ķ
è¯ĳæĸĩ ä¸Ń
è®©åı¥åŃĲ è¯»èµ·æĿ¥èĩªçĦ¶
å®ĺ åĥļ
Ġincorpor ating
æĸ°åı¤åħ¸ ä¸»ä¹ī
ä½¿çĶ¨æŃ£ç¡®çļĦ ä¸ĵä¸ļæľ¯è¯Ń
Ġgeomorph ology
Ġweather ing
re veal
ä¸į æĶ¹åıĺ
éĢļ è·¯
Ġe vent
è¦ģç¡®ä¿Ŀ ç¿»è¯ĳåĲİçļĦåı¥åŃĲ
çĲĨè®º ä¸ĬçļĦ
åĪĨæŀĲ ä¸Ń
ç»Ħ åĲĪæĪĲ
æĸĩåŃ¦ æľ¯è¯Ń
çľĭ ä¼¼
å¾· éĽ·
Ġpar allel
åıĳå±ķ åĩº
èº« ä½ĵ
æ´» åŃĹ
è¦ģå¤ĦçĲĨ æĪĲ
fin ement
Ġtransi ent
Ġinsul ating
æľīæ²¡æľīéģĹæ¼ıæĪĸ éĶĻè¯¯
ç®Ĺæ³ķæİ¨èįĲ ç³»ç»Ł
B I
å¦Ĥ æŃ¤
åĲİ åį°è±¡æ´¾
ä¸į éĢĤåºĶ
as si
åı¯ä»¥ æıŃç¤º
ç½ ª
ä¸įèĥ½ æ¼ıæİī
èĥ Ģæ¨¡åŀĭ
oc ates
Ġal le
åĽº æľī
ĠR e
åıĸ å¾Ĺ
ä¸¤èĢħ éĥ½åı¯ä»¥
æĪĳéľĢè¦ģç¡®è®¤ æ¯ıä¸ªæľ¯è¯ŃçļĦæŃ£ç¡®ç¿»è¯ĳ
medi ated
ä¼´ éļı
åķĨä¸ļåĮĸ åºĶçĶ¨
çĲĨè§£åħ¶ åĲ«ä¹ī
Ġlos s
Ġcompon ents
çº³ä»Ģ åĿĩè¡¡
v ements
an ts
æĦ ¿
æ²¡æľī æıĲä¾Ľ
ur d
å¼ı çļĦ
Ġto ols
æĿ¡ä»¶ éĥ¨åĪĨ
è¿Ļæĺ¯ åľ°è´¨åŃ¦
åİŁæĸĩ çļĦç»ĵæŀĦæĺ¯
ä½ľä¸º å¼Ģå¤´
è§Ħ å¾ĭ
tain ment
Ġè¿Ļåı¥è¯Ŀ çļĦç»ĵæŀĦ
Ġdiffer ences
Ġdes er
Ġk arst
æĬķ æľº
Ġconf igur
emphasiz e
ç¬¦åĲĪåŃ¦æľ¯è®¨è®º çļĦè¯Ńæ°Ķ
Ġfound ational
Ġcorpor ate
èĤĸåĥı çĶ»
è´Ń ä¹°
p al
w ere
éľĢè¦ģ è¿Ľè¡Į
ä¹ İ
åı¯èĥ½ å¯¼èĩ´
åı¯èĥ½ å¼ķåıĳ
ä½¿çĶ¨ åľºæĻ¯
Ġre duces
æĸĩåĮĸ å·®å¼Ĥ
æĻ ļ
åŃ¦æľ¯ åĮĸ
æĿ¡ä»¶ çĸĳéĹ®åı¥
um in
å¸¸è§ģ è¯ĳæ³ķ
éĽ ¨
æĺİç¡® çļĦ
Ġreg ulatory
åŃ¦æľ¯æĪĸ ä¸ĵä¸ļ
å¾ĹåĪ° æ»¡è¶³
inter pret
çľĭçľĭ åİŁåı¥
éĩįçĤ¹ æĺ¯
arc ity
cri tical
å¤ªéĺ³èĥ½ çĶµæ±ł
Ġmeasure ment
Metamaterial s
å°ģå»º åĪ¶åº¦
è¾¾ è¾¾
Ġp or
Ġf ault
ä¸Ĭ åı¯è¡Į
hi el
ir itual
Ġdi versity
Ġcont ribute
äººç±» çļĦ
åħĭ æĸ¯
rib ution
tr ation
Ġè¿ĻéĩĮçļĦ åħ³éĶ®çĤ¹
åįķ çº¯
ç£ģ åľº
ä»·åĢ¼ è§Ĥ
Ġpercep tions
ä½¿ä¸Ńæĸĩ æĽ´æµģçķħ
æīĢä»¥çĽ´æİ¥ ç¿»è¯ĳæĪĲ
æĪĳéľĢè¦ģä»Ķç»ĨåĪĨæŀĲ è¿ĻäºĽè¦ģæ±Ĥ
ĠæĪĳçļĦä»»åĬ¡æĺ¯å°Ĩè¿Ļåı¥è¯Ŀ åĩĨç¡®ç¿»è¯ĳæĪĲä¸Ńæĸĩ
aut onomous
ä¸Ńå¾® åŃĲ
en istic
ec tual
Ġf lex
å¤ļ æĻ®
æĿ¡ä»¶ ä½ľçĶ¨
æľĢç»Ī ç¿»è¯ĳä¸º
oc k
ell enistic
çĽ´æİ¥ç¿»è¯ĳ æ²¡éĹ®é¢ĺ
ç¬¬ åĽĽ
Ġenh anced
åıĮ è¯Ń
Ġintegr ated
carbon ate
Ġsel ective
Ġdise ase
rist ote
å¤ļæĻ® åĭĴ
ristote lian
ed uc
æ²¡æľī ä¸ĵä¸ļæľ¯è¯Ń
Ġth ermohaline
æ¼ı æ´ŀ
å°Ĩ åħ¶
ad emic
æĿ¡ä»¶ ä¸ĭ
éļ §
Ġtra ding
åŃĺåľ¨ å·®å¼Ĥ
åľ¨ä¸ŃæĸĩéĩĮ éĢļé¡º
æĺ¯åĲ¦ç¬¦åĲĪ æĸĩåĮĸéĢĤåºĶæĢ§
åħ¬ å¹³
Ġcons ervation
ä½ĵçİ° åĩº
æķ´ä½ĵåı¥åŃĲç»ĵæŀĦ æĺ¯åĲ¦éĢļé¡º
medi eval
æ¸©åº¦ åĴĮ
lu sively
çļĦ åħ´èµ·
åħ ½
å® ľ
ä¿Ŀ è¯ģ
æīĢä»¥ è¿Ļä¸ªç¿»è¯ĳ
Ġd estabiliz
äºº ä½ĵ
ment ation
è¦ģç¡®ä¿Ŀ æľ¯è¯Ń
Ġcont exts
Ġbi o
åģĩè®¾ æĿ¡ä»¶åı¥
cep tion
éĩįæĸ° è¯Ħä¼°
èį £
æľª æĽ¾
åĲ¦ å®ļ
ä¸ŃæĸĩéĢļå¸¸ ä¹Łæĺ¯
æįŁ å®³
åīĬå¼± äºĨ
çĲĨæĢ§éĢīæĭ© æ¨¡åŀĭ
åŃ¦æľ¯çķĮ çļĦä¹łæĥ¯
æĶ» åĩ»
M olecular
m imic
® é£Ł
re h
è¿ĩ åº¦
æİ¥ä¸ĭæĿ¥ èĢĥèĻĳ
çĲĨè§£ ä¸º
Ġa ff
si bilities
pl us
åľ¨è¿ĻéĩĮ åºĶè¯ĳä¸º
èĢĮä¸įæĺ¯ çĽ´è¯ĳä¸º
ous e
econ d
åı¯èĥ½ä¼ļ çĶ¨
Ġper petuates
Ġpl ay
æĺ¯ä¸Ģä¸ª æĿ¡ä»¶åı¥
äºĮ èĢħ
èµĦæľ¬ ç§¯ç´¯
elf are
Ġcri ticism
ä»¿ çĶŁ
æ²¡æľīçī¹åĪ« è¯´æĺİ
ç¡®ä¿Ŀè¯»èĢħ èĥ½
obs olete
æģĴ æĺŁ
è¸ ª
å¾·éĽ· åħĭ
P sych
d ue
n ers
æĹ §
ed ag
Ġf il
Ġre cor
è¿Ļåı¥è¯Ŀ å¯¹æ¯ĶäºĨ
åľ¨è¿ĻéĩĮ åı¯ä»¥è¯ĳä¸º
å¹¶ ç¡®ä¿Ŀ
è¿ŀ éĶģ
å·²ç»ı æĺ¯ä¸Ģä¸ª
vi ew
vir tue
æĪĳè¦ģä»Ķç»Ĩ éĺħè¯»
ç»´å¤ļåĪ©äºļ æĹ¶æľŁ
æĪĳä¸įèĥ½ åĽŀçŃĶåħ¶ä»ĸéĹ®é¢ĺ
æµª æ¼«
system ic
åħĪäºİ æľ¬è´¨
criti que
Ġscholars hip
ä¸ŃæĸĩçļĦç»ĵæŀĦåĴĮ èĭ±æĸĩä¸įåĲĮ
çļĦ æıĲåįĩ
Ġp e
åĪĨ å·¥
ä¼łè¾¾ åİŁæĦı
éĩį å»º
ä»£ è¡¨
Ġde pletion
op tical
åĵ²åŃ¦ æ¦Ĥå¿µ
æĦıè¯Ĩ çłĶç©¶
äººç±» æĦıè¯Ĩ
åĲİæ®ĸæ°ĳ æĸĩåŃ¦ä¸ŃçļĦéŃĶå¹»çİ°å®ŀä¸»ä¹ī
dem and
äººåı£ ç»ĵæŀĦ
elect ron
Ġconfl ict
è¿Ļåı¥ èĭ±æĸĩç¿»è¯ĳæĪĲä¸Ńæĸĩ
Ġmix ing
éģ¿åħįçĽ´è¯ĳéĢłæĪĲçļĦ çĶŁç¡¬
' m
s ec
çļĦ éĢŁåº¦
æľ¯è¯Ń ä¸Ń
ä¸Ģ èµ·
æľĢ ä½³
ter restrial
è¯» ä¸Ģéģį
äºº æĭ©
od ynamics
è¿ĺè¦ģæ³¨æĦı ä¸ĵä¸ļæľ¯è¯ŃçļĦæŃ£ç¡®ä½¿çĶ¨
è¶ħ æĸĩæľ¬
çİ¯å¢ĥ åĽłç´ł
äºļ åİŁåŃĲ
éģĵå¾· çī¹æ®Ĭ
ä¸¤ä¸ª éĥ¨åĪĨ
bi o
Ġval ley
Ġsyn aptic
å®ĥä»¬ åľ¨
æŀĦæĪĲ æĮĳæĪĺ
è¿Ļæł·ç¿»è¯ĳ åºĶè¯¥
Ġind igenous
çĶ¨æĪ·åı¯èĥ½çļĦ éľĢæ±Ĥ
æĪĳéľĢè¦ģä»Ķç»Ĩéĺħè¯» çĶ¨æĪ·æıĲä¾ĽçļĦèĭ±æĸĩåı¥åŃĲ
organ ic
è±¡å¾ģ æĢ§
çīĽé¡¿ çī©çĲĨåŃ¦
imal ist
æģĲæĢ ĸ
åľ¨ çİ¯å¢ĥç§ĳåŃ¦
è¿ĻéĩĮ åºĶè¯¥
æ¯Ķå¦Ĥ ç¡®è®¤
Ġm eg
ur n
ä½Ĩ åİŁåı¥çļĦç»ĵæŀĦ
æ¼ Ĥ
åĨį çľĭ
ç»ĵæŀľ çļĦ
æŃ£å¼ı ç¨ĭåº¦
è¿ĻäºĽ éĥ¨åĪĨ
æİ¥ä¸ĭæĿ¥æĺ¯ åı¥åŃĲç»ĵæŀĦ
æ´ĭ æµģ
çī¹åĪ«æĺ¯ åħ³äºİ
å°½ç®¡ åŃĺåľ¨
åıįé¦Ī æľºåĪ¶
ä¸įä»ħ åĩĨç¡®
Ġemerg ence
å¾®çĶŁçī© ç»Ħ
è¿Ļåı¥è¯ĿçļĦç»ĵæŀĦåĴĮ åĲ«ä¹ī
amaterial s
æ¦Ĥçİĩ æĢ§
è¡¨ç¤ºåģĩè®¾ çļĦæĥħåĨµ
åıĳçĶŁæĢİæł· çļĦåıĺåĮĸ
åıĳçĶŁæĢİæł· çļĦè½¬åıĺ
ç¿»è¯ĳä¸įä»ħ åĩĨç¡®
éĿŀæ¬§ åĩłä½ķ
reak through
çĿ¡ çľł
åĨ¶ éĩĳ
u tilitarian
Ġc limatic
Ġm athematical
åıª åģļ
ç« Ń
ç²¾ å¯Ĩ
è¿ĺè¦ģèĢĥèĻĳ çĶ¨æĪ·åı¯èĥ½çļĦèĥĮæĻ¯
æĢİ ä¹Ī
Ġengineer ed
åĲ¬èµ·æĿ¥ æĽ´èĩªçĦ¶
åľ°ç¼ĺæĶ¿æ²» åĲİæŀľ
ä¼Ĭ å¾·
correl ate
å¼Ĺ æ´Ľ
æŃ» äº¡
frame works
N i
g ic
ç Ĵ
åĩĨ åĪĻ
æĦı è¯ĳ
æĦı å¤ĸ
æĿ¥ æºĲ
é¢ĨåŁŁ éĢļå¸¸ç¿»è¯ĳä¸º
ment ary
åŃ¦æľ¯ æľ¯è¯Ń
æ´ Ľåħĭ
ä¹Ł æľī
ä¹Ł æĺ¯æłĩåĩĨè¯ĳæ³ķ
ch romatic
ä¸Ķ åĩĨç¡®
Ġst ress
æīĭ åĬ¿
ä¸ŃæĸĩçļĦ æĿ¡ä»¶åı¥
åĽº æľīçļĦ
ä¸ŃæĸĩéĢļå¸¸ä¼ļ è¯´
ç¦» æķ£
åĩĨç¡®ç¿»è¯ĳ æ¯ıä¸ªæľ¯è¯Ń
çļĦå½¢æĪĲ è¿ĩç¨ĭ
Ġdistrib uted
è¯Ńåı¥éĢļé¡º èĩªçĦ¶
èĩªåĬ¨åĮĸ å¯¼èĩ´çļĦ
ful ly
Ġspecial ization
Ġret reat
Ġcompeti tion
Ġuncertain ty
æĪĳè¦ģç¡®ä¿Ŀç¿»è¯ĳ åĩĨç¡®ä¼łè¾¾åİŁæĦı
çİ» çĴ
åī© ä½Ļ
Ġchrom odynamics
çİ»çĴ ĥ
çļĦ è¡Įä¸º
æľ Ŀ
re main
åı¯èĥ½ è¯ĳä¸º
åĬ ª
å¼ ¯
è¿ĻéĩĮ åı¯èĥ½æĺ¯æĮĩ
æīĢä»¥ è¿ĺæĺ¯
Ġd ial
æĺ¯åĲ¦ åºĶè¯ĳä¸º
om eth
æ£ĢæŁ¥ æĺ¯åĲ¦ç¬¦åĲĪçĶ¨æĪ·çļĦæīĢæľīè¦ģæ±Ĥ
ç¡®è®¤ æľ¯è¯ŃçļĦæŃ£ç¡®æĢ§
Ġh ere
èĭ ı
æ¯ıä¸ª æľ¯è¯ŃçļĦåĩĨç¡®æĢ§
å¹¶ è¦ģæ±Ĥç¿»è¯ĳæĪĲä¸Ńæĸĩ
å¯¹æ¯Ķ åĴĮ
ä¸¤ æŀģ
æķ°åŃĹ å¹³åı°
æŁ ı
ä½ł çļĦ
Ġins titu
ä¸ŃæĸĩéĢļå¸¸ ä¹łæĥ¯
ç´§ æĢ¥
æº¶ èļĢ
è¿Ļåı¥è¯ĿçļĦç»ĵæŀĦåĴĮ æĦıæĢĿ
æĪĳéľĢè¦ģä»Ķç»ĨåĪĨæŀĲ åİŁåı¥çļĦç»ĵæŀĦåĴĮ
ç¨į æĺ¾
Ġintegr ity
ç¡®ä¿Ŀè¯»èĢħ èĥ½å¤Ł
Ġeduc ation
çĶŁçī©æłĩå¿Ĺ çī©
å¯ĨéĴ¥ åĪĨåıĳ
ometh ing
d econstructs
æĮ ¥
ä¸į ä½¿çĶ¨
æĺ¯åĲ¦ ç¬¦åĲĪä¸Ńæĸĩ
ä¸Ģ æł·
em erge
åı¯èĥ½éľĢè¦ģ ä½¿çĶ¨
æĬĢæľ¯ ä¸ĬçļĦ
Ġg ig
im pro
per petuates
åĽłæŃ¤ ä½¿çĶ¨
åİŁåı¥ä¸ŃçļĦ åĽłæŀľåħ³ç³»
åĲĪéĢĤçļĦ ä½įç½®
Ġtrans formation
éĽĨ çº¦
çĹ ĩ
èĬĤ çĤ¹
éĢļçĶ¨ äººå·¥æĻºèĥ½
æĶ¿åºľ å¹²é¢Ħ
pers onal
ä¸įåı¯éĿł åıĻè¿°èĢħ
reakthrough s
s ustain
çļĦ åĨľä¸ļ
ti al
åĲİ äººç±»ä¸»ä¹ī
è¿ĻéĩĮ åı¯èĥ½éľĢè¦ģè°ĥæķ´è¯Ńåºı
Ġs kill
Ġre p
åĬ¨ æľº
un ity
ri tical
Ġg lacial
åį³ éĢĿ
çłĶ åıĳ
è¯Ńè¨Ģ çĽ¸å¯¹è®º
è¡¨çİ° æīĭæ³ķ
Ġè¿Ļåı¥è¯Ŀ çļĦ
ç»¼åĲĪä»¥ä¸Ĭ åĩłçĤ¹
åĲİèĢħ æĽ´ç®Ģæ´ģ
cri m
art esian
Ġfunc tions
incre ased
ä¸įéľĢè¦ģçī¹åĪ« è°ĥæķ´
å¹»çģŃ æĦŁ
Ġconfigur ations
å¼Ĺæ´Ľ ä¼Ĭå¾·
s hould
s ignificant
es e
éľĢè¦ģ çī¹åĪ«
ic acy
æĺ¯åĲ¦ å®Įæķ´
Ġth ermal
å®ļ çļĦ
Ġg ases
Ġl ogical
å¯¼ åĲĳ
ä»»ä½ķ é¢Ŀå¤ĸåĨħå®¹
äºĭ çī©
å»º è®®
Ġtrans plantation
plic ating
åħ¬ æ°ĳ
å¾ĹåĪ° ä¸Ģä¸ª
evolution ary
æĭľåįłåºŃ åľ£åĥı
æĬĺå°Ħ åĩº
æīĢæľīåħ³éĶ®çĤ¹éĥ½ å·²
Ġgeomet ries
Ġrespon se
ç«ĭä½ĵä¸»ä¹ī å¯¹
æ½ľåľ¨ çļĦ
éĿŀæ¬§ åĩłéĩĮå¾Ĺ
æ¬§äºļ å¤§éĻĨ
proportion ately
äººæĭ© åİŁçĲĨ
èĢ Ĳ
an throp
æĽ´ åģıåĲĳäºİ
Ġt emporally
åİŁ æľī
it tle
çĦ¶åĲİ è¯´æĺİ
å¦Ĥä½ķ æĶ¹åıĺ
äº§ æĿĥ
æł¼ å°Ķ
å¹² æ¶ī
ç»´ æĬ¤
ĠE arth
å¼ł åĬĽ
è®¤è¯Ĩè®º æ¡Ĩæŀ¶
å°ģ éĹŃ
è®©è¯»èĢħ å®¹æĺĵçĲĨè§£
äººä»¬ å¯¹
Ġcr ust
Ġauthentic ation
Ġbl ending
Ġmer cantilist
process es
æīĢä»¥åĲĪèµ·æĿ¥ æĺ¯
æ¸©åº¦åĴĮ çĽĲåº¦
H e
b ehavioral
i qu
è ķ
Ġ 19
ti g
Ġt emper
çİ° æĪĲ
em ploys
æİ¥ä¸ĭæĿ¥ è¦ģæ³¨æĦı
Ġre quires
åĲĮæĹ¶ æ»¡è¶³
ç¡®è®¤ æĹłè¯¯
æĬĢæľ¯ æĪĸ
lo op
å¤§ éĥ½å¸Ĥ
ç¥ŀç»ı è°ĥæİ§
æĪĳçİ°åľ¨éľĢè¦ģå¤ĦçĲĨ çĶ¨æĪ·æıĲä¾ĽçļĦ
éķ¿ çļĦ
ç½ĳç»ľ æķĪåºĶ
æľīæĹ¶ ä¹Ł
å®ĮæĪĲ è¿ĻäºĽæŃ¥éª¤
èĦĳæľºæİ¥åı£ å®ŀçİ°
Ġintegr ates
Ġcommer cially
åľ¨ä¸Ńæĸĩç§ĳæĬĢæĸĩçĮ® ä¸Ń
Ġques tions
å®ĮæĪĲè¿ĻäºĽæŃ¥éª¤ åĲİ
1 5
ä¸Ń æľīçī¹å®ļ
ç¬¦åĲĪ çĶ¨æĪ·çļĦ
ä½Ĩ è¿Ļæł·
Ġac tivation
op tim
è¿ĺè¦ģæ³¨æĦı æµģçķħæĢ§åĴĮèĩªçĦ¶æĢ§
çĽ¸åħ³ èµĦæĸĻ
vers al
æĬ¥ å¤į
ä½ĨèĢĥèĻĳåĪ° ä¸Ĭä¸ĭæĸĩ
å§ ¿
Ġsim ulations
åįģ åĽĽ
æĮĩæķ°çº§ å¢ŀéķ¿
Ġrational ity
åľ¨è¿ĻéĩĮè¡¨ç¤º å¯¹æ¯Ķ
æ¨¡ä»¿ çĶŁçī©ç¥ŀç»ıç½ĳç»ľ
é»ĳ æ´ŀ
ç¢³æįķ èİ·
ele ological
Ġarc s
a e
b etween
l iter
n ecessitate
çļĦ è¯ĳåĲį
åı¯ éĿł
Ġc rop
éĢĤ çĶ¨äºİ
ç¡®ä¿Ŀ æ¯ıä¸ªéĥ¨åĪĨéĥ½
Ġs hape
ch aracter
tra it
tra de
æľĢç»Īç¿»è¯ĳ åı¯èĥ½æĺ¯
ä½Ĩæł¹æį® çĶ¨æĪ·çļĦè¦ģæ±Ĥ
æĪĳè¦ģä»Ķç»Ĩ åĪĨæŀĲ
ä½¿åı¥åŃĲæĽ´ è¿ŀè´¯
Ġecosy stem
æīĢä»¥åı¯èĥ½éľĢè¦ģ ä¿ĿçķĻ
prioritiz ed
è®©ä¸Ńæĸĩ è¯»èµ·æĿ¥èĩªçĦ¶
contra sting
çĶµç£ģæ³¢ æĵįæİ§
ĠK antian
çĪ± å¥½
åĶ¯ çī©
éĢīæĭ©æĢ§ åĨħå®¹
éĽĨæĪĲ çĶµè·¯
ocean ic
. âĢĿï¼Į
G lacial
a tivistic
t es
Ġ key
in vasive
ç¬¦åĲĪ ç§ĳæĬĢ
äºº åĬĽ
Ġh app
Ġthe ological
çĽ¸ ç»ĵåĲĪ
ç§ĳ çłĶ
åı¦ ä¸Ģä¸ª
åħ¨ ç§°
çĸĳéĹ®åı¥ ç»ĵæŀĦ
åľ¨ä¸ŃæĸĩéĩĮ æĺ¯
æĸŃ è£Ĥ
é©¬ å°Ķ
å¿ħé¡»åĩĨç¡® æĹłè¯¯
æĢİæł· çļĦå½±åĵį
æ¤į åħ¥
des ign
åľ¨åŃ¦æľ¯ æĸĩçĮ®ä¸Ń
åĳ¨æľŁ æĢ§
Ġplan etary
ä¿®é¥°è¯Ń æĶ¾åľ¨åīįéĿ¢
éģĵå¾·çī¹æ®Ĭ ä¸»ä¹ī
è¿ Ķ
er ver
æ¯Ķè¾ĥ åĪĨæŀĲ
è¯Ŀ é¢ĺ
ä¸ĵä¸ļæľ¯è¯Ń æĺ¯åĲ¦åĩĨç¡®
Ġh ar
uc h
åŃ¦æľ¯ æĢ§çļĦ
id i
pl ay
ç¡®å®ļ ä¸ĵä¸ļé¢ĨåŁŁ
ç»ıæµİåŃ¦ åĴĮ
Ġap pli
ä½ĵç³» çļĦ
ä¸ĸçºª ä¸Ń
com plete
å¾ĹåĪ° å¹¿æ³ĽåºĶçĶ¨
æĥħæĦŁ å¼ºåº¦
ä¼ļå¦Ĥä½ķ æĶ¹åıĺ
ç¼© çŁŃ
æķ´ä¸ªåı¥åŃĲçļĦ éĢ»è¾ĳåħ³ç³»
çļĦä¸įåĲĮ ä¹ĭå¤Ħ
èĨ¨ èĥĢæ¨¡åŀĭ
æĸĩçĮ®ä¸ŃçļĦ å¸¸çĶ¨è¯ĳæ³ķ
Ġmeta ph
Ġincorpor ates
Ġabs orption
åħīè°± åŃ¦
åľ¨åħ¨çĲĥèĮĥåĽ´åĨħ å®ŀæĸ½
Ġenti ties
refl ect
æ²īæµ¸ å¼ı
Ġdat as
çĪ±å¥½ èĢħ
m itig
Ġ æĪĳéľĢè¦ģä»Ķç»ĨåĪĨæŀĲ
éľĢè¦ģ æł¹æį®ä¸Ĭä¸ĭæĸĩåĪ¤æĸŃ
an timatter
æĹ ģ
çĶ¨æĪ· éĹ®çļĦæĺ¯
çī §
æ¯Ķè¾ĥ å¤įæĿĤ
et ermin
åĲĮæĹ¶ æ³¨æĦı
å¼º åĪ¶
od ing
è¡Į è¯Ĺ
è¿Ľ åħ¥
åĽłä¸º æ¶īåıĬåĪ°
form s
éľĢè¦ģç¡®ä¿Ŀ è¿ĻäºĽæľ¯è¯Ńåľ¨ä¸Ńæĸĩä¸Ń
åİĨåı² äºĭä»¶
çĽ® åīį
æĺ¯ä¸Ģä¸ª çĸĳéĹ®åı¥
äº§çĶŁ åĵªäºĽ
è·¨ è¶Ĭ
comp utational
éĢĢ ç¼©
ä¹īåĬ¡è®º æ¡Ĩæŀ¶
æĿĥåĬĽ åĬ¨æĢģ
æĭľåįłåºŃ é©¬èµĽåħĭ
ä¸Ģåı¥ èĭ±æĸĩç¿»è¯ĳæĪĲä¸Ńæĸĩ
Ġfacilit ate
Ġmitig ate
sl amic
å¤ļæĻ®åĭĴ æķĪåºĶ
åįģåĽĽ è¡Įè¯Ĺ
g reg
æĪ ´
ä¸Ń å¾Īå¸¸è§ģ
ç»ĵæŀĦ ä¹Ł
ä¸ĭ ä½¿çĶ¨
æĺ¯åĲ¦ è¢«æŃ£ç¡®
ä½Ĩ ä½ľä¸º
è¿Ļæł· æĽ´ç¬¦åĲĪ
Ġex ternal
Ġinter face
åĿ į
Ġbi om
è¯Ńæ³ķ æĺ¯åĲ¦æŃ£ç¡®
ä¸ŃåĽ½ å®¶
æķ´ä¸ªåı¥åŃĲç»ĵæŀĦ æĺ¯åĲ¦éĢļé¡º
åĽ´ ç»ķ
åĮĸåŃ¦ é£İåĮĸ
æįŁ èĢĹ
Ġmeta physical
incre asing
min ist
æĿ¿åĿĹæŀĦéĢł çĲĨè®º
æµģè¡Į çĹħ
åıĪç¬¦åĲĪä¸Ńæĸĩè¡¨è¾¾ä¹łæĥ¯åĴĮ ä¸ĵä¸ļæľ¯è¯ŃçļĦä½¿çĶ¨
åŃ¤ ç«ĭ
çļĦ åİŁåĽł
ç¬¦åĲĪ æīĢæľī
Ġb ene
çĽ´æİ¥ çĶ¨
èĭ±æĸĩ æľīæīĢä¸įåĲĮ
ç¥ŀç»ı åĽŀè·¯
æĹ¶éĹ´ çļĦ
è¡Įä¸º çļĦ
ä¸Ńæĸĩè¡¨è¾¾ æĹ¶
Ġdevelop ments
æľĢç»ĪçļĦç¿»è¯ĳåºĶè¯¥æĺ¯ åĩĨç¡®
ä¼¦çĲĨåŃ¦ ä¸ŃçļĦ
æľīæ²¡æľī åı¯èĥ½çĶ¨æĪ·éľĢè¦ģ
æĬ¥ éģĵ
è¶Ĭ æĿ¥
Ġarti sts
éĩİ åħ½
Ġcategor ical
Ġbal ance
å°¼éĩĩ çļĦ
Ġpric e
åľ¨ çĶŁæĢģ
åı¯èĥ½ åĮħæĭ¬
èĩª æ²»
èĢĮ æĺ¯æĮĩ
Ġw idely
äº§ éĩı
åģĩè®¾ åĴĮ
è®¤çŁ¥ ç§ĳåŃ¦
å°Ķ å¤«
ä¼° åĢ¼
Ġconsequ ence
ç´§ è¿«
åł Ĥ
åİ»ä¸Ńå¿ĥ åĮĸçļĦ
Pl ate
åĲİéĿ¢è·Ł çĿĢ
Ġenti re
ç»¿ èī²
u ments
al ization
ç¬¦åĲĪ ä¹łæĥ¯
è¿ĻéĩĮ åı¯èĥ½æĽ´åĢ¾åĲĳäºİ
è¾ĥ å°ĳ
as sive
å¥ ı
è¿Ļæł· è¯»èµ·æĿ¥èĩªçĦ¶
å¦Ĥä½ķ æĶ¹åıĺäºĨ
ist ol
per petuate
è¯Ĩ åŃĹ
è¢« æµĭéĩı
ä¸ŃæĸĩéĩĮ ä¹łæĥ¯
æĹ¶éĹ´ æĪĸ
ä»Ķç»Ĩ éĺħè¯»åİŁåı¥
Ġun iversally
æķ°åŃĹ åªĴä½ĵ
åİ» æİī
åĢ¾ åĲĳ
æĦıä¹ī çļĦ
Ġconsequ entialist
ç´§ å¼ł
è¾ĵåħ¥ çļĦ
Ġaut onomy
å¸ĮèħĬ åĮĸ
Ġimper ative
çı Ĭ
Ġlay ered
æ·±å±ĤéľĢæ±Ĥ åı¯èĥ½æĺ¯
åĵ¥çī¹ å¼ı
å®ŀéªĮå®¤ åŁ¹èĤ²
å¾·éĽ·åħĭ æĸ¹ç¨ĭ
åıªåģļ ç¿»è¯ĳ
Ļ çĥ¯
çĶ °
æ¯Ķ ä¼łç»Ł
æĽ´ å¼º
Ġc ertain
Ġm ul
Ġm elting
éĹ »
æľĢ åĲĪéĢĤçļĦç¿»è¯ĳ
Ġw elfare
éĹ®é¢ĺ çļĦ
Ġn utri
åĢ į
os e
ä¹ĭ å¤ĸ
col or
Ġse amless
Ġobs ervation
Ġè¿Ļåı¥è¯Ŀæ¶īåıĬ åĪ°
dis tinc
çľģçķ¥ åı·
Ġbelief s
å¥ĩå¹» åħĥç´ł
æµ·å¹³éĿ¢ ä¸Ĭåįĩ
istol ary
w arm
z y
ä¸Ń æľī
ä¸į ç¨³å®ļæĢ§
åĽ Ń
Ġs m
éģ Ń
et z
le gal
un e
Ġg ain
Ġex ascale
èīºæľ¯ é¢ĨåŁŁçļĦæľ¯è¯Ń
rec tional
æĪĳè¦ģ çĲĨè§£åİŁæĸĩçļĦæĦıæĢĿ
è¿Ļä¸Ģ æľ¯è¯Ń
sp ect
Ġval ues
ä½ĨèĢĥèĻĳåĪ° åŃ¦æľ¯è¯Ńå¢ĥ
ä¸ī ä¸ª
è½¬æį¢ æĪĲ
Ġbas ins
èĢĮä¸įæĺ¯åħ¶ä»ĸ åı¯èĥ½çļĦè¯ĳæ³ķ
æĽ´è´´è¿ĳ åİŁæĦı
Ġperiod s
å¸¸è¢« è¯ĳä¸º
Ġpredic tions
åĳĪæĮĩæķ°çº§ å¢ŀéķ¿
è¿ĻéĩĮæľīåĩłä¸ª åħ³éĶ®æľ¯è¯Ń
ä¹ĭåīįçļĦ ä¾ĭåŃĲ
manip ulate
æĽ´ç¬¦åĲĪä¹¦éĿ¢ è¯Ń
ç¡®ä¿Ŀå®Įåħ¨ çĲĨè§£
åı¯ä»¥æİ¥åıĹ çļĦ
åŁºäºİCRISPRçļĦ åŁºåĽłé©±åĬ¨æĬĢæľ¯
Ġagain st
atalyz ed
T rans
m olecular
in dividual
éĢ ¼
éĩĮ å¥¥
ç¡®ä¿Ŀ ä¸ĵä¸ļæľ¯è¯ŃåĩĨç¡®
æīĢä»¥ éľĢè¦ģè°ĥæķ´è¯Ńåºı
å¸¸çĶ¨ è¯Ń
ge opolitical
åİŁåı¥æĺ¯ æĿ¡ä»¶çĬ¶è¯Ńä»İåı¥
äºĭ æĥħ
ç² ĺ
åıĳå±ķ ä¸ŃåĽ½å®¶
ç¡®å®ŀ è¯ĳä¸º
cre ating
æĸĩåĮĸéĢĤåºĶæĢ§åĴĮ ä¸ĵä¸ļæľ¯è¯ŃçļĦæŃ£ç¡®ä½¿çĶ¨
æ²¡æľīéģĹæ¼ıæĪĸ æĽ²è§£
åĲ¯èĴĻ æĢĿæĥ³
è¿ľ ç¨ĭ
Ġmanif est
è¯¾ ç¨ĭ
åĮħåĲ«åľ¨ åĨħ
crim ination
å§¿ æĢģ
etz sch
d ge
f ers
åŃ £
Ġm apping
èµ «
è¿Ļæł· æĽ´ç®Ģæ´ģ
åĲĮæĹ¶ ä¹Ł
ä¹Ł å¾Īéĩįè¦ģ
ge ological
éĩıåŃĲ å¼ķåĬĽ
æĸĩåŃ¦ ä½ľåĵģ
å®ĩå®Ļ èĨ¨èĥĢæ¨¡åŀĭ
Ġexp and
ä¹Łæĺ¯ å¸¸è§ģ
å®īåħ¨ æĢ§
ä¸įä¼ļæľī éĹ®é¢ĺ
éĢĴ å½Ĵ
æ·±åº¦ åŃ¦ä¹ł
Ġcl assi
ç¬¬äºĮ ç§į
ceed ing
éĩİåħ½ æ´¾
A ä¸İB
d ata
r ors
æľ Ī
ç¬¦åĲĪ æĸĩåĮĸä¹łæĥ¯
æĪĳ çŁ¥éģĵ
æ²¡æľī çĽ´è¯ĳçļĦçĹķè¿¹
Ġre place
res ource
çĲĨè®º ä¸ŃçļĦ
è¯»èĢħ çĲĨè§£
çĶŁçī© çī¹å¾ģ
ran sist
Ġdis crimination
èĢĥèĻĳåĪ° åŃ¦æľ¯è¯Ńå¢ĥ
æĪĳéľĢè¦ģç¡®ä¿Ŀ æľ¯è¯ŃåĩĨç¡®
Ġeconom ically
Ġmanip ulate
æīĢä»¥å¿ħé¡» ç¡®ä¿Ŀç¿»è¯ĳç»ĵæŀľ
çĦ¶åĲİè¦ģç¡®ä¿Ŀ åı¥åŃĲçļĦæµģçķħæĢ§
æľºæ¢° åĮĸ
textual ity
ç¡®ä¿Ŀæ²¡æľīæ·»åĬł é¢Ŀå¤ĸåĨħå®¹
èĩªåĬ¨é©¾é©¶ æ±½è½¦
hiel d
Ġinstitu tions
è¶ĬæĿ¥ è¶Ĭ
t l
u tive
æĺ¯ ç»ıæµİåŃ¦ä¸ŃçļĦ
re ver
Ġf ul
åĩº äºĨ
å¦Ĥæŀľ çĽ´è¯ĳ
èīºæľ¯ çļĦ
ag reements
Ġim ag
æŁ Ķ
çĦ¶åĲİèĢĥèĻĳ æĸĩåĮĸéĢĤåºĶæĢ§
Ġse ques
å·¥ä½ľ èĢħ
çļĦè¯´æ³ķ æĺ¯
æīĢä»¥ä¸įéľĢè¦ģ è°ĥæķ´
æİ¢è®¨ çļĦæĺ¯
gener ate
æīĵ åį°
Ġprog ression
åĩĿèģļ åĬĽ
å²Ĺä½į æµģå¤±
Ġorig inal
p o
æľī ä»Ģä¹Ī
åİŁ åĪĽ
è§£ æŀĲ
è¿Ļæł· çļĦè¯įæ±ĩ
åİŁæĦı æĺ¯
ap plications
Ġst y
è¯»èµ·æĿ¥ éĢļé¡º
iter ia
éģĵå¾· åĨ³çŃĸ
è¿Ļä¸Ģ æ¦Ĥå¿µ
ä½¿åı¥åŃĲ è¯»èµ·æĿ¥èĩªçĦ¶
ä¸»å¯¼ çļĦ
Ġgra vity
æĳ ĩ
ä¸Ńä½¿çĶ¨ è¿Ļåı¥è¯Ŀ
éĩıåŃĲåĬĽåŃ¦ ä¸ŃçļĦ
çĦ¶åĲİè¦ģæ£ĢæŁ¥ åı¥åŃĲçļĦæµģçķħæĢ§
è¾© è®º
æħ ¢
éļ§ ç©¿
æµªæ¼« ä¸»ä¹ī
c entral
s k
æĺ¯ ä¸Ģç§į
æīĢä»¥ ç¿»è¯ĳæĹ¶è¦ģç¡®ä¿Ŀ
åĴĮ è¡¨è¾¾æĸ¹å¼ı
Ġs omething
Ġin de
æĭ ¼
ir ing
çĶŁçī© åĮ»åŃ¦
åıª ä¼ļ
æºĲ èĩª
é¢Ŀå¤ĸ çļĦè§£éĩĬæĪĸè¯´æĺİ
Ġcont r
ant astical
çĶ¨æĪ·åı¯èĥ½å¸ĮæľĽ ç¿»è¯ĳç»ĵæŀľ
æ¿Ģ åħī
Ġas similation
Ġalgorith m
æ£ĢæŁ¥æĺ¯åĲ¦æľīéģĹæ¼ıæĪĸ ä¿¡æģ¯
ä¸Ńæĸĩç»ĵæŀĦ åı¯èĥ½éľĢè¦ģè°ĥæķ´
Ġed ge
åĲİçİ°ä»£ä¸»ä¹ī æĸĩåŃ¦
arti stic
å¹¶ä¸Ķæľī è¯¦ç»ĨçļĦç¿»è¯ĳè¦ģæ±Ĥ
wave length
å§Ķ æīĺ
éļĲèº« è£ħç½®
Ġstabiliz ation
Ġiniti atives
è´Ńä¹° åĬĽ
å¼¯ æĽ²
s ugges
u ally
çļĦ æŃ£ç¡®
at ers
ä¸ŃçļĦ ä½ľçĶ¨
å¥ ĸ
le ep
çº ¹
Ġpro b
èĥ ¶
ç² ®é£Ł
Ġr ight
æ¬ ¢
èĤ ¥
osph ere
çĶŁæĢģç³»ç»Ł çļĦ
æĬĢæľ¯çļĦ è¿ĽæŃ¥
æ¹ ĸ
è¶ĭ åĲĮ
åı¯èĥ½ä¸įå¤Ł åĩĨç¡®
æķ´åı¥è¯Ŀ çļĦç»ĵæŀĦ
æŃ£å¼ıåĴĮ åĩĨç¡®
Ġorganiz ations
åĬª åĬĽ
d iss
äº Ł
åĩĨç¡® å¤ĦçĲĨä¸ĵä¸ļæľ¯è¯Ń
çĶ¨æĪ· æĺ¯
èĩª èº«
å¤ĦçĲĨ åĻ¨
Ġcon finement
res hape
çĥŃ çĤ¹
çĶŁæĢģç³»ç»Ł ä¸Ń
Ġrespon sibility
æľįåĬ¡ ä¸ļ
Ġob jects
Ġobserv ations
Ġdiff usion
Ġgall ery
è¡Ķ æİ¥
G I
çļĦ è¡°èĲ½
è¿Ļ æ®µ
èĩªçĦ¶ çļĦ
ci entific
è¦ģç¡®ä¿Ŀ ç¿»è¯ĳåĩĨç¡®
å¤§ ä¼Ĺ
ut ability
å¯¹æ¯Ķ çļĦæĺ¯
èĢĥèĻĳåĪ° åŃ¦æľ¯
å¤± åİ»
ari ff
âĢ¦âĢ¦ï¼Į âĢ¦âĢ¦
Ġregion al
æł¹æľ¬æĢ§ å·®å¼Ĥ
æĪĳè¦ģç¡®ä¿ĿåĩĨç¡®çĲĨè§£ åİŁæĸĩçļĦæĦıæĢĿ
çĽ®çļĦ çĬ¶è¯Ń
åĢĴè£ħ çļĦ
Ġtop ological
Ġdomin ance
expl ains
oler ance
Sp ace
è®¤çŁ¥å¤±è°ĥ çĲĨè®º
ç»ıéĻ¢ åĵ²åŃ¦
è¿Ķ åĽŀ
J ust
u als
çļĦ ä¾Ŀèµĸ
æĺ¯ èĻļæĭŁè¯Ńæ°Ķ
ä¸į åĨį
æµģçķħ çļĦ
em i
éĿ¢ å¯¹
ä¿ĿæĮģ åİŁåı¥ç»ĵæŀĦ
æĭ Ľ
éĩıåŃĲ å¯ĨéĴ¥åĪĨåıĳ
è¿ĻäºĽ è¯įæ±ĩ
æĹ¶éĹ´ æĦŁçŁ¥
åĲİéĿ¢ çļĦéĥ¨åĪĨ
erm line
val u
ĠI oT
åįķ ä¸Ģ
æĭī åĽ¾
ä¸»åı¥æĺ¯ çĸĳéĹ®åı¥
å±ı å¹ķ
éģĩ åĪ°
æĴ° åĨĻ
æŁı æĭīåĽ¾
ç»ĵ æĿŁ
Ġg ame
è¾ĵ éĢģ
ç§¯ æŀģ
çº¿ ç²Ĵ
æł¹æľ¬ åĪĨæŃ§
åħ± ä»·
ati s
ving s
æľºæ¢° åĽ¢ç»ĵ
Ġcal ci
wh en
acceler ated
æĺ¾ç¤º åĩº
Ġplan ning
ĠT reaty
Ġmeasure ments
Ġsuc cess
åĿį ç¼©
è¯ĨåŃĹ çİĩ
çº¿ç²Ĵ ä½ĵ
h olographic
st rating
éĢļ ä¿Ĺ
æ²¡æľī é¢Ŀå¤ĸè§£éĩĬ
æ²¡æľī æ¼ıæİī
as ure
çĲĨè§£ æ¯ıä¸ªæľ¯è¯ŃåĴĮ
åı¯èĥ½éľĢè¦ģ èĢĥèĻĳ
ab olic
Ġpro ven
Ġl og
åľ¨ä¸Ńæĸĩ è¯Ńå¢ĥä¸ĭ
Ġac tion
åıª ç»Ļåĩºç¿»è¯ĳç»ĵæŀľ
ex tr
ç¢ °
éľĢè¦ģç¡®ä¿Ŀ æľ¯è¯Ń
cep t
æıĲåĩº æĮĳæĪĺ
æ³ķå¾ĭ äººæł¼
æĹ¥ å¸¸çĶ¨è¯Ń
use um
å±ħ ä½ı
Ġimper atives
phot onic
å¿łå®ŀäºİ åİŁæĦı
åľ°ä¸ĭ æ°´
æ²Ļ æ¼ł
åĮĸçŁ³ çĩĥæĸĻ
æľīåĬ© äºİ
c yc
er es
è® ¿
åľ¨ åŃ¦æľ¯è¯Ńå¢ĥ
æľī åħ³
ä¸ŃçļĦ æŃ£ç¡®æĢ§
Ġg ains
æ¯ıä¸ª è¯įæ±ĩ
os sil
éĽ ħ
éĩĩ åıĸ
è¿Ļç§į å¯¹æ¯Ķ
çķĮ å®ļ
è¡¡ éĩı
Ġy ears
ç§» æ°ĳ
pos ing
sub sequent
çĶ¨æĪ·å¼ºè°ĥ ç¿»è¯ĳ
æĥħæĦŁ åħ±é¸£
ä¼ļå¦Ĥä½ķ æ¼Ķåıĺ
æĬķ å½±
åįļå¼Īè®º æ¨¡åŀĭ
éĩįçĤ¹ åľ¨äºİ
divid uals
æīĢä»¥ä¿ĿæĮģåİŁ è¯ĳ
Ġparadox es
Ġinequal ities
Ġob jective
Ġtherap y
å·²ç»ıå¾Ī æ¸ħæĻ°
åŃĹéĿ¢ çļĦ
Ġfacilit ated
oles cence
Ġprogramm ing
rad ical
Ġstat us
Ġargu ments
idi rectional
l ay
u tiliz
er ies
ä¸Ńæĸĩ åı¯ä»¥çĶ¨
æĸĩåĮĸ äº¤æµģ
ci ties
åŃ¦æľ¯ é¢ĨåŁŁçļĦ
åĨį çľĭçľĭ
æĶ¾åľ¨ åĲĪéĢĤçļĦä½įç½®
è½¬ çŀ¬
ub le
Ġne o
æķ°åŃĹ çĽĳæİ§
ĠE uras
çĨ µ
Ġinflu ences
ç»¼åĲĪä»¥ä¸Ĭ èĢĥèĻĳ
åı¯èĥ½çļĦç¿»è¯ĳ éĢīé¡¹
sub jective
ä½ĨåİŁåı¥ ç»ĵæŀĦ
Ġinst ability
åľ¨æĸĩåŃ¦ æī¹è¯Ħ
çļĦä¸Ńæĸĩ æľ¯è¯Ń
éĽĨä¸Ń å¼ı
Ġcounter parts
Ġadjust ment
è½¬çŀ¬ åį³éĢĿ
Ġp ur
æĿ¥ æī§è¡Į
it ation
Ġo w
æĪĸèĢħ çĽ´æİ¥
åĲĮæĹ¶ è¦ģç¡®ä¿Ŀ
am m
Ġdis agreements
åĵªäºĽ åĽłç´ł
å¡ĳ æĸĻ
Ġcomm ons
rel ativistic
ä¸įéľĢè¦ģé¢Ŀå¤ĸ è°ĥæķ´
å¯Ĩçłģ ç³»ç»Ł
ä¸ĵæľīåĲįè¯į çļĦæŃ£ç¡®ç¿»è¯ĳ
æĬķ åħ¥
åĨįæ£ĢæŁ¥ä¸Ģä¸ĭ ä¸ĵä¸ļæľ¯è¯Ńæĺ¯åĲ¦æŃ£ç¡®
enh ance
æĪĸèĢħæĺ¯åĲ¦éľĢè¦ģ çĶ¨
ç§ĳæĻ® æĸĩç«ł
æ£®æŀĹ çłįä¼Ĳ
å¥¥åľ°åĪ© åŃ¦æ´¾
Ġappli ed
b al
m arine
çļĦ æ¨¡å¼ı
è¦ģ è¯»èµ·æĿ¥èĩªçĦ¶
å¸ Ī
Ġt un
Ġt ropical
or i
Ġre ad
Ġh is
æıĲ æ¡Ī
åĨħ çĶŁ
ç¬¦åĲĪä¸ŃæĸĩçļĦ è¯Ńæ³ķä¹łæĥ¯
ir rors
Ġtrans fers
åĳ½ è¿Ĳ
å¤± ä¸ļ
erv ed
Ġlo ad
Ġdecision s
æ²¡æľīéģĹæ¼ıæĪĸ æ·»åĬł
åĿĩè¡¡ è°ĥæķ´
æĪªçĦ¶ ä¸įåĲĮ
æĦıè¯ĨæµģåıĻäºĭ æĬĢå·§
Ġdeploy ment
Ġcircu its
bec ome
å¹²æĹ± åľ°åĮº
è¿Ļæł·çĶ¨æĪ·çļĦéľĢæ±Ĥ å°±èĥ½
æ¸©å®¤ æ°Ķä½ĵ
éĻĦåĬł ä¿¡æģ¯
éľĢè¦ģ ç¡®å®ļ
or bital
it ary
æ³¨æĦı åı¥åŃĲçļĦæµģçķħæĢ§
äºº æĿĥ
æĬĢæľ¯ ç»ĨèĬĤ
ç§ĳ å¹»
åı¥åŃĲç»ĵæŀĦ æĺ¯åĲ¦éĢļé¡º
è¿Ļæĺ¯ å¸¸è§ģçļĦè¯ĳæ³ķ
Ġde liberate
éĿŀ ä¾µåħ¥
åŃĺåľ¨ äºīè®®
å¹¶ä¸Ķ æľ¯è¯Ńä½¿çĶ¨æŃ£ç¡®
äºļ æ³¢éķ¿
ä¸»åı¥ åľ¨åĲİ
éģĵå¾· è´£ä»»
Ġdevelop ing
ential ism
pos es
Ġelect ro
light s
ilit ary
å¹²é¢Ħ æİªæĸ½
Ġcr ises
å°ĨéľĢè¦ģ è¿Ľè¡Į
çº¢ ç§»
èĢĮä¸įæĺ¯çĽ´è¯ĳ æĪĲ
Ġintern ally
Ġdramatic ally
çĵ¦ è§£
Ġdatas ets
u strates
çļĦ çĶŁçī©
è¦ģ åĩĨç¡®ä¼łè¾¾åİŁæĦı
åı¥ åı·
éľĢè¦ģ ç²¾ç¡®
åľ¨ ä¸įåĲĮ
è¡¨ å¾ģ
ro om
ä¸ĵ éĹ¨
ur ation
Ġth ink
Ġf iat
Ġe lev
å®ļ å¾ĭ
è¿ĺ éľĢè¦ģæ³¨æĦı
pl aces
Ġl ab
åı¯èĥ½æĽ´ å¥½
åŀĭ åĬ¨çī©
æĽ´èĩªçĦ¶ çļĦè¡¨è¾¾æĸ¹å¼ı
æķ´ä½ĵ éĢļè¯»ä¸Ģéģį
æµ· ä¸Ĭ
çģ ¾
å°ı åĨ°æľŁ
ç¿»è¯ĳæĹ¶è¦ģä¿ĿæĮģ éĢ»è¾ĳåħ³ç³»
âĢĿï¼Ł âĢľ
éĻĨ åľ°
åıĤä¸İ å¼ı
ä¸įä»ħ ä»ħæĺ¯
åĲ¬èµ·æĿ¥ èĩªçĦ¶
ç¨İ æĶ¶
æĺŁéĻħ æĹħè¡Į
ä¸įä¼ļæľīçĲĨè§£ ä¸ĬçļĦ
è®½ åĪº
d en
r it
y pe
er ror
éľĢè¦ģ è¡¨è¾¾
at s
ç¡®ä¿Ŀ åı¥åŃĲç»ĵæŀĦ
ç¡®ä¿Ŀ ä¸ĵä¸ļæĢ§
ç¡®è®¤ ç¿»è¯ĳ
åıĺ æĪĲ
ab atic
ad aptive
ç»ıæµİ ä½ĵç³»
im m
çİ°åľ¨ è¦ģèĢĥèĻĳ
Ġper formance
Ġle ad
åįķ æķ°
æ²īç§¯ æ¨¡å¼ı
ä¼ļå¦Ĥä½ķ åıĺåĮĸ
å®ĮæĪĲ ç¿»è¯ĳ
ä¸Ńä¸ĸçºª çļĦ
æľºåĻ¨äºº åŃ¦
Ġcr iteria
èĢĮä¸Ķ ä»ĸä»¬
coun ter
éĩİ çĶŁ
æĬµ æĬĹ
æĪĳéľĢè¦ģå¤ĦçĲĨçĶ¨æĪ·æıĲä¾ĽçļĦ è¿Ļä¸ªç¿»è¯ĳè¯·æ±Ĥ
Ġexten sion
æĹģ è§Ĥ
b ig
æ ħ§
é º
Ľ çŁ¿
ä¸ Ļçĥ¯
ä½ Ľ
æĪ· å¤ĸ
Ġd econstruction
Ġs ing
ä¼ļ å¯¹
Ġre ferences
çĦ¶åĲİ åĲİåįĬåı¥
Ġh ard
Ġn ational
Ġg ap
è¡¨ç¤º ä¸Ģç§į
æĺ¯åĲ¦åĩĨç¡® å¯¹åºĶ
å¸Ĥåľº çļĦ
Ġat titu
å®ī æİĴ
æľĢåĲİç¡®è®¤ æĺ¯åĲ¦ç¬¦åĲĪçĶ¨æĪ·çļĦè¦ģæ±Ĥ
ä¹Łæĺ¯ å¸¸çĶ¨
éĴ ĽçŁ¿
åįķ ä½į
Ġep istem
çľĭèµ·æĿ¥ åĥı
æĺ¯åĲ¦æľīéģĹæ¼ıæĪĸ éĶĻè¯¯
recon fig
è½¬æĬĺ åħ³ç³»
éĴĻ éĴĽçŁ¿
tis s
è¾©è¯ģ æ³ķ
çļĦ è®¡ç®Ĺ
çļĦ æľºåĪ¶
åı¯ æī©å±ķæĢ§
éľĢè¦ģ æł¹æį®
æĽ´ æĺĵæĩĤ
åı¯èĥ½ è°ĥæķ´ä¸º
Ġt olerance
Ġf ields
ä¼ļ å½±åĵį
æľĢåĲİ ç¡®ä¿Ŀæ²¡æľīéģĹæ¼ıä¿¡æģ¯
çº ½
æŃ£å¼ı åĴĮä¸ĵä¸ļ
å¼Ĥ ç§į
ç»ĵåĲĪ äºĨ
Ġmo tion
åıĪç¬¦åĲĪä¸ŃæĸĩçļĦè¡¨è¾¾ä¹łæĥ¯åĴĮ ä¸ĵä¸ļæľ¯è¯Ń
Ġeffici encies
Ġpre valence
Ġse ismic
æ£ĢæŁ¥æĺ¯åĲ¦æľīéģĹæ¼ıæĪĸ æŃªæĽ²ä¿¡æģ¯
åĩºçİ° åĵªäºĽ
åħīåŃĲ éĽĨæĪĲçĶµè·¯
ç¿»è¯ĳä¸įä»ħ è¦ģåĩĨç¡®
åŃ© åŃĲ
greg ate
B ronze
f ocus
x im
éľĢè¦ģ ç¬¦åĲĪä¸Ńæĸĩè¡¨è¾¾ä¹łæĥ¯
åľ¨ è¯ĳæĸĩä¸Ń
è¿ĻéĩĮ çĶ¨æĪ·
åĴĮ ä¸ĵä¸ļæľ¯è¯Ń
åĪĨ æĶ¯
om atic
è´ ¬
è´ Ŀ
æĪĸèĢħ åħ¶ä»ĸ
å½± æķĪæŀľ
èĢĮä¸įæĺ¯ çĽ´è¯ĳçļĦ
éĩıåŃĲ äºĴèģĶç½ĳ
éĽ Ħ
åīįéĿ¢ çļĦ
ä»İ ä¸ļ
æīĢä»¥ä¿ĿæĮģ åİŁæĦı
æĪĳéľĢè¦ģä»Ķç»Ĩ çĲĨè§£åİŁåı¥çļĦæĦıæĢĿ
æĪĳè¦ģä»Ķç»Ĩ çĲĨè§£
ep igenetic
Ġelect ronic
ä½ĨåİŁåı¥ çĶ¨çļĦæĺ¯
å¼ķèµ· è¯¯è§£
åľ¨åĵ²åŃ¦ åĴĮ
inforc ing
Ġincorpor ate
çĶ¨æĪ·è¿ĺ çī¹åĪ«è¯´æĺİ
éľĢè¦ģåĩĨç¡®çļĦç¿»è¯ĳ æĿ¥
è´Ńä¹°åĬĽ å¹³ä»·
äºŁ éľĢ
b lockchain
åı¯ è¯»
ç»ĵ åĲĪèµ·æĿ¥
æĪĸ å¯¹
çĶ¨æĪ· çī¹åĪ«è¯´æĺİ
å¸¸ è¯´
åŁ ĥ
æĬĢ æľ¯è¯Ńå¢ĥ
åľ° è¯´
ç¡®è®¤ æľ¯è¯Ńæĺ¯åĲ¦æŃ£ç¡®
Ġcon sist
çº Ĥ
od ed
ver tical
å¦Ĥä½ķ åıįæĺł
å°Ĩ å¦Ĥä½ķå½±åĵį
è¯»èĢħ èĥ½
ä¸įèĥ½ åĽŀçŃĶåħ¶ä»ĸéĹ®é¢ĺ
Ġr ig
å·²ç»ı å¾Īå¸¸è§ģ
vi val
æĤ £
Ġon e
ç¼ĸ çºĤ
åĽºå®ļ è¯ĳæ³ķ
å®īåħ¨ åįıè®®
éĢĢ ä¼ĳ
éĩıåŃĲè®¡ç®Ĺ æľº
Ġass ess
Ġmon ey
æĪĳéľĢè¦ģä»Ķç»Ĩéĺħè¯» åİŁåı¥
elect romagnetic
pred ic
integ ration
Ġsel ection
Ġorganiz ational
Ġvelo cities
Ġparticular ism
çİ°æĪĲ åĵģ
trait ure
é©¬å°Ķ åħĭæĸ¯
éĢ¼ çľŁ
ç¢° æĴŀ
P leistocene
k el
åı¯èĥ½ è¢«
çķ ľ
Ġm antle
ur ies
ul k
å¤ĸ äº¤
li er
æĹ¢ ä¿ĿçķĻäºĨ
èīºæľ¯ åĪĽä½ľ
æĪĺ åĲİçļĦ
con fl
æľĢåĲİæ£ĢæŁ¥ æľīæ²¡æľīéģĹæ¼ıçļĦä¿¡æģ¯
ç¥ŀç»ı æİ¥åı£
åħī æķıæĦŁ
Ġv ent
å½¢æĪĲ äºİ
Ġeff orts
éĤ£ ç§į
åĩı è½»
ogen ous
çĲĨæĢ§ ä¸»ä¹ī
Ġis ostatic
æīĢä»¥å¿ħé¡» ç¡®ä¿Ŀ
æĪĳéľĢè¦ģç¡®å®ļ æ¯ıä¸ªæľ¯è¯ŃçļĦåĩĨç¡®ç¿»è¯ĳ
è´§å¸ģæĶ¿çŃĸ å·¥åħ·
æľīæľº åĽ¢ç»ĵ
Ġposi tive
Ġdetermin ism
è½® çıŃ
èĴ¸ æ±½
Ġgri d
remoph ile
b ial
r al
æľ¯è¯Ń éĥ¨åĪĨ
ç¬¦åĲĪ åİŁæĸĩçļĦ
éĿŀ æ´²
pro babilistic
ç½® äºİ
act or
åĬłå¯Ĩ æłĩåĩĨ
è§ī å¾Ĺ
Ġsur plus
è¯Ńåı¥ æĺ¯åĲ¦éĢļé¡º
æķ´ä½ĵç»ĵæŀĦ æĺ¯åĲ¦éĢļé¡º
è®ºæĸĩæĪĸ æĬ¥åĳĬ
ä½¿åı¥åŃĲ æĽ´ç¬¦åĲĪä¸Ńæĸĩè¡¨è¾¾ä¹łæĥ¯
Ģæ¨¡ å¼ı
ä»ĭè¯į çŁŃè¯Ń
Ġtraged ies
Ġdemonstr ated
ķ å°Ķ
çļĦ èī²å½©
æĺ¯ å¿ħè¦ģçļĦ
è¦ģ è¯ĳä¸º
åľ¨ ç¿»è¯ĳæĹ¶
æĪĸ ä¸į
è¿ĻéĩĮ æ¶īåıĬåĪ°
æīĢä»¥ åĩĨç¡®æĢ§
æīĢä»¥ åĪĿæŃ¥ç¿»è¯ĳåı¯èĥ½æĺ¯
ed om
æ± Ĳ
è¿Ļæł· å¤ĦçĲĨ
Ġg est
å½¢ è±¡
éĹ´ æİ¥
ç»ıæµİ æ¨¡åŀĭ
Ġv o
ä¸įèĥ½ éģĹæ¼ıæĪĸ
åıį å¼¹
è¯»èµ·æĿ¥ æĽ´é¡ºçķħ
éģ¿åħį è¯¯è§£
Ġeff icacy
èĥ½å¤Ł åľ¨
èī² åŁŁ
ç¡®å®ŀ æĮĩ
çĥŃ æ¶²
æĻº æħ§
ä¸»è°ĵå®¾ ç»ĵæŀĦ
ĠC ol
å¤§æ°Ķ ä¸ŃçļĦ
æĿĥåĬĽ åħ³ç³»
Ġtr igger
åĳĪçİ° åĩº
Ġcosm ology
æµ·å²¸ åľ°è²Į
éĢĤåĲĪçĽ®æłĩè¯»èĢħ çĲĨè§£
Ġshe et
é©¬åħĭ æĢĿ
ä¹¦ä¿¡ ä½ĵ
åĪ¶åĨ· éľĢæ±Ĥ
i tics
çļĦ æĶ¹åıĺ
çļĦ éĻĲåĪ¶
éľĢè¦ģ ç¬¦åĲĪä¸ŃæĸĩçļĦè¡¨è¾¾ä¹łæĥ¯
ro g
om ically
ä¼ļ å¦Ĥä½ķå½±åĵį
ä¿ĿæĮģ ä¸ĵä¸ļæľ¯è¯ŃçļĦæŃ£ç¡®æĢ§
ç¤ ¼
å®ļ åĪ¶
ä¸İ äººç±»
åľ¨è¿ĻéĩĮ æľī
ç© ´
ex istential
è¶ħ å¯¹ç§°
å¾· æĢ§
çĸĳéĹ®åı¥ çļĦå½¢å¼ı
åģĩè®¾ çļĦæĥħåĨµ
Ġper petuate
æĸĩåĮĸéĢĤåºĶæĢ§åĴĮ æµģçķħæĢ§
ä¸ŃåĽ½ äºº
Ġreg ulate
åĩłä½ķ æĬ½è±¡
åĲİæŀľ è®º
åĩ¯æģ©æĸ¯ ä¸»ä¹īçļĦ
Ġgra d
æľīåĽºå®ļ çļĦè¯ĳæ³ķ
ator ial
ç¡®ä¿Ŀä¸Ńæĸĩ æµģçķħ
åĸ· åı£
æ½® æ±Ĳ
det ermin
èµĭ äºĪ
æĭ¥ æľī
Ġregim es
Co astal
D A
E urocentric
e utic
æĿ¥ é¢łè¦Ĩ
Ġre actions
åı¥åŃĲçļĦ æķ´ä½ĵæµģçķħæĢ§
èĭ±æĸĩ ç¼©åĨĻ
ç¥ŀ åľ£
åŃĺåľ¨ ä¸»ä¹īçļĦ
åĨ³ äºİ
sci ence
ç¦ ģ
åı¤ æ°ĶåĢĻ
åıĸ åĨ³äºİ
ä¸¤èĢħ çļĦ
æ²¡æľīå¤ļä½Ļ çļĦåĨħå®¹
èĳĹ åĲį
Ġorgan ization
æ°¸ä¹ħ æĢ§
ç¼º å¤±
ä¸´ åºĬ
æİª è¾ŀ
èĩªçĶ± æĦıå¿Ĺ
ak es
æļĤ æĹ¶
Ġincreasing ly
mon etary
ç¡®ä¿Ŀæ²¡æľīä½¿çĶ¨ ä»»ä½ķ
æĤ¬ æµ®
æĺ¯å¯¹ çļĦ
ç»§ ç»Ń
Ġexpect ations
grow n
äºĮèĢħ åľ¨
Ġinde x
ä»İä¸ļ èĢħ
j ections
r ical
u ff
è¦ģ æµģçķħèĩªçĦ¶
al ies
es pan
ä¸Ńæĸĩ è¯Ńåºı
åı¯èĥ½ æľīçĤ¹çĶŁç¡¬
æīĢä»¥ åı¯ä»¥è°ĥæķ´ä¸º
Ġs al
èµ Ľ
èīºæľ¯ ä½ľåĵģ
æķĪ çĶ¨
ke ep
è¯įæ±ĩ éĢīæĭ©
ä¸ĬçļĦ å·®å¼Ĥ
æľĢç»ĪçļĦç¿»è¯ĳ åı¯èĥ½æĺ¯
Ġwh o
éĢļçĶ¨ æĢ§
çī©çĲĨåŃ¦ çļĦ
æĪĳè¦ģä»Ķç»Ĩ çĲĨè§£åİŁæĸĩçļĦæĦıæĢĿ
è¿ĺè¦ģ ç¬¦åĲĪä¸ŃæĸĩçļĦè¡¨è¾¾ä¹łæĥ¯
Ġam ong
éĺ² å¾¡
åĲİçİ°ä»£ä¸»ä¹ī å°ıè¯´
real ist
åĵªä¸ª æĽ´åĲĪéĢĤ
Ġconcentr ation
engineer ing
å¯¿åĳ½ å»¶éķ¿
çĬ¯ ç½ª
Ġexplan ations
çĽ´æİ¥ç¿»è¯ĳçļĦè¯Ŀ åı¯èĥ½æĺ¯
U ni
d ers
p rom
æľī äºĽ
åĬ ŀ
Ġt ransist
st andard
it es
æīĢä»¥ ç»ĦåĲĪèµ·æĿ¥åºĶè¯¥æĺ¯
åĴĮ æĸĩåĮĸéĢĤåºĶæĢ§
Ġm aritime
åı¯ä»¥ ä¿ĿæĮģ
Ġg entrification
os ity
con ceptual
æİ¥ä¸ĭæĿ¥æĺ¯ ä¸»åı¥
éľĢè¦ģç¡®ä¿Ŀ ç¿»è¯ĳåĲİçļĦåı¥åŃĲ
Ġsp ending
è¿Ļéĥ¨åĪĨ éľĢè¦ģå¤ĦçĲĨ
Ġsoci ological
é¢Ħ åħĪ
çĶ¨æĪ·åı¯èĥ½å¸ĮæľĽ è¯ĳæĸĩ
tim ates
äººå·¥ åħīåĲĪä½ľçĶ¨
Ġfl uvial
ĠL atin
åŁ¹ è®Ń
Ġpainting s
éļĶ ç¦»
çĶ¨æĪ·è¦ģæ±Ĥå°Ĩ èĭ±æĸĩåı¥åŃĲ
Ġpersonal ized
åı¯æĮģç»Ń æĢ§
ä¸ĵæ³¨äºİ ç¿»è¯ĳ
çĥŃæ¶² åĸ·åı£
çļĦ åı¥å¼ı
åı¯ å®ŀçİ°
æ¯Ķè¾ĥ äºĨ
Ġe liminate
åī ¥
Ġcon duct
è¿Ļä¸ª æ¯Ķè¾ĥçĽ´æİ¥
Ġex ec
Ġv on
éĽ ĩ
å°ı åŀĭåĮĸ
Ġon ly
åĬłå¯Ĩ æĸ¹æ³ķ
ict ory
hap ed
çĶŁæĪĲ å¯¹æĬĹ
Ġpos sibilities
ins ic
wh ereas
An d
åķĨåĵģ åĮĸ
Ġphotos ynthetic
è¿Ļæł·çĶ¨æĪ·å¾ĹåĪ° çļĦç¿»è¯ĳç»ĵæŀľ
Ġpreced es
Crypt ocurrency
æ´»åŃĹ åį°åĪ·æľ¯
æ¼Ĥ ç§»
åĶ¯çī© ä¸»ä¹ī
big u
A GI
U BI
çļĦ å®ĩå®Ļ
çļĦ çĽ¸äºĴä½ľçĶ¨
è§ Ī
çĶ¨æĪ· åı¯èĥ½éľĢè¦ģ
åı¯èĥ½éľĢè¦ģ æĽ´
Ġpro ve
çİ¯ ä¿Ŀ
ä¸ŃæĸĩéĩĮ éĢļå¸¸ä¼ļè¯´
çĽ¸åħ³ æľ¯è¯Ń
åİĨåı² ä¸Ĭ
Ġcom plicate
è¿Ļä¸ªæľ¯è¯Ń åľ¨ä¸ŃæĸĩéĩĮå·²ç»ı
åľ°è´¨åŃ¦ ä¸ŃçļĦ
å§ Ĩ
Ġfre edom
enab ling
Ġli ving
Ġdomin ate
Ġpubl ishing
æľīåĬĽ åº¦
éĺµ åĪĹ
æĸĩåĮĸä¸ĬçļĦ ä¸įéĢĤåºĶ
æĺİæļĹå¯¹çħ§ æ³ķ
Ġchem ist
èĩªæ²» ç»Ħç»ĩ
" ï¼Į
b ol
l ical
s el
è¯ ī
åĩ ½
ä¸Ńæĸĩ æµģçķħèĩªçĦ¶
åŃ¦ éĻ¢
æĺ¯åĲ¦ åºĶè¯¥
åĨį æĿ¥çľĭ
åıĬ åħ¶
æłĩåĩĨ æ¨¡åŀĭ
è¯»èĢħ å¯¹
âĢ¦âĢ¦ âĢĿï¼Į
struc tivist
èĢĥèĻĳåĪ° æĸĩåĮĸéĢĤåºĶæĢ§
Ġtrans generational
åĻ¨ ä»¶
æķ´ä¸ªåı¥åŃĲç»ĵæŀĦ æ¸ħæĻ°
çŁ³ çģ°
æ²¡æľīçĶŁç¡¬ ä¹ĭå¤Ħ
Ġwork force
æīĢæľīåħ³éĶ®çĤ¹éĥ½ è¢«åĩĨç¡®ä¼łè¾¾
Ġoc cup
ç¬¦åĲĪä¸Ńæĸĩç§ĳæĬĢæĸĩçĮ® çļĦè¡¨è¾¾ä¹łæĥ¯
çĶ¨æĪ·è¦ģæ±Ĥå°Ĩ èĭ±æĸĩåı¥åŃĲç¿»è¯ĳæĪĲä¸Ńæĸĩ
çĽĳçĿ£ åŃ¦ä¹ł
æŃ¦ åĻ¨
Ġcry st
Ġprior ities
conn ected
è°Ī åĪ¤
çĳ ļ
çıĬ çĳļ
çĶŁæĪĲå¯¹æĬĹ ç½ĳç»ľ
A rctic
æľ ĭ
åĩ ¸
è¿ĻéĩĮ ç¿»è¯ĳä¸º
æīĢä»¥ è¯ĳä¸º
Ġd econstruct
æĺ¯åĲ¦ åºĶè¯¥ç¿»è¯ĳä¸º
é¦ĸåħĪ åĪĨè§£åı¥åŃĲç»ĵæŀĦ
é¢ĨåŁŁ åĨħçļĦ
å¤§ åŁİå¸Ĥ
åĽłä¸º è¿ĻéĩĮæĮĩçļĦæĺ¯
çĽ´è¯ĳ åį³åı¯
åıį èĢĮ
duc tive
åľ¨ä¸Ńæĸĩä¸Ń éĢļé¡º
Ġgen omic
çĥŃ çĽĲçİ¯æµģ
Ġle verages
ä¸Ńæĸĩç§ĳæĬĢæĸĩçĮ® å¸¸çĶ¨
åİŁåı¥æĺ¯ä¸Ģä¸ª æĿ¡ä»¶çĸĳéĹ®åı¥
çĶŁæĢģç³»ç»Ł ä¸ŃçļĦ
èĥ½åĲ¦ åľ¨
åĮºåĪ« äºİ
Ġsediment ation
Ġaddress ing
æīĢä»¥è°ĥæķ´ ç»ĵæŀĦä¸º
æķ°éĩı çº§
æİĴæ°´ ç³»ç»Ł
ä¸įéģĹæ¼ı ä»»ä½ķä¿¡æģ¯
intensi fy
Ġnarr ator
Ġtun nel
T eleological
h ar
w ard
ı åº¦
çļĦ è®¨è®º
çļĦ è¡¨è¿°
æ¯ «
æĽ´ å®¹æĺĵçĲĨè§£
è¿ĻéĩĮ åºĶè¯¥æĺ¯
è¿ĻéĩĮ æĺ¯æĮĩ
ac c
Ġf ir
æ¯Ķè¾ĥ åħ³ç³»
æ£ĢæŁ¥ æķ´ä¸ªç¿»è¯ĳ
æİ¥ä¸ĭæĿ¥ æ£ĢæŁ¥æµģçķħæĢ§
åĩº çİ°åľ¨
è°ĥæķ´ åĲİçļĦ
ow s
ph enomenological
å¦Ĥä½ķ ä¿ĥè¿Ľ
è¿Ļæĺ¯ ä¸Ģç§į
å¯¹æ¯Ķ éĥ¨åĪĨ
çĶµ è§£
äº§ ä¸ļ
ç« ¥
ult ures
æĪĳéľĢè¦ģç¡®ä¿Ŀ è¿ĻäºĽæľ¯è¯Ńåľ¨ä¸Ńæĸĩä¸Ń
åŁºåĽł å·¥ç¨ĭ
åı¤ å¸ĮèħĬ
éģĹä¼ł æĢ§çĸ¾çĹħ
æľĢåĲİç¡®è®¤ æ²¡æľīéģĹæ¼ıä»»ä½ķä¿¡æģ¯
æĭī ç¾İ
inter national
Ġtransform ed
å¤§éĻĨ æ¼Ĥç§»
ç±»ä¼¼ çļĦè¡¨è¾¾
é¸ Ł
Ġide als
ä¸įèĥ½æľī åħ¶ä»ĸ
çĶ¨æĪ·ç»ĻçļĦ åı¥åŃĲæĺ¯
cos mic
å¤ĸéĥ¨ æĢ§
ç½ĳç»ľç¤¾ä¼ļ çĲĨè®º
Ġran ges
tingu ish
Ġimag ery
b reak
Ġ 2
Ġ åĪĻæĺ¯
éľĢè¦ģ åħ¼é¡¾
æĿ °
Ġm ust
åı¯èĥ½éľĢè¦ģ å¤ĦçĲĨä¸º
è´¨ æĦŁ
tional ity
Ġad herence
æĪĳéľĢè¦ģç¡®ä¿Ŀ æľ¯è¯ŃçļĦåĩĨç¡®æĢ§
èĬĤ å¥ı
Ġanal yz
è®¾è®¡ åİŁåĪĻ
åĨ°å·Ŀ ä¾µèļĢ
ä¸įéľĢè¦ģæ·»åĬł é¢Ŀå¤ĸè§£éĩĬ
ä¸ŃæĸĩçļĦè¯ŃåºıåĴĮ èĭ±æĸĩæľīæīĢä¸įåĲĮ
é»ĳ æł¼å°Ķ
è¿½ è¸ª
è¿ģç§» æ¨¡å¼ı
æĪĳéľĢè¦ģå°Ĩ çĶ¨æĪ·æıĲä¾ĽçļĦèĭ±æĸĩåı¥åŃĲç¿»è¯ĳæĪĲä¸Ńæĸĩ
Ġvulner abilities
åľ°çĲĥåĮĸ æĶ¹éĢł
æĹģè§Ĥ èĢħæķĪåºĶ
åĩ½ æķ°
o bo
Ġ tiss
ä¸ ķå°Ķ
æĺ¯ ä¸ĵæľīåĲįè¯į
æĺ¯ å¸¸è§ģçļĦ
è¦ģ ç¿»è¯ĳä¸º
éľĢè¦ģ æ£ĢæŁ¥æĺ¯åĲ¦æľī
æĽ´ ä¸ŃæĢ§
æ³ ¥
ä¸į éĶĻ
æł ĸ
ro thermal
æīĢä»¥ åı¯ä»¥å¤ĦçĲĨä¸º
ä¼ļ ä¸įä¼ļ
çĽ Ľ
ç®Ģæ´ģ æĢ§
ç¥ ¨
ç¤¾ä¼ļ ä¸ŃçļĦ
æĹ¶éĹ´ èĮĥåĽ´
æĻ¯ è§Ĥ
è®¤çŁ¥ è¿ĩç¨ĭ
ç²¾ èĭ±
æĬ¥åĳĬ æĪĸèĢħ
Ġse e
tinc tion
ä¸ĸçķĮ è§Ĥ
av or
çŃīç¦»åŃĲä½ĵ çº¦æĿŁ
off s
Ġintern et
ç¡®ä¿Ŀæľ¯è¯ŃåĴĮ è¡¨è¾¾
çªģè§¦ åı¯å¡ĳæĢ§
æ¬§æ´²ä¸Ńå¿ĥ ä¸»ä¹ī
èĲ¨ ä¸ķå°Ķ
ugg le
çŁ³çģ° å²©
è¦ģ ç¬¦åĲĪä¸Ńæĸĩè¡¨è¾¾ä¹łæĥ¯
æĽ´ æİ¥è¿ĳ
Ġt ext
ç¡®ä¿Ŀ åĩĨç¡®
æĥ ł
æĺ¯åĲ¦ åı¯èĥ½
æŃ£ç¡® çĲĨè§£
Ġre bound
æĪĸèĢħ æĽ´æµģçķħ
å¤ĦçĲĨ æĸ¹å¼ı
èīºæľ¯ ä¸ŃçļĦ
ç¢ ±
ç´ł åħ»
æĺ¾ çİ°
ç«ĭ åį³
éĢĤåĲĪ åŃ¦æľ¯è®¨è®º
æł¸ éħ¸
åħ± åŃĺ
ä¿®é¥° è¯į
æ¢ ¦
Ġprot ection
Ġsyn tax
Ġfl aw
æĦıè¯Ĩæµģ æīĭæ³ķ
ä½ľèĢħ èº«ä»½
Ġurban ization
ç¤¾ä¼ļåŃ¦ æĪĸ
åĽºæĢģçĶµæ±ł æĬĢæľ¯
Ġreli es
Super conducting
ç¬¦åĲĪçĶ¨æĪ·è¦ģæ±Ĥ çļĦ
author ial
ĠRe formation
ä¸įä¼ļæľīçĲĨè§£ä¸ĬçļĦ éļľç¢į
b and
è¦ģ è°ĥæķ´è¯Ńåºı
è¿ĻéĩĮ æ²¡éĹ®é¢ĺ
æ²¡æľī æŃªæĽ²åİŁæĦı
Ġre design
Ġw ant
åıĺ ä½ĵ
çĽ´æİ¥ çļĦ
éĥ¨ éĹ¨
åĪĻ è¯ĳä¸º
æĥħ èĬĤ
åĵ²åŃ¦ æĪĸ
è®¨è®º çļĦè¯Ńå¢ĥ
è¿ŀæİ¥ åīįåĲİ
çĶŁæĢģ å¹³è¡¡
ä»ħ åĮħåĲ«
å¿ĥçĲĨ è¯Ńè¨ĢåŃ¦
cap ital
èĩªæĪĳ å¤įåĪ¶
æļĹèĥ½éĩı çļĦ
Ġtemporal ity
åİ»ä¸Ńå¿ĥåĮĸ èĩªæ²»ç»Ħç»ĩ
æº¶è§£ ä½ľçĶ¨
è¿ĻéĩĮè¦ģ è¡¨è¾¾çļĦæĺ¯
adv ancements
Ġgeomorph ological
ointil list
approach es
æĪĳçİ°åľ¨éľĢè¦ģå¤ĦçĲĨçĶ¨æĪ·æıĲä¾ĽçļĦ è¿Ļä¸ªç¿»è¯ĳä»»åĬ¡
K antian
r ate
çļĦ çĬ¶æĢģ
éľĢè¦ģ æŃ£å¼ı
åľ¨ åľ°è´¨åŃ¦ä¸Ń
Ġc e
å¸¸ æĢģ
et er
ä¿¡æģ¯ ä¼łæĴŃ
å®ļ å±ħ
ç»ĵæŀľ ä¸»ä¹ī
èĭ± éĽĦ
ç»Ļåĩº äºĨ
åŀ Ĵ
æİ¥ä¸ĭæĿ¥æĺ¯ åı¥åŃĲçļĦç»ĵæŀĦ
åĵ²åŃ¦ é¢ĨåŁŁ
Ġcom mentary
åľ°è´¨ å¹´ä»£
ä¸ŃåĽ½ äººçļĦ
å¤± èĮĥ
çĶ¨æĪ·åı¯èĥ½æĺ¯åľ¨ åĩĨå¤ĩ
çŁŃ è¯Ńæĺ¯
çĨ Ķ
çĽ¸å¯¹è®º éĢŁåº¦
æ¹ ®
ç±»ä¼¼ ç»ĵæŀĦ
å¹¶ä¸Ķè¦ģ æĮīçħ§
medi ate
soci etal
Ġso il
æĳĦå½± æµĭéĩı
itu de
Ġrenew able
æĬ¥å¤į æĢ§
è®¿ éĹ®
j ord
n ecessitates
ç Į®
ic ate
è¿ĻéĩĮ éĢī
åĪĨ å¼Ģ
Ġb reakthroughs
Ġw ild
æĪĸèĢħ åŃ¦çĶŁ
åı¯èĥ½éľĢè¦ģ æŁ¥éĺħ
æĬĢæľ¯ åĪĽæĸ°
åı¥åŃĲç»ĵæŀĦ éľĢè¦ģè°ĥæķ´
å¦Ĥæŀľ æļĹèĥ½éĩıå¯Ĩåº¦
os ynthetic
å±ķ è§Ī
å½¢æĪĲ äºĨ
èĢĥèĻĳåĪ° çĽ®æłĩè¯»èĢħ
Ġtrans action
çİ¯å¢ĥ ä¸ŃçļĦ
ĠR oman
æİ¥ä¸ĭæĿ¥è¦ģèĢĥèĻĳ ä¸ĵä¸ļæľ¯è¯ŃçļĦåĩĨç¡®æĢ§
åĪĹ åĩºäºĨ
æĿ¥å¼ķå¯¼ çĸĳéĹ®
ç¬¦åĲĪåŃ¦æľ¯ è§ĦèĮĥ
è¡° èĢģ
ç¿»è¯ĳæĹ¶è¦ģæ³¨æĦı ä¸ĵä¸ļæľ¯è¯ŃçļĦåĩĨç¡®æĢ§
hol e
acceler ate
æ¶µçĽĸ äºĨ
Ġanxi eties
ä¸¤æŀģ åĪĨåĮĸ
æľĭ åıĭ
f ound
g lacial
i en
ä¸ §
çļĦ ä¸Ģ
æľ ¨
è¿Ļ å¯¹
en et
è¾¾ æĪĲ
æĪĸ è§£éĩĬ
st rati
è¡¨è¾¾ çļĦ
ä¹ī è®º
è¯į åºı
åľ° éģĵ
å®ļ ä»·
un g
âĢ¦ ï¼Į
æľ¬ çľŁ
æ°Ķ æĹĭ
ch ron
çľ ¼
æľŁ çļĦ
éĩıåŃĲ çºłç¼ł
ç¥ŀç»ı éĢļè·¯
Ġap plication
éľĢè¦ģç¡®è®¤ è¿ĻäºĽæľ¯è¯Ńåľ¨ä¸Ńæĸĩ
æĴ ĳ
éĿ©åĳ½ æĢ§çļĦ
æ¿Ģ åıĳ
ä¸ªäºº ä¸»ä¹ī
åĪº æ¿
ĠG reek
æįŁ å¤±
çİ°è±¡åŃ¦ æĸ¹æ³ķ
åıĮ éĩį
çļĦè§£éĩĬæĪĸ æł¼å¼ı
æĽ´é«ĺçļĦ èĥ½éĩıå¯Ĩåº¦
æĿ¥è¿ŀæİ¥åīįåĲİ éĥ¨åĪĨ
Ġgal actic
Ġlens ing
D P
f ect
çļĦ ç³»ç»Ł
in ity
en de
ä¹ ³
ic ine
Ġp le
ra ke
åį İ
çĽ´ è§ī
ä¸İ åĬŁåĪ©ä¸»ä¹ī
Ġar g
vol utions
æĺ¾ çĦ¶
çªģ åıĺ
å½¢æĢģ åıĳçĶŁ
çĦ¶åĲİèĢĥèĻĳ åı¥åŃĲçļĦç»ĵæŀĦ
åıĤä¸İ èĢħ
Ġer up
Ġab rupt
Ġcell ular
pli fication
Ġchi ld
Ġsa vings
theore tically
aters h
b le
Ġ éĢļå¸¸ç¿»è¯ĳä¸º
åı¥ æĦı
äº Ķ
èĥ½ èĢĹ
åľ¨ ç»ıæµİ
æĽ´ ä¸»åĬ¨
åŃ¦ èĢħ
ç¡®ä¿Ŀ æķ´ä½ĵåı¥åŃĲ
ä½Ĩ ç¿»è¯ĳæĹ¶
ä½Ĩ åİŁåı¥ç»ĵæŀĦæĺ¯
æĪĸèĢħ ä¿ĿæĮģåİŁç»ĵæŀĦ
åī ²
th an
ph em
ä¹ĭ ä¸Ģ
æĹ¶éĹ´ æĢ§
ex ist
Ġr ural
åĵ²åŃ¦ é¢ĨåŁŁçļĦ
çİ°å®ŀ ä¸İ
ric ulture
åģı æĮ¯
è¿Ļæĺ¯ä¸Ģä¸ª èĻļæĭŁæĿ¡ä»¶åı¥
ular ity
æĻ®éģį æĢ§
Ġcirc adian
ç¬¬ ä¸ī
ä½ĵçİ° åĩºæĿ¥
è¿ĻéĩĮåı¯èĥ½éľĢè¦ģ çĶ¨
æĲ ľ
Ġli ber
å¿Ĩ éĺ»
æĽ´è´´è¿ĳ åİŁåı¥ç»ĵæŀĦ
Ġlif espan
çĶ¨æĪ·æıĲä¾ĽçļĦèĭ±æĸĩåı¥åŃĲ æĺ¯
éĩıåŃĲéĢĢçĽ¸å¹² çĲĨè®º
Ġfocus es
Ġcasc ades
Ġmed ical
enot yp
facilit ate
å¼¦ çĲĨè®º
ä¼łæĦŁ åĻ¨
reh en
åĮĸåŃ¦é£İåĮĸ ä½ľçĶ¨
æ¹® çģŃ
D ec
çļĦ çĽ´è¯ĳ
è¦ģ ç¿»è¯ĳ
ce ived
åĲĮæĹ¶ å¤Ħäºİ
éĥ½ è¢«åĩĨç¡®ä¼łè¾¾
å¼ºè°ĥ åħ¶
Ġen d
å·¥ ä¼ļ
åį³ ä½¿
all uvial
tiv eness
æķ°åŃĹ åĩºçīĪ
æľĢç»ĪçļĦç¿»è¯ĳ æĺ¯
é¢Ħ éĺ²
æŁ ±
ves tig
çĶ¨è¯į çļĦ
ç¢³ å°ģåŃĺ
è§Ĵ åº¦
éŁ µ
æĽ´ä¸ĵä¸ļ çļĦè¯´æ³ķ
æĪĳå¾Ĺä»Ķç»Ĩ çĲĨè§£åİŁæĸĩçļĦæĦıæĢĿ
ä¸Ńæĸĩåı¥åŃĲç»ĵæŀĦ éľĢè¦ģè°ĥæķ´
Ġpred ator
æĭľåįłåºŃ éķ¶åµĮ
ä¿ĿåŃĺ å®Įå¥½
Ġam bigu
çĦ¶åĲİè¦ģæ£ĢæŁ¥ æķ´ä¸ªåı¥åŃĲçļĦæµģçķħæĢ§
Ġemploy ment
Cub ism
Col umbian
Ġgo ing
Ġhealth care
Ġled ger
åĵģæł¼ åŁ¹åħ»
Ġbubb les
è¡į çĶŁ
d uce
v ature
åı¥åŃĲ æĺ¯åĲ¦éĢļé¡º
ç¡®ä¿Ŀ ä¸ĵä¸ļ
ç¡®ä¿Ŀ æ¯ıä¸ªæľ¯è¯Ńéĥ½æŃ£ç¡®
æĺ¯åĲ Į
Ġf am
Ġa str
è¿Ļä¸ª ä¸Ĭä¸ĭæĸĩä¸Ń
åıĳ è¾¾
åħ³éĶ® æ¦Ĥå¿µ
å¿ħ çĦ¶
è®¡ç®Ĺ èµĦæºĲ
æĹ¶éĹ´ ç»´åº¦
çĸĳéĹ®åı¥ å¼ı
æ¸ħæĻ° çĲĨè§£
è¯Ńè¨Ģ ä¹łå¾Ĺ
æµ·æ´ĭ çĶŁçī©
å¿ĥçĲĨåŃ¦ ä¸ŃçļĦ
æĺ¯åĲ¦éľĢè¦ģ çĶ¨
é¢Ħæµĭ æĢ§
opol itics
Ġtr ust
ä¸įéľĢè¦ģæ·»åĬł é¢Ŀå¤ĸä¿¡æģ¯
emerg ed
åĬłå¼º è¯Ńæ°Ķ
ä¸ªæĢ§åĮĸ åĨħå®¹
ä¸Ńæĸĩåı¥åŃĲéľĢè¦ģèĩªçĦ¶ éĢļé¡º
sym bolic
ä¸ŃåĽ½è¯»èĢħ å¯¹
åįĹ æŀģ
hyd rological
itor ing
raid ed
Adv ancements
æīĢä»¥æĪĳçļĦä»»åĬ¡ å°±æĺ¯
ç»¿èī² éĿ©åĳ½
ĠCol umbian
ende lian
E M
g ricultural
i atory
ä¸ °
è¦ģ åĩĨç¡®ç¿»è¯ĳ
æīĢä»¥ ç»ĦåĲĪèµ·æĿ¥
æīĢä»¥ ä¸Ńæĸĩç¿»è¯ĳ
Ģæ Ķ
åİŁåı¥ çĶ¨äºĨ
ra pid
Ġf avor
å¼ºè°ĥ äºĨ
å¦Ĥæŀľ åĬłå¯Ĩè´§å¸ģ
å½±åĵį äºĨ
éļ Ļ
Ġar id
æīĢæľī æĿĥ
å¸¦ å®½
Ġun reliable
æĺ¯åĲ¦åĩĨç¡® ç¿»è¯ĳä¸º
cre te
é¢Ħ è®¾
çªģ æĺ¾
åĲĮæĹ¶ä¿ĿæĮģ åı¥åŃĲçļĦæµģçķħæĢ§
plic ates
éĩįæĸ° è¯łéĩĬ
Ġdes crib
æĽ´ç¬¦åĲĪä¸Ńæĸĩä¹łæĥ¯ çļĦè¡¨è¾¾
ç²¾ç¡® åº¦
å¤§æ°Ķ ä¸Ń
challen ging
Ġear th
åĲİçİ°ä»£ æĸĩåŃ¦
æĪĸèĢħæĺ¯åĲ¦ éľĢè¦ģè°ĥæķ´è¯Ńåºı
sim ultaneously
æµ·å²¸ ä¾µèļĢ
Ġrad ically
ç¾İåĽ½ éĿ©åĳ½
ç»§ æī¿
æģĲæĢĸ è°·
Ġgest ural
enotyp ic
' ve
t ectonic
y ou
âĢ Ļ
çļĦ åħ·ä½ĵ
ä¸Ń æĺ¯ä¸Ģä¸ª
ä¸Ńæĸĩ çĸĳéĹ®åı¥
éľĢè¦ģ åĪ¤æĸŃ
re en
æīĢä»¥ æŃ£ç¡®
Ġm elt
æĺ¯åĲ¦ æ»¡è¶³
æµģçķħ åĴĮä¸ĵä¸ļæĢ§
ä¼ł å¯¼
Ġre ducing
çļĦç¿»è¯ĳ åı¯èĥ½æĺ¯
å¦Ĥä½ķ å°Ĩ
åıĳ å°Ħ
å¯¼ èĪª
çĲĨè®º çī©çĲĨ
ge ometric
åı¯èĥ½éľĢè¦ģè°ĥæķ´ æĪĲ
å¿ĥ çģµ
op le
ust rian
cre ates
äºļ æĸĩåĮĸ
çĶŁäº§ çİĩ
Ġmark ers
äººå·¥æĻºèĥ½ ç³»ç»Ł
Ġcurrent s
è¿Ļä¸¤ä¸ª éĥ½æĺ¯
åĩ¯æģ©æĸ¯ä¸»ä¹ī ç»ıæµİåŃ¦
æĪĳéľĢè¦ģç¡®ä¿ĿåĩĨç¡®çĲĨè§£ æ¯ıä¸ªæľ¯è¯Ń
è§Ĥå¯Ł èĢħæķĪåºĶ
ä¸ĸçķĮ å¤§
Ġris ing
Ġview s
ä¸Ńæĸĩç§ĳæĬĢç¿»è¯ĳéĢļå¸¸ åĢ¾åĲĳäºİ
æĻ®éĢļ è¯»èĢħ
åŃŁå¾·å°Ķ éģĹä¼ł
Ġ åı¯ä»¥ç¿»è¯ĳä¸º
æĽ´ æľīåĬĽåº¦
Ġre volutions
å· ¦
Ġb and
Ġn ecessitates
å¸¸è§ģ äºİ
con c
ç¡®å®ļ ä¸ĵä¸ļæľ¯è¯Ń
Ġad minist
å±Ĥ çĬ¶çģ«å±±
åĽŀ åºĶ
çİ°å®ŀ çļĦ
åĪĽ å»º
Ġag riculture
åľ°è²Į è¿ĩç¨ĭ
Ġsuper ior
æīĢä»¥æķ´åı¥ çļĦç»ĵæŀĦåºĶè¯¥æĺ¯
Ġdri ft
ond rial
æ´ŀ ç©´
ç«ŀäºī æĢ§
och ondrial
äºĳ ç«¯
Ġir rational
è¿Ľä¸ĢæŃ¥ è§£éĩĬ
åĲĮæĹ¶ä¿ĿæĮģåİŁæĦı çļĦ
refl ects
Ġaugment ed
æ¬§æ´²ä¸Ńå¿ĥ ä¸»ä¹īçļĦ
Ġgood s
ä¸Ļçĥ¯ é¢ľæĸĻ
Ġtunnel ing
r ender
ä¸ ½
çļĦ åĮºåŁŁ
çļĦ å¹¿æ³ĽéĩĩçĶ¨
ä¸Ń ç«ĭ
åĲĪ çº¦
åľ¨ æŃ¤
åľ¨ æĬĢæľ¯é¢ĨåŁŁ
åİ Į
ro versi
ç¡®ä¿Ŀ èĩªçĦ¶æµģçķħ
æīĢä»¥ çĽ´æİ¥ç¿»è¯ĳåį³åı¯
ra ft
ä½Ĩ ä¸Ńæĸĩä¹łæĥ¯
ul ts
ä¼ļ æĽ´éĢļé¡º
Ġre pro
çī© æµģ
Ġcon version
ä¹Ł æĺ¯æłĩåĩĨæľ¯è¯Ń
Ġpro vides
åı¥åŃĲç»ĵæŀĦ æĺ¯åĲ¦èĩªçĦ¶
è¿Ļæĺ¯ çī©çĲĨåŃ¦
æķ°åŃĹ è¿ŀæİ¥
pre y
åĩı ç¼ĵ
æĮģç»Ń åĬłåī§
comp ar
æĶ¯ æĴĳ
Ġrequire ments
æ²¡æľīçĶŁç¡¬ çĽ´è¯ĳçļĦçĹķè¿¹
çļĦä¸įåĲĮ ä¾§éĩįçĤ¹
dis rupt
co astal
çĶ¨æĪ·ç»ĻçļĦ ä¾ĭåŃĲ
ç»ıå¸¸ ä½¿çĶ¨
å·²ç»ıè¶³å¤Ł åĩĨç¡®
af ety
crypt ocurrency
ĠAn thropocene
éļıæĹ¶éĹ´ æ³¢åĬ¨
Ġacces sible
æ¶¨ èĲ½
Ġpor traiture
äººåĬĽ èµĦæľ¬
åĩ¸ æĺ¾
Ġ çĶ¨æĪ·è¦ģæ±Ĥ
ä¸Ń æıĲåĪ°
åĲİ ç½®
æĪĲ å°±
åħĪ æĭĨè§£åı¥åŃĲç»ĵæŀĦ
un like
äºº ç¾¤
Ġn av
åľ¨ä¸Ńæĸĩ æĸĩçĮ®ä¸Ńå¸¸çĶ¨
æ¶ Ĥ
æĺ¯åĲ¦æľī åħ¶ä»ĸè¯ĳæ³ķ
éĢīæĭ© åĲĪéĢĤçļĦ
ä¹ĭ ä¸Ĭ
çĶµ åĬ¨
Ġem pirically
çĶ¨æĪ·æıĲä¾Ľ çļĦæĺ¯ä¸Ģä¸ªèĭ±æĸĩåı¥åŃĲ
åģĩè®¾ æĢ§éĹ®é¢ĺ
éľĢè¦ģæ³¨æĦı çļĦæĺ¯
éĴ ±
åı¯èĥ½çļĦç¿»è¯ĳ çīĪæľ¬
to ic
Ġj uxtap
æĪĳè¦ģç¡®ä¿ĿåĩĨç¡®çĲĨè§£ æ¯ıä¸ªæľ¯è¯ŃåĴĮ
æĬĢæľ¯æĸĩæ¡£ ä¸Ń
Ġfluctu ates
urg ent
Ġchemist ry
1 6
l ic
t ural
çĶ¨ éĢĶ
æİ Į
ç¬¦åĲĪ åĽ½åĨħ
Ġin dividuals
æĮĩ åľ¨
æĮĩ éĤ£äºĽ
è°ĥæķ´ åı¥åŃĲç»ĵæŀĦ
el es
æĶ¾ å°Ħ
Ġv ary
å¹¶ä¸Ķ ç¬¦åĲĪä¸ŃæĸĩçļĦ
çİ°ä»£ è´§å¸ģ
ä¸Ńæĸĩè¡¨è¾¾ éĢļå¸¸ä¼ļæĬĬ
Ġrel igious
çĦ¶åĲİæ£ĢæŁ¥ æķ´ä¸ªåı¥åŃĲçļĦæµģçķħæĢ§
ä¸ŃæĸĩéĢļå¸¸ä¼ļæĬĬ çĬ¶è¯ŃæĶ¾åľ¨åīįéĿ¢
Ġexpl oration
æİĴ åĪĹ
åıªèĥ½ æıĲä¾Ľç¿»è¯ĳç»ĵæŀľ
åĲ¯ ç¤º
æīĢä»¥åı¯ä»¥ ç¿»è¯ĳæĪĲ
ä¸īç»´ ç©ºéĹ´
Ġseques tration
åı¯è¯» æĢ§
åľ¨ ä¼¦çĲĨåŃ¦
æķ´ åĲĪæĪĲ
çĶŁ åĥ
æ¯Ķè¾ĥ çļĦéĥ¨åĪĨ
Ġb od
ate ll
è¦ģæ³¨æĦı æľ¯è¯ŃçļĦåĩĨç¡®æĢ§
ting s
åİŁæĸĩ ç»ĵæŀĦæĺ¯
æł¹æį® è¯Ńå¢ĥ
und ergo
Ġmod ulation
è¶ħ çº§
åħ¨çĲĥ åıĺæļĸ
Ġat m
è¿Ļæł·æĽ´ ç¬¦åĲĪä¸Ńæĸĩä¹łæĥ¯
è¾ĵåĩº åıªæľī
æľĢç»Īç¿»è¯ĳ åºĶä¸º
ast ern
å¿ĥçĲĨåŃ¦ åĴĮ
æĪĳè¦ģä»Ķç»Ĩ çĲĨè§£è¿Ļåı¥è¯ĿçļĦæĦıæĢĿ
åľ°çĲĥ åĮĸåŃ¦
èĨ ľ
ä½¿ä¸Ńæĸĩ æĽ´èĩªçĦ¶
dec ision
Ġdev ice
è£Ĥ è°·
èģļåıĺ åıįåºĶåłĨ
é£Łçī© éĵ¾
éĢĤåĲĪä¸Ńæĸĩè¯»èĢħ çĲĨè§£
æĢĢ çĸĳ
åįĥ å¹´
çĶŁåĥ »
b ly
çļĦ æĦıä¹ī
è¿ Ŀ
åľ¨ åİĨåı²åŃ¦
åı¯èĥ½ éĢīæĭ©
æĿ¥ å¤ĦçĲĨ
æīĢä»¥ ç¿»è¯ĳçļĦæĹ¶åĢĻ
Ġm arg
Ġin str
ra tive
ul sive
åı¥åŃĲç»ĵæŀĦ æĸ¹éĿ¢
æľĢç»Ī åĨ³å®ļ
åĽłæŃ¤ ä¿ĿæĮģ
ç¤¾ä¼ļ çļĦ
éľĢè¦ģåĩĨç¡® ç¿»è¯ĳä¸º
äººç±» åŃ¦
Ġdec l
Ġcom mod
åĬłéĢŁ èŀįåĮĸ
æ» ´
æİ¥ä¸ĭæĿ¥è¦ģèĢĥèĻĳ ä¸Ńæĸĩè¡¨è¾¾çļĦæµģçķħæĢ§
ä¹¦ åĨĻ
Ġcre ated
ĠM on
ä¸¥æł¼ çļĦ
Ġmon itoring
Ġrec ession
hap ing
Ġsim ultaneous
åĩĨç¡®ä¸Ķ ç¬¦åĲĪä¸Ńæĸĩè¡¨è¾¾ä¹łæĥ¯
åĳ¨ åĽ´
æ²¡æľīæ·»åĬł é¢Ŀå¤ĸåĨħå®¹
èĩªä¸» æĢ§
æľĢåĲİæ£ĢæŁ¥æĺ¯åĲ¦æľīéģĹæ¼ıæĪĸ è¯¯è¯ĳ
Ġindustrial ization
Ġsediment ary
organ ization
æķħ æĦı
Ġdistinc tions
æīĢä»¥æĪĳè¦ģç¡®ä¿Ŀ èĩªå·±
æ¯ıä¸ªæľ¯è¯Ńéĥ½ åĩĨç¡®
Ġdeep fake
Ġmagn itude
æīĢä»¥æķ´ä½ĵç»ĵæŀĦ åºĶè¯¥æĺ¯
phem eral
çļĦ ç¨ĭåº¦
åı¥ é¦ĸ
äº ®
in ary
åľ¨ çĽ¸åħ³
ç¡®ä¿Ŀ åĩĨç¡®æĢ§åĴĮæµģçķħæĢ§
å¸¸ æķ°
åĴĮ åı¥åŃĲçļĦ
æ³ķ è§Ħ
èĩªçĦ¶ ä¸»ä¹ī
åıĺ è´¨
èī ¯
ä¹Ł èĥ½
å°Ĩ åıĳçĶŁ
çĶ¨æĪ·çļĦ éĹ®é¢ĺ
èīºæľ¯ åĴĮ
åıª ç»Ļåĩº
æ¨¡å¼ı çļĦ
çłĶç©¶ ä¸Ń
éģĵ ä¹īè®º
åĨįæ£ĢæŁ¥ åĩĨç¡®æĢ§
åĬĽåŃ¦ ä¸įåĲĮ
æ²¡æľīéĹ®é¢ĺ åĲİ
äºĮ è±¡
æıĲåĪ° çļĦæĺ¯
Ġorgan ism
é¢łè¦Ĩ æĢ§
Ġprot e
ä»ĸä»¬çļĦ è¦ģæ±Ĥ
In ter
ä»įçĦ¶ æĺ¯
ale oc
ç¬Ľåį¡å°Ķ äºĮåħĥè®º
éĢıæĺİ åº¦
ï¼ģ âĢĿ
Ni etzsch
g ers
k arst
è ľ
å® £
Ġt as
æīĢä»¥ åºĶè¯¥æ²¡éĹ®é¢ĺ
Ġd imension
ed ly
åı¯èĥ½éľĢè¦ģ ç¿»è¯ĳä¸º
Ġg ender
è¦ģç¡®ä¿Ŀ ä¸ĵä¸ļæľ¯è¯ŃæŃ£ç¡®
åıª æıĲä¾Ľ
æĸ¹å¼ı æĶ¾åľ¨åīįéĿ¢
è¿Ļæĺ¯ æ¯Ķè¾ĥ
æľĢåĲİæ£ĢæŁ¥ æµģçķħæĢ§
ä¼ĺ è¶Ĭ
åİĨåı² ä¸ĬçļĦ
æİ¨ éĢģ
åı£è¯Ń ä¸Ń
åĨľä¸ļ å®ŀè·µ
å°Ĩå¦Ĥä½ķ æĶ¹åıĺ
ä¸įåĲĮçļĦ æĸ¹æ³ķ
Ġass oci
Ġj ud
æĿ¿åĿĹ è¾¹çķĮ
ç¬¦åĲĪåŃ¦æľ¯ ç¿»è¯ĳçļĦè¦ģæ±Ĥ
Ġfl u
åģļ æ³ķ
æľ¯è¯ŃåĴĮ è¡¨è¾¾æĸ¹å¼ı
spec ial
Ġfunc tion
alter ed
Ġmicro biome
pol ar
Ġast robiological
coll apse
arch ical
è¿Ļæł·çĶ¨æĪ·å¾ĹåĪ° çļĦç¿»è¯ĳ
åľ°éľĩ æ´»åĬ¨
aun a
Ġbene f
æŁĶ æĢ§
sk ite
D æīĵåį°
èĥ½ å®ŀçİ°
Ġc lass
Ġc urrency
ar id
it an
ç¡®ä¿Ŀ è¯»èµ·æĿ¥èĩªçĦ¶
æīĢä»¥ è¿Ļæł·çļĦç¿»è¯ĳ
æŃ£ å¦Ĥ
å¯¹ çİ°æľī
å¤ĸ éª¨éª¼
é¢ĨåŁŁ ä¸ŃçļĦ
ver sive
Ġg round
èīºæľ¯ ä¸Ń
æķ´ä¸ªåı¥åŃĲ æ²¡æľīéģĹæ¼ıä¿¡æģ¯
pro p
ry ing
Ġsp iritual
æķ°åŃĹ æ¸¸
è¡Įä¸º ä¸»ä¹ī
åĽºå®ļ æľ¯è¯Ń
ill en
æĪĳéľĢè¦ģçĲĨè§£ æ¯ıä¸ªæľ¯è¯ŃåĴĮ
æĻºèĥ½ åĲĪçº¦
å²© å±Ĥ
ä¿ĿæĮģäºĨ åİŁåı¥çļĦ
Ġout put
æīĢä»¥ç»ĵæŀĦ æ²¡éĹ®é¢ĺ
è®©åı¥åŃĲ æĽ´ç¬¦åĲĪä¸Ńæĸĩè¡¨è¾¾ä¹łæĥ¯
Ġintell ectual
çļ® è´¨
Ġacces sibility
èĽĭçĻ½ è´¨
a uc
a esthetic
Ġ è¿Ļä¸ª
âĢ ĺ
è¿ĻéĩĮ æ²¡æľīçī¹åĪ«ä¸ĵä¸ļçļĦæľ¯è¯Ń
Ġm useum
Ġd imensional
Ġin advertently
æ¯Ķè¾ĥ åŃ¦æľ¯
Ġw aste
Ġcon vergence
åıĪ ç¬¦åĲĪä¸ŃæĸĩçļĦè¯Ńåºı
ç¿»è¯ĳæĹ¶ éľĢ
ut rin
ç¥ŀç»ı åħ±çĶŁ
ub iqu
æĪĳçİ°åľ¨éľĢè¦ģå¤ĦçĲĨ çĶ¨æĪ·æıĲä¾ĽçļĦç¿»è¯ĳè¯·æ±Ĥ
Ġtrans national
å·®å¼Ĥ é©±åĬ¨çļĦ
éĢļçĶ¨ çļĦè¯ĳæ³ķ
ç»ıåħ¸ åĬĽåŃ¦
éŁ³ è¯ĳä¸º
çĹħ æ¯Ĵ
çĭ Ń
fin ed
Ġear lier
ĠW ar
åĨ°å·Ŀ éĢĢç¼©
éĿĴéĵľæĹ¶ä»£ å´©æºĥ
emerg es
Ġoccur red
éĴĻåĮĸ çĶŁçī©
Ġanom alies
Ġclos ed
Ġaltern atives
è¾¾è¾¾ ä¸»ä¹ī
d ed
f rom
n y
t oler
åľ¨ çī¹å®ļ
åı¥åŃĲ ç®Ģæ´ģ
it ous
ç¡®ä¿Ŀ åĩĨç¡®ä¼łè¾¾
Ġs enti
ä¸ĵä¸ļ åĨħå®¹
æİ¥ä¸ĭæĿ¥ æ£ĢæŁ¥
ä¿ĿæĮģ åŃ¦æľ¯ä¸¥è°¨æĢ§
Ġe valu
th ermohaline
ä¸İ çİ¯å¢ĥ
å°Ĩ ä¼ļ
ad op
il ingual
ag ent
ç¡®å®ļ æĹłè¯¯åĲİ
å»º éĢł
Ġcont ributed
Ġsp ont
æĽ´ç¬¦åĲĪ åŃ¦æľ¯
åľ¨ä¸Ńæĸĩä¸Ń åı¯èĥ½éľĢè¦ģè°ĥæķ´
éĤ£ æł·
éĽĨ æĿĥ
åı£è¯Ń ä¹łæĥ¯
æ°ĶåĢĻ æ¨¡åŀĭ
å®ĩå®Ļ åŃ¦ä¸ŃçļĦ
com b
com plicate
Ġè¿ĻéĩĮçļĦ åħ³éĶ®çĤ¹åľ¨äºİ
ç¬¬ ä¸Ģæ¬¡
ä¸Ģå®ļ çļĦ
ä½¿åı¥åŃĲæĽ´ å®Įæķ´
è´¹ ç±³
int ro
Ġlinguistic s
Ġstandard ization
çĽĳç®¡ æ¡Ĩæŀ¶
Ġaesthetic s
åħīè°± åĪĨæŀĲ
Ġbatter ies
æīĢä»¥åĩĨç¡®æĢ§åĴĮä¸ĵä¸ļæĢ§ å¾Īéĩįè¦ģ
éĢļè¿ĩæŁĲç§į æĸ¹å¼ı
æĽ´èĩªçĦ¶çļĦè¯´æ³ķ åı¯èĥ½æĺ¯
d ra
t ropical
Ġ X
çļĦ äºĴåĬ¨
ç»ĵ å°¾
at ovol
ä¸ĵä¸ļ çļĦ
è¾ĥ å¤ļ
ä¿¡æģ¯ å¤ĦçĲĨ
si p
æ³¨æĦı åı¥åŃĲçļĦç»ĵæŀĦ
Ġcon scious
è¿Ļä¸ª è¯ĳåĲį
ä¸Ģä¸ª ç¿»è¯ĳåĬ©æīĭ
è¢« æĻ®éģį
all urg
Ġinter active
ex am
éĩįè¦ģ æ¦Ĥå¿µ
æ°´ æ´ŀ
rop ol
åįĩ é«ĺ
æŁĲ äºº
ogen esis
çģ« èį¯
ä½Ĩæł¹æį® çĶ¨æĪ·è¦ģæ±Ĥ
æľĢç»Īç¡®å®ļ ç¿»è¯ĳ
éķ¿æľŁ åŃĺåľ¨
èĲ½ æ°´æ´ŀ
å¹¶ä¸Ķè¦ģ ç¬¦åĲĪ
é² ģ
Ġban ks
ä½ķç§į å½±åĵį
åĩĨç¡®ä¸Ķæµģçķħ çļĦ
fe edback
Ġgall eries
ç¬¦åĲĪåŃ¦æľ¯åĨĻä½ľ çļĦè§ĦèĮĥ
Ġprim ary
Ġatt em
æīĢä»¥å¼Ģå¤´ çĶ¨
r ust
Ġ ...
çļĦ æľīæķĪæĢ§
ä» ĺ
åľ¨ ç¤¾ä¼ļç§ĳåŃ¦
ç¡®ä¿Ŀ ç¿»è¯ĳåĲİçļĦ
æīĢä»¥ åĬłä¸Ĭ
Ġs on
å¯¹ æµģ
åı¯ä»¥ éĢļè¿ĩ
è¿ĺ èĥ½
è¿ĺ éľĢè¦ģæ£ĢæŁ¥
åľ¨ä¸Ńæĸĩ ä¸Ńå¸¸çĶ¨
å¾Ĺ èĩªçĦ¶
çĸĳéĹ® å½¢å¼ı
æĸ° éĹ»
con tainment
è¿ĻäºĽ æ¦Ĥå¿µ
åŃĺåľ¨ çĽ¸åħ³æĢ§
åĿ ¦
Ġph y
èĥĮæĻ¯ ä¸ĭ
æł¸ å¯¹
red uce
æ´» ä½ĵ
ä½¿åħ¶ èĩªçĦ¶
par ency
ç©ºéĹ´ æ³ķ
ĠC ub
åĲİéĿ¢æİ¥ ä¸»åı¥
æĪĳè¦ģä»Ķç»Ĩ éĺħè¯»åİŁåı¥
ont ology
æŀĦéĢł ä¿¯åĨ²å¸¦
Ġcur vature
åĤ¬çĶŁ äºĨ
Ġmeasure d
Ġperf ected
Ġutiliz es
Ġdetermin istic
è¯¥é¢ĨåŁŁçļĦ æłĩåĩĨè¯ĳæ³ķ
prin ci
meth od
ç¬¦åĲĪçĶ¨æĪ·çļĦ æľŁæľĽ
Ġarg ues
a uv
åĲ ĥ
in tr
éľĢè¦ģ ä»Ķç»Ĩ
åľ¨ åľ°è´¨åŃ¦
åľ¨ ç¥ŀç»ıç§ĳåŃ¦
åı¥åŃĲ è®²çļĦæĺ¯
æīĢä»¥ éľĢè¦ģç¡®è®¤
æĸ¹ è¨Ģ
Ġo bl
Ġn ext
è¡Į ä¼ļ
åīį æĻ¯
åĪ¶ çº¦
åľ¨è¿ĻéĩĮ åºĶè¯¥ç¿»è¯ĳä¸º
os kel
ç³»ç»Ł æĢ§çļĦ
æĶ¾åľ¨ åı¥åŃĲçļĦ
ure auc
è¿ĻéĩĮçļĦ åħ³éĶ®æľ¯è¯Ńæĺ¯
ç¡®ä¿Ŀæ²¡æľī æ¼ıæİī
æļĹ ç¤º
ç£ģ æĤ¬æµ®
æ°¸ æģĴ
æĺ¾èĳĹ çļĦ
ä¸»åĬ¨ ç»ĵæŀĦ
ä¼° ç®Ĺ
åıªèĥ½ æľī
è¡¨éĿ¢ æĢģ
Ġadapt ations
èĪª ç©º
åĲİåįĬéĥ¨åĪĨ æĺ¯
ä¸Ńæĸĩç§ĳæĬĢ ç±»
å¤ªéĺ³èĥ½ æĶ¶éĽĨ
ä¸Ńæĺ¯ å¸¸çĶ¨æľ¯è¯Ń
omorph ism
æĺİæĺ¾ çļĦ
Ġrele ases
liber ately
Ġcategor ization
Ġmed icine
Ġfollow ing
åĬłå¯Ĩè´§å¸ģçļĦ éĩĩçĶ¨
åĸľ æ¬¢
umin osity
extr aterrestrial
è¿Ļæł·çĶ¨æĪ·çļĦéľĢæ±Ĥå°±èĥ½ å¾ĹåĪ°æ»¡è¶³
S o
l at
t ex
u ci
çļĦ çĶ²çĥ·
çļĦ æŃ£ç¡®æĢ§
åĩĨç¡® è¡¨è¾¾äºĨ
åľ¨ éĩĳèŀį
åľ¨ åĮ»åŃ¦
ç¡®ä¿Ŀ æľ¯è¯ŃçļĦä¸Ģèĩ´æĢ§
åĴĮ æł¼å¼ı
è°ĥ èī²
ä½¿ å¤įæĿĤåĮĸ
ä½Ĩ åı¯èĥ½éľĢè¦ģè°ĥæķ´
Ġa udi
è¿Ļæł· çļĦéĹ®é¢ĺ
è¿Ļæł· æ¯Ķè¾ĥéĢļé¡º
Ġac tive
ç¿»è¯ĳæĹ¶ éľĢè¦ģæ³¨æĦı
æĽ´èĩªçĦ¶ ä¸ĢäºĽ
å¿ħé¡» åĩĨç¡®ç¿»è¯ĳ
çĶµ æ¢¯
åįĬ çĲĥ
ä¹Łå°±æĺ¯ åľ¨
æķ°æį® åºĵ
æĴ Ĵ
çŁŃ ç¼º
èĥ½æºĲ æķĪçİĩ
æµ·æ´ĭ åŃ¦ä¸ŃçļĦ
Ne oclassical
æĺł çħ§
der ived
ä¿ĿæĬ¤ çļĦ
In dustrial
åı¯èĥ½æĽ´åĢ¾åĲĳäºİ ä½¿çĶ¨
è®©ä¸Ńæĸĩ æĽ´æµģçķħ
ä¸Ńæĸĩç»ĵæŀĦ éĢļå¸¸ä¼ļæĬĬ
æĿĲæĸĻç§ĳåŃ¦ åĴĮ
Ġnon linear
å¯¹ç§° æĢ§
ä¹¦éĿ¢ åĮĸ
åħīä¼ı æķĪçİĩ
super natural
integ rates
ä½¿çĶ¨åĲĪéĢĤçļĦ è¡¨è¾¾
Ġav ail
clo ud
Ġdial ec
éĽĨçº¦ åĮĸ
åĲĮæĹ¶æ»¡è¶³ çĶ¨æĪ·æıĲåĩºçļĦåĲĦé¡¹è¦ģæ±Ĥ
Ġnav igation
toler ant
o ke
t ech
¬ åįĩ
çļĦ åĩºçİ°
æĸĩ ä»¶
ic k
åı¯èĥ½ åŃĺåľ¨çļĦ
åİŁ å§ĭ
ar ial
åİŁåı¥ ä¸Ģèĩ´
ä½¿çĶ¨ çļĦ
ä¿ĿæĮģ ç»Ŀç¼ĺ
Ġo ther
Ġa de
è¿Ļæł· æ¯Ķè¾ĥ
æĪĸèĢħ åľ¨
å¦Ĥæŀľ çĽ´è¯ĳä¸º
æĶ¾åľ¨ ä¸ŃéĹ´
åĽłæŃ¤ éĢīæĭ©
è¿ĺè¦ģæ³¨æĦı æľ¯è¯ŃçļĦåĩĨç¡®æĢ§
æ¦Ĥå¿µ åĮĸ
Ġtrans cend
ĠA r
æķ°æį® å®īåħ¨
å¿ĥçĲĨåŃ¦ çĲĨè®º
Ġfe atures
åĲİéĿ¢æİ¥ çļĦæĺ¯
çīĪ æĿĥ
inter stellar
Ġop port
åĩºçİ° çļĦ
gener ation
éĻįä½İ äºĨ
æīĢä»¥ä¿ĿæĮģåİŁ æł·
çŁ¿ çī©
Ġpress ure
Ġli qu
Ġneuro science
åıĸä»£ äºĨ
è¿« ä½¿
è¿Ļæł·è¯»èµ·æĿ¥ æĽ´é¡ºçķħ
ä¸įä¼ļè®©è¯»èĢħ äº§çĶŁæŃ§ä¹ī
canti le
éģ¿åħįè¿ĩäºİ çĶŁç¡¬
çĶ¨æĪ·è¦ģæ±Ĥç¿»è¯ĳ å¿ħé¡»åĩĨç¡®
Ġmosa ics
èįĴæ¼ł åĮĸ
å¿½ è§Ĩ
çİ°åľ¨å¼Ģå§ĭ ç¿»è¯ĳ
Psych olinguistic
ä¹¦ä¿¡ä½ĵ å°ıè¯´
Uni versal
T ropical
ti le
è¡ Ģ
ç¬¦åĲĪ ä¸Ĭä¸ĭæĸĩ
it ocratic
ç¡®ä¿Ŀ ä¿¡æģ¯å®Įæķ´
æĺ¯åĲ¦ ç¿»è¯ĳåĪ°ä½į
ä¸ĵä¸ļ è¡¨è¾¾
ä¸ŃçļĦ å¸¸çĶ¨è¯ĳæ³ķ
åĬ¨ æĳĩ
Ġa ge
åıĺ è¿ģ
å¤ĦçĲĨ å¾Ĺå½ĵ
åĩĨç¡®ä¼łè¾¾ åİŁåı¥çļĦ
ä¹Ł åĲĪéĢĤ
å¼ºè°ĥ éĢļè¿ĩ
im etic
å¹¶ æ²¡æľī
æĺ¯åĲ¦æľī æĽ´åĲĪéĢĤ
å¸¸è§ģ è¡¨è¾¾
ç§ĳæĬĢ åĴĮ
Ġcomp ositions
æĢ»ç»ĵ æĿ¥è¯´
èĢĥèĻĳåĪ° ä¸Ńæĸĩè¡¨è¾¾ä¹łæĥ¯
éľĢè¦ģè°ĥæķ´ çļĦåľ°æĸ¹
Ġdevelop s
ä¸ĸçºª æ¬§æ´²
å¹´ é¾Ħ
åįı ä½ľ
åŃ¦çĶŁ æĪĸèĢħ
ron t
åħ» åĪĨ
åĲĦ åĽ½
è¡¨è¾¾åĩº æĿ¥
æİ¥ä¸ĭæĿ¥è¦ģç¡®ä¿Ŀ ç¿»è¯ĳåĩĨç¡®
Ġmon opol
Ġimplement ations
ä¸Ńæĸĩåı¥åŃĲç»ĵæŀĦ éĢļå¸¸ä¼ļæĬĬ
å¤ªç©º çĶµæ¢¯
ç¿»è¯ĳåĲİçļĦåı¥åŃĲåºĶè¯¥ åĩĨç¡®
super vised
techn ical
ä½ĨæľīæĹ¶åĢĻ ä¹Łä¼ļçĶ¨
äººç±»ä¸Ńå¿ĥ ä¸»ä¹ī
Ġphenomen on
ä»£çĲĨ éĹ®é¢ĺ
Ġtemper atures
è¿Ļæ®µ ç¿»è¯ĳ
éĩİçĶŁ ç§įç¾¤
æŃ£å¼ıåĴĮä¸ĵä¸ļ çļĦè¯Ńæ°Ķ
åŃ¦éĻ¢ æ´¾
break able
æĺ¯ æ¯Ķè¾ĥ
è¦ģ è¡¨è¾¾
al ity
æŀ ¯
æĿ Ģ
Ġd est
Ġd endritic
æĥ Ĭ
æĺ¯åĲ¦ èĥ½å¤Ł
ed ge
åİŁåı¥ ä½¿çĶ¨
åĲĮ çŃī
ç³» åĪĹ
Ġb o
æĹł éĻĲ
åģĩè®¾ è¯Ńæ°Ķ
åĵªäºĽ ç¤¾ä¼ļ
æĤ ¨
pre vent
æ¿Ģ è¿Ľ
åıªè¾ĵåĩº ç¿»è¯ĳåĨħå®¹
æĥħæĦŁ è¡¨è¾¾
åºĶè¯¥æ²¡éĹ®é¢ĺ äºĨ
Ġmin iaturization
Ġsc arcity
èº«ä»½ è®¤åĲĮ
ä¸įéľĢè¦ģè°ĥæķ´ ç»ĵæŀĦ
æľĢåĲİæ£ĢæŁ¥æķ´ä½ĵ ç¿»è¯ĳ
æİ¥è¿ĳ åħīéĢŁ
Ġdistinc tive
cos ity
soci oeconomic
Ġlay ers
Ġexacerb ates
åħ»èĢģéĩĳ ä½ĵç³»
lay ered
è Ķ
Ġ iss
çļĦ æĦŁçŁ¥
è¯ĳ æĪĲ
ä¹ Į
ä¹ ĺ
Ġt argeted
ä½Ĩ åİŁ
è´ «
ä¿ĿæĮģ æľ¯è¯ŃæŃ£ç¡®
éĥ¨ ä»¶
çĽ¸ å®¹
å¦Ĥä½ķ å¯¼èĩ´
åŃ¦æľ¯ è¡¨è¾¾ä¹łæĥ¯
ä¹Ł æĺ¯æŃ£ç¡®çļĦ
å¤§ éĿ©åĳ½
åľ¨è¿ĻéĩĮ åı¯ä»¥ç¿»è¯ĳä¸º
ä»ĸ çļĦ
oc ritical
æ¬ ¾
è§Ĩ åĮĸ
æ°´ åĲĪçī©
Ġap ply
ha ve
äº§çĶŁ äºİ
Ġge opolitics
åħ± æĮ¯
çĽ¸å¯¹ äºİ
Ġè¿ĻéĩĮçļĦ åħ³éĶ®æĺ¯
ä¸ŃæĸĩéĢļå¸¸ä¼ļæĬĬ çĸĳéĹ®è¯į
ä¾µ èļ
æ¯ıä¸ªæľ¯è¯ŃçļĦ åĩĨç¡®
Ġfre quency
Ġrelations hip
è¿Ļæł·æĹ¢ä¿ĿæĮģäºĨ åİŁåı¥çļĦ
çĶ¨æĪ·è¿ĺ çī¹åĪ«å¼ºè°ĥ
Ġimpro vements
æ¹¿å£ģçĶ» æĬĢæ³ķ
æľĢåĲİç¡®è®¤æĺ¯åĲ¦ éģĹæ¼ıä¿¡æģ¯
æĽ´å¿« çļĦ
Ġschol astic
exp ected
æ°ĳæĹı åĽ½å®¶
Ġdecre ase
ract al
Ġrul es
ç§ĳçłĶ äººåĳĺ
mitig ate
i ly
éľĢè¦ģ æī¾åĪ°
æľ¯è¯Ń æĺ¯åĲ¦
Ġp edag
æĿ¥ å¼Ģå¤´
Ġs ources
ç¬¦åĲĪä¸Ńæĸĩ åŃ¦æľ¯åĨĻä½ľ
ul ating
Ġcon ductivity
ab stract
Ġst atic
ç§ĳåŃ¦ æĸĩçĮ®
ex ascale
èģ ĺ
èĢĥèĻĳåĪ° ä¸Ńæĸĩè¯»èĢħåı¯èĥ½å¯¹
ult ra
æĽ² çİĩ
è¡¨çİ° æĸ¹å¼ı
æ³¢ ç²Ĵ
æ³¢ åĩ½æķ°
ç®Ģ ç§°
åı£è¯ŃåĮĸ çļĦè¯įæ±ĩ
çŁ¥è¯Ĩ ç»ıæµİ
å°ĳ å¹´
è´Ł ç©ºéĹ´
è§£éĩĬæĪĸ éĻĦåĬłä¿¡æģ¯
ä¹Łæĺ¯ åĩĨç¡®çļĦ
å®Įåħ¨ ç«ŀäºī
éļ¾ çĤ¹
åħīåŃĲ è®¡ç®Ĺæŀ¶æŀĦ
åģļ åĩº
Ġcontin ue
èĲ¥ éĢł
åı¯èĥ½ä¼ļå¦Ĥä½ķ æ¼Ķåıĺ
ä»İæł¹æľ¬ä¸Ĭ æĶ¹åıĺ
ä¿¯åĨ²å¸¦ åĬ¨åĬĽåŃ¦
æķ°åŃĹé¸¿æ²Ł éĢļè¿ĩ
yp es
ä¸įéľĢè¦ģä»»ä½ķ è§£éĩĬæĪĸé¢Ŀå¤ĸä¿¡æģ¯
âĢĶ âĢĶ
æĭĽ èģĺ
Ġdimension s
utrin o
1 2
r ench
© åĽº
º ä¹³
æĢ§ çĬ¶
re me
ä¸į å½ĵ
æĺ¯åĲ¦ ç¬¦åĲĪä¸ŃæĸĩçļĦ
ä¿ĿæĮģ çĸĳéĹ®è¯Ńæ°Ķ
å· ©åĽº
åĵ ºä¹³
è¿Ļåı¥è¯Ŀ æĺ¯åľ¨
... ,
åıĺ éĩı
æĮĩçļĦæĺ¯ éĢļè¿ĩ
åŃ¦æľ¯ ä¸¥è°¨
å°Ĩ èĭ±æĸĩåı¥åŃĲç¿»è¯ĳæĪĲä¸Ńæĸĩ
ad a
åĨį è¯»ä¸Ģéģį
ç±» åĬ¨çī©
éĩıåŃĲ éļ§ç©¿
è¿ĺè¦ģæ³¨æĦı åı¥åŃĲçļĦ
æľĢåĲİæ£ĢæŁ¥ æĸĩåĮĸéĢĤåºĶæĢ§
æĢ» ä½ĵ
åħ· èº«
cal ized
è¿Ľè¡Į å¯¹æ¯Ķ
éģĵå¾· ä¸»ä½ĵ
Ġbec ause
Ġadv ocates
ä¿ĿæĮģåİŁæĦı åį³åı¯
ĠW orld
éģ¿åħįä½¿çĶ¨ è¿ĩäºİ
å®ı å¤§
æīĢä»¥æľ¯è¯Ń å¿ħé¡»æŃ£ç¡®
åľ¨åĵ²åŃ¦ é¢ĨåŁŁ
éĺĲéĩĬ äºĨ
åłĨ ç§¯
Ġdual ity
fragment ation
Ġvehic les
çİ°åľ¨åĪĨè¯į çŁŃè¯Ń
Ġset tings
æ³ķåĽ½ å¤§éĿ©åĳ½
Ġgroup s
ĠæĪĳéľĢè¦ģä»Ķç»ĨåĪĨæŀĲ æ¯ıä¸ªéĥ¨åĪĨ
sip ation
æŀ¯ ç«Ń
æ³¢ç²Ĵ äºĮè±¡
A éĢļè¿ĩ
I t
S ynthetic
m acroscopic
n ot
p op
æĢ§ æł¼
éľĢè¦ģ æ£ĢæŁ¥æĺ¯åĲ¦æľīéģĹæ¼ıçļĦä¿¡æģ¯
Ġc ulture
or iz
ec ting
é¦ĸåħĪ åĪĨæŀĲåı¥åŃĲç»ĵæŀĦ
ä½Ĩ éľĢè¦ģä¿ĿæĮģ
ä¿¡ çĶ¨
Ġw ind
æĪĸèĢħ è°ĥæķ´
è¦ģç¡®ä¿Ŀ æľ¯è¯ŃåĴĮè¡¨è¾¾
è¯»èµ·æĿ¥ åĥı
æĪĳéľĢè¦ģç¡®ä¿Ŀ çĲĨè§£
ä¸įè¿ĩ çĶ¨æĪ·åı¯èĥ½å¸ĮæľĽ
ĠA ristotelian
ves ting
æľīæĹ¶ ä¼ļ
oth er
Ġdemon strating
è¿ĻéĩĮåı¯èĥ½éľĢè¦ģ æł¹æį®ä¸Ĭä¸ĭæĸĩéĢīæĭ©
ä»ĸä»¬çļĦ æĮĩç¤º
Ġcapital ist
åĲĮæł· çļĦ
af auna
Ġconflic ting
Ġreconfig ure
æľ¬åľ° äºº
Ġhyper text
Ġprom ise
åıĤä¸İå¼ı èīºæľ¯
çĶµè§£ è´¨
o ffer
v ial
çļĦ æĹ¶åĢĻ
çļĦ äº¤åıīé¢ĨåŁŁ
çĶ ·
ç¿»è¯ĳ æĺ¯
åı¥ å°¾
al ing
or es
æĪĳ åıªéľĢè¦ģ
æīĢä»¥ æľĢç»Īç¡®å®ļç¿»è¯ĳä¸º
æĬ Ħ
éĢļå¸¸ çĽ´æİ¥ä½¿çĶ¨
ä¸Ĭ ä¼ł
æĪĸèĢħ è°ĥæķ´è¯Ńåºı
ç¡®è®¤ åĲİ
ver age
Ġg as
lo t
pl er
å¦Ĥæŀľ å®ŀçİ°äºĨ
Ġac ademic
éľĢè¦ģç¡®ä¿Ŀ æľ¯è¯ŃçļĦåĩĨç¡®æĢ§
ä½ľä¸º çĬ¶è¯Ń
åĪ¶åº¦ åĲĮ
è¦ģåĩĨç¡® ç¿»è¯ĳä¸º
å¤§æ°Ķ äºĮæ°§åĮĸç¢³æµĵåº¦
æĸ¹å¼ıçĬ¶è¯Ń æĺ¯
sub st
Ġvol canoes
éĿĴ å°ĳå¹´
åħīåŃ¦ æ··åĲĪ
çĶ¨æĪ·å¼ºè°ĥå¿ħé¡» åĩĨç¡®ä¼łè¾¾åİŁæĦı
åĪĨå¸ĥå¼ı è´¦æľ¬
éĿ©åĳ½æĢ§ åıĺéĿ©
æĭĨåĪĨ åı¥åŃĲç»ĵæŀĦ
çĶ¨æĪ·æĺİç¡® æĮĩåĩº
ov skite
Ġimmer sion
åįłæį® ä¸»å¯¼åľ°ä½į
H y
åľ¨ çĶŁçī©
ä¸º åŁºç¡Ģ
ic tions
åºĶ ç¿»è¯ĳä¸º
æīĢä»¥ åºĶè¯¥
åĴĮ æľ¯è¯Ń
Ġm ilitary
ac ity
ä¼ļ å¼ķåıĳ
çĦ¶åĲİ æİ¥
å®ļ ä½į
åīį æıĲ
æķ´ä½ĵ æµģçķħèĩªçĦ¶
åĩĨç¡®ä¼łè¾¾äºĨ åİŁåı¥çļĦæĦıæĢĿ
çľĭ åĩº
å»º è®¾
Ġres t
ges tural
ace u
sci ll
å¤ļä½Ļ çļĦåĨħå®¹
åĽºå®ļ çļĦæľ¯è¯Ń
Ġme at
Ġdiffer ed
åĲĦ ç§į
å°½ç®¡ æľī
arm aceu
æĶ¯æĮģ ä»ĸä»¬çļĦ
å£° éŁ³
éĺĲ æĺİ
æīĢä»¥æľ¯è¯Ń è¦ģåĩĨç¡®
Ġidenti ties
phys ics
äºĳ è®¡ç®Ĺ
è¯Ńæ³ķåĴĮ æµģçķħæĢ§
çĥŃå¸¦ æ°ĶæĹĭ
çĽ®æłĩè¯»èĢħçļĦ æĸĩåĮĸèĥĮæĻ¯
Ġvalid ated
Ġcasc ade
Ġdise ases
åĨĻè®ºæĸĩ æĪĸèĢħ
ubiqu itous
ropol itan
åĵºä¹³ åĬ¨çī©
l ism
çļĦ è¿ĽæŃ¥
éľĢè¦ģ æī¾ä¸Ģä¸ªåĲĪéĢĤçļĦ
ä¸į ç¿»è¯ĳ
æīĢ éľĢ
ç¡®ä¿Ŀ åı¥åŃĲç»ĵæŀĦç¬¦åĲĪä¸Ńæĸĩä¹łæĥ¯
Ġs atell
ç¬¦åĲĪä¸Ńæĸĩ çĸĳéĹ®åı¥
åħĪ éªĮ
ä½Ĩ éľĢè¦ģç¡®ä¿Ŀæľ¯è¯ŃåĩĨç¡®
æĮĩ éĢļè¿ĩ
og ram
si an
Ġn ow
çĽ¸ åºĶ
åı¥åŃĲçļĦ æķ´ä½ĵæĦıæĢĿ
å¯¹æ¯Ķ æĺİç¡®
è¢« ç§°ä¸º
ni hi
åħī æķı
åıį çħ§
ex peri
èĢĥèĻĳåĪ° åı¥åŃĲçļĦæµģçķħæĢ§
çĶ¨æĪ·çļĦè¦ģæ±Ĥ æĺ¯
ç¿»è¯ĳçļĦ åħ³éĶ®çĤ¹åľ¨äºİ
ä¸Ńæĸĩè¡¨è¾¾ èĩªçĦ¶
çĶ± æ¸©åº¦åĴĮçĽĲåº¦
Ġpol l
Ġle g
Ġat tention
ç©ºéĹ´ åħ³ç³»
çĽ´æİ¥ç¿»è¯ĳ æĺ¯
çĹħ åİŁ
Ġgener ative
çĽ¾ çĬ¶çģ«å±±
Ġsyn tactic
æ²¡æľīéģĹæ¼ıæĪĸ è¯¯è¯ĳ
æĽ´ä¸º å¸¸è§ģ
cont rol
Ġter raforming
æĪĳéľĢè¦ģç¡®ä¿Ŀç¿»è¯ĳ åĩĨç¡®ä¼łè¾¾
æłĳ æŀĹ
æĽ´èĩªçĦ¶çļĦè¡¨è¾¾ åı¯èĥ½æĺ¯
æĢ¥ åī§
employ ment
incorpor ates
åºŁ çī©
Ġanom ie
åĨįè®² ç»ĵæŀľ
çļĦåħī å½±æķĪæŀľ
çł´è§£ çļĦ
çĮİ çī©
çİ°ä»£è´§å¸ģ çĲĨè®º
åıįçħ§ çİĩ
r arian
çļĦ æłĩåĩĨè¯ĳæ³ķ
çļĦ æ¼Ķåıĺ
åĩ Ń
ic ting
ro y
Ġd er
åħĪ å¤©
Ġf lood
åºĶè¯¥ åı¯ä»¥
æĸĩåĮĸ çļĦ
åı¯èĥ½éľĢè¦ģ å°Ĩ
âĢ¦ âĢĿãĢĤ
å¤§ çº¦
å½± åĥı
im per
å®ŀçİ° åķĨä¸ļåĮĸåºĶçĶ¨
åŀĭ ç»ıæµİ
op pler
å¿ħé¡» æŃ£ç¡®ä½¿çĶ¨
çľĭ åĪ°
çĬ¶ åĨµ
ex isting
åĵ²åŃ¦ æľ¯è¯Ń
Ġtrans parency
ä¸Ńæĸĩè¡¨è¾¾ éľĢè¦ģ
est one
ou pl
å°ıè¯´ ä¸Ń
è¿ĻéĩĮè¦ģæ³¨æĦı åĬ¨è¯į
å¢ŀéķ¿ çĲĨè®º
æĿ¥å¼ķå¯¼ è¿Ļæł·çļĦéĹ®é¢ĺ
dem ographic
æŀĦæĪĲ äºĨ
çĶ²çĥ· éĩĬæĶ¾
èĲ¥åħ» çº§èģĶæķĪåºĶ
æĮ¯ èį¡
Ġview er
ç¡®ç«ĭ äºĨ
ä¸įèĥ½ç¿»è¯ĳæĪĲ åħ¶ä»ĸ
ä¾Ľç»Ļ åŃ¦æ´¾
Ġmedium s
imp act
ä¸įä¼ļè®©è¯»èĢħæĦŁåĪ° çĶŁç¡¬
Ġpe ople
b its
f ollow
g et
m undane
Ġ established
è¾ Ĩ
åľ¨ å¤ĦçĲĨ
åŃ¦ è¯´
ç»ĵæŀĦ æĪĸ
äºĨ ä¸Ģä¸ĭ
ä½¿ æĮģç»Ń
Ġth reat
çĽ ĺ
åĪ¶ ä½ľ
åı¥åŃĲç»ĵæŀĦ æŃ£ç¡®
çĤ ¼
èīºæľ¯ æľ¯è¯Ń
å¤ļ ç»´
Ġint r
Ġcont ext
ä¸įè¿ĩ çĶ¨æĪ·è¦ģæ±ĤçĽ´æİ¥ç»ĻåĩºçŃĶæ¡Ī
åı¯èĥ½ä¼ļ å¦Ĥä½ķå½±åĵį
æĿ¡ä»¶åı¥ æĶ¾åľ¨åīįéĿ¢
éĤ£ ä¸ª
å¤© æ°Ķ
æĶ¶ çĽĬ
èĪ ¹
çĨŁæĤī ç¨ĭåº¦
æĽ´å¸¸è§ģ äºİ
ç²ĴåŃĲ çļĦ
æĹ¥ æľ¬
åı¯èĥ½ä¸į å¦Ĥ
ĠS hakespearean
Ġj uxtaposes
æĸĩç«ł ä¸Ń
man if
å¹¶ä¸Ķè¦ģ éģµå®Ī
è®©ä¸Ńæĸĩ æĽ´èĩªçĦ¶
éĢĨ åĳ¨æľŁ
ä¸ŃæĸĩéĢļå¸¸åħĪè¯´ æĿ¡ä»¶
éĢłå±± å¸¦
æłĳæŀĿçĬ¶ æ°´ç³»
emin ist
èµ¤ åŃĹ
distinc t
a z
c ed
g raph
j or
m em
s c
ç ĺ
çļĦ è¿Ľå±ķ
è¯Ń èĢħ
ä»¥ æĿ¥
ä¼ Ļ
or f
ç¬¦åĲĪ åİŁåı¥çļĦ
è¿ĻéĩĮ è¦ģç¡®ä¿Ŀ
åĴĮ ç¤¾ä¼ļ
ç¬¦åĲĪä¸Ńæĸĩ ç§ĳæĬĢ
å¯¹ åľ°çĲĥ
Ġf igur
ä¸ĵä¸ļæľ¯è¯Ń éľĢè¦ģæ³¨æĦı
Ġw ay
Ġl ow
ç¿»è¯ĳåĲİçļĦåı¥åŃĲ éľĢè¦ģ
çĶ¨æĪ·åı¯èĥ½ æ²¡æľī
æĢ»ç»ĵ ç¿»è¯ĳ
åľº åŁŁ
form al
ç² Ĺ
vol canic
å±Ĥ çļĦ
Ġne oclassical
åĽŀ å£°
å¡ Ķ
ç¾İ æľ¯
æĺ¯ä¸Ģä¸ª ä¸ĵä¸ļæľ¯è¯Ń
til ingual
Ġanal y
è§¦ è§ī
Ġse par
of t
æŁ¥ ä¸Ģä¸ĭ
è®¤è¯Ĩè®º ä¸ĬçļĦ
æł¹æľ¬æĢ§ åıĺéĿ©
Ġrevolution ary
è¾¹ç¼ĺ è®¡ç®Ĺæŀ¶æŀĦ
ä¸Ńå¤® éĽĨæĿĥ
äººä»¬ åĢ¾åĲĳäºİ
ind igenous
ugment ed
Ġequ ation
prin ting
Optogenetic s
Ġexam ines
Ġwa ves
çº¹ çĲĨ
adop tion
armaceu tical
E dge
k y
t est
Į çĶŁ
in imalist
ä¸Ńæĸĩ å¸¸çĶ¨
åı¯èĥ½ åıĳçĶŁ
æĮ ¤
ar ise
ur sive
çĶŁ çĲĨ
æ¯Ķè¾ĥ åı£è¯ŃåĮĸ
æ£ĢæŁ¥ æľīæ²¡æľīéģĹæ¼ıçļĦä¿¡æģ¯
åĬ¨ èį¡
ig ations
çĲĨè§£ åİŁåı¥çļĦç»ĵæŀĦåĴĮæĦıæĢĿ
ph i
åıĳ æĮ¥
ä¹Ł å¾Ī
éĻ ĮçĶŁ
éĥ½ è¦ģ
ut ation
åĪĨæŀĲ åİŁåı¥
Ġdis sipation
å¹¶ä¸Ķ å¿ħé¡»
åįĩ çº§
ç¡®ä¿Ŀæ²¡æľī çĽ´è¯ĳçļĦçĹķè¿¹
åħ¬ ä¼Ĺ
çİ°ä»£ä¸»ä¹ī æĸĩåŃ¦ä¸ŃçļĦ
åıªè¾ĵåĩº ç¿»è¯ĳåĲİçļĦåı¥åŃĲ
åīįèĢħ æĽ´åĲĪéĢĤ
Ġadop ted
å¨ģ æĿĥ
ä½Ĩä¹Ł è¦ģ
Ġdisrup tion
Ġsym bol
Ph enomenological
Ġconstruc ts
Ġconstruc tivism
ç©¿ éĢı
Ġspecial ized
pot ential
long ed
çĶ¨æĪ·åı¯èĥ½å¸ĮæľĽç¿»è¯ĳ ç®Ģæ´ģ
æīĢä»¥çĶ¨è¯į è¦ģ
meth ane
Ġser ves
Ġbiosign ature
æĿİåĺīåĽ¾çļĦ æ¯Ķè¾ĥä¼ĺåĬ¿çĲĨè®º
å®ŀéªĮå®¤åŁ¹èĤ² èĤī
å¦ĤæŀľçĽ´è¯ĳ æĪĲ
çĹħåİŁ ä½ĵ
i red
è ĸ
è¯ ¸
en se
åĪ ļ
re alism
æĪĸ ç»ĵæŀĦ
at ric
æķ´ åĲĪèµ·æĿ¥
ä¸Ģ çĽ´
æŃ£ç¡® ä¼łè¾¾
Ġre inforce
le verages
åĲĮæĹ¶ è¦ģæ³¨æĦı
ç¡®è®¤ æľ¯è¯Ńä½¿çĶ¨æŃ£ç¡®
éĩį åĬĽ
Ġac cept
æł¹ éĻ¤
ç®Ģæ´ģ çļĦè¡¨è¾¾
Ġè¿ĻéĩĮ çĶ¨
åŃĺåľ¨ åħ³èģĶ
åŃĺåľ¨ æł¹æľ¬æĢ§å·®å¼Ĥ
æķĻ æĿĲ
vers arial
rop y
çŁ¥è¯Ĩ ä¼łæĴŃ
Ġadv ances
ide ological
ç²ĴåŃĲ çī©çĲĨåŃ¦
åį°è±¡æ´¾ çĶ»å®¶
Ġsystem atically
æķ´ä½ĵåı¥åŃĲç»ĵæŀĦ éĢļé¡º
æķ´ä½ĵåı¥åŃĲ çļĦæĦıæĢĿ
Ġconc lusively
åĲİçİ°ä»£ åħĥå°ıè¯´
çģµ æķı
åīįåįĬåı¥ æĺ¯
ç¡®ä¿Ŀæķ´ä¸ªåı¥åŃĲ éĢļé¡º
æľºåĻ¨äºº æĬĢæľ¯
ä¸įåĬł åħ¶ä»ĸåĨħå®¹
Ġobserv ed
pri m
æĪĳçİ°åľ¨éľĢè¦ģæĬĬ çĶ¨æĪ·ç»ĻçļĦèĭ±æĸĩåı¥åŃĲç¿»è¯ĳæĪĲä¸Ńæĸĩ
é¸Ł ç±»
ä¸§ å¤±
æķ°åŃĹæ¸¸ æ°ĳ
c entralized
r um
v able
æĺ¯ å¸¸çĶ¨
è¦ģ è°ĥæķ´
åĲĪ å¹¶
èĥ½ åĩĨç¡®ä¼łè¾¾
å¸ ķ
st e
æīĢä»¥ åı¥åŃĲç»ĵæŀĦ
Ġs leep
ç¬¦åĲĪä¸Ńæĸĩ çĸĳéĹ®åı¥çļĦç»ĵæŀĦ
å° Ŀ
Ġf er
è´ ¡
ç¡®è®¤ æ¯ıä¸ªæľ¯è¯Ńéĥ½æŃ£ç¡®
åī ª
æĬĢæľ¯ æĢ§
åĨħ å¿ĥ
åĨį è¯´æĺİ
å°± éľĢè¦ģ
åĽłä¸º åĲİèĢħ
éĩıåŃĲ å¹²æ¶ī
æº ¢
è¿ĺè¦ģæ³¨æĦı æµģçķħæĢ§åĴĮæĸĩåĮĸéĢĤåºĶæĢ§
å¿ħé¡» ç®Ģæ´ģ
ç»Ĩ èıĮ
ag ic
ex plo
çłĶç©¶ é¢ĨåŁŁ
Ġun breakable
ä¸ŃåĽ½ çļĦ
ä»¥åıĬ æķ´ä¸ªåı¥åŃĲçļĦéĢ»è¾ĳ
åĬ³åĬ¨ ä»·åĢ¼
åĪĴ åĪĨ
åľºæĻ¯ ä¸ĭä½¿çĶ¨
å´ ĩ
åĨ°å·Ŀ åĿĩè¡¡è°ĥæķ´
çĶ¨æĪ·åı¯èĥ½æĺ¯åľ¨åŃ¦æľ¯æĪĸ æĬĢæľ¯æĸĩæ¡£
An thropocene
åĮĹæŀģ åľ°åĮº
å¹¶åĪĹ ç»ĵæŀĦ
å¦ Ī
åĳĪæĮĩæķ°çº§ æıĲåįĩ
çº¢ æłĳæŀĹ
æĪĳè¦ģç¡®ä¿ĿåĩĨç¡®ä¼łè¾¾ æ¯ıä¸ªæľ¯è¯Ń
äººæľº äº¤äºĴ
Ġoff ers
åŃ¦æľ¯çłĶç©¶èĢħ æĪĸåŃ¦çĶŁ
æ²¹çĶ»é¢ľæĸĻ çļĦåıĳæĺİ
Ġdistor tion
Mon etarist
etermin ed
phi losoph
i ting
s ed
âĢľ âĢ¦âĢ¦
çļĦ è¿ĲçĶ¨
åľ¨ æľªæĿ¥
ä¸į åľ¨
éĢļ è´§
æīĢä»¥ ç»¼åĲĪèµ·æĿ¥
Ġs how
Ġf antastical
è¿ĩ å¤ļ
æ¯Ķè¾ĥ éĥ¨åĪĨ
çĽ´ è§Ĥ
æĪĸèĢħ æĺ¯
çĽ´æİ¥ å¯¼èĩ´
é¢Ĩ åľŁ
Ġl ithospheric
çĲĨè®º æ¨¡åŀĭ
ä¸įéľĢè¦ģ ä½¿çĶ¨
å¿ħé¡ »è¯ĳ
å¿ħé¡» æŃ£ç¡®ç¿»è¯ĳ
ä¸įèĥ½ éĶĻ
me g
çĶ¨æĪ·æıĲä¾ĽçļĦ ç¤ºä¾ĭ
çĶ¨æĪ·è¦ģæ±Ĥ åıªè¾ĵåĩºç¿»è¯ĳç»ĵæŀľ
æ®ĸæ°ĳ æĹ¶æľŁçļĦ
osi tional
çĶ¨æĪ·åı¯èĥ½å¸ĮæľĽ è¿Ļä¸ªç¿»è¯ĳçĶ¨äºİ
æ·± åħ¥
è§£éĩĬæĪĸ æ³¨éĩĬ
æĿ¥è¡¨è¾¾ è¿Ļç§į
ĠC h
ne w
æ²³ åı£
çĶ¨æĪ·æıĲä¾ĽçļĦèĭ±æĸĩåı¥åŃĲç¿»è¯ĳæĪĲä¸Ńæĸĩ çļĦ
æķ´ä¸ªåı¥åŃĲçļĦ å¤§æĦıæĺ¯
Ġwe ak
è¡Įä¸ºç»ıæµİåŃ¦ éĢļè¿ĩ
æł¹æľ¬æĢ§ æĶ¹åıĺ
è¶ħæĿĲæĸĻ å·¥ç¨ĭ
éĵ¶ æ²³
å®¾è¯Ń éĥ¨åĪĨ
æĽ¿ä»£ æĸ¹æ¡Ī
Ġide ologies
ade quately
åŃ¦æľ¯è®ºæĸĩ æĪĸèĢħ
Ġadjust ments
Ġtraged y
æµģä½ĵ åĬ¨åĬĽåŃ¦
commer cial
æłĸ æģ¯
ä¾µèļ Ģæ¨¡å¼ı
æľ¬åľ°äºº åĨĻçļĦ
M ark
d estabiliz
t ogenetic
w id
çļĦ æķĪæŀľ
éľĢè¦ģ å¦Ĥä½ķ
æĪĸ æĸ¹æ³ķ
æĿ¥ æĮĩ
è¿ĻéĩĮ éľĢè¦ģæī¾åĪ°åĲĪéĢĤçļĦä¸Ńæĸĩè¡¨è¾¾
æīĢä»¥ æķ´ä¸ªåı¥åŃĲç»ĵæŀĦ
Ġf ossil
è´ ¥
ä¸ŃçļĦ ä¸ĵä¸ļæľ¯è¯Ń
Ġe volving
æĮĩçļĦæĺ¯ å¯¹
ä¹Ł ç¬¦åĲĪ
Ġpro jections
å¦Ĥæŀľ éĩıåŃĲè®¡ç®Ĺ
åĢ º
ç»ıæµİ æĶ¿çŃĸ
è¿ĺè¦ģæ³¨æĦı ä¸ĵä¸ļé¢ĨåŁŁçļĦåĩĨç¡®æĢ§
æľĢåĲİæ£ĢæŁ¥ æµģçķħæĢ§åĴĮæĸĩåĮĸéĢĤåºĶæĢ§
ä½ľä¸º å®ļè¯Ń
éķ¿ æĹ¶éĹ´
è¯Ńè¨Ģ åŃ¦ä¸Ń
çĦ¶åĲİæĺ¯ åĲİåįĬåı¥
å¤© æĸĩ
æĹ¢åĩĨç¡®åıĪ ç¬¦åĲĪä¸ŃæĸĩçļĦè¡¨è¾¾ä¹łæĥ¯
åħ³éĶ®çĤ¹ éľĢè¦ģæ³¨æĦı
è¿ĻäºĽæľ¯è¯Ń åľ¨ä¸ŃæĸĩéĩĮ
ç»ıåħ¸ è®¡ç®Ĺæľº
åį°è±¡æ´¾ çļĦ
åį°è±¡æ´¾ åĴĮ
istem ic
åĵ¥ çĻ½
é» ĺ
cont ribute
æĪĳéľĢè¦ģç¡®ä¿ĿåĩĨç¡®çĲĨè§£ æ¯ıä¸ªæľ¯è¯ŃåĴĮ
æĮĳæĪĺäºĨ ä¼łç»Ł
Con structivist
å¿ħè¦ģ æĢ§
åĲĮæĹ¶éģµå¾ª çĶ¨æĪ·æıĲåĩºçļĦåĲĦé¡¹è¦ģæ±Ĥ
bios ign
æīĢä»¥æķ´åı¥è¯Ŀ çļĦå¤§æĦıæĺ¯
çŁ³å¢¨çĥ¯ çĶŁäº§
ä¸Ńæĸĩåı¥åŃĲç»ĵæŀĦéĢļå¸¸ ä¸İèĭ±æĸĩä¸įåĲĮ
ç¢³æįķéĽĨ æĬĢæľ¯
èķ ¾
Ġambigu ity
åĵ¥çĻ½ å°¼
D em
d el
l ab
Ġ 90
on ical
ç¡®ä¿Ŀ éĢ»è¾ĳæ¸ħæĻ°
Ġe very
li very
å¦Ĥä½ķ ä¸º
æķ´ä¸ª çŁŃè¯Ń
ç¤¾ ç¾¤
per man
åı¯èĥ½æĽ´ åģıåĲĳäºİ
Ġde posits
Ġch ron
ç¤¾ä¼ļ éĺ¶å±Ĥ
ç§ĳåŃ¦ è¿ĽæŃ¥
è¿ĩç¨ĭ çļĦ
æĺİç¡® æĺ¯
ust om
èĤ ²åŃ¦
åİĨåı² ç¼ĸçºĤ
å¤© æĸĩåŃ¦ä¸ŃçļĦ
Ġsub atomic
ä¹ĭéĹ´çļĦ çŁĽçĽ¾
Ġco re
çĦ¶åĲİè¦ģèĢĥèĻĳ åı¥åŃĲçļĦæķ´ä½ĵç»ĵæŀĦ
èĩªå·± è§ĤçĤ¹
sub duction
çĶ¨æĪ·å¼ºè°ĥ åĩĨç¡®æĢ§
æ£ĢæŁ¥ä¸Ģä¸ĭ æľīæ²¡æľīéģĹæ¼ıçļĦä¿¡æģ¯
ä¸ĵä¸ļæĢ§åĴĮ æĸĩåĮĸéĢĤåºĶæĢ§
éĢĲ æŃ¥
Ġmin eral
gra vitational
èĴĻ åı¤
ĠG othic
ä½ĨçĶ¨æĪ· æ²¡æľīçī¹åĪ«è¯´æĺİ
Ġext ended
parad igm
Ġparadox ical
ubl ic
ç¤¾äº¤åªĴä½ĵç®Ĺæ³ķ éĢļè¿ĩ
çĶ¨æĪ·æıĲåĩºçļĦ åħ·ä½ĵè¦ģæ±Ĥ
çĶ¨æĪ·è¦ģæ±Ĥç¿»è¯ĳ è¦ģåĩĨç¡®
ä¸įèĥ½éļıä¾¿ æĶ¹
Ġexacerb ate
Ġperman ent
ä¸įæ·»åĬłä»»ä½ķ é¢Ŀå¤ĸä¿¡æģ¯
Ġhomogen ization
å¿ħé¡»åĩĨç¡®ä¼łè¾¾ åİŁæĸĩçļĦæĦıæĢĿ
educ ational
å¥ĸ åĬ±
çķľ çī§
ä¸ŃåĽ½äººçļĦ æĸĩåĮĸèĥĮæĻ¯
c ry
u il
çļĦ åıĳçİ°
ä¹ Ķ
åı¯èĥ½ å¼ķèµ·è¯¯è§£
æŃ ĩ
è¡¨è¾¾ åı¯èĥ½æĢ§
å¸¸ åĢŁåĬ©
æŃ£ å¸¸
Ġd ig
ec tiveness
èĩ Ń
ä¹łæĥ¯ çĶ¨æ³ķ
åħĪ åīį
å½ ¼
è¿Ļåı¥è¯Ŀ æĺ¯åľ¨éĹ®
è¿Ļä¸ª æĪĳçŁ¥éģĵ
é¡º åı£
ä¾ĭ è¯ģ
and emic
ç§į æĹı
per ceptual
åĽłä¸º è¿ĻéĩĮ
å¯¹æ¯Ķ çļĦç»ĵæŀĦ
ç§ĳåŃ¦ é¢ĨåŁŁ
Ġr ing
ä¸įè¿ĩ æł¹æį®ä¸Ĭä¸ĭæĸĩ
vi ved
éĻį è§£
æķ´ä¸ªåı¥åŃĲç»ĵæŀĦ éĢļé¡º
èħ ¾
å§ ĵ
ĠS t
Ġcoll ision
ä½ĨçĶ¨æĪ·è¦ģæ±Ĥ çĽ´æİ¥ç»Ļåĩºç¿»è¯ĳ
Ġmin im
ç´§ ç¼©
åı¸ æ³ķ
å¼Ĺ æŀĹ
æĪĳéľĢè¦ģåĩĨç¡®çĲĨè§£æ¯ıä¸ªæľ¯è¯ŃåĴĮ åı¥åŃĲçļĦç»ĵæŀĦ
auth entic
Ġelectron ics
Ġdiff ers
Ġneur onal
æ·¡ æ°´
ä¸Ńæĸĩè¯»èĢħæĺ¯åĲ¦ å®¹æĺĵçĲĨè§£
Ġmetafic tion
Ġinstr uments
è´¡ çĮ®
S up
d iminish
Ġ The
æĺ¯ å¸ĮæľĽ
åħ ¹
åĩĨç¡® çļĦè¯įæ±ĩ
æĽ´ åŃ¦æľ¯
ä¸į ç¡®å®ļ
æĺ¯åĲ¦ æĺİç¡®
ä¸Ģ ä»£
åĪĨ è£Ĥ
Ġf ac
Ġn om
Ġn ecess
æĬĢæľ¯ åĨħå®¹
æĬĢæľ¯ æľ¯è¯ŃçļĦåĩĨç¡®æĢ§
è¿Ļæĺ¯ è¡Įä¸ļ
å¸¸è§ģ çļĦè¡¨è¾¾æĸ¹å¼ı
æķ´ä¸ªåı¥åŃĲ æĺ¯åĲ¦éĢļé¡º
Ġar ound
è¿ĩç¨ĭ ä¸ŃçļĦ
æķ°åŃĹ éĢļä¿¡
åİĨåı² åĪĽä¼¤
åľ¨ä¸Ńæĸĩä¸Ń éĢļå¸¸ç¿»è¯ĳä¸º
å¡ ŀ
å±ŀäºİ ä¸ĵä¸ļæľ¯è¯Ń
çĶ¨æĪ·åı¯èĥ½æĺ¯åľ¨ åŃ¦æľ¯åĨĻä½ľæĪĸ
æ·± è¿ľ
Ġalter s
ä½Ĩæł¹æį® å¸¸è§ģçĶ¨æ³ķ
æĪĳéľĢè¦ģå¤ĦçĲĨ çĶ¨æĪ·æıĲä¾ĽçļĦèĭ±æĸĩåı¥åŃĲ
Ġè¿Ļæł·æĹ¢åĩĨç¡®åıĪ èĩªçĦ¶
ection ist
çĶ² åŁº
åľ¨åŃ¦æľ¯ ä¸Ĭ
rem ains
ç´¯ ç§¯
ä¸įåĬł ä»»ä½ķ
æľºä¼ļ æĪĲæľ¬
ç¬¦åĲĪåŃ¦æľ¯è®¨è®º çļĦè¯Ńå¢ĥ
ä¸įèĥ½éļıä¾¿ æĶ¹åĬ¨
æ¶² æĢģ
Ġsugges t
æ²¡æľīéģĹæ¼ıä»»ä½ķ åħ³éĶ®ä¿¡æģ¯
Ġsubstanti ally
ä¸įåı¯ç¯¡æĶ¹ æĢ§
æ´ª æ°´
æĽ´æľīæķĪ åľ°
éĿŀæ¬§åĩłéĩĮå¾Ĺ åĩłä½ķ
åŀĭåĬ¨çī© ç¾¤
é©¬åħĭæĢĿ ä¸»ä¹ī
Ġobl igations
nihi lation
g round
o ts
r ight
s h
u dian
çļĦ å®ŀæĸ½
åľ¨ æĶ¿æ²»
re udian
éĩĮ çļĦ
çİ Ľ
Ġm id
çİ° è¡Į
æĮĩ ä¸įåĲĮ
ä½¿çĶ¨ éĢĤåĲĪ
æľĢåĲİ ç¡®ä¿Ŀæ²¡æľīéģĹæ¼ıä»»ä½ķä¿¡æģ¯
éĢļè¿ĩ åĪĨæŀĲ
åģ ¶
Ġem p
Ġne ar
æĪĳè¦ģç¡®ä¿Ŀ èĩªå·±
ma tical
çĶŁæĢģ åŃ¦
è¿Ļæł·æĽ´ ç¬¦åĲĪä¸ŃæĸĩçļĦè¡¨è¾¾æĸ¹å¼ı
å¹´ æĿ¥
å¾® æ³¢
å°Ķ æĸ¯
èİ «
çĽ¸äºĴ åħ³èģĶ
æľĢç»Īç¿»è¯ĳ äºĨ
åĮħæĭ¬ åĩĨç¡®æĢ§
å°Ĩå¦Ĥä½ķ éĢĤåºĶ
Ġprioritiz ing
åıĤä¸İ çİĩ
è¶ħè¶Ĭ ä¼łç»Ł
éĢĲ éĥ¨åĪĨ
çłĶç©¶äººåĳĺ æĪĸåŃ¦çĶŁ
ç¿»è¯ĳåĲİçļĦåı¥åŃĲåºĶè¯¥ åĩĨç¡®ä¼łè¾¾åİŁæĦı
Ġä½Ĩ éľĢè¦ģæ£ĢæŁ¥
æ¯Ķè¾ĥå¸¸è§ģ çļĦè¯ĳæ³ķ
è½¨éģĵ çİ¯
çĶ¨æĪ·æıĲåĪ° è¦ģèĢĥèĻĳæĸĩåĮĸéĢĤåºĶæĢ§
æĦıè¯Ĩå½¢æĢģ æŀģåĮĸ
æĪĳéľĢè¦ģä»Ķç»Ĩéĺħè¯» åİŁæĸĩ
æīĢä»¥è°ĥæķ´ é¡ºåºı
æł¹æľ¬æĢ§çļĦ æĶ¹åıĺ
éĿ©åĳ½æĢ§ æĶ¹åıĺ
bod ied
Ġfan s
ç½Ĺé©¬ å¸ĿåĽ½
Ġcompeti tive
Ġchannel s
æĸ¯å¤ļèĳĽ åŃ¦æ´¾
ä¸įæĶ¹åıĺ DNAåºıåĪĹ
Ġsm art
åİŁåĪĽ æĢ§
å¸¸æĢģ åĮĸ
æ³¢ç²ĴäºĮè±¡ æĢ§
e v
e ting
f ore
p ing
on na
æķ ĳ
æĺ¯åĲ¦ è¶³å¤Ł
åį ĵ
Ġre organization
Ġo scill
åľ° è¡¨
éĢļè¿ĩ çİ¯å¢ĥçĽ¸äºĴä½ľçĶ¨
èīºæľ¯ å½¢å¼ı
åıª è¦ģ
æķĪ çĽĬ
Ġun like
å¼Ĥ æĢ§
Ġdec entral
æĮģç»Ń æĹ¶éĹ´
our th
Ġmark edly
ĠI ce
Ġmet amaterials
çĦ¶åĲİæ£ĢæŁ¥ æľ¯è¯Ńæĺ¯åĲ¦æŃ£ç¡®
æķ£ æĸĩ
æĶ¯ éħį
è§£æŀĦ ä¸»ä¹ī
ä¼° è®¡
æ½ľ æĦıè¯Ĩ
è¡¨éĿ¢ ä¸Ĭ
æĹ¶éĹ´çĬ¶è¯Ń çļĦä½įç½®
ä»ĸä»¬çļĦ åħ·ä½ĵè¦ģæ±Ĥ
æķ´ä½ĵåı¥åŃĲç»ĵæŀĦ æ¸ħæĻ°
åĲĮæĹ¶ç¡®ä¿Ŀ ä¸ĵä¸ļæľ¯è¯ŃåĩĨç¡®
Ġaccur ate
ä¹Łåı¯ä»¥ æİ¥åıĹ
ä¸ĵä¸ļä¸Ķ åĩĨç¡®
åĲĮæĹ¶ä¿ĿæĮģåİŁæĦı ä¸įåıĺ
çĶ¨æĪ·è®©æĪĳæĬĬ èĭ±æĸĩåı¥åŃĲ
æ°¢ çĩĥæĸĻ
åĲĮæĹ¶ä¿ĿæĮģä¸ŃæĸĩçļĦ æµģçķħåĴĮèĩªçĦ¶
cyc lical
ä¸° å¯Į
å¿ħé¡»è¯ĳ ä¸º
å¼ĹæŀĹ æķĪåºĶ
c los
çļĦ è¯ĳæĸĩ
ä¸Ń éĢļå¸¸æĮĩ
åĩ Ģ
è¯Ń è¨
ä¸į åĿĩ
it ud
om antic
ä½Ĩ åıĪ
ul ates
ä¸ŃçļĦ æŃ£ç¡®
Ġre tention
èĢĥèĻĳ æµģçķħæĢ§åĴĮèĩªçĦ¶æĢ§
Ġb ro
ãĢ Į
ãĢ į
ab les
å®¹ éĩı
åı¦ ä¸Ģç§į
çĶŁçī© ç¾¤èĲ½
å®ŀçİ° çļĦ
æĢ»ç»ĵ èµ·æĿ¥
å·² æľī
åıĳå±ķ è½¨è¿¹
ä¸įè¿ĩ èĢĥèĻĳåĪ°
é«ĺ èĥ½æķĪ
æķ°æį® åĪĨæŀĲ
ç»¼åĲĪ æĿ¥çľĭ
åıĳçĶŁ åľ¨
ten ance
èµĦæºĲ çļĦ
ç§» åĬ¨
ä¸Ńæĸĩåı¥åŃĲ è¦ģèĩªçĦ¶
åİĭ è¿«
åı¤åħ¸ ç»ıæµİåŃ¦
è¡¨è§ĤéģĹä¼ł åŃ¦
Ġsim il
åİŁåŃĲ ç²¾åº¦
è§Ĩè§Ĵ ä¸»ä¹ī
åĿĩè¡¡ åıįå¼¹
Ġexpon ential
ä¸ĵä¸ļä¸Ķ æµģçķħ
Ġoper ational
Ġabs ol
çĸ« æĥħ
è¶ħå¯¼ éĩıåŃĲå¹²æ¶ī
è®Ńç»ĥ æķ°æį®
Ġlaw s
æİĴæ°´ æ¨¡å¼ı
Ġredefin ing
çĶŁçī©æłĩå¿Ĺ æ°Ķä½ĵ
itor ial
domin ant
Ġsubstanti al
æĦŁåıĹ è´¨
å¤¸ åħĭ
ners hip
Ġnutri ent
çĶµåĬ¨ æ±½è½¦
Ġson n
å°Ŀ è¯ķ
çĶ²åŁº åĮĸ
1 7
W e
d econstruct
w ay
Ġ 5
çļĦ å·¥ä½ľ
çļĦ æĲŃéħį
çļĦ çľŁå®ŀæĢ§
éľĢè¦ģ ç¿»è¯ĳçļĦ
âĢĿï¼Į "
re inforcing
çİ ©
ed ical
âĢĿãĢĤ "
ur ch
Ġf ol
è¿Ļåı¥è¯Ŀ çļĦåĲ«ä¹ī
Ġb el
Ġcon struct
å¦Ĥæŀľ äºļåİĨå±±å¤§åĽ¾ä¹¦é¦Ĩ
ç³»ç»Ł åľ¨
ap ir
è¯»èĢħ å®¹æĺĵçĲĨè§£
æĸ¹å¼ı æĺ¯éĢļè¿ĩ
éĿŀ åħ±ä»·
çľĭ æ³ķ
Wh orf
æķĻ èĤ²åŃ¦
éĩĩ éĽĨ
Ġreal ist
æĶ¿çŃĸ åĪ¶å®ļ
è¿ĻéĩĮéĢīæĭ© åĲİèĢħ
çī©è´¨ çļĦ
æ¶Ī è§£
ä¿®é¥° æĪĲåĪĨ
Ġmet abolic
can ny
åŁºç¡Ģè®¾æĸ½ çļĦ
å¯Ĩåº¦ é©±åĬ¨çļĦ
ç¡®ä¿Ŀæľ¯è¯Ń åľ¨ä¸Ńæĸĩ
çī©ç§į çļĦ
ç¤¾ä¼ļåŃ¦ é¢ĨåŁŁ
mer cantilist
Ġneuro ethical
æ¶Īè´¹ æ¨¡å¼ı
æīĺ éĤ¦
Ġmicro bial
Ġsch ool
Ġrele v
Ġsem antic
ocratiz ation
èŃ¦ åĬ¡
Ġcontrad ictory
æľĢåĲİæ£ĢæŁ¥æķ´ä¸ªåı¥åŃĲçļĦæµģçķħæĢ§ åĴĮåĩĨç¡®æĢ§
% âĢĿ
s ens
Ġ '
è¿Ļ ä¸¤ç§į
en ing
åľ¨ å®ĩå®Ļ
åľ¨ ä¸ĵä¸ļé¢ĨåŁŁ
æľ¯è¯Ń ä¸Ģèĩ´
æĿ ľ
æĽ´ éĢĤåĲĪ
åı¯èĥ½ å¦Ĥä½ķå½±åĵį
åı¯èĥ½ å¼ķèµ·æŃ§ä¹ī
Ġc le
st rain
ç»ĵæŀĦ æĢ§
ç¡®ä¿Ŀ æľĢç»Ī
æĺ¯åĲ¦ åı¯ä»¥çĶ¨
Ġin j
ur able
åĬ¨ åĲįè¯įçŁŃè¯Ń
Ġb ased
åī Ĥ
æĭ į
åŁº è´¨
éĩıåŃĲ éĢļä¿¡
tional ly
åİŁåı¥ä¸ŃçļĦ æ¯ıä¸ª
ä¸¤ æŀģåĮĸ
ĠA bstract
Ġap pro
åħ¸ åŀĭ
éľĢè¦ģç¡®è®¤ æľ¯è¯ŃçļĦæŃ£ç¡®æĢ§
çļĦåľ°æĸ¹ æĺ¯
èĳĹ ç§°
é©±åĬ¨ åĬĽ
ib ration
ä¿ĿæĮģåİŁ è¯ĳ
åĢĴ ç½®
æĪĳå¾Ĺä»Ķç»Ĩ çĲĨè§£è¿Ļåı¥è¯ĿçļĦæĦıæĢĿ
arc tic
å£° åŃ¦
æĽ´åı£è¯ŃåĮĸ çļĦè¡¨è¾¾
Ġcent uries
éķľ åĥı
çĶ¨æĪ·å¼ºè°ĥå¿ħé¡» åıªæľīç¿»è¯ĳåĲİçļĦåĨħå®¹
De forestation
Ġprogramm able
consequ entialist
ä¸įä¼ļæľīçĲĨè§£ éļľç¢į
éľĢè¦ģçī¹åĪ« æ³¨æĦı
Ġhar vesting
æ¿Ģåħī éĽ·è¾¾
Ġtas ks
éĵ¶æ²³ ç³»
æłĸæģ¯ åľ°
M orph
S hakespearean
f ter
f are
f iscal
Ġ oligopolistic
è¯ Ĭ
çļĦ å¸Ĥåľº
è¿ İ
en er
éľĢè¦ģ è¯ĳä¸º
åľ¨ å»ºçŃĳ
Ġp ension
æŃ£ ä¹ī
æ²¡æľī æĸĩåĮĸä¸ĬçļĦä¸įéĢĤåºĶ
ä½Ĩ éľĢè¦ģæ£ĢæŁ¥
ç¡®è®¤ æ²¡æľīéģĹæ¼ıæĪĸéĶĻè¯¯
èĭ Ĺ
ä¹Ł æĺ¯æłĩåĩĨ
æĶ¿ æĿĥ
åľº æīĢ
æĽ´è´´åĪĩ çļĦè¯į
æł¹æį®ä¸Ĭä¸ĭæĸĩ è°ĥæķ´
æĶ¿æ²» æŀģåĮĸ
ĠI slamic
ĠC artesian
çŃĸçķ¥ æĢ§
fer ential
æľ¯è¯ŃåĴĮ ä¸ĵä¸ļæĢ§
Ġaccur ately
å®¡ æŁ¥
ĠEx pressionist
æī¿ è®¤
è¦ģåĩĨç¡®ä¼łè¾¾ åĩº
åİŁåı¥ä¸ŃçļĦæ¯ıä¸ªéĥ¨åĪĨéĥ½ è¢«åĩĨç¡®ç¿»è¯ĳ
Ġred ist
çĸ« èĭĹ
æľĢåĲİæ£ĢæŁ¥ä¸Ģä¸ĭ æķ´ä½ĵ
Ġbl ack
å¤ĸæĺŁ çĶŁåĳ½
éľĢè¦ģå¤ĦçĲĨæĪĲ ä¸ŃæĸĩçļĦ
pred ict
Ġsustain ability
æĤ¬ ç½®
Ġredefin ed
è¯ºä¾ĿæĽ¼ æŀ¶æŀĦ
ç«ĭä½ĵä¸»ä¹īå¯¹ å½¢å¼ıçļĦ
åįĵ è¶Ĭ
E urope
çļĦ åĬ¨ä½ľ
ä¼ ¸
è¾¾ ç±³
Ġc red
at t
æĪĲ æŀľ
åĴĮ åĩĨç¡®
ä½¿ ä¼łç»Ł
è¿Ļåı¥è¯Ŀ çļĦç»ĵæŀĦ
Ġb ase
çī¹ æĭī
çĤ ¸
ç±» èĦĳ
å¿ĥ èº«
äº§ åĩº
ous ly
çļĦè¡¨è¾¾ æĺ¯
åı£ å¤´
çŁ ©
fl uctu
åı¯èĥ½æĺ¯ åŃ¦çĶŁ
vi ate
åľ¨ä¸ŃæĸĩéĩĮ è¯»èµ·æĿ¥èĩªçĦ¶
æĿ¡ä»¶åı¥ çļĦç»ĵæŀĦ
æİ¨ è¡Į
åħ¨çĲĥ èĥ½æºĲ
åħ¨çĲĥ å®ŀæĸ½
è¿Ļä¸ªæľ¯è¯Ń åľ¨ä¸Ńæĸĩ
å¢ŀå¼º çļĦ
æĿ¥è¿ŀæİ¥ ä¸¤ä¸ªåĪĨåı¥
ç¤¾äº¤ ç½ĳç»ľ
port ation
Ġwork place
ä¸Ńæĸĩç¿»è¯ĳ éľĢè¦ģä¿ĿæĮģ
Ġcontin ues
èĩªä¸» æĿĥ
å¤ļä¸ª è§Ĩè§Ĵ
ä½Ĩåľ¨ è¿Ļä¸ªä¸Ĭä¸ĭæĸĩä¸Ń
phot ovoltaic
ç»ĦåĲĪ æķ´ä¸ªåı¥åŃĲ
çŃĸå±ķ å®ŀè·µ
éĶģ å®ļ
ä¸Ńæĸĩç§ĳæĬĢæĸĩçĮ®éĢļå¸¸ä½¿çĶ¨è¾ĥä¸ºæŃ£å¼ı çļĦè¡¨è¾¾
åľ¨æĸĩåŃ¦çĲĨè®º ä¸Ń
raid ing
Ec ocritical
å®ľ å±ħ
liter ary
zy matic
Ġow nership
åĨħçĶŁ å¢ŀéķ¿çĲĨè®º
B auhaus
b ic
d ynamic
n al
Ġ x
çļĦ åĬ¨è¯į
çļĦ èĥ½æºĲ
æĺ¯ éĢļçĶ¨çļĦ
in herent
åı¯ çĶ¨
åı¯èĥ½ æ¶īåıĬåĪ°
ç»ĵæŀĦ ç¬¦åĲĪä¸Ńæĸĩè¡¨è¾¾ä¹łæĥ¯
ä¸į çĶ¨
it ch
åĴĮ æŃ£å¼ı
æŃ£ çĽ¸åħ³
æĺ¯åĲ¦ æµģçķħèĩªçĦ¶
Ġs ource
æĬ ¬åįĩ
ä¼ł æī¿
ve au
è®º è¿°
og e
ç¡®è®¤ åģıå·®
ä¹Ł æĺ¯ä¸Ģä¸ª
éĥ½ åĩĨç¡®
ç¿»è¯ĳåĲİçļĦ ä¸Ńæĸĩåı¥åŃĲ
æĬĬ è¿Ļåı¥è¯Ŀ
ge omorph
åĽłæŃ¤ æľ¯è¯Ńå¿ħé¡»åĩĨç¡®
è¿ŀ è¯į
Ġdi pl
æ®ĸæ°ĳ åĮĸ
Ġor ders
çł´ ç¢İ
ou veau
osph eres
æĪĳè¦ģä»Ķç»Ĩ åĪĨæŀĲåİŁåı¥çļĦç»ĵæŀĦåĴĮåĨħå®¹
åıªè¾ĵåĩº ç¿»è¯ĳ
æŁ¥ è¯¢
æŁ¥ äºĨä¸Ģä¸ĭ
æī¹åĪ¤ æĶ¿æ²»
ç«ĭä½ĵ ä¸»ä¹īçļĦ
åı¤åħ¸ çŁ¥è¯Ĩ
Ġwork ers
æīĢä»¥åı¯èĥ½éľĢè¦ģ ä¿ĿæĮģåİŁç»ĵæŀĦ
æīĢä»¥å¿ħé¡» ä¸¥æł¼éģµå®Ī
Ġind ic
æıĲé«ĺ äºĨ
åİ»ä¸Ńå¿ĥåĮĸ éĩĳèŀį
è½¦ è¾Ĩ
Ġabs urd
ä½ĨæľīæĹ¶åĢĻ ä¹Ł
Ġpropos e
æĪĳè¦ģèĢĥèĻĳ ç¿»è¯ĳçļĦåĩĨç¡®æĢ§
Ġgri ds
éľĢè¦ģåĩĨç¡®çļĦæľ¯è¯ŃåĴĮ æ¸ħæĻ°
æĭīä¸ģç¾İæ´² æĸĩåŃ¦
å¹¶è¡Į å¤ĦçĲĨ
çľĭä¼¼ çŁĽçĽ¾
ä½Ľ æķĻ
predic tive
ä¹Į æīĺéĤ¦
èĩŃ æ°§
f ession
j uxtaposes
çļĦ è¯Ńè¨Ģ
in advertently
or th
st all
ç»ĵæŀĦ åĴĮ
ä¸į éģĹæ¼ıä¿¡æģ¯
ä¼ļ è®®
çī© åĵģ
un i
ä¸İ åİŁåı¥ä¸Ģèĩ´
è¿Ļæĺ¯ æĮĩ
è¿ĻäºĽ éĥ½
æĮĳæĪĺ çļĦæĦıæĢĿ
pro gramm
èµĦ äº§
åĳ½ é¢ĺ
éľĢè¦ģç¡®è®¤ æĺ¯åĲ¦
CRISPR åŁºåĽłç¼ĸè¾ĳæĬĢæľ¯
è¿ĳ å¹´æĿ¥
çľŁ ç©º
çŁ¥è¯Ĩ èİ·åıĸ
éĴ ©
ore al
å°Ĩå¦Ĥä½ķ è½¬åıĺ
åħ³éĶ®æľ¯è¯Ń å¦Ĥ
çŁ³ åĻ¨
ä¸ĵä¸ļæĢ§åĴĮ åı¯è¯»æĢ§
Ġobs erver
Ġver ified
å¤§éĻĨ æĿ¿åĿĹ
ä¸»è¦ģ è®²çļĦæĺ¯
è¿Ļä¸ªè¯į ç»Ħ
æīĢä»¥æķ´åı¥ åı¯ä»¥ç¿»è¯ĳä¸º
plan ts
å°ºåº¦ ä¸Ĭ
æĪĸåħ¶ä»ĸ è¯ĳæ³ķ
æįŁ ä¼¤
ĠP ro
äººä¸º çļĦ
dri ve
å¤§è§Ħæ¨¡ åºĶçĶ¨
Ġrapid ly
è´ŁéĿ¢ åĲ«ä¹ī
incorpor ating
èİİå£«æ¯Ķäºļ æĤ²åī§
Col onial
çģµæ´» æĢ§
é©¬å°Ķåħĭæĸ¯ çļĦä½ľåĵģ
r u
r and
u tine
ļ è¯Ń
çļĦ æĿĲæĸĻ
è¦ģ è¡¨è¾¾åĩº
ä¿ ļè¯Ń
æľ¯è¯Ń éĶĻè¯¯
an cient
ar tic
åı¯ä»¥ è¯´
æĪĳéľĢè¦ģ æ£ĢæŁ¥
è¿Ļåı¥è¯Ŀ åı¯èĥ½
è¿Ļæł· ç»ĵæŀĦ
ç¡®è®¤ æĺ¯åĲ¦ç¬¦åĲĪçĶ¨æĪ·çļĦè¦ģæ±Ĥ
åı¯èĥ½éľĢè¦ģ ç¿»è¯ĳæĪĲ
äºº æĸĩ
å¼º åĮĸçļĦ
å¯¹æ¯Ķ çļĦ
ous tic
éĢļå¸¸ä¼ļ ä½¿çĶ¨è¾ĥä¸ºæŃ£å¼ı
Ġim aging
æĸ¹æ³ķ æĪĸ
Ġsp in
åľ¨ä¸ŃæĸĩéĩĮ éĢļå¸¸çĶ¨
æľĢç»ĪçļĦç¿»è¯ĳ äºĨ
ç®Ĺæ³ķ åĨħå®¹
æł¹æľ¬ å·®å¼Ĥ
æĴ ķ
Ġwh ereas
èĻļ æŀĦ
æ¶Ī èŀį
Ġfe ature
æ³ķå¾ĭ åĴĮ
èµĦæľ¬ ä¸»ä¹īçļĦ
Ġpres ent
angu age
cri p
æľ¬è´¨ ä¸Ĭ
æī¿ è¯º
åı¤ä»£ æĸĩæĺİ
Ġintensi fication
èĦ± éĴ©
ä¸ªæĢ§åĮĸ åĮ»çĸĹ
Ġoccur s
åŁİå¸ĤåĮĸ æ¨¡å¼ı
sym metry
æ²ĥ å°Ķå¤«
çĶ¨æĪ·æıĲä¾ĽçļĦåıĤèĢĥç¿»è¯ĳ æĺ¯
Ġisol ation
Ġflex ibility
æĪ´ æ£®
Ġtransist or
Ġdest roy
wid th
W I
çļĦ ç¥ŀç»ı
éľĢè¦ģ åĩĨç¡®çĲĨè§£
ç¡®ä¿Ŀ èĩªçĦ¶
Ġs cre
äºĨ ä»Ģä¹Ī
ä½ĵ ç§¯
æĪĳéľĢè¦ģ çĲĨè§£åİŁåı¥çļĦæĦıæĢĿ
ä¸ĵä¸ļæľ¯è¯Ń è¦ģåĩĨç¡®
åĪĻ éĢļè¿ĩ
åĪ© ä»ĸ
éĢ»è¾ĳ æĽ´æ¸ħæĻ°
ä¿ĿçķĻ ä¸ĭæĿ¥
ç½ĳç»ľ åĮĸ
åı¥åŃĲçļĦç»ĵæŀĦ æĺ¯
èĤ ¡
ä¸įä¼ļ äº§çĶŁæŃ§ä¹ī
æľ¯è¯ŃçļĦåĩĨç¡®æĢ§ èĩ³åħ³éĩįè¦ģ
Ġdem ocratic
æīĢä»¥ä¿ĿæĮģ ç®Ģæ´ģ
çł´ æĬĺ
æ·± åĪ»
Ġro t
åŃ¦æľ¯è®¨è®º ä¸Ńå¸¸çĶ¨
çĶµç£ģ è¾Ĳå°Ħ
ç³»ç»ŁæĢ§ é£İéĻ©
Ġcho ices
æİ¥ä¸ĭæĿ¥è¦ģæ£ĢæŁ¥ åı¥åŃĲçļĦæµģçķħæĢ§
å¦ Ļ
è½½ ä½ĵ
Ġmagn et
æ·±åº¦ä¼ªéĢł æĬĢæľ¯çļĦ
Ġsign al
ä¸ºä¸Ńå¿ĥ çļĦ
Ġfil ter
Ġrecor ds
rever sible
å¤§ä¼Ĺ åĮĸ
åģıæĮ¯ æĢģ
Nietzsch e
ogram metric
çł´æĬĺ åı·
G othic
m ul
m matical
s olid
åľ¨ æķ°åŃĹ
åı¯èĥ½ è°ĥæķ´è¯Ńåºı
æĦı è±¡
Ġp al
æĿ¥ ä¿®é¥°
ç¡®ä¿Ŀ æľ¯è¯Ńä½¿çĶ¨æŃ£ç¡®
æīĢä»¥ åĩĨç¡®æĢ§åĴĮ
å° Ĭ
äºĨ ä¼łç»Ł
çĶŁ åĬ¨
æĮģ å¹³
ä¿¡æģ¯ ä¸į
æ³¨æĦı ä¸ĵä¸ļæľ¯è¯ŃçļĦåĩĨç¡®æĢ§
å¦Ĥä½ķ è°ĥåĴĮ
è¯¯ å·®
Ġpro fil
å¤§ åį«
å¦Ĥæŀľ æ³Ľå¿ĥè®º
å¤ļ è¯Ńè¨Ģ
Ġad versarial
ion al
åı¯èĥ½ä¼ļ æľī
Ġprocess ors
æĸĩåĮĸéĢĤåºĶæĢ§åĴĮ ä¸ĵä¸ļæľ¯è¯ŃçļĦæŃ£ç¡®æĢ§
è¿Ļæł·æĽ´ æµģçķħ
Ġsub verts
çĹ Ľ
åħĭ éĩĮå¥¥
ä¸¤èĢħ çļĦä¸įåĲĮ
èµĦæºĲ ç®¡çĲĨ
ç¿»è¯ĳæĹ¶è¦ģä¿ĿæĮģ çĸĳéĹ®è¯Ńæ°Ķ
éĥ½æĺ¯ ä¸ĵä¸ļæľ¯è¯Ń
éľĢè¦ģæī¾åĪ°åĲĪéĢĤçļĦ ä¸Ńæĸĩæľ¯è¯Ń
Ġconf irm
ç¡®ä¿Ŀæķ´ä¸ªåı¥åŃĲ æµģçķħèĩªçĦ¶
Ġcyc l
çİ°è±¡åŃ¦ è¿ĺåİŁ
ä¹Łåı¯ä»¥ èĢĥèĻĳ
å±ħ æ°ĳ
Ġè¿Ļæĺ¯ä¸Ģä¸ª èĻļæĭŁæĿ¡ä»¶åı¥
enh ouse
Ġpathw ay
ä¸Ńæĸĩåı¥åŃĲéľĢè¦ģ è¯»èµ·æĿ¥èĩªçĦ¶
Ġarch ae
Ġbiosign atures
Ġdoc tr
Ġaccept ance
S toic
e e
n ic
çļĦ é£İéĻ©
al gorith
es ting
Ġt ele
æ¯Ķå¦Ĥ åħĪè¯´
æīĢä»¥ æľ¯è¯Ńä½¿çĶ¨æŃ£ç¡®
ä¹ī è¯į
as m
Ġre jection
ä¿¡æģ¯ æĺ¯åĲ¦å®Įæķ´
æıĲ è®®
æĺİ çĻ½
è¿Ļæĺ¯ æłĩåĩĨæľ¯è¯Ń
åİŁæĸĩ æĦıæĢĿ
å¯¹æ¯Ķ çļĦéĥ¨åĪĨ
Ġar ra
ç»Ħ ä»¶
Ġcomp rehen
vol ved
éģ¿åħį ä»»ä½ķ
æīĢæľī éĥ¨åĪĨ
ys is
æĦıè¯Ĩ éļ¾é¢ĺ
Ġbe ing
Ġdem ocratized
ä½¿åħ¶ ç¬¦åĲĪä¸Ńæĸĩä¹łæĥ¯
éĢļè¯»ä¸Ģéģį ç¿»è¯ĳåĲİçļĦåı¥åŃĲ
ç»Ŀ çĥŃ
éŁ §
åıĺå¾Ĺ è¿ĩæĹ¶
åĢĺèĭ¥ äºļåİĨå±±å¤§åĽ¾ä¹¦é¦Ĩ
yc ling
è½¬æį¢ æķĪçİĩ
åĩĨç¡®ä¸Ķ ä¸ĵä¸ļ
Ex ascale
èĩªæĪĳ æĦıè¯Ĩ
è¿Ļåı¥è¯ĿçļĦ ä¸ĵä¸ļé¢ĨåŁŁ
çĽ¸è¾ĥäºİ ä¼łç»Ł
Ġcyc le
è£Ĥ åıĺ
Ġä½Ĩ è¿Ļæł·
å»¶ç»Ń äºĨ
åľ°å½¢ éĻįæ°´
elect ric
æ£Ģæµĭ åĪ°
Ġoptim ize
è¿Ļç§įåģĩè®¾ çļĦè¯Ńæ°Ķ
ç¨Ģ åľŁ
æŀģç®Ģä¸»ä¹ī éĽķå¡ĳ
ä¸ŃæĸĩçļĦçĸĳéĹ®åı¥ ç»ĵæŀĦ
ä¸Ńæĸĩåı¥åŃĲç»ĵæŀĦéĢļå¸¸ åĴĮèĭ±æĸĩä¸įåĲĮ
å© ļ
æĹ§ å¤§éĻĨ
sugges ts
æł¸éħ¸ éħ¶
auv ist
ureauc ratic
tech ni
åĽŀå£° å®¤
åħĭéĩĮå¥¥ å°Ķ
t arctic
çļĦ çĶ¨æ³ķ
ä¸Ń äº§
er ves
in c
éľĢè¦ģ ç¿»è¯ĳæĪĲ
åı¯èĥ½ å¸¦æĿ¥çļĦ
æŃ ī
ç¬¦åĲĪ åŃ¦æľ¯æĪĸ
ä¸į è¾¾ç±³
è¿ĻéĩĮ çĶ¨æĪ·åı¯èĥ½å¸ĮæľĽ
æīĢä»¥ è¦ģä¿ĿæĮģ
æµģçķħ ä¸Ķ
åħĪ çľĭ
ç® Ń
æĸĩåĮĸ åĴĮ
çĦ¶åĲİ å¤ĦçĲĨ
è¿Ļåı¥è¯Ŀ æİ¢è®¨çļĦæĺ¯
äºº èĦĳ
ä½ľ å®¶
uc k
Ġl at
Ġl ower
æ°Ķ æ³¡
åĢ ¡
åı¯èĥ½æĽ´ ä¹łæĥ¯
åı¯èĥ½æĽ´ æŃ£å¼ıä¸ĢäºĽ
ä¸įéľĢè¦ģ çī¹åĪ«å¼ºè°ĥ
å¸¸è§ģ çļĦè¯įæ±ĩ
struc tion
ä¸įè¿ĩ åİŁåı¥çļĦç»ĵæŀĦæĺ¯
å·®å¼Ĥ åĮĸçļĦ
ç¾İ ç´¢
ĠR NA
til ism
bo th
æĻ®éģį åŁºæľ¬æĶ¶åħ¥
çĲĨæĢ§ è¡Įä¸º
ç¿»è¯ĳæĹ¶è¦ģç¡®ä¿Ŀ æľ¯è¯ŃæŃ£ç¡®
ĠM ars
å°±åı¯ä»¥ ç¡®å®ļ
can tilism
åĪĨå¸ĥ æ¨¡å¼ı
æķ´åĲĪ åĪ°
æĽ´ä¸ĵä¸ļ çļĦè¯įæ±ĩ
æīĢä»¥æķ´åı¥ ç¿»è¯ĳä¸º
Ġam plification
åĲ¬èµ·æĿ¥ æľīçĤ¹çĶŁç¡¬
èĢģ é¾Ħ
ä¼łè¾¾äºĨ åİŁæĦı
æĸĩçĮ®ä¸ŃçļĦ å¸¸çĶ¨è¡¨è¾¾
Ġare as
ered itary
contra st
æ¨¡ç³Ĭ æĢ§
æīĢä»¥æķ´ä½ĵ æĺ¯
Tra ditional
Ġwar fare
Ġprevious ly
å¾®çĶŁçī©ç»Ħ ç§»æ¤į
æ£ĢæŁ¥æĺ¯åĲ¦æľīéģĹæ¼ıæĪĸä¿¡æģ¯ æŃªæĽ²
çĽĽ è¡Į
æŁĶæĢ§ çĶµåŃĲ
æĴķ è£Ĥ
ä¸įè¾¾ç±³ äºļ
ç¾İç´¢ ä¸įè¾¾ç±³äºļ
C ultural
f ric
t ur
çļĦ ä¸Ģç§į
çļĦ æ¿Ģå¢ŀ
è¦ģ æ¸ħæĻ°
ç¿»è¯ĳ å¿ħé¡»
ä¹ ¡
è¡¨ æ¼Ķ
ç»ĵæŀĦ èĩªçĦ¶
ç»ĵæŀĦ éĢļé¡º
æİ¥ä¸ĭæĿ¥ è¦ģå¤ĦçĲĨ
æľĢåĲİ ç»ĦåĲĪèµ·æĿ¥
åľ¨è¿ĻéĩĮ åı¯èĥ½æĮĩçļĦæĺ¯
ç»ĵæŀľ åľ¨åĲİ
åģ ¿
ç»ıæµİ å¢ŀéķ¿
ç³»ç»Ł åĴĮ
æĹł çĽĳçĿ£
è¿Ļæĺ¯ åľ°çĲĨåŃ¦
åħī æ³¢
Ġun til
åĵģ å¾·
ä½ł ä»¬
å¾ģ æĶ¶
æķ£ çĥŃ
Ġacceler ating
ç±»ä¼¼ äºİ
å®ŀè¯ģ æĶ¯æĮģ
ä¸Ńæĸĩè¡¨è¾¾ä¹łæĥ¯ åı¯èĥ½ä¼ļ
è¿Ļæł·çļĦ åı¥å¼ı
ä½¿çĶ¨äºĨ åĢĴè£ħç»ĵæŀĦ
ä¹ĭç±» çļĦè¯į
Ġus er
Ġmitig ation
significant ly
çº¿ç²Ĵä½ĵ DNA
uff ici
æĬĦ æľ¬
çĶ¨æĪ·æıĲä¾ĽçļĦèĭ±æĸĩåı¥åŃĲç¿»è¯ĳæĪĲä¸ŃæĸĩçļĦ ä»»åĬ¡
çķľçī§ ä¸ļ
æ²ĥå°Ķå¤« åģĩè¯´
f ield
o tion
v ation
Ġ urgent
è¦ģ çľĭ
re duced
Ġp lot
åĴĮ è¯Ńæ°Ķ
è§£ ä½ĵ
åħĪ çĶŁ
ul i
èĢĥèĻĳ äºĨ
Ġcon v
äºº éĢł
åĬł å·¥
æıĲ åıĸ
Ġpro por
è¦ģç¡®ä¿Ŀ ç¿»è¯ĳ
éĥ½ ç¿»è¯ĳåĪ°ä½į
Ġex ceeding
çĶ¨æĪ·è®©æĪĳ æī®æ¼Ķ
åı¯èĥ½æĽ´ è´´è¿ĳ
çŁ¥ è§ī
æŀĦ æĥ³
åĪĨæŀĲ æıŃç¤ºäºĨ
è¿ĺè¦ģæ³¨æĦı åı¥åŃĲçļĦéĢ»è¾ĳåħ³ç³»
è¿ĺè¦ģæ³¨æĦı ä¸ĵä¸ļæľ¯è¯ŃçļĦä¸Ģèĩ´æĢ§
çĽ¸åħ³ çļĦæľ¯è¯Ń
åĨĻ çĶŁ
çĽ® çļĦæĺ¯
çļĦåľ° ç¼ĺæĶ¿æ²»
åŁİå¸Ĥ äººåı£
å¼ķå¯¼ å¯¹æ¯Ķ
çĶŁäº§ æ¨¡å¼ı
æĽ´å¸¸çĶ¨ äºİ
Ġphot on
eval uation
Ġmic roscopy
Ġaffect ed
åĲİçİ°ä»£ä¸»ä¹ī å»ºçŃĳ
stand er
Ġvis cosity
Phot ovoltaic
æĹ¶ç©º æĽ²çİĩ
ç¢³éħ¸çĽĲå²© æº¶è§£
Ġpersonal ization
åŃĺåľ¨ä¸»ä¹īåĵ²åŃ¦ ä¸»å¼ł
é¾ Ļ
åħ±è¯Ĩ æľºåĪ¶
çĽ®çļĦè®º è®ºè¯ģ
åıªèĥ½æľī ç¿»è¯ĳåĲİçļĦåĨħå®¹
Ġfigur ative
n ucle
Ġ è¯ĳä¸º
Ġ æĦıæĢĿæĺ¯
çļĦ æĺ¯åĲ
çļĦ ç»ĵåĲĪ
åĲİ æİ¥
æĽ´ ç´§åĩĳ
æĿ¥ è§£æŀĦ
æĪĳ å¿ħé¡»
çİ ĭ
Ġd ensi
ol ith
åİŁåı¥ å¯¹æ¯ĶäºĨ
åĲĮ ä½į
Ġre ach
åı¯ä»¥ çľĭåĩº
çĦ¶åĲİ è¦ģæ³¨æĦıåı¥åŃĲçļĦæµģçķħæĢ§
Ġw atersh
Ġcon vergent
è¿ĺ éľĢè¦ģèĢĥèĻĳ
éĢļè¿ĩ å¯¹
hi er
åħ³éĶ® åľ¨äºİ
å¤ļ ä¸ĸçķĮ
ä¸įéľĢè¦ģ åĽŀçŃĶéĹ®é¢ĺ
ç¿»è¯ĳåĲİçļĦåı¥åŃĲ åºĶä¸º
Ġde ontology
æıĲä¾Ľ ä¾Ŀæį®
åŃĹ æ¯į
è· ĥ
ç¿»è¯ĳç»ĵæŀľ ç®Ģæ´ģ
åħ¥ ä¾µ
å·²ç»ı åĮħåĲ«
å·²ç»ı ä¸įéĶĻ
æķ°åŃĹ åĽŀéŁ³å®¤
çº§ åĪ«
çĶŁæĢģ åŃ¦ä¸ŃçļĦ
å¤ª å¤ļ
æľĢåĲİç¡®è®¤ ä¸ĵä¸ļæľ¯è¯Ńæĺ¯åĲ¦æŃ£ç¡®
æĪĳéľĢè¦ģç¿»è¯ĳ çĶ¨æĪ·æıĲä¾ĽçļĦèĭ±æĸĩåı¥åŃĲ
åĪ¶åº¦ æĢ§
åľ°è´¨åŃ¦ æĪĸ
åľ°è²Į åŃ¦
åĲİæ®ĸæ°ĳ çĲĨè®º
Ġlo c
ä¸ŃæĸĩéĢļå¸¸ ä¹Ł
Ġobs olescence
è®¤è¯Ĩè®º çļĦ
Ġrecon ci
ç¥ŀç»ıç§ĳåŃ¦ åĴĮ
gener ative
æĪĳè¦ģçĲĨè§£ æ¯ıä¸ªéĥ¨åĪĨçļĦæĦıæĢĿ
æ´ŀ è§ģ
å¤® è¡Į
æĿ¡ä»¶ä»İåı¥ åľ¨åīį
æĽ´å¤ļ æĺ¯
æ²īç§¯çī© è´Łèį·
å¸ĿåĽ½ ä¸»ä¹ī
å¤§èĦĳ çļ®å±Ĥ
Ġhybrid ity
å¦ ¥
æ£ĢæŁ¥æĺ¯åĲ¦æľīæĸĩåĮĸéĢĤåºĶæĢ§ çļĦéĹ®é¢ĺ
ç²¾ç¥ŀ åĪĨæŀĲ
sil icon
Ġimm utability
Ġjus tice
å¤ļç§į çĬ¶æĢģ
åħĪè¿Ľ çļĦ
è®©æŃ¥ çĬ¶è¯Ń
Ġclassi fication
å¾·æĢ§ ä¼¦çĲĨåŃ¦
æķ°åŃĹåĩºçīĪ å¹³åı°
atovol canoes
Ġsymbol ism
çŁ© éĺµ
fession al
S T
T er
o il
w ide
Ġ å¹¶è¦ģæ±Ĥç¿»è¯ĳæĪĲä¸Ńæĸĩ
éľĢè¦ģ åĨįæ¬¡
åľ¨ æĬĢæľ¯
ä»¥ ä¿ĿæĮģ
æĪĸ ä¸įéĢļé¡ºçļĦåľ°æĸ¹
ç¡®ä¿Ŀ ä½¿çĶ¨
æīĢä»¥ æľĢç»Ī
åĲĮ çĽŁ
ä½Ĩ åĲİèĢħ
å¥ ł
è¿Ļåı¥è¯Ŀ çļĦç¿»è¯ĳ
è¿Ļåı¥è¯Ŀ çĶ¨äºİ
éĢļå¸¸ è¯ĳä½ľ
çŃ ¾
lo ad
åŁº åĩĨ
è¿Ļæł·æĹ¢ ç¬¦åĲĪä¸Ńæĸĩè¡¨è¾¾ä¹łæĥ¯
æķ´ä¸ªåı¥åŃĲ è¦ģä¿ĿæĮģ
Ġem ulation
å¹¶ä¸Ķ ä¸ĵä¸ļæľ¯è¯Ńä½¿çĶ¨æŃ£ç¡®
ç»ıæµİåŃ¦ é¢ĨåŁŁ
Ġcont roversi
åģĩè®¾ çļĦè¯Ńæ°Ķ
åİŁåı¥çļĦç»ĵæŀĦæĺ¯ åĽłæŀľåħ³ç³»
è¿Ļç§į è¯Ńæ°Ķ
è¿Ľè¡Į æ¯Ķè¾ĥ
æĸĩåĮĸéĢĤåºĶæĢ§åĴĮ ä¸ĵä¸ļæľ¯è¯Ń
æĺ¯åĲ¦åĲĪ çĲĨ
ç¡®ä¿Ŀæ²¡æľī çĶŁç¡¬çļĦåľ°æĸ¹
æĪĳéľĢè¦ģç¿»è¯ĳ çĶ¨æĪ·æıĲä¾ĽçļĦ
ä¸įéľĢè¦ģé¢Ŀå¤ĸ çļĦè§£éĩĬ
ç¥ŀç»ıç½ĳç»ľ æŀ¶æŀĦ
çľĭèµ·æĿ¥ æĺ¯åħ³äºİ
éĢĴ éĢģ
Ġsim ulation
reg ulate
æĮĩåĩº åĲİèĢħ
åľ¨è¿ĻéĩĮè¡¨ç¤º åı¯èĥ½æĢ§
æīĢä»¥åı¯èĥ½ è°ĥæķ´ä¸º
å°±åı¯ä»¥ç»Ļåĩº æľĢç»Īç¿»è¯ĳäºĨ
pr actical
ĠF rench
incre ases
çĽ¸ä¼¼ æĢ§
Ġfail ures
ç¡®ä¿Ŀæ²¡æľīéģĹæ¼ıä»»ä½ķ åħ³éĶ®ä¿¡æģ¯
Ġè¿ĻéĩĮçļĦåħ³éĶ®çĤ¹ æľīåĩłä¸ª
Ġmetaph or
æĽ´ç¬¦åĲĪä¹¦éĿ¢è¯Ń çļĦè¡¨è¾¾
æĪ·å¤ĸ åĨĻçĶŁ
æĬ¥å¤įæĢ§ è´¸æĺĵ
ä¸İåĬŁåĪ©ä¸»ä¹ī ä¸įåĲĮ
Ġdimensional ity
éľĢè¦ģä»Ķç»Ĩ å¤ĦçĲĨ
Ġnom ad
urch asing
D i
E m
f ree
çļĦ ç©ºéĹ´
çļĦ åĩĨç¡®ç¿»è¯ĳ
åı ³
è¦ģ åĩĨç¡®çĲĨè§£
ä¸Ńæĸĩ è¯ĳåĲį
ä¸Ńæĸĩ åŃ¦æľ¯ç¿»è¯ĳéĢļå¸¸
åľ¨ åŃ¦æľ¯æĪĸ
è¡ Ĺ
or der
ä¸į å¤Ł
æĪĲ å¹´
æīĢä»¥ éĢīçĶ¨
åĨ Ĵ
Ġs hield
ä½¿ ä¹ĭ
åĪĨ æķ°
å¯¹ äºİ
Ġa er
åĲĮæĹ¶ è¦ģ
åĲĮæĹ¶ åıĳçĶŁ
éĹ®é¢ĺ æĺ¯
å¼º çĽ¸äºĴä½ľçĶ¨
è¿Ļä¸ª éĢ»è¾ĳåħ³ç³»
Ġg ot
ist s
å¦Ĥæŀľ å°ıè¡ĮæĺŁéĩĩçŁ¿
åºĶè¯¥æĺ¯ åĲĪéĢĤçļĦ
con sist
æĸĩåŃ¦ æµģæ´¾
åĵ²åŃ¦ ä¸Ń
åİŁåı¥çļĦç»ĵæŀĦæĺ¯ ä¸»åı¥åĬł
ç»´ ç³»
åŃ¦ä¹ł èµĦæĸĻ
Ġy ields
val uation
Ġag ing
Ġadv anced
ä»ĭ åħ¥
æķ´åĲĪ æķ´ä¸ªåı¥åŃĲ
æĹ©æľŁ çļĦ
é» ıåº¦
èĩªåĬ¨åĮĸ å¼ķåıĳçļĦ
ç¬¦åĲĪä¸Ńæĸĩç§ĳæĬĢæĸĩçĮ® çļĦä¹łæĥ¯
Ġindividual ism
ãĢĭ ï¼Į
èĦ± éĿ¶
é¢ĨåŁŁæĺ¯ å¸¸çĶ¨æľ¯è¯Ń
exacerb ate
äºļéĩĮå£«å¤ļå¾· çļĦ
Bio engineered
ç²®é£Ł å®īåħ¨
è¿Ļæĺ¯æ¯Ķè¾ĥ æłĩåĩĨçļĦè¯ĳæ³ķ
åĪ¶åº¦åĲĮ æŀĦ
Ġabsol ute
E co
p ticism
s hape
t arget
Ġ 18
åĲ Ľ
åı¯ è§ĨåĮĸ
åľ¨ çĲĨè®ºä¸Ĭ
Ġt re
æīĢä»¥ ç¿»è¯ĳæĹ¶è¦ģæ³¨æĦı
Ġs ha
ä½Ĩ å¦Ĥæŀľæĺ¯
åĲĮæĹ¶ è®©
Ġh old
æĹł è®º
ç¿»è¯ĳæĹ¶ ä¹Łè¦ģä¿ĿæĮģ
åı¯èĥ½æĽ´ å¸¸è§ģ
æĸ° çŁ³åĻ¨
å¿ħé¡» ç¿»è¯ĳä¸º
Ġst atis
åıį å¤į
ke pticism
æīĭ æĬĦæľ¬
Ġim port
Ġpar t
ä½ľä¸º æĸ¹å¼ıçĬ¶è¯Ń
åı² è¯Ĺ
Ġal so
æķ´ä¸ªåı¥åŃĲçļĦç»ĵæŀĦ æĺ¯åĲ¦éĢļé¡º
å¿ĥçĲĨåŃ¦ è§ģè§£
Ġè¿ĻéĩĮçļĦ ä¸»è¯Ńæĺ¯
æııè¿° äºĨ
Ġspec ulative
Ġlim it
Ġunder lying
ç¥ŀç»ıç§ĳåŃ¦ é¢ĨåŁŁ
èĩªçĶ± ä¸»ä¹ī
åı¯èĥ½æĽ´åĩĨç¡® çļĦæĺ¯
åĩ¯æģ©æĸ¯ä¸»ä¹ī åĴĮ
è¿Ļåı¥è¯ĿçļĦ æł¸å¿ĥ
ç³»ç»ŁæĢ§ åľ°
chan ges
åħ·è±¡ éĽķå¡ĳ
åıĤèĢĥç¿»è¯ĳ æĺ¯
å·´ æ´Ľåħĭ
åĪĨåŃĲç»Ħè£ħ åĻ¨
åı¯èĥ½éľĢè¦ģæ³¨æĦı çļĦåľ°æĸ¹æĺ¯
è´ŁåĪ©çİĩ æĶ¿çŃĸ
å·²ç»ıæ¯Ķè¾ĥ åĽºå®ļ
Ġè¿Ļæł·æĹ¢ä¿ĿæĮģäºĨ åİŁæĦı
emphas is
obo ts
Ġadminist rative
æĶ¾å°Ħ æĢ§
Europe an
g re
s em
çļĦ é¡ºåºı
çļĦ å±ĢéĻĲæĢ§
æĺ¯ çĶŁçī©
æĺ¯ ä¼łç»Ł
Ġt ype
it ochondrial
Ġf al
Ġf ate
og y
çĽ´ çĻ½
èĢĥèĻĳ ç¿»è¯ĳçļĦåĩĨç¡®æĢ§
çļĦç»ĵæŀĦ éľĢè¦ģè°ĥæķ´
éĢļè¿ĩ å¯¹æ¯Ķ
Ġg ermline
åŃ¦æľ¯ æĸĩç«ł
åı¥åŃĲç»ĵæŀĦ æĺ¯
å¤§ åŀĭ
å¦Ĥæŀľ åħ¨æ°ĳåŁºæľ¬æĶ¶åħ¥
å¦Ĥæŀľ èĦĳæľºæİ¥åı£å®ŀçİ°
us tion
ä¾ĭå¦Ĥ å°Ĩ
å¸¸è§ģ æ¦Ĥå¿µ
ex istentialist
å¹¶ä¸Ķ ç¬¦åĲĪ
çłĶç©¶ çļĦ
è¿ŀæİ¥ ä¸¤ä¸ª
æĻ® ä¸ĸ
é¢ĨåŁŁçļĦ ä¸ĵä¸ļæľ¯è¯Ń
cal c
è¡¨çİ° ä¸»ä¹īçļĦ
cel l
ä½¿å¾Ĺ èĥ½å¤Ł
Ġcor tical
Ġpost war
Ġcoll ection
æīĢä»¥ä¸įéľĢè¦ģ æ·»åĬł
çľĭèµ·æĿ¥ æ²¡æľīéĹ®é¢ĺ
éĻ¤ éĿŀ
æĽ´åı£è¯ŃåĮĸ ä¸ĢäºĽ
åĲĮæł· çļĦç»ĵæŀĦ
ä¸įéľĢè¦ģæ·»åĬł é¢Ŀå¤ĸ
å¤©ä½ĵ çī©çĲĨåŃ¦
ä¸Ńä½¿çĶ¨ è¿Ļä¸ªç¿»è¯ĳ
ä¸įèĥ½æľī ä»»ä½ķ
hol es
Ġlandscap e
å¤įæĿĤçļĦ åı¥å¼ı
æīĢä»¥ç¿»è¯ĳæĹ¶è¦ģ ä¿ĿçķĻ
åİŁåı¥å¼ºè°ĥ çļĦæĺ¯
Ġvalid ation
ĠN ouveau
De ontological
ä¿ĿæĮģä¸ĵä¸ļæĢ§ çļĦåĲĮæĹ¶
accoun ts
transi ent
Ġill ustrates
Ġdat ab
çĪĨ åıĳ
æĪĳéľĢè¦ģä»Ķç»ĨåĪĨæŀĲåİŁåı¥çļĦç»ĵæŀĦåĴĮ åĨħå®¹
çĶ° åĽŃ
èĳĹåĲį çļĦ
Ġdescrib es
Ġade quately
d ensity
çļĦ éĩıåŃĲæ¯Ķçī¹
éľĢè¦ģ ç¡®ä¿Ŀæ²¡æľīéģĹæ¼ıä»»ä½ķä¿¡æģ¯
æĽ´ çĽ´è¯ĳ
æĪĳ ä½ľä¸ºç¿»è¯ĳåĬ©æīĭ
çĶ¨æĪ· çī¹åĪ«
è¿ĻéĩĮ å¼ºè°ĥ
Ġin tu
çĦ¶åĲİ è¦ģå¤ĦçĲĨ
Ġb et
æĪĸèĢħ è°ĥæķ´è¯Ńåºıä¸º
åĲĮæĹ¶ è®©ä¸Ńæĸĩè¯»èĢħ
æ¨¡ æĢģ
æĬĢæľ¯ äº¤æµģ
Ġpro se
Ġde livery
de liberate
åİŁåı¥ä¸ŃçļĦ æīĢæľī
è®¡ç®Ĺ èĥ½åĬĽ
è¶ħ åĪĨåŃĲ
me asure
åĿ ļ
å¸¦ éļĻ
Ġeff ectiveness
å·²ç»ı è¢«å¹¿æ³Ľæİ¥åıĹ
ç©º æ°Ķ
è·¨ åŃ¦ç§ĳ
æĪĳéľĢè¦ģçĲĨè§£ æ¯ıä¸ªæľ¯è¯ŃçļĦæŃ£ç¡®ç¿»è¯ĳ
Ġcor tex
æıĲåįĩ äºĨ
çŃĸçķ¥ äºĴåĬ¨
Ġis omorphism
ä»į èĥ½
hy per
ä»¿ çľŁ
gener ated
æķ´ä½ĵåı¥åŃĲç»ĵæŀĦ åĲĪçĲĨ
èĩªæĪĳ æĮĩæ¶ī
æ¯Ķè¾ĥä¼ĺåĬ¿ åİŁçĲĨ
æŀĦæĪĲ ä¸»ä¹ī
éĩįå¡ĳ äºĨ
æĺŁéĻħ æİ¨è¿Ľç³»ç»Ł
ç¬¦åĲĪä¸ŃåĽ½ çļĦ
Ġtherap eutic
æīĢä»¥ç¿»è¯ĳæĹ¶è¦ģ çªģåĩº
ç½ĳç»ľå®īåħ¨ èĮĥå¼ı
çĭ¬ç«ĭ äºİ
è®¡ç®Ĺæľºç§ĳåŃ¦ åĴĮ
Ġgrad ual
AéĢļè¿ĩ B
æ°¢çĩĥæĸĻ çĶµæ±ł
sens ory
Ġdestroy ed
èĢģé¾Ħ åĮĸ
H uman
O ro
Ġ 40
ä¸Ńæĸĩ æµģçķħ
èĢ ķ
åľ¨ è¢«æµĭéĩı
åı¯èĥ½ æľīçĤ¹
Ġc ity
Ġt rophic
Ġin vestig
åħĪ å¤ĦçĲĨ
ä½¿ åı¥åŃĲç»ĵæŀĦ
ä¼ļ å¯¼èĩ´
ä½¿çĶ¨ åĢĴè£ħç»ĵæŀĦ
æ³¨æĦı æĸĩåĮĸéĢĤåºĶæĢ§
Ġh ereditary
æĬĢæľ¯ åľ¨
æĬĢæľ¯ éĢļè¿ĩ
æĬĢæľ¯ æľ¯è¯ŃåĩĨç¡®
ex ocortical
éľĢè¦ģç¡®ä¿Ŀ ä¸ĵä¸ļæľ¯è¯ŃåĩĨç¡®
å¾Ī å¤ļ
é«ĺ ç»´
é¢ĨåŁŁçļĦ è¡¨è¾¾ä¹łæĥ¯
Ġachie ving
çĶŁæĢģ å½±åĵį
æİ¨ ç¿»
å®ĩå®Ļ è§Ĥ
äº§çĶŁ ä½ķç§įå½±åĵį
å¤± è¡¡
åĨįèĢĥèĻĳ ä¸ĵä¸ļæľ¯è¯Ńæĺ¯åĲ¦æŃ£ç¡®
çŁ¥è¯Ĩ äº§æĿĥ
æ¶Ī å¤±
æµ·æ´ĭ çİ¯æµģ
è¿ĻéĩĮè¦ģæ³¨æĦı ä¸ĵä¸ļæľ¯è¯ŃçļĦåĩĨç¡®æĢ§
æ£ĢæŁ¥æĺ¯åĲ¦æľīéģĹæ¼ıæĪĸ è¯¯è§£
åĽ½å®¶ çļĦ
æĿ¥å¼ķå¯¼ çĸĳéĹ®åı¥
åĤ¨ èĥ½
ä½ĵçİ° äºĨ
æīĢä»¥ç»ĵæŀĦ åı¯èĥ½éľĢè¦ģè°ĥæķ´
ĠL ittle
ä½¿ä¸Ńæĸĩ è¯»èµ·æĿ¥èĩªçĦ¶
è´¨çĸĳ æĪĸ
è¯Ńæ³ķåĴĮ çĶ¨è¯į
Ġrefr action
contra sts
ink holes
Ġreli ability
ä¸Ńæĸĩç§ĳæĬĢç±»æĸĩç«ł å¸¸çĶ¨
ä¾Ľç»Ļ ä¾§
äº¤åıīæĢ§ çĲĨè®º
å¿½ çķ¥
chi aroscuro
åįķçº¯ çļĦ
åħīæķıæĦŁ ç¦»åŃĲéĢļéģĵ
prom ise
å¹¶ä¸Ķè¦ģæĮīçħ§ çī¹å®ļçļĦç¿»è¯ĳè¦ģæ±Ĥ
Ġprote in
oskel et
èķ¾ ä¸Ŀ
itud inal
Oro graphic
. "
B ut
w are
· éħ¸
Ġ ä½ĨçĶ¨æĪ·è¦ģæ±ĤçĽ´æİ¥ç»ĻåĩºçŃĶæ¡Ī
ä»¥ åħį
æľī æĦıè¯ĨçļĦ
re t
åı¯èĥ½ å¼ķåıĳåĵªäºĽ
æİ ł
ç¡®ä¿Ŀ ä¸ĵä¸ļæľ¯è¯ŃçļĦæŃ£ç¡®æĢ§
Ġd ream
ä¸ŃçļĦ ä½¿çĶ¨
og n
åı¯ä»¥ ä¿ĿçķĻ
çĦ¶åĲİ æķ´ä¸ªåı¥åŃĲçļĦç»ĵæŀĦéľĢè¦ģè°ĥæķ´
Ġa war
Ġa fter
ä¿¡æģ¯ å®īåħ¨
ly n
res h
å¦Ĥä½ķ ä¸İ
çī¹ å¼ĤæĢ§
Ġpro jection
id emi
pl astic
å¦Ĥæŀľ æ²¡æľī
ç»ıæµİ é¢ĨåŁŁ
åı¯èĥ½æĽ´ å¤ļ
æľĢåĲİæ£ĢæŁ¥ æķ´ä½ĵåı¥åŃĲæĺ¯åĲ¦éĢļé¡º
ä¸ŃæĸĩéĩĮ çĶ¨
çĶµ ç«Ļ
åŃĺåľ¨ äºİ
å¹¶ä¸Ķ å¼ºè°ĥ
éħ Ĵ
æĿ¡ä»¶åı¥ ç»ĵæŀĦ
éľĢè¦ģä¿ĿæĮģ æľ¯è¯ŃçļĦåĩĨç¡®æĢ§
åħ¨çĲĥ è´¸æĺĵ
çº¿ æĢ§çļĦ
èģĶ ç»ĵ
ä½¿åħ¶ ç¬¦åĲĪä¸ŃæĸĩçļĦè¯Ńåºı
çħ§ çĽ¸
Ġag gregate
æİ¥ä¸ĭæĿ¥è¦ģèĢĥèĻĳ åı¥åŃĲçļĦæķ´ä½ĵç»ĵæŀĦ
åĩıå°ĳ äºĨ
åĩıå°ĳ åĨľä¸ļçĶ¨åľ°
ä¸ŃæĸĩéĢļå¸¸ä¼ļæĬĬ æĹ¶éĹ´çĬ¶è¯ŃæĶ¾åľ¨åīįéĿ¢
ç²ĴåŃĲ è¡Įä¸º
æĿ¥å¼ķå¯¼ æĿ¡ä»¶åı¥
Ġpain ters
æĪĳè¦ģç¡®ä¿ĿåĩĨç¡®çĲĨè§£ è¿Ļåı¥è¯ĿçļĦæĦıæĢĿ
man ufacturing
ç¢İçīĩåĮĸ åıĻäºĭ
Ex oplanet
åľ¨æĸĩåŃ¦ é¢ĨåŁŁ
obs erv
Ġpersist s
ç¡®ä¿Ŀæ²¡æľīæ·»åĬł ä»»ä½ķé¢Ŀå¤ĸåĨħå®¹
Ġsubst ance
Ġsens ors
åģľ æŃ¢
mechan ical
åĲĦä¸ª éĥ¨åĪĨ
Ġperman ently
posi tive
architect ural
ç²ĺ åº¦
ç¬¬ä¸Ģæ¬¡ ä¸ĸçķĮå¤§
å¥ł å®ļ
Ġawar eness
N on
g lobally
Ġ ä¸»è¯Ńæĺ¯
çļĦ é¢Ħæµĭ
çļĦ å¼ķåħ¥
è¦ģ æŃ£ç¡®
ç¿»è¯ĳ éľĢè¦ģåĩĨç¡®
åľ¨ æĿĲæĸĻç§ĳåŃ¦
re inforcement
Ġp enet
è¡¨è¾¾ èĩªçĦ¶
Ġm ost
æµģçķħ ä¸Ķç¬¦åĲĪä¸Ńæĸĩè¡¨è¾¾ä¹łæĥ¯
Ġre vival
å¤ĸ çļ®å±Ĥ
åī ĸ
ä¸Ģä¸ª åħ³äºİ
èĭ ·éħ¸
åı¯èĥ½éľĢè¦ģè°ĥæķ´ çĶ¨è¯į
æĹł å¤Ħ
åıª è¿ĶåĽŀ
æĪĺ æľ¯
æł¹æį® ä¸Ńæĸĩä¹łæĥ¯
æĸ¯ åŁº
åĲĪèµ·æĿ¥ å°±æĺ¯
æĦıè¯Ĩ ä¸Ĭä¼ł
åĬ¨è¯į éĥ¨åĪĨ
é«ĺ æ¸©
è¿Ļéĥ¨åĪĨ åºĶè¯¥æ²¡éĹ®é¢ĺ
è¯Ńè¨Ģ åŃ¦ä¸ŃçļĦ
æł¸ èĭ·éħ¸
è¯Ħ åĪ¤
éľĢè¦ģç¡®è®¤ æĺ¯åĲ¦æŃ£ç¡®
åı£è¯Ń è¡¨è¾¾
flu vial
çĶ¨æĪ·åı¯èĥ½æĺ¯åľ¨ åĨĻ
çħ§ çīĩ
å°ĳ æķ°
åĽºå®ļ çļĦ
è¿Ļæł·æĹ¢åĩĨç¡®åıĪ éĢļé¡º
æ»¡è¶³ çĶ¨æĪ·çļĦè¦ģæ±Ĥ
èĩªå·± çļĦ
æĹłéľĢ é¢Ŀå¤ĸè§£éĩĬ
ä¿ĿæĮģåİŁ é¡ºåºı
ĠD rake
Ġrec ycling
éĿ©æĸ° äºĨ
Ġenc oded
æĪĳè¦ģçĲĨè§£ æ¯ıä¸ªæľ¯è¯ŃçļĦæĦıæĢĿ
Ġaut om
è¿ĻéĩĮéľĢè¦ģ æī¾ä¸Ģä¸ªåĲĪéĢĤçļĦ
æĺ¯åĲ¦åĩĨç¡®ä¼łè¾¾ åĩº
Ġide alism
è§Ĥå¯Ł åĪ°çļĦ
An thropogenic
ç¡®ä¿Ŀç¿»è¯ĳç»ĵæŀľ ç¬¦åĲĪçĶ¨æĪ·çļĦæľŁæľĽ
Ġneg oti
vis ual
Ġast ro
æīĢä»¥ä¿ĿæĮģåİŁç»ĵæŀĦ æĽ´åĩĨç¡®
ĠæĪĳéľĢè¦ģåħĪ çĲĨè§£æ¯ıä¸ªéĥ¨åĪĨçļĦæĦıæĢĿ
éĢĤåĲĪåŃ¦æľ¯æĪĸ ä¸ĵä¸ļ
è¿Ļæł·ç¿»è¯ĳåĲİçļĦåı¥åŃĲ æĹ¢åĩĨç¡®åıĪèĩªçĦ¶
rist or
è¯Ħä»· æłĩåĩĨ
è´§å¸ģä¾ĽåºĶ éĩı
åıĮåĲĳ éĢļä¿¡
architect ures
Ġresol ve
ç¡®ä¿Ŀå®Įåħ¨çĲĨè§£ ä»ĸä»¬çļĦéľĢæ±Ĥ
sel ective
äººä»¬åĢ¾åĲĳäºİ å¯»æī¾
Ġsimil ar
d ence
çļĦ æ²»çĸĹ
æĺ¯ çĶ±
ä¸Ń ç¡®å®ŀ
al tern
in ce
in her
åı¯ è§ģ
æľī æĦı
æľī éĻĲ
ç¬¦åĲĪ ä¸ĵä¸ļæľ¯è¯Ń
é¢ ĸ
åħĪ è®²
ä½Ĩ éľĢ
ä½Ĩ åİŁæĸĩ
Ġf ractal
çļĦç¿»è¯ĳ åºĶè¯¥æĺ¯
Ġn ation
ci pl
æ¯ıä¸ª ä¸ĵä¸ļæľ¯è¯Ń
è¦ģç¡®ä¿Ŀ åĩĨç¡®ä¼łè¾¾
è¦ģç¡®ä¿Ŀ æ²¡æľīéģĹæ¼ıä»»ä½ķä¿¡æģ¯
éĥ½ æĺ¯æŃ£ç¡®çļĦ
åı¯èĥ½æĽ´ åģıåĲĳ
åı¯èĥ½æĽ´ å¸¸è¯´
èĢĮä¸įæĺ¯ éŁ³è¯ĳ
ç¤¾ä¼ļ å¯¹
æĸĩåŃ¦ æĢ§
æľĢåĲİæ£ĢæŁ¥ æĺ¯åĲ¦æľīéģĹæ¼ıçļĦä¿¡æģ¯
åıį è®½
ass embl
åİŁåı¥çļĦ éĩįçĤ¹æĺ¯
çİ¯å¢ĥ å½±åĵį
å¹² çĩ
æĽ´ç®Ģæ´ģ çļĦè¡¨è¾¾æĸ¹å¼ı
æĽ´ç¬¦åĲĪ åİŁæĦı
Ġph enotypic
ç¿»è¯ĳæĹ¶è¦ģ åĩĨç¡®å¤ĦçĲĨä¸ĵä¸ļæľ¯è¯Ń
åĲİåįĬåı¥ çĶ¨
lim at
æĹ¢åĩĨç¡®åıĪ ä¸ĵä¸ļ
çľŁ æŃ£
til l
æī¾åĪ°åĲĪéĢĤçļĦ ä¸Ńæĸĩè¡¨è¾¾
20 0
ä¸įåı¯ éĢĨ
å®ĺ æĸ¹
Ġu tility
ç»ĺçĶ» æĬĢæ³ķ
é¦ĸåħĪå¤ĦçĲĨ ä¸ĵæľīåĲįè¯į
æĸĩèīºå¤įåħ´æĹ¶æľŁçļĦ èīºæľ¯å®¶
ä¸ľ è¥¿æĸ¹
åı¥æ³ķ ç»ĵæŀĦ
ä¸ŃæĸĩéĢļå¸¸åħĪè¯´ åİŁåĽł
åģľ æ»ŀ
èĲ¨ åĲĮçĽŁ
Ġvulner ability
dist ributed
æ±ī èĲ¨åĲĮçĽŁ
æīĢä»¥ä¸Ńæĸĩç»ĵæŀĦ åºĶè¯¥æĺ¯
èĥ½æºĲä¼łè¾ĵ åŁºç¡Ģè®¾æĸ½
circ adian
implement ed
test ant
å¹²çĩ ¥
n ac
p oin
åľ¨ ç§ĳæĬĢ
æĽ´ ç¬¦åĲĪä¸ŃæĸĩçļĦè¯Ńåºı
æĽ´ åľ°éģĵ
åİ Ĥ
æĪĸ åŃ¦ä¹ł
åºĶ åĬĽ
at ch
ç¡®ä¿Ŀ ç¿»è¯ĳçļĦåĩĨç¡®æĢ§
æīĢä»¥ éľĢè¦ģç¡®ä¿Ŀæľ¯è¯ŃåĩĨç¡®
åĴĮ ä½¿çĶ¨
Ġm ake
æĥ ĳ
Ġs ay
Ġs kepticism
è´ ·
ä¿ĿæĮģ ä¸Ģèĩ´æĢ§
å¥ Ī
åı¯ä»¥ ç»Ħç»ĩ
Ġcon ductive
ab ated
åı¥åŃĲç»ĵæŀĦ æµģçķħ
åĨį æ¯Ķå¦Ĥ
è¿Ľ åı£
æ¸ Ĺ
çĸĳéĹ® åĴĮ
um ination
æĸ° èīºæľ¯è¿ĲåĬ¨
å¿ħé¡» ç¿»è¯ĳåĩºæĿ¥
éģ¿åħį åı£è¯ŃåĮĸ
Ġtheory æĺ¯
è¿Ļä¸ªç¿»è¯ĳ æĺ¯æŃ£ç¡®çļĦ
ç²¾ ç»Ĩ
åħ¨çĲĥ çĥŃéĩıåĪĨå¸ĥ
åŁİ åł¡
å¤© èĬ±
éľĢè¦ģç¡®è®¤ åĵªä¸ª
çī¹å®ļ åľºåŁŁ
è¯¢éĹ® åľ¨
æĶ¶ ç¼©
çģ« ç®Ń
ä»Ģä¹Ī æł·
ĠM endelian
è§¦ åıĳ
äºĴåĬ¨ æĮĩæłĩ
ä¸Ńä¸ĸçºª æ¬§æ´²
reg ulatory
è½¨éģĵ å¤ªéĺ³èĥ½åıĳçĶµ
æ²¡æľīä½¿çĶ¨ ä»»ä½ķ
äº² å±ŀ
Ġhybrid ization
Ġfu ture
Ġanthrop ic
åĲ¦åĪĻ ä¼ļå½±åĵį
è¿ŀéĶģ æķĪåºĶ
Ġsty les
Ġprob ability
ĠAr t
Ġiss ues
togenetic s
åħĭéĩĮå¥¥å°Ķ è¯Ń
F l
W WI
çļĦ åıĻäºĭ
ti an
è¾ ĸ
in fra
éľ į
ä¸Ńæĸĩ è¯įæ±ĩ
åĩĨç¡® çļĦæľ¯è¯Ń
ä»¥ ä¸ĭ
æľī ä¸¤ä¸ª
æĽ´ åħ·ä½ĵ
æĽ´ åģıåĲĳ
åİŁ æľ¬
Ġs oft
om s
æĸĩåĮĸ åĲĮè´¨åĮĸ
éĥ½ å·²
åľ¨è¿ĻéĩĮ åºĶè¯¥ç¿»è¯ĳæĪĲ
å¦Ĥæŀľ åıįçī©è´¨çº¦æĿŁ
åı¯èĥ½æĽ´ æµģçķħ
çĶ¨æĪ·è®©æĪĳç¿»è¯ĳ ä¸Ģä¸ªåħ³äºİ
ä¸įéľĢè¦ģ è§£éĩĬæĪĸé¢Ŀå¤ĸä¿¡æģ¯
åİŁåı¥æĺ¯ åĢĴè£ħç»ĵæŀĦ
ç¥ŀç»ı èķ¾ä¸Ŀ
éľĢè¦ģç¡®ä¿Ŀ ç¿»è¯ĳ
äºĴ æį¢
Ġal ong
æĺ¯åĲ¦åĩĨç¡® è¡¨è¾¾äºĨ
åı¤ èĢģ
Ġwh ere
çī©è´¨ åĮĸ
æĥ³ ä¸į
çĦ¶åĲİæ£ĢæŁ¥ åĩĨç¡®æĢ§
Ġcre ative
sub verts
Ġcomplex ities
è§Ĩè§ī æ··åĲĪ
Ġsym metry
è§Ĥå¯Ł èĢħ
ç½Ĺ å°Ķæĸ¯
æİ¢æµĭ åĻ¨
æĶ¾åľ¨åĬ¨è¯į åīį
Ġvisual ization
Ġutiliz e
Ġgu id
å¤įåĲĪ æĿĲæĸĻ
Ġè¿Ļä¸ªç¿»è¯ĳ åĩĨç¡®ä¼łè¾¾äºĨåİŁæĦı
å¢ŀå¼ºçİ°å®ŀ çķĮéĿ¢
ç³»å¤ĸè¡ĮæĺŁå¤§æ°Ķ åħīè°±åŃ¦
facilit ated
ç¿»è¯ĳåĲİçļĦåı¥åŃĲåºĶ åĩĨç¡®
Ġhapp iness
Ġflaw s
åĲĮæĹ¶ä¿ĿæĮģåİŁæĦıçļĦ å®Įæķ´
è°ĥèī² æĿ¿
æĿľ å°ļ
å¤©èĬ± æĿ¿
G DP
P urchasing
e ous
f ac
m p
w orld
Ġ +
çļĦ çİ°å®ŀ
ä» °
åı¯ æº¶
ä¸º ä¸»
Ġc are
ç»ĵæŀĦ è®¾è®¡
ä¸į è¢«
