{"<pad>":0,"<s>":1,"</s>":2,"<unk>":3,"!":4,"\"":5,"#":6,"$":7,"%":8,"&":9,"'":10,"(":11,")":12,"*":13,"+":14,",":15,"-":16,".":17,"/":18,"0":19,"1":20,"2":21,"3":22,"4":23,"5":24,"6":25,"7":26,"8":27,"9":28,":":29,";":30,"<":31,"=":32,">":33,"?":34,"@":35,"A":36,"B":37,"C":38,"D":39,"E":40,"F":41,"G":42,"H":43,"I":44,"J":45,"K":46,"L":47,"M":48,"N":49,"O":50,"P":51,"Q":52,"R":53,"S":54,"T":55,"U":56,"V":57,"W":58,"X":59,"Y":60,"Z":61,"[":62,"\\":63,"]":64,"^":65,"_":66,"`":67,"a":68,"b":69,"c":70,"d":71,"e":72,"f":73,"g":74,"h":75,"i":76,"j":77,"k":78,"l":79,"m":80,"n":81,"o":82,"p":83,"q":84,"r":85,"s":86,"t":87,"u":88,"v":89,"w":90,"x":91,"y":92,"z":93,"{":94,"|":95,"}":96,"~":97,"¡":98,"¢":99,"£":100,"¤":101,"¥":102,"¦":103,"§":104,"¨":105,"©":106,"ª":107,"«":108,"¬":109,"®":110,"¯":111,"°":112,"±":113,"²":114,"³":115,"´":116,"µ":117,"¶":118,"·":119,"¸":120,"¹":121,"º":122,"»":123,"¼":124,"½":125,"¾":126,"¿":127,"À":128,"Á":129,"Â":130,"Ã":131,"Ä":132,"Å":133,"Æ":134,"Ç":135,"È":136,"É":137,"Ê":138,"Ë":139,"Ì":140,"Í":141,"Î":142,"Ï":143,"Ð":144,"Ñ":145,"Ò":146,"Ó":147,"Ô":148,"Õ":149,"Ö":150,"×":151,"Ø":152,"Ù":153,"Ú":154,"Û":155,"Ü":156,"Ý":157,"Þ":158,"ß":159,"à":160,"á":161,"â":162,"ã":163,"ä":164,"å":165,"æ":166,"ç":167,"è":168,"é":169,"ê":170,"ë":171,"ì":172,"í":173,"î":174,"ï":175,"ð":176,"ñ":177,"ò":178,"ó":179,"ô":180,"õ":181,"ö":182,"÷":183,"ø":184,"ù":185,"ú":186,"û":187,"ü":188,"ý":189,"þ":190,"ÿ":191,"Ā":192,"ā":193,"Ă":194,"ă":195,"Ą":196,"ą":197,"Ć":198,"ć":199,"Ĉ":200,"ĉ":201,"Ċ":202,"ċ":203,"Č":204,"č":205,"Ď":206,"ď":207,"Đ":208,"đ":209,"Ē":210,"ē":211,"Ĕ":212,"ĕ":213,"Ė":214,"ė":215,"Ę":216,"ę":217,"Ě":218,"ě":219,"Ĝ":220,"ĝ":221,"Ğ":222,"ğ":223,"Ġ":224,"ġ":225,"Ģ":226,"ģ":227,"Ĥ":228,"ĥ":229,"Ħ":230,"ħ":231,"Ĩ":232,"ĩ":233,"Ī":234,"ī":235,"Ĭ":236,"ĭ":237,"Į":238,"į":239,"İ":240,"ı":241,"Ĳ":242,"ĳ":243,"Ĵ":244,"ĵ":245,"Ķ":246,"ķ":247,"ĸ":248,"Ĺ":249,"ĺ":250,"Ļ":251,"ļ":252,"Ľ":253,"ľ":254,"Ŀ":255,"ŀ":256,"Ł":257,"ł":258,"Ń":259,"âĢ":260,"ï¼":261,"ä¸":262,"ï¼Į":263,"è¯":264,"âĢľ":265,"âĢĿ":266,"ĢĤ":267,"çļ":268,"çļĦ":269,"ãĢĤ":270,"åı":271,"åĲ":272,"æĺ":273,"æľ":274,"æĺ¯":275,"æĪ":276,"æĸ":277,"ç¡":278,"ç¡®":279,"è¿":280,"è¯ĳ":281,"çĶ":282,"è¦":283,"è¦ģ":284,"ç»":285,"æĸĩ":286,"ti":287,"ä¸Ń":288,"åŃ":289,"on":290,"»è¯ĳ":291,"ç¿":292,"ç¿»è¯ĳ":293,"æĢ":294,"åı¥":295,"ä»":296,"ä½":297,"çĶ¨":298,"åĩ":299,"è¿Ļ":300,"al":301,"è¯Ń":302,"åħ":303,"äº":304,"æľ¯":305,"åľ":306,"è¾":307,"er":308,"in":309,"æŀ":310,"ä¿":311,"en":312,"es":313,"ĥ½":314,"æ¯":315,"åĲĪ":316,"éĩ":317,"éľ":318,"æĢ§":319,"éľĢ":320,"åı¯":321,"Ľ´":322,"ä¸Ńæĸĩ":323,"åĩĨ":324,"éľĢè¦ģ":325,"åº":326,"èĥ½":327,"åĪ":328,"è®":329,"ä¹":330,"èĢ":331,"æ¯Ķ":332,"¦Ĥ":333,"åĩĨç¡®":334,"åľ¨":335,"å¦Ĥ":336,"å¤":337,"tion":338,"éĢ":339,"å®":340,"æľ¯è¯Ń":341,"åŃĲ":342,"ç»ĵ":343,"ä¿Ŀ":344,"ä¸º":345,"an":346,"æĿ":347,"è¡":348,"ä»¥":349,"ä¼":350,"åĲİ":351,"ic":352,"æľī":353,"æĽ´":354,"æķ":355,"çĲ":356,"åİ":357,"è¾¾":358,"æĹ":359,"æĦ":360,"âĢĿï¼Į":361,"re":362,"æī":363,"çĲĨ":364,"åı¯èĥ½":365,"å¸":366,"ç»ĵæŀ":367,"åŃ¦":368,"Ġc":369,"è§":370,"æĪĸ":371,"åĬ":372,"å¼":373,"æŃ":374,"Ġt":375,"or":376,"åİŁ":377,"åı¥åŃĲ":378,"æĦı":379,"æµ":380,"æĮ":381,"åºĶ":382,"ä¸ª":383,"åĮ":384,"æİ":385,"è¡¨":386,"éĩĮ":387,"at":388,"st":389,"ç»ĵæŀĦ":390,"ç¬":391,"¦åĲĪ":392,"æ³":393,"Ġp":394,"æĿ¥":395,"ç¬¦åĲĪ":396,"ä¸į":397,"æīĢ":398,"æł":399,"çĦ":400,"æĪĳ":401,"çĦ¶":402,"ar":403,"æĪĲ":404,"åĮĸ":405,"æĪ·":406,"çĶ¨æĪ·":407,"çİ":408,"éĢļ":409,"å¯":410,"éĢĤ":411,"æİ¥":412,"è¡¨è¾¾":413,"æķ´":414,"æ²":415,"it":416,"è¿ĻéĩĮ":417,"ro":418,"ç¡®ä¿Ŀ":419,"å¸¸":420,"çķ":421,"æ¯Ķå¦Ĥ":422,"ation":423,"é¢":424,"åĴ":425,"æīĢä»¥":426,"åĴĮ":427,"ä¸ļ":428,"æĹ¶":429,"æŃ£":430,"æĺ¯åĲ":431,"Ġm":432,"éĹ":433,"Ġd":434,"æĥ":435,"ec":436,"èĩ":437,"è°":438,"æµģ":439,"åĨ":440,"ï¼ļ":441,"ä¸ĭ":442,"åĽ":443,"æĺ¯åĲ¦":444,"Ġs":445,"æĬ":446,"ol":447,"..":448,"ä¸ĵ":449,"ä¸Ģ":450,"ed":451,"æ²¡":452,"ä¹ł":453,"ent":454,"è§£":455,"éĿ":456,"éģ":457,"ä¸»":458,"ä¸ĵä¸ļ":459,"ï¼ĮâĢľ":460,"ç¬¦åĲĪä¸Ńæĸĩ":461,"is":462,"æŃ£ç¡®":463,"è°ĥ":464,"èĢħ":465,"å°":466,"Ġin":467,"æĥ¯":468,"çķħ":469,"ä¹łæĥ¯":470,"ac":471,"ï¼ļâĢľ":472,"çİ°":473,"æµģçķħ":474,"äºĨ":475,"Ł¥":476,"Ģæ":477,"çī":478,"em":479,"èĩª":480,"æ±":481,"åħĪ":482,"ä½¿":483,"åİŁåı¥":484,"âĢĿãĢĤ":485,"ä¼ł":486,"ç¿»è¯ĳæĪĲ":487,"åĪĨ":488,"å½":489,"é¦":490,"æ²¡æľī":491,"éĹ®":492,"åĲĮ":493,"å¯¹":494,"om":495,"æľĢ":496,"é¦ĸ":497,"æ³ķ":498,"å¾":499,"ur":500,"ç§":501,"Ġth":502,"ing":503,"èĢĮ":504,"ra":505,"çĶŁ":506,"å¼ı":507,"é¦ĸåħĪ":508,"åŁ":509,"è¾ĥ":510,"æĶ":511,"ä½Ĩ":512,"Ġf":513,"èĩªçĦ¶":514,"ä¹ī":515,"ve":516,"æĮģ":517,"æĸ¹":518,"æ£":519,"æ±Ĥ":520,"æĮĩ":521,"åħ³":522,"ç¿»è¯ĳä¸º":523,"è¿ĩ":524,"ul":525,"æ¯Ķè¾ĥ":526,"ĢæŁ¥":527,"æ£ĢæŁ¥":528,"as":529,"ä¼ļ":530,"è´":531,"ä½ĵ":532,"è®º":533,"è¡¨è¾¾ä¹łæĥ¯":534,"åį":535,"èĻ":536,"ä¸ŃçļĦ":537,"åĲĪéĢĤ":538,"ä¾":539,"et":540,"éĿ¢":541,"ä¸ĭæĿ¥":542,"è®¤":543,"è¯Ŀ":544,"å¹":545,"æĢĿ":546,"åºĶè¯":547,"og":548,"æİ¥ä¸ĭæĿ¥":549,"å¿":550,"ä½¿çĶ¨":551,"åĩº":552,"çĽ´":553,"Ġre":554,"åĽł":555,"ç»ı":556,"åºĶè¯¥":557,"è°ĥæķ´":558,"æģ":559,"tic":560,"çĽ":561,"ä¿ĿæĮģ":562,"åĬ¨":563,"èĢĥ":564,"æĦıæĢĿ":565,"æĬĢ":566,"ig":567,"å®ŀ":568,"ãĢĤâĢľ":569,"å¥":570,"æł·":571,"ical":572,"ä½ķ":573,"ç®":574,"ç³":575,"æĸĩåĮĸ":576,"é¢ĺ":577,"æ¼":578,"èĻĳ":579,"Ġe":580,"å·":581,"åı¥è¯Ŀ":582,"ç³»":583,"åı¯ä»¥":584,"èĢĥèĻĳ":585,"åĵ":586,"æĪĳéľĢè¦ģ":587,"æ°":588,"Ġo":589,"ce":590,"çĲĨè§£":591,"çĦ¶åĲİ":592,"ä¸ĵä¸ļæľ¯è¯Ń":593,"ä¿¡":594,"éģĹ":595,"è¿Ļåı¥è¯Ŀ":596,"è¯į":597,"Ġb":598,"Ġ[":599,"IN":600,"TH":601,"INK":602,"THINK":603,"æľĢåĲİ":604,"äºİ":605,"é¡":606,"åľ°":607,"çļĦæĺ¯":608,"Ġa":609,"çļĦæĦıæĢĿ":610,"æµģçķħæĢ§":611,"å¥½":612,"æģ¯":613,"le":614,"èµ":615,"ãĢ":616,"ä¼łè¾¾":617,"å¤ĸ":618,"...":619,"Ġw":620,"çļĦç»ĵæŀĦ":621,"éĢļå¸¸":622,"æ³¨":623,"ãĢĤâĢĿ":624,"çŃ":625,"å±":626,"ï¼Ł":627,"è¿Ļæł·":628,"ä¿¡æģ¯":629,"ä¸Ĭ":630,"æĪĸèĢħ":631,"æ¼ı":632,"ãĢģ":633,"ter":634,"åĲĮæĹ¶":635,"çī©":636,"éĢĤåºĶ":637,"éģĹæ¼ı":638,"æı":639,"è¯»":640,"si":641,"ç¤":642,"ç¡®è®¤":643,"å¥½çļĦ":644,"è¦ģæ±Ĥ":645,"å®ļ":646,"åī":647,"å¤Ħ":648,"éĶ":649,"æĭ":650,"æ³¨æĦı":651,"è¯ĳä¸º":652,"ç»Ł":653,"éĹ®é¢ĺ":654,"åı¯èĥ½éľĢè¦ģ":655,"Ġå¥½çļĦ":656,"ly":657,"æĸĩåĮĸéĢĤåºĶ":658,"ä¸»ä¹ī":659,"un":660,"åıĺ":661,"åĩĨç¡®æĢ§":662,"å¤ĦçĲĨ":663,"ity":664,"li":665,"åĩĨç¡®ä¼łè¾¾":666,"æĸĩåĮĸéĢĤåºĶæĢ§":667,"Ġcon":668,"äºº":669,"ç¬¦åĲĪä¸Ńæĸĩè¡¨è¾¾ä¹łæĥ¯":670,"çĽ´æİ¥":671,"å¢":672,"åĬł":673,"è¿ĺ":674,"ä½ľ":675,"éĥ":676,"éĥ¨":677,"qu":678,"Ġh":679,"olog":680,"åŁŁ":681,"çļĦç¿»è¯ĳ":682,"æĻ":683,"ri":684,"ow":685,"å¸¸çĶ¨":686,"åĪ°":687,"Ġn":688,"¨¡":689,"ci":690,"å¼º":691,"th":692,"è¿Ļä¸ª":693,"çº":694,"æ¨¡":695,"æŀľ":696,"Ġthe":697,"æĬĢæľ¯":698,"éĩį":699,"é¢Ĩ":700,"åºı":701,"âĢ¦":702,"uc":703,"é¢ĨåŁŁ":704,"ate":705,"æıĲ":706,"ab":707,"éĥ¨åĪĨ":708,"éĢļè¿ĩ":709,"èī":710,"ç¨":711,"æį":712,"od":713,"è®©":714,"ver":715,"res":716,"ph":717,"Ġg":718,"éĩı":719,"çĽ¸":720,"åĨħ":721,"lo":722,"æĺİ":723,"è¡Į":724,"ä¸Ģä¸ª":725,"å¦Ĥä½ķ":726,"ç»Ļ":727,".âĢĿ":728,"ä¸İ":729,"ment":730,"æķ´ä¸ª":731,"el":732,"èµ·":733,"åıĳ":734,"åº¦":735,"ç§ĳ":736,"è¦ģæ³¨æĦı":737,"åħ¶":738,"èĭ":739,"æ¯ı":740,"è¯´":741,"tin":742,"æłĩ":743,"hi":744,"æ¯ıä¸ª":745,"åīį":746,"Ġof":747,"æ²¡æľīéģĹæ¼ı":748,"é¡º":749,"åİŁæĦı":750,"æĮĩçļĦæĺ¯":751,"å½¢":752,"åı¥åŃĲçļĦ":753,"åŃ¦æľ¯":754,"åĬĽ":755,"æ´":756,"äºĽ":757,"ä¹Ł":758,"çī¹":759,"ä¾ĭ":760,"è¯¯":761,"è¯Ńåºı":762,"çĸ":763,"æĹ¢":764,"ist":765,"éĹ´":766,"åıĪ":767,"æĢģ":768,"tu":769,"str":770,"å®¹":771,"éĻ":772,"åĪ¶":773,"iz":774,"ug":775,"æľ¬":776,"å°Ĩ":777,"è¶":778,"Ġpro":779,"åı¥åŃĲç»ĵæŀĦ":780,"and":781,"Ġto":782,"tive":783,"èµ·æĿ¥":784,"id":785,"æľº":786,"è¦ģç¡®ä¿Ŀ":787,"ations":788,"å¢ĥ":789,"pl":790,"ç¬¦åĲĪä¸ŃæĸĩçļĦ":791,"åĲİçļĦ":792,"æĸ¹éĿ¢":793,"ç¿»è¯ĳæĪĲä¸Ńæĸĩ":794,"çĤ":795,"Ġl":796,"æ¡":797,"ä»£":798,"å¯¼":799,"ect":800,"ç¨ĭ":801,"æķ°":802,"ç½":803,"åı¦":804,"çĤ¹":805,"éĥ½":806,"æ°Ķ":807,"å¤§":808,"èīº":809,"igh":810,"ï¼ŁâĢĿ":811,"åľ¨è¿ĻéĩĮ":812,"æ¯Ķè¾ĥåĲĪéĢĤ":813,"ugh":814,"å¼ºè°ĥ":815,"å¦Ĥæŀľ":816,"åı¦å¤ĸ":817,"us":818,"ad":819,"ç¿»è¯ĳåĲİçļĦ":820,"ism":821,"ä¾ĭå¦Ĥ":822,"åĨį":823,"åľ¨ä¸Ńæĸĩ":824,"ç»ĵæŀľ":825,"åĳ":826,"Ġen":827,"åĢ":828,"Ġex":829,"åģ":830,"æŃ¤":831,"åĨħå®¹":832,"oul":833,"åıĬ":834,"åŁº":835,"ch":836,"ould":837,"èĭ±":838,"ä»ĸ":839,"ting":840,"ç¤º":841,"rough":842,"å¾Ĺ":843,"ological":844,"éĢļé¡º":845,"il":846,"æ¶":847,"ech":848,"omp":849,"éĶ®":850,"å½±":851,"åºĶè¯¥æĺ¯":852,"æµİ":853,"æį®":854,"ç»ıæµİ":855,"Ġac":856,"os":857,"éĩĬ":858,"åħ³éĶ®":859,"æĶ¹":860,"ç»Ļåĩº":861,"å°±":862,"çĲĨè®º":863,"ä¸įåĲĮ":864,"im":865,"ä»»":866,"çİ°åľ¨":867,"èĭ±æĸĩ":868,"æĶ¾":869,"æłĩåĩĨ":870,"ight":871,"ï¼Ī":872,"ï¼ī":873,"å·¥":874,"ç³»ç»Ł":875,"è¿Ľ":876,"æł¹":877,"ff":878,"çľ":879,"ain":880,"ä»¶":881,"æĬĬ":882,"çĸĳ":883,"ç®Ĺ":884,"ge":885,"çł":886,"è®©æĪĳ":887,"ap":888,"åı¯èĥ½éľĢè¦ģè°ĥæķ´":889,"ç©":890,"ess":891,"åĵį":892,"ç§į":893,"æ¸":894,"ies":895,"çĶ¨æĪ·è®©æĪĳ":896,"orm":897,"æĹł":898,"å½±åĵį":899,"çĶ¨æĪ·çļĦ":900,"è®¡":901,"è¯»èĢħ":902,"è´¨":903,"ç±":904,"ä¸Ķ":905,"èīºæľ¯":906,"ir":907,"ç¤¾":908,"ä¸ĵä¸ļæľ¯è¯ŃçļĦ":909,"ç¿»è¯ĳæĹ¶":910,"di":911,"çĶŁçī©":912,"æľ¯è¯ŃçļĦ":913,"çĸĳéĹ®":914,"Ġsy":915,"åŀ":916,"è§ģ":917,"ith":918,"per":919,"ial":920,"Ġé¦ĸåħĪ":921,"åı¯èĥ½æĽ´":922,"èĢĮä¸į":923,"éĢī":924,"åħ¨":925,"è½":926,"çĶ¨æĪ·è®©æĪĳç¿»è¯ĳ":927,"sion":928,"è¯Ĩ":929,"åĩĨç¡®çĲĨè§£":930,"ut":931,"æĿ¡":932,"å¤ļ":933,"ç¼":934,"ä¾Ľ":935,"ä¸ĵä¸ļæĢ§":936,"stem":937,"è®¾":938,"åıª":939,"am":940,"è§£éĩĬ":941,"åŃĺ":942,"è¯ĳæ³ķ":943,"åı¥åŃĲçļĦæµģçķħæĢ§":944,"å¤į":945,"ural":946,"å¹¶":947,"ä¸įéľĢè¦ģ":948,"çŁ¥":949,"èĩ´":950,"æľŁ":951,"æŀĦ":952,"æĸ¹å¼ı":953,"ç»Ī":954,"æĿ¡ä»¶":955,"Ģæ´":956,"æĺ¯åĲ¦æŃ£ç¡®":957,"è±":958,"æķĪ":959,"æ·":960,"ence":961,"å¼ķ":962,"æľĢç»Ī":963,"è¿Ļæĺ¯":964,"åħ³ç³»":965,"æĶ¾åľ¨":966,"ates":967,"æĪĺ":968,"Ġæĺ¯":969,"æŀĲ":970,"ç®Ģæ´":971,"ç®Ģæ´ģ":972,"èĢĮä¸įæĺ¯":973,"åĽłä¸º":974,"ç¿»è¯ĳåĲİçļĦåı¥åŃĲ":975,"æĺ¯åĲ¦æľī":976,"å®ŀçİ°":977,"è±¡":978,"ç¥":979,"çİ¯":980,"åİŁæĸĩ":981,"åĪĨæŀĲ":982,"ç¬¦åĲĪä¸ŃæĸĩçļĦè¡¨è¾¾ä¹łæĥ¯":983,"ç±»":984,"å¿ĥ":985,"çŃĶ":986,"éļ":987,"Ġde":988,"å±ķ":989,"æĭ©":990,"çĶ¨æĪ·åı¯èĥ½":991,"è¿Ļæł·æĹ¢":992,"å¿ħ":993,"um":994,"æĸĩç":995,"éĩıåŃĲ":996,"ä¸Ģä¸ĭ":997,"å¸¸è§ģ":998,"æıĲä¾Ľ":999,"æĸ°":1000,"è§Ĥ":1001,"ork":1002,"éĢīæĭ©":1003,"ç¥ŀ":1004,"Ġthrough":1005,"å¯¹æ¯Ķ":1006,"ran":1007,"åŀĭ":1008,"æĽ´èĩªçĦ¶":1009,"tions":1010,"æĪĳçİ°åľ¨":1011,"è¢":1012,"con":1013,"ics":1014,"è¢«":1015,"ä¼łç»Ł":1016,"Ġch":1017,"éĶĻ":1018,"åĽłæŃ¤":1019,"æĦŁ":1020,"æķ´ä¸ªåı¥åŃĲ":1021,"Ġar":1022,"è¦ģèĢĥèĻĳ":1023,"åĪ«":1024,"æĽ´åĲĪéĢĤ":1025,"åĽ½":1026,"åį³":1027,"fic":1028,"tional":1029,"åİŁåı¥æĺ¯":1030,"æķ´ä½ĵ":1031,"ç¤¾ä¼ļ":1032,"æº":1033,"ç´":1034,"stems":1035,"op":1036,"å»":1037,"åĪĻ":1038,"ç»Ħ":1039,"ä»»ä½ķ":1040,"å¿ħé¡":1041,"è¿ĺè¦ģæ³¨æĦı":1042,"æĸĩåŃ¦":1043,"Į®":1044,"å¿ħé¡»":1045,"åħ¶ä»ĸ":1046,"all":1047,"âĢ¦âĢ¦":1048,"æ¨¡å¼ı":1049,"æľĢåĲİæ£ĢæŁ¥":1050,"æł¹æį®":1051,"und":1052,"æĸĩçĮ®":1053,"çİĩ":1054,"ç»Ĩ":1055,"æ²¡éĹ®é¢ĺ":1056,"æ¶ī":1057,"Ġmod":1058,"ä¸Ĭä¸ĭ":1059,"ä¸ŃæĸĩéĩĮ":1060,"æľ¯è¯ŃæŃ£ç¡®":1061,"éĺ":1062,"ä¸Ĭä¸ĭæĸĩ":1063,"æĢ»":1064,"struc":1065,"ni":1066,"éĿŀ":1067,"work":1068,"å°±æĺ¯":1069,"Ġand":1070,"ä¹ĭ":1071,"çĬ":1072,"de":1073,"è¯·":1074,"åĩĨç¡®ä¼łè¾¾äºĨ":1075,"çĶµ":1076,"ç§ĳæĬĢ":1077,"åİŁåı¥ä¸ŃçļĦ":1078,"Ġinter":1079,"ç¥ŀç»ı":1080,"çĲĨåŃ¦":1081,"ts":1082,"æĶ¿":1083,"Ġst":1084,"åħī":1085,"Ġv":1086,"è¯·æ±Ĥ":1087,"æĪĳçİ°åľ¨éľĢè¦ģ":1088,"çĽ´è¯ĳ":1089,"äºĭ":1090,"èĭ±æĸĩåı¥åŃĲ":1091,"ä¼¦":1092,"æŃ£å¼ı":1093,"è¿ĻäºĽ":1094,"æ¶īåıĬ":1095,"çľĭ":1096,"tiv":1097,"è®¡ç®Ĺ":1098,"Ġem":1099,"ine":1100,"Ġcomp":1101,"çĬ¶":1102,"è´´":1103,"çŃĸ":1104,"åĲĪéĢĤçļĦ":1105,"ä¸įèĥ½":1106,"æĢ»ç»ĵ":1107,"å¿µ":1108,"ag":1109,"ç§ĳåŃ¦":1110,"ä¸¤":1111,"æŀ¶":1112,"åĪĩ":1113,"æ¡Ī":1114,"ory":1115,"ement":1116,"åıį":1117,"åı¯ä»¥è¯ĳä¸º":1118,"rom":1119,"çĶ¨æĪ·è®©æĪĳç¿»è¯ĳè¿Ļåı¥è¯Ŀ":1120,"Ġtra":1121,"ç¡®ä¿Ŀæ²¡æľīéģĹæ¼ı":1122,"åľº":1123,"æĮĳ":1124,"è¿ŀ":1125,"äº§":1126,"åŃĹ":1127,"æĮĳæĪĺ":1128,"çĽ´æİ¥ç»Ļåĩº":1129,"Ġsystems":1130,"æĹ¶éĹ´":1131,"ous":1132,"å¯Ĩ":1133,"åĩĨç¡®åıĪ":1134,"âĢĿï¼Ī":1135,"atter":1136,"æ¯ıä¸ªæľ¯è¯Ń":1137,"çļĦè¡¨è¾¾":1138,"âĢĿï¼ĮâĢľ":1139,"è¾ĳ":1140,"è·":1141,"èĮ":1142,"åı£":1143,"è½¬":1144,"?âĢĿ":1145,"å¸Ĥ":1146,"èĥ":1147,"Ġè¿ĻéĩĮ":1148,"ke":1149,"eth":1150,"ex":1151,"enti":1152,"çļĦæľ¯è¯Ń":1153,"éĢł":1154,"form":1155,"ç²":1156,"If":1157,"è¯»èµ·æĿ¥":1158,"ub":1159,"How":1160,"ary":1161,"æĽ":1162,"è¿ĩç¨ĭ":1163,"Ġr":1164,"enc":1165,"ally":1166,"Ġmight":1167,"åĮº":1168,"åįĬ":1169,"è¶ħ":1170,"Ġwith":1171,"åİŁåı¥çļĦç»ĵæŀĦ":1172,"æİ¥ä¸ĭæĿ¥æĺ¯":1173,"duc":1174,"ere":1175,"åŃĺåľ¨":1176,"ç½ĳ":1177,"Ġtech":1178,"pro":1179,"è¯Ńæ°Ķ":1180,"åħ·":1181,"ç¡®å®ļ":1182,"åĲį":1183,"ational":1184,"rans":1185,"æĺĵ":1186,"Ġdis":1187,"æł¼":1188,"éľĢè¦ģåĩĨç¡®":1189,"æĸĻ":1190,"åģĩ":1191,"able":1192,"çĽ¸åħ³":1193,"è®¨":1194,"çŁ":1195,"ä»¬":1196,"èĮĥ":1197,"çłĶ":1198,"åħį":1199,"éĩįè¦ģ":1200,"econ":1201,"æ¸ħ":1202,"çĶ¨æĪ·æıĲä¾Ľ":1203,"Ġad":1204,"²åŃ¦":1205,"è´´åĪĩ":1206,"æºĲ":1207,"âĢĿãĢĤâĢľ":1208,"ot":1209,"he":1210,"ures":1211,"å¹¶ä¸Ķ":1212,"ç©¶":1213,"ties":1214,"éĢŁ":1215,"rec":1216,"ç¡¬":1217,"ers":1218,"éķ":1219,"éģį":1220,"å¯¼èĩ´":1221,"ç¿»è¯ĳç»ĵæŀľ":1222,"æĹłè¯¯":1223,"å½ĵ":1224,"me":1225,"å½¢æĪĲ":1226,"oc":1227,"vol":1228,"åĪ©":1229,"å¾·":1230,"erg":1231,"å¹³":1232,"ç«":1233,"æīĭ":1234,"æ°ĳ":1235,"ance":1236,"çŃī":1237,"æĽ´åĩĨç¡®":1238,"æĺ¯åľ¨":1239,"èģ":1240,"çĶŁç¡¬":1241,"æĶ¹åıĺ":1242,"æ¦Ĥ":1243,"éģ¿":1244,"å¢ŀ":1245,"è¯ģ":1246,"æĸĩåĮĸéĢĤåºĶæĢ§æĸ¹éĿ¢":1247,"åħ¥":1248,"ost":1249,"çłĶç©¶":1250,"å±Ĥ":1251,"éģ¿åħį":1252,"ure":1253,"éĿ©":1254,"éĢļå¸¸ä¼ļ":1255,"æīĢæľī":1256,"æ®":1257,"ä»Ķ":1258,"oci":1259,"ä»Ķç»Ĩ":1260,"å¤Ł":1261,"éĽ":1262,"ass":1263,"çĸĳéĹ®åı¥":1264,"éª":1265,"'s":1266,"å»º":1267,"å®Į":1268,"æĪĳçİ°åľ¨éľĢè¦ģå¤ĦçĲĨ":1269,"å·²":1270,"åĿ":1271,"ution":1272,"äº¤":1273,"æĺİç¡®":1274,"åı¯èĥ½éľĢè¦ģè°ĥæķ´è¯Ńåºı":1275,"æĪĳéľĢè¦ģåĩĨç¡®çĲĨè§£":1276,"æĥħ":1277,"ns":1278,"ä½į":1279,"ç¬¦åĲĪä¸Ńæĸĩä¹łæĥ¯":1280,"éĶĻè¯¯":1281,"åĲ«":1282,"ion":1283,"æľĽ":1284,"çŃĶæ¡Ī":1285,"ç¾":1286,"æ±ĩ":1287,"èĢĥèĻĳåĪ°":1288,"æĻ°":1289,"æ¸ħæĻ°":1290,"åīįéĿ¢":1291,"éģĵ":1292,"æĿĥ":1293,"ç¢":1294,"éľĢè¦ģç¡®ä¿Ŀ":1295,"çĥ":1296,"antu":1297,"antum":1298,"ys":1299,"è¡¨ç¤º":1300,"é¢Ŀ":1301,"Ġim":1302,"ç»ıæµİåŃ¦":1303,"Ġpar":1304,"æĸ¹æ³ķ":1305,"å¸Į":1306,"å¯¹åºĶ":1307,"çķĻ":1308,"åİĨ":1309,"çī¹åĪ«":1310,"çĽ´æİ¥ç»ĻåĩºçŃĶæ¡Ī":1311,"åĲİéĿ¢":1312,"ãĢģâĢľ":1313,"æĻ¯":1314,"äºĴ":1315,"æ¨¡åŀĭ":1316,"å·®":1317,"por":1318,"åĵ²åŃ¦":1319,"etic":1320,"å¸¦":1321,"çĲĥ":1322,"é¢Ŀå¤ĸ":1323,"ä»İ":1324,"éĢ»":1325,"èµĦ":1326,"éĢ»è¾ĳ":1327,"æµ·":1328,"Ġeff":1329,"ä½ľä¸º":1330,"Ġdi":1331,"éľĢè¦ģè°ĥæķ´":1332,"Ġint":1333,"æĪĳè¦ģ":1334,"ç´ł":1335,"works":1336,"éĢļå¸¸ç¿»è¯ĳä¸º":1337,"Ġan":1338,"åĩĨç¡®ä¼łè¾¾äºĨåİŁæĦı":1339,"è¾ĵ":1340,"tical":1341,"æ¦Ĥå¿µ":1342,"fl":1343,"è®¨è®º":1344,"è¯įæ±ĩ":1345,"æ¬":1346,"åı¯ä»¥ç¿»è¯ĳä¸º":1347,"åĬ¡":1348,"ä¸»é¢ĺ":1349,"Ġne":1350,"åĹ":1351,"åĽŀ":1352,"å¾Ī":1353,"Ġcont":1354,"åı²":1355,"ç½®":1356,"se":1357,"éķ¿":1358,"æµĭ":1359,"ä¿ĿçķĻ":1360,"åĹ¯":1361,"The":1362,"Ġal":1363,"cess":1364,"allen":1365,"Ġbi":1366,"åıĻ":1367,"ç»ľ":1368,"econom":1369,"ç½ĳç»ľ":1370,"è¨":1371,"Ġmodel":1372,"ĠåĹ¯":1373,"åºĶçĶ¨":1374,"ult":1375,"åİŁåı¥çļĦ":1376,"like":1377,"æľºåĪ¶":1378,"æŃ£ç¡®çļĦ":1379,"ä¸ĵä¸ļæľ¯è¯ŃçļĦæŃ£ç¡®":1380,"æĸ¯":1381,"åĵª":1382,"åģĩè®¾":1383,"ry":1384,"pres":1385,"è¨Ģ":1386,"åıĳå±ķ":1387,"yn":1388,"Ġwould":1389,"Ġpatter":1390,"Ġsp":1391,"æ¯ıä¸ªéĥ¨åĪĨ":1392,"æ£ĢæŁ¥æĺ¯åĲ¦æľī":1393,"åĨ³":1394,"åĲĳ":1395,"ä½ľçĶ¨":1396,"Ġres":1397,"Ĩæŀ¶":1398,"ä¼ĺ":1399,"ization":1400,"ian":1401,"æĶ¾åľ¨åīįéĿ¢":1402,"æ²»":1403,"Ġtrans":1404,"æ¡Ĩæŀ¶":1405,"ä¸Ńå¸¸çĶ¨":1406,"...âĢĿ":1407,"Ġun":1408,"åĲĪèµ·æĿ¥":1409,"çĶ¨æĪ·æıĲä¾ĽçļĦ":1410,"æĦıè¯Ĩ":1411,"ä»»ä½ķä¿¡æģ¯":1412,"è§Ħ":1413,"hie":1414,"ant":1415,"çİ¯å¢ĥ":1416,"raph":1417,"ä¸ĸ":1418,"Ġtheory":1419,"å·²ç»ı":1420,"çĬ¶è¯Ń":1421,"ç»Ń":1422,"æľ¯è¯ŃåĩĨç¡®":1423,"up":1424,"çİ°å®ŀ":1425,"åĬ¨è¯į":1426,"å¼Ĥ":1427,"è¿ŀæİ¥":1428,"è§Ĩ":1429,"å¸ĮæľĽ":1430,"çĶ¨æĪ·è¦ģæ±Ĥ":1431,"æĻ®":1432,"ä¸»é¢ĺä¸ĵä¸ļæĢ§":1433,"åĢĻ":1434,"æ´¾":1435,"å¹²":1436,"çļĦç¿»è¯ĳè¯·æ±Ĥ":1437,"éªĮ":1438,"æķ°åŃĹ":1439,"æĽ´ç®Ģæ´ģ":1440,"ust":1441,"åĳ½":1442,"ital":1443,"struct":1444,"çº§":1445,"æĪĳè¦ģç¡®ä¿Ŀ":1446,"æīĢä»¥çĶ¨":1447,"Wh":1448,"çİ°ä»£":1449,"æĪĳéľĢè¦ģç¡®ä¿Ŀ":1450,"her":1451,"ä¸įè¿ĩ":1452,"åı¥åŃĲçļĦç»ĵæŀĦ":1453,"ä¸ĬçļĦ":1454,"åĲİåįĬ":1455,"ç»ĵåĲĪ":1456,"æĺ¾":1457,"è¯Ńæ³ķ":1458,"æ°´":1459,"ater":1460,"Ġè¿Ļæł·æĹ¢":1461,"åı¯èĥ½ä¼ļ":1462,"Ġdo":1463,"ĠA":1464,"æŃ§":1465,"è¿Ļä¸ªç¿»è¯ĳ":1466,"æµģçķħèĩªçĦ¶":1467,"act":1468,"Ġpatterns":1469,"åı¯èĥ½æĺ¯":1470,"æĿĲ":1471,"è¿Ĳ":1472,"åıĻäºĭ":1473,"Un":1474,"end":1475,"vi":1476,"åıĺåĮĸ":1477,"è¯Ńæĺ¯":1478,"Ġfra":1479,"ors":1480,"edi":1481,"å®¾":1482,"ric":1483,"åī§":1484,"çģ":1485,"ated":1486,"åľ¨ä¸ŃæĸĩéĩĮ":1487,"Ġhow":1488,"é«":1489,"ä¿®":1490,"ä¸Ģéģį":1491,"Ġfor":1492,"é«ĺ":1493,"Ġmodels":1494,"è¡Įä¸º":1495,"æĺŁ":1496,"éħ":1497,"ç©º":1498,"è£":1499,"äººç±»":1500,"ma":1501,"quantum":1502,"è¿Ļéĥ¨åĪĨ":1503,"æĺ¯æłĩåĩĨ":1504,"é£":1505,"ä¹Ī":1506,"Ġbe":1507,"è¯´æĺİ":1508,"è®¤çŁ¥":1509,"èĥ½å¤Ł":1510,"æĽ´ç¬¦åĲĪä¸Ńæĸĩè¡¨è¾¾ä¹łæĥ¯":1511,"Unlike":1512,"æľĢç»ĪçļĦç¿»è¯ĳ":1513,"çĶ¨æĪ·çļĦè¦ģæ±Ĥ":1514,"Ġap":1515,"åĵªäºĽ":1516,"Ġper":1517,"è¯Ńå¢ĥ":1518,"åĩĨç¡®ä¼łè¾¾åİŁæĦı":1519,"Ġeconom":1520,"æĿ¡ä»¶åı¥":1521,"é©":1522,"èĤ":1523,"ç»ĵæŀĦæĺ¯":1524,"åºĶè¯¥ç¿»è¯ĳæĪĲ":1525,"ology":1526,"æĿĲæĸĻ":1527,"Ġdec":1528,"åİŁåı¥çļĦç»ĵæŀĦæĺ¯":1529,"çĶ¨æĪ·çļĦç¿»è¯ĳè¯·æ±Ĥ":1530,"ç¿»è¯ĳçļĦ":1531,"è¯Ńè¨Ģ":1532,"æİ§":1533,"ä¼¦çĲĨ":1534,"èī²":1535,"è¿ĻéĩĮçļĦ":1536,"åİŁåı¥çļĦæĦıæĢĿ":1537,"ç®¡":1538,"èŀ":1539,"è¿Ļåı¥è¯Ŀç¿»è¯ĳæĪĲä¸Ńæĸĩ":1540,"æĺ¯æŃ£ç¡®çļĦ":1541,"ï¼Ľ":1542,"æĽ´è´´åĪĩ":1543,"ditional":1544,"ark":1545,"ä¸įä¼ļ":1546,"ern":1547,"èŀį":1548,"ency":1549,"ç¡®å®ŀ":1550,"æ·»":1551,"ç²¾":1552,"é¢ĨåŁŁçļĦ":1553,"ä¸ŃæĸĩçļĦ":1554,"echan":1555,"æ·»åĬł":1556,"æĤ":1557,"æĺ¯åĲĪéĢĤçļĦ":1558,"ç§¯":1559,"æĸ½":1560,"æĿĤ":1561,"éĵ":1562,"å±ŀ":1563,"velo":1564,"éĤ":1565,"éģĹæ¼ıæĪĸ":1566,"åĲ«ä¹ī":1567,"ä¸Ńæĸĩè¡¨è¾¾":1568,"æĽ´ç¬¦åĲĪ":1569,"istic":1570,"ized":1571,"åĻ":1572,"Ġsoci":1573,"åºĶè¯¥ç¿»è¯ĳä¸º":1574,"pre":1575,"Ġfrom":1576,"ms":1577,"æķĻ":1578,"Ġph":1579,"æĺ¯åĲ¦åĩĨç¡®":1580,"èĥĮ":1581,"æĢ§çļĦ":1582,"ergy":1583,"ased":1584,"Ġprocess":1585,"åħ´":1586,"ges":1587,"è°ĵ":1588,"ility":1589,"è¯»èµ·æĿ¥èĩªçĦ¶":1590,"æĹ¶æľŁ":1591,"åį³åı¯":1592,"ç»´":1593,"åĻ¨":1594,"éĩĩ":1595,"æĢ»ç»ĵä¸Ģä¸ĭ":1596,"åĨįæ£ĢæŁ¥":1597,"Ġpr":1598,"ç§ĳæĬĢæĸĩçĮ®":1599,"è¿Ļç§į":1600,"ä¸Ńæĸĩè¯»èĢħ":1601,"Ġachie":1602,"ative":1603,"ç«ĭ":1604,"åģı":1605,"åĽ¾":1606,"ulation":1607,"å£":1608,"åİĨåı²":1609,"iti":1610,"å°ı":1611,"ç¿»è¯ĳæĹ¶è¦ģ":1612,"velop":1613,"å¼Ģ":1614,"æ®ĸ":1615,"æľ¯è¯Ńæĺ¯åĲ¦æŃ£ç¡®":1616,"çķ¥":1617,"ace":1618,"Ġcom":1619,"åĪĻæĺ¯":1620,"è¿°":1621,"ven":1622,"æĽ²":1623,"æĺ¯åĲ¦ç¬¦åĲĪ":1624,"çĶŁæĢģ":1625,"æŃ§ä¹ī":1626,"æ³Ľ":1627,"cre":1628,"èĦ":1629,"Ġreal":1630,"åĬ©":1631,"æİ¨":1632,"çĶ¨æĪ·ç»Ļ":1633,"åĩł":1634,"åľ¨ä¸Ńæĸĩä¸Ń":1635,"iter":1636,"vers":1637,"oral":1638,"Ġchallen":1639,"ome":1640,"åĮħ":1641,"å¾ª":1642,"çĶ±":1643,"cal":1644,"åľ°è´¨":1645,"æĭŁ":1646,"çª":1647,"é¢Ħ":1648,"Ġgen":1649,"åħĥ":1650,"ç»ĦåĲĪèµ·æĿ¥":1651,"åŃ¦æľ¯è¯Ń":1652,"éľĢè¦ģä¿ĿæĮģ":1653,"ture":1654,"èĥĮæĻ¯":1655,"åĨĻ":1656,"å²":1657,"Ġmechan":1658,"å¹¿":1659,"éĢĤåĲĪ":1660,"çķĮ":1661,"æľ¯è¯ŃçļĦåĩĨç¡®æĢ§":1662,"Ġtechn":1663,"åĽº":1664,"çļĦä¿¡æģ¯":1665,"çĽ®":1666,"Ġon":1667,"ç®Ĺæ³ķ":1668,"ach":1669,"uman":1670,"å·®å¼Ĥ":1671,"æŀģ":1672,"ç»¼":1673,"å®¶":1674,"éĤ£":1675,"éľĢæ±Ĥ":1676,"ha":1677,"äºļ":1678,"æ¯Ķè¾ĥåĩĨç¡®":1679,"åħ¨çĲĥ":1680,"Ġform":1681,"Ġmo":1682,"åŁºåĽł":1683,"ï¼īãĢģâĢľ":1684,"åĪĽ":1685,"åĵģ":1686,"çªģ":1687,"cep":1688,"ä½ĵç³»":1689,"è¿Ļæĺ¯ä¸Ģä¸ª":1690,"ãĢĤ\"":1691,"rop":1692,"åĲİåįĬåı¥":1693,"æł¹æį®ä¸Ĭä¸ĭæĸĩ":1694,"ä¹ĭéĹ´":1695,"åºķ":1696,"æ®ĸæ°ĳ":1697,"ä¿ĥ":1698,"åĲĮæĹ¶ä¿ĿæĮģ":1699,"ä¸¥":1700,"çº¿":1701,"çĦ¶åĲİæĺ¯":1702,"ature":1703,"volution":1704,"åĩı":1705,"çĶ»":1706,"sci":1707,"ograph":1708,"ques":1709,"è¿ĻéĩĮçĶ¨":1710,"æķĪåºĶ":1711,"åŁİ":1712,"ä¸ĵä¸ļæľ¯è¯ŃçļĦåĩĨç¡®æĢ§":1713,"isms":1714,"ultural":1715,"åħ¸":1716,"è£ħ":1717,"å¤įæĿĤ":1718,"Ġframe":1719,"èĥ½åĬĽ":1720,"ell":1721,"è´§":1722,"éĻħ":1723,"èĢĮéĿŀ":1724,"fication":1725,"ision":1726,"èĭ¥":1727,"ç¦":1728,"æŁ":1729,"å¤ª":1730,"å¡":1731,"æ¯ıä¸ªæľ¯è¯ŃçļĦæĦıæĢĿ":1732,"è¡¨çİ°":1733,"æıŃ":1734,"Ġeth":1735,"å¸Ĥåľº":1736,"ä½Ļ":1737,"æł¸":1738,"through":1739,"çĥŃ":1740,"æ²¡æľīéģĹæ¼ıä¿¡æģ¯":1741,"Ġenergy":1742,"æľ¯è¯ŃçļĦæŃ£ç¡®":1743,"ä¹Łå°±æĺ¯":1744,"è°ĥæķ´è¯Ńåºı":1745,"lim":1746,"èĬ":1747,"qui":1748,"åĽŀçŃĶ":1749,"å¸ģ":1750,"åĨ²":1751,"å¤©":1752,"ogni":1753,"å½¢å¼ı":1754,"æıŃç¤º":1755,"åħ³éĶ®è¯į":1756,"è¯Ħ":1757,"åľ¨è¿ĻéĩĮæĺ¯":1758,"æĹ¢åĩĨç¡®åıĪ":1759,"red":1760,"åıĪç¬¦åĲĪä¸ŃæĸĩçļĦè¡¨è¾¾ä¹łæĥ¯":1761,"ä½¿çĶ¨æŃ£ç¡®":1762,"æ³¢":1763,"ä¸»åı¥":1764,"çİ°è±¡":1765,"ä»ĸä»¬":1766,"è´§å¸ģ":1767,"è¿Ľè¡Į":1768,"phas":1769,"éĽĨ":1770,"æĸĩåĮĸéĢĤåºĶæĢ§åĴĮ":1771,"éľĢè¦ģç¡®è®¤":1772,"èģĶ":1773,"Ġcould":1774,"åĨľ":1775,"åı£è¯Ń":1776,"ä¸Ģèĩ´":1777,"æļ":1778,"å±ŀäºİ":1779,"Ġpl":1780,"ç¾İ":1781,"age":1782,"ä¸ĵä¸ļæľ¯è¯Ńæĺ¯åĲ¦æŃ£ç¡®":1783,"æĹłè¯¯åĲİ":1784,"osi":1785,"éļı":1786,"Ġquantum":1787,"è¦ģæ£ĢæŁ¥":1788,"éģĵå¾·":1789,"RI":1790,"è¿ĺè¦ģèĢĥèĻĳ":1791,"çļĦåľ°":1792,"è®²":1793,"åŁİå¸Ĥ":1794,"æł¹æľ¬":1795,"Ġframeworks":1796,"æŃ¥":1797,"æĮģç»Ń":1798,"Ġdevelop":1799,"Ġcompu":1800,"æĬĬè¿Ļåı¥è¯Ŀç¿»è¯ĳæĪĲä¸Ńæĸĩ":1801,"ĠR":1802,"arra":1803,"èº":1804,"Ġpol":1805,"est":1806,"æķ°æį®":1807,"éĻĲ":1808,"æ´²":1809,"ä»ħ":1810,"Ġtraditional":1811,"Ġthan":1812,"å¼ķåıĳ":1813,"åŃ¦æľ¯è¯Ńå¢ĥ":1814,"å½»":1815,"èº«":1816,"æ¯ıä¸ªéĥ¨åĪĨçļĦæĦıæĢĿ":1817,"ens":1818,"è¶³":1819,"å½»åºķ":1820,"PR":1821,"æ°ĶåĢĻ":1822,"æĺ¯åĲ¦éĢļé¡º":1823,"æĪĳçİ°åľ¨éľĢè¦ģå¤ĦçĲĨçĶ¨æĪ·çļĦç¿»è¯ĳè¯·æ±Ĥ":1824,"åħ³éĶ®çĤ¹":1825,"Ġor":1826,"çºª":1827,"å±±":1828,"SPR":1829,"CRI":1830,"CRISPR":1831,"åı¤":1832,"æĸŃ":1833,"Ġdem":1834,"les":1835,"over":1836,"å®ĩ":1837,"äºĨä¸Ģä¸ª":1838,"çĶ¨æĪ·åı¯èĥ½å¸ĮæľĽ":1839,"gor":1840,"Ġle":1841,"ffer":1842,"èĮĥå¼ı":1843,"Ġcol":1844,"åįĩ":1845,"çĿ":1846,"Ġcomputing":1847,"åıĹ":1848,"åİŁåı¥ç»ĵæŀĦæĺ¯":1849,"æŃ¤å¤ĸ":1850,"ential":1851,"æĴ":1852,"Ġstruct":1853,"ç§°":1854,"plic":1855,"å¡ĳ":1856,"Ġcap":1857,"å®Ļ":1858,"å®ĩå®Ļ":1859,"æ¸©":1860,"ç»¼åĲĪ":1861,"Ġliter":1862,"å¹¿æ³Ľ":1863,"Ġwh":1864,"ĠE":1865,"åŁºç¡":1866,"æľĢç»ĪçļĦç¿»è¯ĳåºĶè¯¥æĺ¯":1867,"é£İ":1868,"éĩįæĸ°":1869,"éģĹä¼ł":1870,"åĸ":1871,"aterial":1872,"åŁºç¡Ģ":1873,"ç¼ĸ":1874,"ç¡®è®¤æĹłè¯¯åĲİ":1875,"è¿ĻäºĽæľ¯è¯Ń":1876,"ç®Ģ":1877,"åķ":1878,"æĶ¿çŃĸ":1879,"sy":1880,"æį¢":1881,"åĿĹ":1882,"tim":1883,"Ġat":1884,"ä»·":1885,"åĬłéĢŁ":1886,"éĢļè¯»":1887,"ä¾Ŀ":1888,"king":1889,"æĺ¯ä¸Ģä¸ª":1890,"çĶ¨æĪ·è®©æĪĳç¿»è¯ĳè¿Ļä¸ª":1891,"å¼ł":1892,"urr":1893,"ä¸¤ä¸ª":1894,"ros":1895,"mental":1896,"æ´ĭ":1897,"rior":1898,"è¿Ļæł·æĽ´":1899,"Ġtechni":1900,"ç¡®ä¿Ŀæ²¡æľīéģĹæ¼ıä»»ä½ķä¿¡æģ¯":1901,"ä¸ĸçºª":1902,"çĶŁçī©åŃ¦":1903,"æ¬§":1904,"igital":1905,"Ġparad":1906,"åİŁæĸĩçļĦæĦıæĢĿ":1907,"scious":1908,"Ġman":1909,"åĬłåī§":1910,"ects":1911,"Ġnet":1912,"åĬĽåŃ¦":1913,"Ġexp":1914,"è¿Ļä¸ªæľ¯è¯Ń":1915,"äº§çĶŁ":1916,"ä¸ŃæĸĩéĢļå¸¸ä¼ļ":1917,"rial":1918,"ryp":1919,"lob":1920,"flu":1921,"è®ºæĸĩ":1922,"ç¡®ä¿Ŀæ²¡æľīéģĹæ¼ıä¿¡æģ¯":1923,"åħ·ä½ĵ":1924,"bi":1925,"åĪ¤":1926,"èį":1927,"Ġsub":1928,"ave":1929,"äººå·¥":1930,"è½¬åıĺ":1931,"ä¸ŃåĽ½":1932,"å¹´":1933,"tual":1934,"æ´»":1935,"åĨľä¸ļ":1936,"æ²¡æľīéĹ®é¢ĺ":1937,"å¾Īéĩįè¦ģ":1938,"å½¢æĢģ":1939,"åı¥åŃĲæĺ¯":1940,"æīĢä»¥ç¿»è¯ĳæĪĲ":1941,"åķĨ":1942,"å¤´":1943,"mod":1944,"unda":1945,"åĬŁ":1946,"ä¸ĵä¸ļæľ¯è¯ŃçļĦæŃ£ç¡®æĢ§":1947,"åı¥åŃĲæĽ´":1948,"åĽłç´ł":1949,"åį°":1950,"åı·":1951,"å°Ħ":1952,"What":1953,"duction":1954,"ħ§":1955,"å¾®":1956,"ability":1957,"çĶ¨æĪ·ç»ĻäºĨä¸Ģä¸ª":1958,"æĶ¿æ²»":1959,"strate":1960,"èĻļ":1961,"itiz":1962,"ä½¿åħ¶":1963,"ç¼ĺ":1964,"çĶ¨äºİ":1965,"å¤±":1966,"ness":1967,"æľª":1968,"å¾ĭ":1969,"åŃ¦ä¹ł":1970,"è¾ĵåĩº":1971,"Ġover":1972,"æī¹":1973,"ä¼¦çĲĨåŃ¦":1974,"lif":1975,"è¿ĳ":1976,"é¥":1977,"als":1978,"å°Ķ":1979,"æ»":1980,"æīĢä»¥ä¿ĿæĮģ":1981,"è¯¢":1982,"Ġprocesses":1983,"Ġreg":1984,"éľĢè¦ģæ³¨æĦı":1985,"åĨįèĢĥèĻĳ":1986,"tives":1987,"æķ´ä¸ªåı¥åŃĲçļĦç»ĵæŀĦ":1988,"åħ³äºİ":1989,"ective":1990,"å¤ļä½Ļ":1991,"çļĦè¯įæ±ĩ":1992,"åıªæľī":1993,"èİ":1994,"çī¹å®ļ":1995,"çĶ¨æĪ·åı¯èĥ½æĺ¯åľ¨":1996,"åıĤ":1997,"è¿ĻéĩĮéĢīæĭ©":1998,"çĹ":1999,"è¿ĺè¦ģæ³¨æĦıæĸĩåĮĸéĢĤåºĶæĢ§":2000,"æľīæ²¡æľī":2001,"å¹»":2002,"åĬ¿":2003,"è¿ĺæĺ¯":2004,"çĲĨè§£åİŁåı¥çļĦæĦıæĢĿ":2005,"Were":2006,"å¼ķå¯¼":2007,"led":2008,"åı£è¯ŃåĮĸ":2009,"èĤ²":2010,"éĿ©åĳ½":2011,"å¤ĦçĲĨä¸º":2012,"our":2013,"Ġprin":2014,"Ġnarra":2015,"å®ī":2016,"åıĸ":2017,"åĥ":2018,"ay":2019,"çħ§":2020,"æľĢåĲİç¡®è®¤":2021,"å·¥ä¸ļ":2022,"çĶŁäº§":2023,"Ġthat":2024,"åıĳçĶŁ":2025,"bs":2026,"ves":2027,"éľĢè¦ģåĩĨç¡®ä¼łè¾¾":2028,"Ġtechniques":2029,"è¯¢éĹ®":2030,"è¿Ļåı¥è¯ĿçļĦæĦıæĢĿ":2031,"ä¹ĭéĹ´çļĦ":2032,"rioritiz":2033,"çĽ¸äºĴ":2034,"lass":2035,"rain":2036,"ten":2037,"uper":2038,"pression":2039,"äºĮ":2040,"çł´":2041,"Ġstructures":2042,"æĺ¯åĲ¦åĲĪ":2043,"Ġmechanisms":2044,"çľŁ":2045,"ard":2046,"ynam":2047,"è¡¡":2048,"åĬ©æīĭ":2049,"ici":2050,"ï¼īãĢĤ":2051,"åĬłå¯Ĩ":2052,"ç¦»":2053,"é¥°":2054,"éĩĩçĶ¨":2055,"ç¿»è¯ĳåĬ©æīĭ":2056,"çŁ¥è¯Ĩ":2057,"æĶ¶":2058,"æķĪçİĩ":2059,"åĽłæŀľ":2060,"åħĭ":2061,"ç»ĵåĲĪä¸Ĭä¸ĭæĸĩ":2062,"éĩĳ":2063,"åĨµ":2064,"è¯´æ³ķ":2065,"æ¼Ķ":2066,"eg":2067,"çŁŃ":2068,"çĨ":2069,"Ġge":2070,"ĠB":2071,"æ¿":2072,"æĻº":2073,"å°ĳ":2074,"ual":2075,"å°¤":2076,"çļĦè¯ĳæ³ķ":2077,"ç¡®ä¿Ŀæ²¡æľī":2078,"èĥ½æºĲ":2079,"gorith":2080,"çĶ¨è¯į":2081,"æī¾":2082,"Ġbec":2083,"çİ°å®ŀä¸»ä¹ī":2084,"Ġel":2085,"ç¾¤":2086,"åħ¬":2087,"ä¸»è°ĵ":2088,"empor":2089,"ç¿»è¯ĳåĲİçļĦåĨħå®¹":2090,"ements":2091,"cel":2092,"uth":2093,"par":2094,"uring":2095,"igms":2096,"æĺ¯åĲ¦åĲĪéĢĤ":2097,"èĬĤ":2098,"Ġmark":2099,"rib":2100,"proach":2101,"based":2102,"ç¢³":2103,"chit":2104,"Ġy":2105,"its":2106,"entr":2107,"éģµ":2108,"è´Ł":2109,"sciousness":2110,"è·¯":2111,"éĥ½åı¯ä»¥":2112,"å¸ĥ":2113,"å½©":2114,"èĻļæĭŁ":2115,"çĶ¨æĪ·ç»ĻäºĨä¸Ģä¸ªèĭ±æĸĩåı¥åŃĲ":2116,"éĢļè¯»ä¸Ģéģį":2117,"è®®":2118,"ologies":2119,"phasiz":2120,"los":2121,"çļĦåľ°æĸ¹":2122,"ress":2123,"åİ»":2124,"pit":2125,"plo":2126,"Ġart":2127,"æµģçķħæĢ§åĴĮ":2128,"çī©è´¨":2129,"vir":2130,"æĬ¥":2131,"erm":2132,"ä¸Ńæĸĩç§ĳæĬĢæĸĩçĮ®":2133,"éĻį":2134,"æ¶Ī":2135,"æĭ¬":2136,"çİ°ä»£ä¸»ä¹ī":2137,"çļĦè¯Ńæ°Ķ":2138,"tain":2139,"Ġacc":2140,"æĸĩæľ¬":2141,"åľŁ":2142,"æĥħåĨµ":2143,"è®²çļĦæĺ¯":2144,"tivity":2145,"celer":2146,"Ġby":2147,"ä»»åĬ¡":2148,"vid":2149,"anc":2150,"tra":2151,"ise":2152,"åı¯èĥ½çĶ¨":2153,"ä¸»è°ĵå®¾":2154,"ä¸ĢäºĽ":2155,"Ġè¿Ļåı¥è¯Ŀ":2156,"æīĢæľīè¦ģæ±Ĥ":2157,"æľĢç»Īç¿»è¯ĳ":2158,"èĥ½éĩı":2159,"æľīçļĦ":2160,"çļĦå½±åĵį":2161,"åħ±":2162,"Ġachieve":2163,"ivers":2164,"è¶Ĭ":2165,"èĳ":2166,"ä»¥åıĬ":2167,"åºĶè¯ĳä¸º":2168,"ently":2169,"ç»Ŀ":2170,"èĦĳ":2171,"æĽ´æŃ£å¼ı":2172,"æ²ī":2173,"hould":2174,"åĽºå®ļ":2175,"è´¸":2176,"çī¹åĪ«æĺ¯":2177,"æŁĲ":2178,"ç¿»è¯ĳåĲİçļĦåı¥åŃĲåºĶè¯¥æĺ¯":2179,"åįı":2180,"æİ¢":2181,"ä¸Ńæĸĩä¸Ń":2182,"gan":2183,"è§ī":2184,"til":2185,"ç©ºéĹ´":2186,"èĭ±æĸĩåı¥åŃĲç¿»è¯ĳæĪĲä¸Ńæĸĩ":2187,"val":2188,"æĥ³":2189,"è´¸æĺĵ":2190,"è§Ĵ":2191,"onic":2192,"è¡¨è¾¾æĸ¹å¼ı":2193,"è¿ĲåĬ¨":2194,"å·¥ç¨ĭ":2195,"æµ·æ´ĭ":2196,"ä¸¤èĢħ":2197,"è·¨":2198,"havi":2199,"ating":2200,"å¯¼èĩ´çļĦ":2201,"çĿĢ":2202,"èĲ":2203,"ities":2204,"erv":2205,"åĮħæĭ¬":2206,"ill":2207,"æ·±":2208,"æī©":2209,"ast":2210,"æĪĳéľĢè¦ģçĲĨè§£":2211,"Comp":2212,"Ġro":2213,"lassical":2214,"ĠI":2215,"éĤ£ä¹Ī":2216,"æķ´ä¸ªåı¥åŃĲç»ĵæŀĦ":2217,"...âĢĿï¼Į":2218,"ä¿®é¥°":2219,"åĩĨç¡®çļĦ":2220,"Ġapproach":2221,"å®Įæķ´":2222,"Ġanal":2223,"è®¾è®¡":2224,"éħį":2225,"åĽłæŀľåħ³ç³»":2226,"éĢļçĶ¨":2227,"uro":2228,"ç¨³":2229,"å¦Ĥä½ķå½±åĵį":2230,"ognitive":2231,"comp":2232,"Ġhuman":2233,"èħ":2234,"åĩĨç¡®ç¿»è¯ĳ":2235,"Ġè¿Ļæł·æĹ¢åĩĨç¡®ä¼łè¾¾äºĨåİŁæĦı":2236,"éĢļå¸¸è¯ĳä¸º":2237,"Ġarchit":2238,"åĥı":2239,"å¤ĩ":2240,"Ġmet":2241,"åĬ¨æĢģ":2242,"è§£éĩĬæĪĸ":2243,"ç¿»è¯ĳåĩĨç¡®":2244,"æŃª":2245,"èµĦæºĲ":2246,"æŃªæĽ²":2247,"çº¦":2248,"ou":2249,"åª":2250,"lobal":2251,"Ġme":2252,"æĽ´å¸¸çĶ¨":2253,"ogen":2254,"åŃ¦æľ¯æĪĸ":2255,"çĽĲ":2256,"æŀ¶æŀĦ":2257,"Ne":2258,"æıĲåĩº":2259,"ments":2260,"Ġcomm":2261,"å¾ªçİ¯":2262,"Ġsur":2263,"åĨ³çŃĸ":2264,"çĨŁ":2265,"ä»¥ä¸Ĭ":2266,"ç§»":2267,"æĺł":2268,"åĲįè¯į":2269,"Ġdiffer":2270,"åĤ":2271,"ynamics":2272,"Ġrel":2273,"çĽ¸å¯¹":2274,"ä¸»é¢ĺä¸ĵä¸ļæĢ§æĸ¹éĿ¢":2275,"å®ĥ":2276,"çĽ´æİ¥ç¿»è¯ĳ":2277,"åŃ¦çĶŁ":2278,"atic":2279,"çłģ":2280,"å°ıè¯´":2281,"çī©çĲĨåŃ¦":2282,"çº³":2283,"vel":2284,"æĴŃ":2285,"hile":2286,"åªĴ":2287,"éĺħ":2288,"çĦ¶åĲİèĢĥèĻĳ":2289,"æłĩåĩĨè¯ĳæ³ķ":2290,"col":2291,"ign":2292,"æĵ":2293,"Ġprinci":2294,"æ²¡æľīå¤ļä½Ļ":2295,"æ¯Ķè¾ĥèĩªçĦ¶":2296,"Ġalter":2297,"æĿ¥è¡¨è¾¾":2298,"eric":2299,"æĻºèĥ½":2300,"liz":2301,"çīĩ":2302,"è¯ĳåĲį":2303,"åıĪç¬¦åĲĪä¸ŃæĸĩçļĦè¡¨è¾¾ä¹łæĥ¯åĴĮ":2304,"çļĦéĹ®é¢ĺ":2305,"å²©":2306,"viron":2307,"acy":2308,"Ġco":2309,"çĦ¶åĲİæ£ĢæŁ¥":2310,"åĢ¼":2311,"ä¸Ńå¿ĥ":2312,"ä¼łæĴŃ":2313,"ä»İåı¥":2314,"ä¸»è¯Ńæĺ¯":2315,"ĠC":2316,"ip":2317,"åĮĸçļĦ":2318,"bo":2319,"dust":2320,"ç¿»è¯ĳæĹ¶è¦ģä¿ĿæĮģ":2321,"rel":2322,"æĪĳå¾Ĺ":2323,"ä¹Łæĺ¯":2324,"è¿ĻéĩĮè¦ģæ³¨æĦı":2325,"éĢļå¸¸çĶ¨":2326,"orph":2327,"hip":2328,"Ġeffici":2329,"éĵ¾":2330,"Ġinflu":2331,"åĨ°":2332,"tr":2333,"éĢ»è¾ĳåħ³ç³»":2334,"Ġdid":2335,"ä½ł":2336,"quire":2337,"åĲĳäºİ":2338,"è¦ģæ±Ĥç¿»è¯ĳæĪĲä¸Ńæĸĩ":2339,"Ġmarket":2340,"æľ¯è¯Ńä½¿çĶ¨æŃ£ç¡®":2341,"è¿ĻéĩĮæĮĩçļĦæĺ¯":2342,"æĪĳéľĢè¦ģç¿»è¯ĳ":2343,"åĳĬ":2344,"çģ«":2345,"Ġdes":2346,"ç»¼åĲĪä»¥ä¸Ĭ":2347,"æĵį":2348,"ular":2349,"æıı":2350,"oph":2351,"Ġag":2352,"æ¿Ģ":2353,"Ġparadigms":2354,"ban":2355,"è°ĥæķ´ä¸º":2356,"åİŁåı¥æĺ¯ä¸Ģä¸ª":2357,"²Į":2358,"è²Į":2359,"Ġhy":2360,"æ··":2361,"æĽ´ç¬¦åĲĪä¸Ńæĸĩä¹łæĥ¯":2362,"è¿Ļæł·æĹ¢åĩĨç¡®åıĪ":2363,"éŁ":2364,"å®īåħ¨":2365,"ane":2366,"å¢ŀå¼º":2367,"èİ·":2368,"aces":2369,"èĳĹ":2370,"å¤įåħ´":2371,"ower":2372,"æĪĳéľĢè¦ģæĬĬè¿Ļåı¥è¯Ŀç¿»è¯ĳæĪĲä¸Ńæĸĩ":2373,"ç¨³å®ļ":2374,"åİŁåĽł":2375,"éģ¿åħįçĽ´è¯ĳ":2376,"Ġapproaches":2377,"å°¤åħ¶":2378,"for":2379,"æİ¥ä¸ĭæĿ¥è¦ģèĢĥèĻĳ":2380,"æĽ¿":2381,"Ġk":2382,"çĶ¨æĪ·è®©æĪĳç¿»è¯ĳè¿Ļä¸ªåı¥åŃĲ":2383,"çĸĹ":2384,"è¿ĺè¦ģèĢĥèĻĳæĸĩåĮĸéĢĤåºĶæĢ§":2385,"onial":2386,"thetic":2387,"æıĲåĪ°":2388,"éļĲ":2389,"ç¨ĭåº¦":2390,"å¿ĥçĲĨåŃ¦":2391,"ud":2392,"Ġpre":2393,"åŁºäºİ":2394,"åĪ¶åº¦":2395,"è¯Ńæ³ķéĶĻè¯¯":2396,"Ġchallenges":2397,"ç»ĩ":2398,"Ġas":2399,"è¯»èĢħçļĦ":2400,"present":2401,"çļĦç¿»è¯ĳè¦ģæ±Ĥ":2402,"ä»Ģ":2403,"Ġprec":2404,"Post":2405,"å¾ģ":2406,"åĬ³":2407,"Ġdevelopment":2408,"sych":2409,"éĴ":2410,"veals":2411,"è¦ģåĩĨç¡®":2412,"fra":2413,"æ»¡":2414,"Ġec":2415,"com":2416,"rypt":2417,"ore":2418,"formation":2419,"osition":2420,"åľ°è´¨åŃ¦":2421,"ç»ıåħ¸":2422,"action":2423,"hif":2424,"æĪĳçİ°åľ¨éľĢè¦ģå¤ĦçĲĨçĶ¨æĪ·çļĦ":2425,"ue":2426,"sequ":2427,"lex":2428,"åĢ¾":2429,"ences":2430,"è¿Ļä¸Ģ":2431,"åı¯èĥ½æĢ§":2432,"å¾ĹåĪ°":2433,"ä½İ":2434,"æ¬¡":2435,"æĮī":2436,"gen":2437,"cor":2438,"ä¸Ģèĩ´æĢ§":2439,"ories":2440,"ä½¿å¾Ĺ":2441,"ena":2442,"èĪ":2443,"ross":2444,"é©±":2445,"Ġfe":2446,"ä¸»å¹²":2447,"æĺ¯çļĦ":2448,"ä¼¼":2449,"mic":2450,"çī©çĲĨ":2451,"æĶ¾åľ¨åı¥":2452,"ç¡®ä¿Ŀåı¥åŃĲ":2453,"æĺ¯æłĩåĩĨè¯ĳæ³ķ":2454,"Ġcor":2455,"ç²Ĵ":2456,"ç¿»è¯ĳçļĦåĩĨç¡®æĢ§":2457,"Ġanalys":2458,"æ¬§æ´²":2459,"âĢĿãĢģâĢľ":2460,"å»¶":2461,"æıĲåįĩ":2462,"Ġè¿ĻéĩĮçļĦ":2463,"æĪĳéľĢè¦ģä»Ķç»Ĩ":2464,"ong":2465,"å°Ĩå¦Ĥä½ķ":2466,"ä¹¦":2467,"éĢĢ":2468,"ä¼ĺåħĪ":2469,"entral":2470,"Ġnetworks":2471,"é¡ºåºı":2472,"åįķ":2473,"æĬĺ":2474,"how":2475,"äºī":2476,"åľ°è²Į":2477,"sp":2478,"åĲĪæĪĲ":2479,"æĤī":2480,"éŃ":2481,"åĩıå°ĳ":2482,"çĨŁæĤī":2483,"æĸĩèīº":2484,"éĺħè¯»":2485,"Ġmeth":2486,"æīĭæ³ķ":2487,"Ġneural":2488,"æĸĩèīºå¤įåħ´":2489,"Ġmedi":2490,"åħ³éĶ®è¯įæĺ¯":2491,"osph":2492,"ä½Ĩæł¹æį®":2493,"Should":2494,"ä½įç½®":2495,"ä¸»å¼ł":2496,"å¼Ģå¤´":2497,"éĥ½æĺ¯":2498,"åİŁçĲĨ":2499,"å¸¸çĶ¨æľ¯è¯Ń":2500,"ä¸ŃæĸĩéĢļå¸¸ä¼ļæĬĬ":2501,"é©±åĬ¨":2502,"è¦Ĩ":2503,"æ³ķå¾ĭ":2504,"ä¸ĵä¸ļæľ¯è¯ŃæŃ£ç¡®":2505,"ä¸»ä¹īçļĦ":2506,"åĮ»":2507,"Ġval":2508,"æĪĳéľĢè¦ģåĩĨç¡®çĲĨè§£æ¯ıä¸ªæľ¯è¯ŃçļĦæĦıæĢĿ":2509,"æ²īç§¯":2510,"æł¸å¿ĥ":2511,"plications":2512,"åĽ´":2513,"ä¸Ģç§į":2514,"ases":2515,"ata":2516,"Ġliterature":2517,"éŃĶ":2518,"Ġfunda":2519,"çĶ¨æĪ·ç»Ļåĩº":2520,"åı¯è¡Į":2521,"Ġethics":2522,"Ġadv":2523,"æĬ¥åĳĬ":2524,"åĬ³åĬ¨":2525,"ä¸»å¹²æĺ¯":2526,"è¯Ńåı¥":2527,"æļĹ":2528,"Ġeffects":2529,"æķ´ä½ĵç»ĵæŀĦ":2530,"å¸¦æĿ¥":2531,"æ£ĢæŁ¥æĺ¯åĲ¦æľīéģĹæ¼ı":2532,"ä¸įéľĢè¦ģé¢Ŀå¤ĸ":2533,"æĹ¶æľŁçļĦ":2534,"Ġra":2535,"rect":2536,"æĻ®éģį":2537,"Ġarchitect":2538,"åĲ¦":2539,"æľºåĻ¨":2540,"æī¾åĪ°":2541,"çĻ":2542,"ib":2543,"æķ£":2544,"ron":2545,"æĿ¥è¿ŀæİ¥":2546,"iss":2547,"âĢĿï¼Ł":2548,"ne":2549,"ä¹īåĬ¡":2550,"ains":2551,"ç£":2552,"ä¹ħ":2553,"Ġdoes":2554,"dustrial":2555,"æ»¡è¶³":2556,"çĲĨæĢ§":2557,"éĩıåŃĲè®¡ç®Ĺ":2558,"åĲİéĿ¢æİ¥":2559,"è¡ĮæĺŁ":2560,"Ġarti":2561,"æĻ®åıĬ":2562,"Ġcre":2563,"åŃ¦æľ¯è®¨è®º":2564,"Ġit":2565,"ä»Ģä¹Ī":2566,"éľĢè¦ģè°ĥæķ´è¯Ńåºı":2567,"Ġefficiency":2568,"abi":2569,"éŃĶå¹»":2570,"çļĦè¡¨è¾¾æĸ¹å¼ı":2571,"çļĦè¯Ŀ":2572,"sive":2573,"å¼±":2574,"æĪĳéľĢè¦ģå¤ĦçĲĨ":2575,"åĢ¾åĲĳäºİ":2576,"ç¿»è¯ĳæĹ¶è¦ģç¡®ä¿Ŀ":2577,"Ġrealism":2578,"mentally":2579,"èµĸ":2580,"ç²¾ç¡®":2581,"ang":2582,"å¢ŀåĬł":2583,"æķĻèĤ²":2584,"èī²å½©":2585,"åħ³éĶ®æľ¯è¯Ń":2586,"çĽ®æłĩ":2587,"å°½":2588,"æĶ¯":2589,"Ġincre":2590,"è¦ģå¤ĦçĲĨ":2591,"çĶŁæĢģç³»ç»Ł":2592,"ä¸įèĥ½éļı":2593,"irc":2594,"éŃĶå¹»çİ°å®ŀä¸»ä¹ī":2595,"çĽĳ":2596,"èģļ":2597,"Ġsuper":2598,"ä¾Ŀèµĸ":2599,"ĠM":2600,"æĦŁçŁ¥":2601,"æĪĳè¦ģä»Ķç»Ĩ":2602,"if":2603,"è¾¹":2604,"Ġalgorith":2605,"éŁ³":2606,"èĩªçĦ¶æµģçķħ":2607,"åĲİæ®ĸæ°ĳ":2608,"ack":2609,"çŃĳ":2610,"åħĥç´ł":2611,"æ¢":2612,"Ġpost":2613,"Compar":2614,"çĹħ":2615,"åľ¨è¿ĻéĩĮæĮĩçļĦæĺ¯":2616,"å°±åı¯ä»¥":2617,"iversal":2618,"ep":2619,"Ġsocial":2620,"å»ºçŃĳ":2621,"åİŁæĸĩçļĦ":2622,"now":2623,"ck":2624,"ä¼łç»ŁçļĦ":2625,"å¤§æ°Ķ":2626,"pos":2627,"Ġemphasiz":2628,"Ġenable":2629,"ç£ģ":2630,"uistic":2631,"Ġund":2632,"losoph":2633,"è§¦":2634,"urrent":2635,"can":2636,"çĦ¶åĲİè¦ģèĢĥèĻĳ":2637,"ä½ĨèĢĥèĻĳåĪ°":2638,"âĢ¦âĢ¦âĢĿ":2639,"Ġdigital":2640,"Ġenviron":2641,"æĿ¿":2642,"æľīæĹ¶":2643,"prec":2644,"è®¾æĸ½":2645,"modern":2646,"ä¸įåĲĮçļĦ":2647,"Ġorgan":2648,"æ±ł":2649,"æĪĲä¸º":2650,"ç¡®ä¿Ŀæľ¯è¯ŃæŃ£ç¡®":2651,"èĻ½":2652,"æııè¿°":2653,"ä¼ĺåĬ¿":2654,"æĬ¤":2655,"æĮīçħ§":2656,"ä¸¥æł¼":2657,"ning":2658,"åıªè¾ĵåĩº":2659,"Ġanalysis":2660,"we":2661,"æ´»åĬ¨":2662,"oth":2663,"Ġcirc":2664,"æķ´ä¸ªåı¥åŃĲçļĦæµģçķħæĢ§":2665,"åĪĹ":2666,"ty":2667,"Ġè¿Ļæł·æĹ¢åĩĨç¡®åıĪ":2668,"ç¬¬":2669,"æµģçķħæĢ§æĸ¹éĿ¢":2670,"çŃĸçķ¥":2671,"è®¤ä¸º":2672,"åĲİèĢħ":2673,"æīĢä»¥æķ´":2674,"ide":2675,"åĩĨç¡®æĢ§åĴĮ":2676,"çĭ":2677,"çĶµæ±ł":2678,"Ġauth":2679,"åīįèĢħ":2680,"åĳĪ":2681,"fer":2682,"Ġse":2683,"åħ»":2684,"inguistic":2685,"æľ¯è¯ŃçļĦæŃ£ç¡®æĢ§":2686,"Ġexpl":2687,"ice":2688,"Ġrequire":2689,"åĪ©çĶ¨":2690,"æ®µ":2691,"Cas":2692,"å·¥ä½ľ":2693,"æ°¸":2694,"æĺ¯åĲ¦èĩªçĦ¶":2695,"Ġelect":2696,"åı¯èĥ½çĶ¨æĪ·":2697,"Ġmaterial":2698,"åľ°åĮº":2699,"ä¿ĥè¿Ľ":2700,"arb":2701,"æĸĩçĮ®ä¸Ń":2702,"æĺ¯æĮĩ":2703,"Ġdemon":2704,"çīĪ":2705,"æĺ¾èĳĹ":2706,"å®ļä¹ī":2707,"è¿Ļä¸ªç¿»è¯ĳè¯·æ±Ĥ":2708,"æľīæ²¡æľīéģĹæ¼ı":2709,"ä¸ŃæĸĩéĩĮå¸¸çĶ¨":2710,"æĸĩåĮĸéĢĤåºĶæĢ§åĴĮä¸»é¢ĺä¸ĵä¸ļæĢ§":2711,"åĩłä½ķ":2712,"Ġins":2713,"NA":2714,"æ£ĢæŁ¥æĺ¯åĲ¦æľīéģĹæ¼ıæĪĸ":2715,"å·±":2716,"èĻ½çĦ¶":2717,"åĲĦ":2718,"å®¤":2719,"ä¸Ģå®ļ":2720,"ically":2721,"æĸ¹å¼ıçĬ¶è¯Ń":2722,"peri":2723,"åı¯èĥ½çļĦç¿»è¯ĳ":2724,"of":2725,"ration":2726,"æ½":2727,"ä¸įä¼ļæľī":2728,"èĩªå·±":2729,"åĳĺ":2730,"é¢ł":2731,"åŁºæľ¬":2732,"sub":2733,"åŁºç¡Ģè®¾æĸ½":2734,"apt":2735,"é©¬":2736,"çĶ¨æĪ·ç»ĻåĩºçļĦ":2737,"åıĺå¾Ĺ":2738,"åĮĸä¸º":2739,"Ġgener":2740,"ography":2741,"Ġdist":2742,"å®Įåħ¨":2743,"é¢łè¦Ĩ":2744,"åĪĨè§£":2745,"Ġsol":2746,"ç±³":2747,"Ġprioritiz":2748,"Ġprot":2749,"è§Ħæ¨¡":2750,"å¨":2751,"çĶ¨æĪ·å¼ºè°ĥ":2752,"å§":2753,"åľ¨äºİ":2754,"çŁŃè¯Ń":2755,"æĭī":2756,"hilosoph":2757,"åĽ½å®¶":2758,"strateg":2759,"faces":2760,"åªĴä½ĵ":2761,"å¿ħé¡»åĩĨç¡®":2762,"ved":2763,"ä¸Ńæĸĩåı¥åŃĲ":2764,"ples":2765,"éªĮè¯ģ":2766,"rup":2767,"åĲİæŀľ":2768,"ä¸ĵæľī":2769,"Ġrates":2770,"æĺ¯åĲ¦éľĢè¦ģ":2771,"arbon":2772,"Ġpartic":2773,"Ġenab":2774,"å¯¼èĩ´çļĦçĶŁç¡¬":2775,"ospheric":2776,"é¢Ħæµĭ":2777,"ound":2778,"ission":2779,"æĢİ":2780,"å°½ç®¡":2781,"åħ¶ä»ĸåĨħå®¹":2782,"èµĦæľ¬":2783,"æİ¥åı£":2784,"å¯Ĩçłģ":2785,"Ġadop":2786,"åĪĨå¸ĥ":2787,"ploy":2788,"Ġphilosoph":2789,"éĻĲåĪ¶":2790,"ensity":2791,"Ġglobal":2792,"éļ¾":2793,"ple":2794,"åı¯èĥ½å¯¹":2795,"ä¿ĿæĮģäºĨ":2796,"ä¸ĵæľīåĲįè¯į":2797,"æ²¡æľīéģĹæ¼ıä»»ä½ķä¿¡æģ¯":2798,"åıįæĺł":2799,"å¯Ĩåº¦":2800,"æĽ´ç¬¦åĲĪä¸Ńæĸĩ":2801,"Ġpower":2802,"éģµå¾ª":2803,"éĻĨ":2804,"Ġpers":2805,"Ġpolic":2806,"åĨ»":2807,"ear":2808,"è¦ģä¿ĿæĮģ":2809,"æİĴ":2810,"æĥħæĦŁ":2811,"aw":2812,"æĺ¯åĩĨç¡®çļĦ":2813,"ä»ĭ":2814,"æĪĳéľĢè¦ģåĩĨç¡®çĲĨè§£æ¯ıä¸ªéĥ¨åĪĨçļĦæĦıæĢĿ":2815,"actic":2816,"Ġdynamics":2817,"ä¸»åĬ¨":2818,"que":2819,"æ¯Ķè¾ĥçĽ´æİ¥":2820,"Ġdata":2821,"Ġinfluence":2822,"åįļ":2823,"ete":2824,"ont":2825,"plement":2826,"éħ¸":2827,"æĽ´å¸¸è§ģ":2828,"èĴ":2829,"çŁ³":2830,"Ġyou":2831,"...ï¼Į":2832,"è´£":2833,"ç¼ĸè¾ĳ":2834,"ene":2835,"ç¢İ":2836,"ç¡®ä¿Ŀç¿»è¯ĳåĲİçļĦåı¥åŃĲ":2837,"çĽ¾":2838,"æĹłéľĢ":2839,"Ġvi":2840,"Ġcons":2841,"ict":2842,"æĸĩåĮĸèĥĮæĻ¯":2843,"æĶ¹åĬ¨":2844,"ä¸Ńæĸĩç§ĳæĬĢæĸĩçĮ®ä¸Ńå¸¸çĶ¨":2845,"éģ¿åħįçĽ´è¯ĳå¯¼èĩ´çļĦçĶŁç¡¬":2846,"Ġshif":2847,"è´¯":2848,"æĬ½":2849,"Ġeng":2850,"æ£ĢæŁ¥ä¸Ģä¸ĭ":2851,"Ġacceler":2852,"ç²ĴåŃĲ":2853,"ä¸»è¯Ń":2854,"çİ¯æµģ":2855,"æĹ¥":2856,"Ġmoral":2857,"ification":2858,"åºĶè¯¥æ²¡éĹ®é¢ĺ":2859,"éĢı":2860,"è®°":2861,"ä½ľä¸ºç¿»è¯ĳåĬ©æīĭ":2862,"ä¸Ńæĸĩä¹łæĥ¯":2863,"Ġconsciousness":2864,"Ġlo":2865,"æī¾åĪ°åĲĪéĢĤçļĦ":2866,"Ġdecision":2867,"oun":2868,"çĲĨè§£åİŁæĸĩçļĦæĦıæĢĿ":2869,"è¿ĺè¦ģæ£ĢæŁ¥":2870,"çļĦè¯´æ³ķ":2871,"æĬ½è±¡":2872,"ä¸ī":2873,"ä¸ĵä¸ļæľ¯è¯ŃçļĦä½¿çĶ¨":2874,"ographic":2875,"itical":2876,"è§ĦèĮĥ":2877,"è¯ĳæĸĩ":2878,"Ġno":2879,"inter":2880,"ä½¿åı¥åŃĲæĽ´":2881,"åį°è±¡":2882,"æĹ¶ä»£":2883,"time":2884,"ä¸ĵä¸ļæĢ§åĴĮ":2885,"çĽ¸äºĴä½ľçĶ¨":2886,"å£«":2887,"colonial":2888,"ä½ľåĵģ":2889,"å¨ģ":2890,"å®ŀæĸ½":2891,"æ¼Ķåıĺ":2892,"rol":2893,"making":2894,"è§£æŀĦ":2895,"æĦıæĢĿæĺ¯":2896,"ä½Ĩç»ĵåĲĪä¸Ĭä¸ĭæĸĩ":2897,"Ġrepresent":2898,"Ġis":2899,"åĲĪçĲĨ":2900,"çļĦæĥħåĨµ":2901,"ä¸ŃæĸĩéĢļå¸¸":2902,"è°¨":2903,"Ġtrade":2904,"bl":2905,"Ġprinciples":2906,"come":2907,"æľĢç»Īç¡®å®ļ":2908,"ream":2909,"Ġtechnologies":2910,"å¢ŀéķ¿":2911,"è¿Ļä¸ªæľ¯è¯Ńåľ¨":2912,"æ²¡æľīè¯Ńæ³ķéĶĻè¯¯":2913,"Ġsyn":2914,"Ġwhat":2915,"è¿ŀè´¯":2916,"Ġop":2917,"structure":2918,"äºĴåĬ¨":2919,"ase":2920,"æĭĵ":2921,"è¡¨è¾¾åĩº":2922,"Ġbehavi":2923,"æĿ¥å¼ķå¯¼":2924,"Ġobs":2925,"æĸ¯çī¹":2926,"ä¸¥è°¨":2927,"åı¯èĥ½ä¸į":2928,"Ġhe":2929,"Ġmore":2930,"ç»ĺ":2931,"åıĪç¬¦åĲĪä¸Ńæĸĩè¡¨è¾¾ä¹łæĥ¯":2932,"äºĨè§£":2933,"é¡ºçķħ":2934,"æķ´åĲĪ":2935,"bri":2936,"verg":2937,"è®¤è¯Ĩ":2938,"Ġsup":2939,"æĺ¯åĲ¦ç¬¦åĲĪçĶ¨æĪ·çļĦè¦ģæ±Ĥ":2940,"Ġethical":2941,"ç»¼åĲĪä»¥ä¸ĬåĪĨæŀĲ":2942,"ä¼ļå¦Ĥä½ķ":2943,"åı¯ä»¥çĶ¨":2944,"åķĨä¸ļ":2945,"ati":2946,"ä¸ŃæĸĩçļĦè¯Ńåºı":2947,"å¿«":2948,"èĻļæĭŁè¯Ńæ°Ķ":2949,"å¿ĥçĲĨ":2950,"urban":2951,"æĽ´å¼ºè°ĥ":2952,"æĬĢæ³ķ":2953,"throp":2954,"èĮĥåĽ´":2955,"åįł":2956,"Ġadoption":2957,"åĩºçİ°":2958,"äººå·¥æĻºèĥ½":2959,"ather":2960,"çģ«å±±":2961,"Ġarchitectures":2962,"æİ§åĪ¶":2963,"Ġtheories":2964,"ame":2965,"Ġimp":2966,"æģ°":2967,"limate":2968,"æĬĹ":2969,"Ġass":2970,"æ²¡æľīçĶŁç¡¬":2971,"åİĭ":2972,"Ġcommun":2973,"pend":2974,"ä¼°":2975,"æĽ´æµģçķħ":2976,"challen":2977,"åıĤä¸İ":2978,"agn":2979,"Ġeconomics":2980,"åı¯èĥ½éľĢè¦ģè°ĥæķ´ç»ĵæŀĦ":2981,"è§£åĨ³":2982,"Ġmethod":2983,"æİ¥åıĹ":2984,"æ²³":2985,"ä¾µ":2986,"æ²¡æľīå¤ļä½ĻåĨħå®¹":2987,"æ¯ıä¸ªæľ¯è¯ŃçļĦ":2988,"ä½ĨåİŁåı¥":2989,"åľ°çĲĥ":2990,"æĹ©":2991,"ä¿ĿæĮģåİŁ":2992,"Ġknow":2993,"enaiss":2994,"enaissance":2995,"æİ¥ä¸ĭæĿ¥è¦ģç¡®ä¿Ŀ":2996,"æģ°å½ĵ":2997,"ection":2998,"elf":2999,"åĪ¶éĢł":3000,"etwe":3001,"etween":3002,"åı°":3003,"Ġexperi":3004,"æ£ĢæŁ¥æĺ¯åĲ¦æľīéģĹæ¼ıçļĦä¿¡æģ¯":3005,"gment":3006,"Ġbecome":3007,"ficial":3008,"çĶ¨æĪ·æıĲä¾ĽçļĦèĭ±æĸĩåı¥åŃĲç¿»è¯ĳæĪĲä¸Ńæĸĩ":3009,"åºŃ":3010,"æĦıä¹ī":3011,"æģ©":3012,"è¿Ļåı¥è¯Ŀè®²çļĦæĺ¯":3013,"æŁ¥":3014,"æŃªæĽ²ä¿¡æģ¯":3015,"çĶ¨æ³ķ":3016,"ulations":3017,"åİŁåı¥çļĦç»ĵæŀĦåĴĮ":3018,"to":3019,"èļ":3020,"Ġconcep":3021,"æī¹è¯Ħ":3022,"ĠS":3023,"Ġhave":3024,"Ġeconomic":3025,"ize":3026,"æĢİæł·":3027,"Ġj":3028,"ç¼©":3029,"åİŁåĪĻ":3030,"éļľ":3031,"çĶ¨æĪ·åı¯èĥ½æĺ¯":3032,"cale":3033,"ish":3034,"æķ´ä¸ªåı¥åŃĲçļĦ":3035,"Ġclassical":3036,"Ġtransform":3037,"cent":3038,"ç¢į":3039,"Ġmodern":3040,"20":3041,"åºĶè¯¥çĶ¨":3042,"æŀĦéĢł":3043,"Ġcoll":3044,"åį°è±¡æ´¾":3045,"ds":3046,"æīĳ":3047,"è¶ħè¶Ĭ":3048,"åĤ¨":3049,"çĽ´æİ¥ä½¿çĶ¨":3050,"æī¹åĪ¤":3051,"æĭĵæīĳ":3052,"pon":3053,"Ġnarratives":3054,"ides":3055,"ç¡®ä¿Ŀæľ¯è¯Ń":3056,"ineer":3057,"Ġer":3058,"æ¡£":3059,"åĢĴ":3060,"åĽ½éĻħ":3061,"ĠD":3062,"istem":3063,"pread":3064,"ç¢İçīĩ":3065,"çļĦç»ĵæŀĦåĴĮ":3066,"reat":3067,"sist":3068,"ä¸įèĥ½éļıæĦı":3069,"æĺ¯åħ³éĶ®":3070,"cean":3071,"ç»Ħç»ĩ":3072,"åįıè®®":3073,"lities":3074,"æĿ¿åĿĹ":3075,"ols":3076,"ä½ĵçİ°":3077,"Ġconven":3078,"è®¤è¯Ĩè®º":3079,"æĽ´ä¸ĵä¸ļ":3080,"è®ºæĸĩæĪĸ":3081,"åħīåŃĲ":3082,"ä¸ĵä¸ļæľ¯è¯ŃçļĦæŃ£ç¡®ä½¿çĶ¨":3083,"Ġver":3084,"éĢĲ":3085,"ç¬¦åĲĪåŃ¦æľ¯":3086,"åıªèĥ½":3087,"çļĦä¸įåĲĮ":3088,"ereas":3089,"esis":3090,"çĶ¨æĪ·çļĦæīĢæľīè¦ģæ±Ĥ":3091,"åĮºåĿĹ":3092,"ĺèĭ¥":3093,"åĢĺèĭ¥":3094,"åıªæľīç¿»è¯ĳåĲİçļĦåĨħå®¹":3095,"dem":3096,"Ġcurrent":3097,"çŁĽ":3098,"åĲ¯":3099,"åĩ¯":3100,"åĮºåĿĹéĵ¾":3101,"å±ķç¤º":3102,"overn":3103,"æ¯ıä¸ªæľ¯è¯ŃåĴĮ":3104,"ä»į":3105,"hy":3106,"ari":3107,"çŁĽçĽ¾":3108,"arian":3109,"ented":3110,"Qu":3111,"èĥ½åĲ¦":3112,"é¦Ī":3113,"éľĢè¦ģæ£ĢæŁ¥":3114,"åıįé¦Ī":3115,"æ¯Ķå¦ĤæĬĬ":3116,"åŃ¦ä¸ŃçļĦ":3117,"æ°¸ä¹ħ":3118,"fin":3119,"åıįåºĶ":3120,"Ġè¿Ļåı¥è¯Ŀæ¶īåıĬ":3121,"Quantum":3122,"trans":3123,"æ¯Ķè¾ĥè´´åĪĩ":3124,"çļĦå½¢æĪĲ":3125,"å¤§éĻĨ":3126,"Ġnarrative":3127,"osy":3128,"èħĶ":3129,"ç¤¾äº¤":3130,"Ġchallenge":3131,"ledge":3132,"Ġwe":3133,"idespread":3134,"ï¼īãĢģ":3135,"å¤įæķ°":3136,"èĨ":3137,"èĩ³":3138,"ump":3139,"ä»·åĢ¼":3140,"çĽ¸å¯¹è®º":3141,"æģ©æĸ¯":3142,"...âĢĿãĢĤ":3143,"abor":3144,"entially":3145,"éĢļå¸¸ä¼ļçĶ¨":3146,"åĩ¯æģ©æĸ¯":3147,"âĢ¦âĢ¦ï¼Į":3148,"Ġep":3149,"è½¨":3150,"Ġphot":3151,"çĽĸ":3152,"Ġlear":3153,"ension":3154,"åĨĻä½ľ":3155,"enom":3156,"omet":3157,"Ġout":3158,"ä¸»è¦ģ":3159,"¥¿":3160,"è¥¿":3161,"ç¼º":3162,"æĬĢæľ¯çļĦ":3163,"éĹ®åı¥":3164,"åīįåįĬ":3165,"è®©åı¥åŃĲæĽ´":3166,"æľį":3167,"Ġcri":3168,"éĺ³":3169,"æĪĳéľĢè¦ģç¿»è¯ĳè¿Ļåı¥è¯Ŀ":3170,"éľĢè¦ģæī¾åĪ°åĲĪéĢĤçļĦ":3171,"der":3172,"dis":3173,"çļĦåĲ«ä¹ī":3174,"åİŁåı¥çļĦä¸»å¹²æĺ¯":3175,"åĬŁåĪ©":3176,"evolution":3177,"atural":3178,"æľīä¸Ģå®ļ":3179,"Ġfl":3180,"vert":3181,"åĽŀçŃĶéĹ®é¢ĺ":3182,"preced":3183,"Ġdistrib":3184,"met":3185,"Ġcrypt":3186,"çĶµåŃĲ":3187,"ä¸´":3188,"Ġhist":3189,"è¿Ļä¸ªè¯į":3190,"titu":3191,"Ġphys":3192,"ä¹īåĬ¡è®º":3193,"åĪĨåŃĲ":3194,"è§ĤçĤ¹":3195,"æĪĳè¦ģåĩĨç¡®çĲĨè§£":3196,"æĶ¾åľ¨åĲİéĿ¢":3197,"èĥĢ":3198,"å¹³åı°":3199,"ices":3200,"cipit":3201,"opol":3202,"éķ¿æľŁ":3203,"usion":3204,"Ġcultural":3205,"Īè®º":3206,"mospheric":3207,"actions":3208,"ç«ĭä½ĵ":3209,"åı¤åħ¸":3210,"æĪĳçļĦ":3211,"Ġreveals":3212,"ä¸Ńæĸĩè¯»èĢħåı¯èĥ½å¯¹":3213,"ç¿»è¯ĳèħĶ":3214,"åĮĸåŃ¦":3215,"è¿¹":3216,"æĸĩæĺİ":3217,"Ġcognitive":3218,"äººåı£":3219,"Ġproduction":3220,"Ġregion":3221,"ä½ĨçĶ¨æĪ·è¦ģæ±Ĥ":3222,"ä¿ĿæĬ¤":3223,"æīĢä»¥ç»ĵæŀĦ":3224,"åģļ":3225,"çĭ¬":3226,"è¡¨è§Ĥ":3227,"emporal":3228,"Ġspec":3229,"åĬłä¸Ĭ":3230,"æ¯ıä¸ªéĥ¨åĪĨéĥ½":3231,"actors":3232,"è®©åı¥åŃĲ":3233,"Ġinteg":3234,"are":3235,"è¿ĺè¦ģæ³¨æĦıåı¥åŃĲçļĦæµģçķħæĢ§":3236,"ç¥ŀç»ıç½ĳç»ľ":3237,"agical":3238,"è£ħç½®":3239,"ä½¿åı¥åŃĲ":3240,"è¡¨è§ĤéģĹä¼ł":3241,"post":3242,"Ġmin":3243,"Ġstrateg":3244,"Ġecosy":3245,"æ½ľ":3246,"æ¨¡æĭŁ":3247,"Ġpercep":3248,"è¡¨éĿ¢":3249,"è¿ĻéĩĮåı¯èĥ½éľĢè¦ģ":3250,"å¸¸çĶ¨è¡¨è¾¾":3251,"Ġwere":3252,"å®ĮæĪĲ":3253,"åįļå¼":3254,"ä¸ªäºº":3255,"Ġinfra":3256,"ared":3257,"æ¹":3258,"Ġlearning":3259,"rati":3260,"å±Ģ":3261,"Ġmon":3262,"èĩªåĬ¨":3263,"æ··åĲĪ":3264,"é¢Ŀå¤ĸåĨħå®¹":3265,"ä¸įéľĢè¦ģé¢Ŀå¤ĸè§£éĩĬ":3266,"åºĶè¯¥è¯ĳä¸º":3267,"æıŃç¤ºäºĨ":3268,"ç»Ļåĩºç¿»è¯ĳç»ĵæŀľ":3269,"çĶ¨æĪ·æıĲä¾ĽçļĦåı¥åŃĲæĺ¯":3270,"ç¿»è¯ĳåĨħå®¹":3271,"Ġlight":3272,"ĠæĪĸèĢħ":3273,"å½»åºķæĶ¹åıĺ":3274,"entralized":3275,"ath":3276,"è¡Įä¸ºç»ıæµİåŃ¦":3277,"æł¹æľ¬æĢ§":3278,"æĬķ":3279,"igen":3280,"Ġbetween":3281,"urity":3282,"è´¢":3283,"Ġimplement":3284,"æĪĳéľĢè¦ģç¡®è®¤":3285,"è¿ĽåĮĸ":3286,"åĪĴ":3287,"ä¿ĿæĮģåİŁæĦı":3288,"å°º":3289,"etary":3290,"precedented":3291,"ä¸įåı¯":3292,"ä»İèĢĮ":3293,"Ġconsequ":3294,"ç¦»åŃĲ":3295,"rectly":3296,"yz":3297,"åıĺéĿ©":3298,"ä¸»åı¥æĺ¯":3299,"æĸĩæ¡£":3300,"ç®¡çĲĨ":3301,"æĪĳå¾Ĺä»Ķç»Ĩ":3302,"ä»½":3303,"ç¬¦åĲĪçĶ¨æĪ·çļĦè¦ģæ±Ĥ":3304,"ä¸ĵä¸ļæľ¯è¯ŃåĩĨç¡®":3305,"è¿ĺè¦ģ":3306,"orphic":3307,"éĿŀå¸¸":3308,"andard":3309,"ĠæĪĳéľĢè¦ģ":3310,"æĮĩæķ°":3311,"æĿĥåĬĽ":3312,"ource":3313,"æĹ©æľŁ":3314,"åįļå¼Īè®º":3315,"ood":3316,"gra":3317,"Ġdet":3318,"åĿĩ":3319,"Ġchan":3320,"æĪĳçİ°åľ¨è¦ģå¤ĦçĲĨ":3321,"çº¿æĢ§":3322,"æįķ":3323,"ents":3324,"æĵįæİ§":3325,"è¾¾åĪ°":3326,"åīįæīĢ":3327,"æīĢä»¥æķ´åı¥":3328,"ines":3329,"Ġpain":3330,"ç¬¦åĲĪä¸Ńæĸĩè¯»èĢħçļĦ":3331,"esian":3332,"Ġadapt":3333,"ä¸Ńæĸĩåı¥åŃĲç»ĵæŀĦ":3334,"å¹³çŃī":3335,"Ġlim":3336,"é¢Ŀå¤ĸä¿¡æģ¯":3337,"çĸĳéĹ®è¯Ńæ°Ķ":3338,"ç±»ä¼¼":3339,"æĿŁ":3340,"æľīæķĪ":3341,"åĪ¤æĸŃ":3342,"æĶ¶åħ¥":3343,"Ġdiss":3344,"Ġhistor":3345,"ply":3346,"yc":3347,"èĥ½å¤Łå®ŀçİ°":3348,"åĬŁåĪ©ä¸»ä¹ī":3349,"ta":3350,"Ģæĸ¯çī¹":3351,"çļĦéĥ¨åĪĨ":3352,"åĸĢæĸ¯çī¹":3353,"åīįæīĢæľª":3354,"urom":3355,"Ġtr":3356,"å¾Ħ":3357,"row":3358,"æīĢä»¥ä¸įéľĢè¦ģ":3359,"Ġmain":3360,"pressionist":3361,"ransi":3362,"è¿ŀæİ¥è¯į":3363,"æĽ´å¥½çļĦ":3364,"ç¬¦åĲĪä¸ŃæĸĩçļĦè¯Ńåºı":3365,"æµĭéĩı":3366,"Ġrec":3367,"Ġformation":3368,"ç¥ŀç»ıå½¢æĢģ":3369,"çľĭèµ·æĿ¥":3370,"Ġapplications":3371,"port":3372,"Ġinterfaces":3373,"arm":3374,"«ł":3375,"æĸĩç«ł":3376,"æĪĳè¦ģç¡®ä¿ĿåĩĨç¡®çĲĨè§£":3377,"ricultural":3378,"äºİçĲĨè§£":3379,"è¾ĥä¸º":3380,"é¡¹":3381,"äººåĳĺ":3382,"çĶ¨äºĨ":3383,"èĢĹ":3384,"Ġfre":3385,"plan":3386,"Ġland":3387,"éĢļå¸¸ä½¿çĶ¨":3388,"è¶£":3389,"main":3390,"ç®ĢåĮĸä¸º":3391,"æ¤":3392,"ç´§":3393,"èļĢ":3394,"åı¯ä»¥å¤ĦçĲĨä¸º":3395,"pite":3396,"light":3397,"è¢«åĬ¨":3398,"çĬ¶æĢģ":3399,"å®¾è¯Ńæĺ¯":3400,"anti":3401,"ä¼łè¾¾åĩº":3402,"åĨįéĢļè¯»ä¸Ģéģį":3403,"èĪª":3404,"ĠåºĶè¯¥ç¿»è¯ĳæĪĲ":3405,"ä¸»å¯¼":3406,"è¯¯è¯ĳ":3407,"è½¬æį¢":3408,"éľĢè¦ģåĩĨç¡®è¡¨è¾¾":3409,"man":3410,"çļĦè¯Ńå¢ĥ":3411,"Ġwork":3412,"Ġuniversal":3413,"åĩłä¸ª":3414,"éĢŁåº¦":3415,"itarian":3416,"æİ¢è®¨":3417,"Ġrecon":3418,"åĨ³å®ļ":3419,"éĩĳèŀį":3420,"é¸":3421,"æĽ´éĢļé¡º":3422,"çľĭçľĭ":3423,"Ġbiological":3424,"åģıå·®":3425,"çĽ®çļĦ":3426,"åĬŁèĥ½":3427,"è¶ħæĿĲæĸĻ":3428,"æ²¡æľīç¿»è¯ĳèħĶ":3429,"çľģ":3430,"éĹ®çļĦæĺ¯":3431,"èĩªçĦ¶æĢ§":3432,"æ³¨éĩį":3433,"å¿ł":3434,"ä¼ĺåħĪèĢĥèĻĳ":3435,"ä¿ĥä½¿":3436,"Ġè¿Ļæł·":3437,"extual":3438,"å¤ªéĺ³":3439,"èĴĻ":3440,"Ġsc":3441,"ä¸¤ç§į":3442,"Ġunder":3443,"çĶ¨æĪ·ç»ĻåĩºçļĦåı¥åŃĲæĺ¯":3444,"Ġpres":3445,"æķĪæŀľ":3446,"åħ·æľī":3447,"position":3448,"åŁºåĽłç¼ĸè¾ĳ":3449,"icon":3450,"omin":3451,"Ġsystem":3452,"åħ´è¶£":3453,"Ġgene":3454,"éĿ©æĸ°":3455,"æľīçĤ¹":3456,"Ġreality":3457,"åħĪè¯´":3458,"eties":3459,"angu":3460,"å®ĺ":3461,"ulti":3462,"åľºæĻ¯":3463,"onom":3464,"èĨ¨":3465,"è¿Ļæł·æĽ´ç¬¦åĲĪä¸ŃæĸĩçļĦè¡¨è¾¾ä¹łæĥ¯":3466,"è¿Ļä¸¤ä¸ª":3467,"Ġinformation":3468,"ä¾¿":3469,"Ġalgorithms":3470,"ving":3471,"ä½Ĩæł¹æį®ä¸Ĭä¸ĭæĸĩ":3472,"strates":3473,"å¯¼ä½ĵ":3474,"æłĩåĩĨæľ¯è¯Ń":3475,"iel":3476,"Â·":3477,"æĸĩåŃ¦çĲĨè®º":3478,"duct":3479,"ocols":3480,"uv":3481,"çī¹æĢ§":3482,"åĨįæ£ĢæŁ¥ä¸Ģä¸ĭ":3483,"åİŁåı¥ç»ĵæŀĦæĺ¯ä¸»è°ĵå®¾":3484,"ï¼ŁâĢľ":3485,"ury":3486,"Ġgra":3487,"å¹³è¡¡":3488,"é£İæł¼":3489,"astic":3490,"å¯¹æ¯Ķåħ³ç³»":3491,"å°ºåº¦":3492,"Ġenvironmental":3493,"ensi":3494,"å®¹æĺĵ":3495,"çļĦåıĳå±ķ":3496,"ç¿»è¯ĳè¯·æ±Ĥ":3497,"Ġpsych":3498,"ä¸įä»ħ":3499,"åīįæīĢæľªæľīçļĦ":3500,"çľģçķ¥":3501,"æİª":3502,"æľīæ²¡æľīéģĹæ¼ıçļĦä¿¡æģ¯":3503,"å¿łå®ŀ":3504,"æĪĳä»¬":3505,"ä»¿":3506,"èº«ä»½":3507,"abilities":3508,"åĨ»åľŁ":3509,"èĭ±æĸĩä¸įåĲĮ":3510,"æ¤į":3511,"é¢ľ":3512,"åĬ³åĬ¨åĬĽ":3513,"ansion":3514,"æ²¡æľīéģĹæ¼ıæĪĸ":3515,"èĦĳæľº":3516,"Ġintell":3517,"ç»ĦåĲĪèµ·æĿ¥å°±æĺ¯":3518,"ognition":3519,"ç¾¤ä½ĵ":3520,"æ²¡æľīæŃ§ä¹ī":3521,"çĽ¸æ¯Ķ":3522,"å½ĵåīį":3523,"æ³¢åĬ¨":3524,"Ġpred":3525,"è§Ĥå¿µ":3526,"åĮħåĲ«":3527,"åĢĴè£ħ":3528,"vergent":3529,"pir":3530,"ination":3531,"è®¸":3532,"ä¿ĿæĮģåı¥åŃĲçļĦ":3533,"åĪĨå±Ĥ":3534,"å¼ķèµ·":3535,"ocial":3536,"æīĢä»¥åı¯èĥ½éľĢè¦ģ":3537,"æĦıè¯Ĩæµģ":3538,"éģĹæ¼ıæĪĸæŃªæĽ²ä¿¡æģ¯":3539,"æĭľ":3540,"ä¸Ģä¸ªç¿»è¯ĳè¯·æ±Ĥ":3541,"æ¯ıä¸ªæľ¯è¯ŃçļĦæŃ£ç¡®":3542,"ç»ĵæŀĦæ¸ħæĻ°":3543,"Ġdensity":3544,"urop":3545,"ecurity":3546,"æĹ¶éĹ´çĬ¶è¯Ń":3547,"Ġclimate":3548,"åĳĪçİ°":3549,"çłĶç©¶èĢħ":3550,"cap":3551,"è¿ĻéĩĮçļĦåħ³éĶ®è¯įæĺ¯":3552,"ific":3553,"erge":3554,"éĻ©":3555,"Ġbiology":3556,"hap":3557,"æĬĢæľ¯æĸĩæ¡£":3558,"ç¿»è¯ĳè¦ģæ±Ĥ":3559,"æĺĵäºİçĲĨè§£":3560,"æ²¡éĶĻ":3561,"è¿Ļæł·çļĦç»ĵæŀĦ":3562,"åĲİåįĬéĥ¨åĪĨ":3563,"åº·":3564,"è¿ĻéĩĮåı¯èĥ½":3565,"ä½Ĩä¹Ł":3566,"çĽĲçİ¯æµģ":3567,"æŃ£ç¡®ç¿»è¯ĳ":3568,"æĳ":3569,"åĲ¬":3570,"depend":3571,"Ġcorrel":3572,"éĢĴ":3573,"**":3574,"ç¢İçīĩåĮĸ":3575,"éľĢè¦ģç¿»è¯ĳæĪĲä¸Ńæĸĩ":3576,"Ġsim":3577,"æĩ":3578,"ä¹ĭåīį":3579,"çĶ±äºİ":3580,"Ġz":3581,"ç¥ŀç»ıç§ĳåŃ¦":3582,"Whereas":3583,"å°¤åħ¶æĺ¯åľ¨":3584,"gener":3585,"åħħ":3586,"åİŁåı¥æĺ¯çĸĳéĹ®åı¥":3587,"æŀĦå»º":3588,"ç»´æĮģ":3589,"çīĪæľ¬":3590,"Ġenc":3591,"æ¶īåıĬåĪ°":3592,"ä»ĸä»¬çļĦ":3593,"å¯ĨçłģåŃ¦":3594,"mission":3595,"Ġknowledge":3596,"Ġstates":3597,"åł":3598,"æĮĩæłĩ":3599,"igni":3600,"èĢĥèĻĳåı¥åŃĲçļĦæµģçķħæĢ§":3601,"çĶŁæĪĲ":3602,"è¯ŃæĢģ":3603,"uromorphic":3604,"æķ´ä½ĵåı¥åŃĲç»ĵæŀĦ":3605,"æİ¨åĬ¨":3606,"Ġmanip":3607,"éľĢè¦ģå¤ĦçĲĨ":3608,"Ġdri":3609,"æĬĬçĶ¨æĪ·æıĲä¾ĽçļĦèĭ±æĸĩåı¥åŃĲç¿»è¯ĳæĪĲä¸Ńæĸĩ":3610,"Ġfundamentally":3611,"ox":3612,"çĶ¨æĪ·çļĦéľĢæ±Ĥ":3613,"human":3614,"å®Ī":3615,"èĦĳæľºæİ¥åı£":3616,"ä¾§":3617,"Ġcontra":3618,"è¿ĽæŃ¥":3619,"åĬ¨åĬĽåŃ¦":3620,"è¿Ļæł·æĽ´ç¬¦åĲĪä¸Ńæĸĩè¡¨è¾¾ä¹łæĥ¯":3621,"æĩĤ":3622,"volve":3623,"åľ¨èīºæľ¯":3624,"å·§":3625,"è¡Įä¸ļ":3626,"ç»ıæµİåŃ¦ä¸ŃçļĦ":3627,"æľ¯è¯ŃçļĦä¸Ģèĩ´æĢ§":3628,"Ġcapital":3629,"åı¯èĥ½çļĦç¿»è¯ĳæĺ¯":3630,"åįłåºŃ":3631,"Ġregions":3632,"æĭľåįłåºŃ":3633,"åĳ³":3634,"Ep":3635,"ä¼łè¾ĵ":3636,"è¯¯è§£":3637,"éľĢè¦ģç¡®ä¿Ŀæľ¯è¯ŃåĩĨç¡®":3638,"è¡¨çİ°ä¸»ä¹ī":3639,"urope":3640,"çĽĬ":3641,"æĪĳè¦ģçĲĨè§£":3642,"Ġecosystems":3643,"æīĢä»¥å¿ħé¡»":3644,"è°ĵè¯Ńæĺ¯":3645,"Ġpos":3646,"æĶ¾åľ¨åı¥é¦ĸ":3647,"cop":3648,"ervation":3649,"åŃ¦ä¸Ń":3650,"ç»ıéªĮ":3651,"éĩįæĸ°å®ļä¹ī":3652,"æĹ¢åĩĨç¡®åıĪèĩªçĦ¶":3653,"ditions":3654,"qual":3655,"olution":3656,"åįģ":3657,"Ġgovern":3658,"Ġtechnology":3659,"istemological":3660,"å´":3661,"æĺ¯åĲ¦æľīéģĹæ¼ıæĪĸ":3662,"æĺ¯åĲ¦ç¬¦åĲĪä¸Ńæĸĩè¡¨è¾¾ä¹łæĥ¯":3663,"åıł":3664,"Ġrela":3665,"ä¿ĿåŃĺ":3666,"å¼ºåĮĸ":3667,"Ġcarbon":3668,"åºĶå¯¹":3669,"ffect":3670,"çĸĳéĹ®çļĦè¯Ńæ°Ķ":3671,"éľĢè¦ģåĩĨç¡®çļĦæľ¯è¯Ń":3672,"ç»Ŀç¼ĺ":3673,"entific":3674,"èŀįåĮĸ":3675,"å¯¹åºĶè¯":3676,"Ġbas":3677,"æķ´ä½ĵåı¥åŃĲ":3678,"éĢļå¸¸ä¼ļæĬĬ":3679,"line":3680,"èĩªçĶ±":3681,"åĵ¥":3682,"bit":3683,"æ¯Ķå¦Ĥä½¿çĶ¨":3684,"æĦŁåħ´è¶£":3685,"å¯¹åºĶè¯į":3686,"è¯Ĺ":3687,"echn":3688,"Ġprotocols":3689,"æĺĵæĩĤ":3690,"åĩĨç¡®ä¸Ķ":3691,"å¾Ģ":3692,"æĲ":3693,"å°ģ":3694,"herence":3695,"national":3696,"åĨĹ":3697,"èİ·åıĸ":3698,"åı¯èĥ½æĽ´èĩªçĦ¶":3699,"corpor":3700,"Ex":3701,"åıĳçİ°":3702,"åĪ·":3703,"prioritiz":3704,"Ġmedia":3705,"no":3706,"Ġlangu":3707,"Ġcomplex":3708,"è¯Ńå¢ĥä¸Ń":3709,"éĢļå¸¸æĮĩ":3710,"åı¥åŃĲç»ĵæŀĦç¬¦åĲĪä¸Ńæĸĩä¹łæĥ¯":3711,"Ġabo":3712,"ext":3713,"ĠRevolution":3714,"çº³ç±³":3715,"face":3716,"è¶ĭ":3717,"æĦıåĳ³":3718,"è°ĥåĴĮ":3719,"çĽ¸åħ³é¢ĨåŁŁ":3720,"è¾ĵåħ¥":3721,"é£Ł":3722,"In":3723,"è¿ģ":3724,"ecess":3725,"Ġaut":3726,"æł¼å¼ı":3727,"Ġspace":3728,"åĨįèĢĥèĻĳæĸĩåĮĸéĢĤåºĶæĢ§":3729,"ä¸Ńä¸ĸçºª":3730,"Ġprocessing":3731,"ä¸Ńæĸĩç§ĳæĬĢ":3732,"èĩªæĪĳ":3733,"éĻ¤":3734,"Ġexpansion":3735,"åį°åĪ·":3736,"è´¹":3737,"çĪ":3738,"åĳ¨":3739,"aneous":3740,"æĬĢå·§":3741,"æĶ¹éĿ©":3742,"æĪĳçİ°åľ¨éľĢè¦ģå¤ĦçĲĨçĶ¨æĪ·çļĦä¸Ģä¸ªç¿»è¯ĳè¯·æ±Ĥ":3743,"æĬĺå°Ħ":3744,"å¯Ł":3745,"ç¼ĵ":3746,"é¦Ĩ":3747,"Ġwhile":3748,"éĩįçĤ¹":3749,"è¡°":3750,"Ġtransmission":3751,"åĪĽæĸ°":3752,"æĽ´æŃ£å¼ıä¸ĢäºĽ":3753,"çĻ½":3754,"agement":3755,"out":3756,"Ġabout":3757,"æĸĩåŃ¦ä¸ŃçļĦ":3758,"Ġear":3759,"æº¶":3760,"ontological":3761,"ĠW":3762,"åıĪç¬¦åĲĪä¸ŃæĸĩçļĦè¡¨è¾¾ä¹łæĥ¯åĴĮä¸ĵä¸ļæľ¯è¯ŃçļĦä½¿çĶ¨":3763,"ĠL":3764,"Comparing":3765,"Ġu":3766,"ecular":3767,"ä¸ĵä¸ļé¢ĨåŁŁ":3768,"æľĢç»Īç¡®å®ļç¿»è¯ĳä¸º":3769,"åĽ°":3770,"æ°§":3771,"èĲ½":3772,"Ġadvant":3773,"arc":3774,"ror":3775,"Ġam":3776,"å¸¦æľī":3777,"æĽ´ä¸º":3778,"the":3779,"ä¸Ńæĸĩç¿»è¯ĳ":3780,"Ġfactors":3781,"Ġcontin":3782,"è¿Ļæł·æĹ¢åĩĨç¡®ä¼łè¾¾äºĨåİŁæĦı":3783,"åħ³éĶ®çĤ¹éĥ½":3784,"è¿Ļåı¥è¯Ŀæ¶īåıĬ":3785,"rest":3786,"pret":3787,"Ġnovel":3788,"uvial":3789,"one":3790,"ediment":3791,"Ġemphasizes":3792,"might":3793,"Ġconc":3794,"åı¯èĥ½æĽ´åĢ¾åĲĳäºİ":3795,"ond":3796,"çĶ¨è¯Ń":3797,"åĸĢæĸ¯çī¹åľ°è²Į":3798,"æīĢä»¥éĢīæĭ©":3799,"åı¯èĥ½æĽ´åĲĪéĢĤ":3800,"åĮºåŁŁ":3801,"unc":3802,"æĮĩæķ°çº§":3803,"Ġstr":3804,"ä¸ĢçĤ¹":3805,"cial":3806,"agnetic":3807,"Ġthey":3808,"éľĢè¦ģèĩªçĦ¶":3809,"ogical":3810,"ä¸Ģåı¥":3811,"tinc":3812,"éļľç¢į":3813,"çļĦä¹łæĥ¯":3814,"æµģæ´¾":3815,"äº¤æµģ":3816,"Ġsci":3817,"ins":3818,"åģĩè¯´":3819,"aline":3820,"ä½ĨåİŁåı¥ä¸ŃçļĦ":3821,"ia":3822,"åĩĨç¡®åľ°":3823,"int":3824,"åĪº":3825,"compu":3826,"ĠĊ":3827,"æīĢä»¥æķ´ä¸ª":3828,"åħ·ä½ĵè¦ģæ±Ĥ":3829,"ä¼Ĺ":3830,"éĿŀå¸¸éĩįè¦ģ":3831,"Ġacross":3832,"use":3833,"éĺ¶":3834,"çī¹åĪ«å¼ºè°ĥ":3835,"Ġintellig":3836,"oh":3837,"å½ĵä»£":3838,"ä½¿ä¸Ńæĸĩ":3839,"Ġbrain":3840,"é»":3841,"éĥ½æŃ£ç¡®":3842,"çļĦåıĺåĮĸ":3843,"äº¿":3844,"å¦Ĥä½ķéĢļè¿ĩ":3845,"Ġfragment":3846,"éĵ¶":3847,"æŁĲç§į":3848,"Ġab":3849,"consciousness":3850,"åĬłå¯Ĩè´§å¸ģ":3851,"å¾Ĺä»¥":3852,"ages":3853,"ks":3854,"æľĢç»Īç¿»è¯ĳåºĶè¯¥æĺ¯":3855,"onal":3856,"åĪĿ":3857,"çī¹å¾ģ":3858,"Ġinfrastructure":3859,"åı¥å¼ı":3860,"ç¬¦":3861,"æĮĩä»£":3862,"çļĦæ¦Ĥå¿µ":3863,"æľ¯è¯ŃåĴĮ":3864,"åĨ·":3865,"åİŁæĸĩä¸ŃçļĦ":3866,"ignific":3867,"Ġoften":3868,"plif":3869,"åİŁåı¥ç»ĵæŀĦ":3870,"è®©è¯»èĢħ":3871,"hips":3872,"computer":3873,"enable":3874,"ç¤¾äº¤åªĴä½ĵ":3875,"åħ³èģĶ":3876,"ä½ĵéªĮ":3877,"èģĮ":3878,"des":3879,"funda":3880,"olecular":3881,"å°Ĩè¿Ļåı¥è¯Ŀç¿»è¯ĳæĪĲä¸Ńæĸĩ":3882,"ental":3883,"Ġcirculation":3884,"åı¯èĥ½æĽ´åĩĨç¡®":3885,"Ġdistribution":3886,"Ke":3887,"divid":3888,"Ġsocieties":3889,"åĨ²ç§¯":3890,"ĠG":3891,"ä¸Ģä½į":3892,"åİŁåŃĲ":3893,"tilitarian":3894,"istential":3895,"ynesian":3896,"Ġnetwork":3897,"lifer":3898,"è¾ĥä¸ºæŃ£å¼ı":3899,"èĨ¨èĥĢ":3900,"ä½ľèĢħ":3901,"cri":3902,"åĲİçİ°ä»£":3903,"éĻįä½İ":3904,"ll":3905,"ĠEurope":3906,"back":3907,"æ´ŀ":3908,"Ġphenom":3909,"è·µ":3910,"èĢĮä¸įæĺ¯åħ¶ä»ĸ":3911,"roscop":3912,"Ġurban":3913,"åĪĨæŀĲåı¥åŃĲç»ĵæŀĦ":3914,"éģµå®Ī":3915,"ç»ĺçĶ»":3916,"19":3917,"æ¯Ķè¾ĥä¼ĺåĬ¿":3918,"åı¯èĥ½éľĢè¦ģç¡®è®¤":3919,"Ġinteractions":3920,"Ġdisrup":3921,"çĽ®æłĩè¯»èĢħ":3922,"Keynesian":3923,"Ġlinguistic":3924,"åĮ»åŃ¦":3925,"æ²¡æľīçĶŁç¡¬çļĦåľ°æĸ¹":3926,"åĩ¯æģ©æĸ¯ä¸»ä¹ī":3927,"çļĦäºº":3928,"otional":3929,"å®ŀè·µ":3930,"çļĦåĨħå®¹":3931,"éľĢè¦ģåĩĨç¡®ç¿»è¯ĳ":3932,"åıªæľīç¿»è¯ĳåĨħå®¹":3933,"fact":3934,"åŃĺåľ¨ä¸»ä¹ī":3935,"ä¸įå¹³çŃī":3936,"æ¸©çĽĲçİ¯æµģ":3937,"enab":3938,"cont":3939,"Ġatmospheric":3940,"restrial":3941,"ilit":3942,"æĪĳçļĦä»»åĬ¡":3943,"çļĦä½įç½®":3944,"çľŁå®ŀ":3945,"å®ĥä»¬":3946,"æīĢä»¥çĽ´æİ¥":3947,"è¿ĲçĶ¨":3948,"åİŁåı¥æĺ¯ä¸Ģä¸ªçĸĳéĹ®åı¥":3949,"æĶ¯æĮģ":3950,"å¤ªéĺ³èĥ½":3951,"æĽ´å¥½":3952,"åŃ¦æ´¾":3953,"Ġcos":3954,"å¹¶ä¸Ķè¦ģ":3955,"Ġliterary":3956,"Ġpractic":3957,"traditional":3958,"brid":3959,"éģ¿åħįä½¿çĶ¨":3960,"co":3961,"åĲĮæĹ¶ç¡®ä¿Ŀ":3962,"è§Ĩè§Ĵ":3963,"ä¸¥è°¨æĢ§":3964,"æ°¸ä¹ħåĨ»åľŁ":3965,"çĶ²":3966,"Ġemerg":3967,"æĺ¯åĲ¦éľĢè¦ģè°ĥæķ´":3968,"Ġvol":3969,"Ġrelations":3970,"å®Ĺ":3971,"reg":3972,"rost":3973,"çĶµç£ģ":3974,"åħ³éĶ®çĤ¹åľ¨äºİ":3975,"åİ»ä¸Ńå¿ĥ":3976,"ä¿¯":3977,"tics":3978,"çº¦æĿŁ":3979,"è¿Ļä¸ĢçĤ¹":3980,"Ġrevolution":3981,"ohaline":3982,"ignificant":3983,"emporary":3984,"æĮĩåĩº":3985,"ä¿¯åĨ²":3986,"æīĢä»¥è¿Ļéĥ¨åĪĨ":3987,"åĿı":3988,"æĪĸåħ¶ä»ĸ":3989,"çĶŁåĳ½":3990,"èĭ±æĸĩç¿»è¯ĳæĪĲä¸Ńæĸĩ":3991,"èĲ¥":3992,"å®ŀéªĮ":3993,"é£İéĻ©":3994,"omes":3995,"çģµ":3996,"ä¸įä¼ļæľīæŃ§ä¹ī":3997,"æ²¡æľīæ·»åĬł":3998,"infor":3999,"åľ¨ä¸ŃåĽ½":4000,"éĢŁçİĩ":4001,"ryption":4002,"edback":4003,"æīĢæľīåħ³éĶ®çĤ¹éĥ½":4004,"éĿĴ":4005,"çªģçł´":4006,"Ġartificial":4007,"æľīæĹ¶åĢĻ":4008,"ä¾µèļĢ":4009,"è°ĥæİ§":4010,"å¸¸è§ģçļĦ":4011,"çī©ç§į":4012,"Ġbias":4013,"æĽ´é«ĺ":4014,"eng":4015,"achie":4016,"ä¸įéľĢè¦ģè°ĥæķ´":4017,"Ġtechnological":4018,"æ²Ł":4019,"æķ´ä¸ªç¿»è¯ĳ":4020,"æľ¬è´¨":4021,"Ġstandard":4022,"Ġlabor":4023,"ç¤¾ä¼ļåŃ¦":4024,"å®ŀè¯ģ":4025,"åĨ²çªģ":4026,"èĢĮæĺ¯":4027,"å¹²é¢Ħ":4028,"Ġaccur":4029,"äºĭä»¶":4030,"Ġhas":4031,"è¯Ńåı¥éĢļé¡º":4032,"è¡¨æĺİ":4033,"å®¾è¯Ń":4034,"ogenic":4035,"igenetic":4036,"tine":4037,"Ġgeomet":4038,"éĩįæŀĦ":4039,"åİĭåĬĽ":4040,"åľºåĲĪ":4041,"å¼ķåĬĽ":4042,"çģŃ":4043,"è§Ĩè§ī":4044,"Ġengineer":4045,"Ġinher":4046,"å®ŀéĻħ":4047,"çłĶç©¶äººåĳĺ":4048,"èŀįåĲĪ":4049,"æĽ¿ä»£":4050,"æľīåĽºå®ļ":4051,"lock":4052,"è°ĥèĬĤ":4053,"è¿ĻéĩĮéľĢè¦ģ":4054,"æĺİäºĨ":4055,"ä¸Ńæĸĩè¯»èĢħåı¯èĥ½æĽ´":4056,"çĶ¨æĪ·åı¯èĥ½æĺ¯ä¸Ģä½į":4057,"sib":4058,"Ġsym":4059,"Ġmov":4060,"åıįé¦Īå¾ªçİ¯":4061,"ulate":4062,"è¿Ļåı¥è¯ĿçļĦ":4063,"è¿ĩäºİ":4064,"è´´è¿ĳ":4065,"åŃ¦çĶŁæĪĸ":4066,"é¦ĸåħĪå¤ĦçĲĨ":4067,"çļĦç»ĵæŀĦæĺ¯":4068,"å¾®çĶŁçī©":4069,"æīĢä»¥ä¿ĿæĮģåİŁ":4070,"arst":4071,"Ġprop":4072,"æĺ¯åĲ¦åĩĨç¡®ä¼łè¾¾":4073,"çĶ¨æĪ·è¦ģæ±ĤçĽ´æİ¥ç»ĻåĩºçŃĶæ¡Ī":4074,"æĪĳéľĢè¦ģç¡®ä¿ĿåĩĨç¡®çĲĨè§£":4075,"ä¼¦çĲĨæ¡Ĩæŀ¶":4076,"åĪĽéĢł":4077,"raphic":4078,"ĠRenaissance":4079,"æľīåĩłä¸ª":4080,"Ġpersp":4081,"mer":4082,"acter":4083,"ç¼ĺæĶ¿æ²»":4084,"Ġintelligence":4085,"Ġconf":4086,"åħ·å¤ĩ":4087,"è®©ä¸Ńæĸĩ":4088,"ä¸Ńæĸĩç»ĵæŀĦ":4089,"å·Ŀ":4090,"çŁ¿":4091,"pet":4092,"çĽ¸è¾ĥ":4093,"è¯Ħä¼°":4094,"dec":4095,"ç¿»è¯ĳæĹ¶è¦ģæ³¨æĦı":4096,"ons":4097,"ethical":4098,"åĪ©äºļ":4099,"ä»ħæĺ¯":4100,"emper":4101,"ufact":4102,"åħ³éĶ®ä¿¡æģ¯":4103,"Ġresource":4104,"Ġhistorical":4105,"could":4106,"active":4107,"åħīåŃ¦":4108,"è®¡ç®Ĺæľº":4109,"Ġrational":4110,"æĤ²":4111,"atial":4112,"å´©":4113,"cultural":4114,"è¿Ļæł·æĹ¢åĩĨç¡®åıĪç¬¦åĲĪä¸Ńæĸĩè¡¨è¾¾ä¹łæĥ¯":4115,"é¢ĳ":4116,"Ġmulti":4117,"åĪĨè§£åı¥åŃĲç»ĵæŀĦ":4118,"ible":4119,"å®ĹæķĻ":4120,"çĽ¸è¾ĥäºİ":4121,"åĨ°å·Ŀ":4122,"Ġphilosophy":4123,"eval":4124,"å¤®":4125,"frost":4126,"ç³»ç»ŁæĢ§":4127,"å£°":4128,"åīįåįĬåı¥":4129,"è¿Ļåı¥è¯ĿçļĦç»ĵæŀĦåĴĮ":4130,"çĸĳéĹ®è¯į":4131,"çĦ¶åĲİèĢĥèĻĳæµģçķħæĢ§":4132,"æİªæĸ½":4133,"Ġinto":4134,"ç§°ä¸º":4135,"æĪĳçİ°åľ¨éľĢè¦ģå¤ĦçĲĨçĶ¨æĪ·çļĦè¿Ļä¸ªç¿»è¯ĳè¯·æ±Ĥ":4136,"ç¡®ä¿Ŀæķ´ä¸ªåı¥åŃĲ":4137,"åľ¨åŃ¦æľ¯":4138,"åħ³éĩįè¦ģ":4139,"èĩ³åħ³éĩįè¦ģ":4140,"åŁ¹":4141,"mafrost":4142,"urrency":4143,"æ²³æµģ":4144,"ehavi":4145,"Ġeconomies":4146,"åīĬ":4147,"ä¿ĿçķĻäºĨ":4148,"ufacturing":4149,"ax":4150,"ak":4151,"Ġide":4152,"Ġcyc":4153,"åľ¨è¿ĻéĩĮè¡¨ç¤º":4154,"Ġemerge":4155,"Ġcontrol":4156,"æīĢä»¥åı¯èĥ½":4157,"åĪĨéħį":4158,"ecessit":4159,"cies":4160,"Ġmic":4161,"å¯¹è±¡":4162,"å¿Ĺ":4163,"è¯ĨåĪ«":4164,"Ġdev":4165,"amaterial":4166,"Ġshifts":4167,"çĦ¶åĲİè¦ģç¡®ä¿Ŀ":4168,"å®¹æĺĵçĲĨè§£":4169,"Ġmanipulation":4170,"èĩªä¸»":4171,"duced":4172,"æĺİç¡®è¯´æĺİ":4173,"æĽ´åı£è¯ŃåĮĸ":4174,"éĽķ":4175,"liferation":4176,"dress":4177,"åĩºæĿ¥":4178,"è¿ĩç¨ĭä¸Ń":4179,"æĺ¯æłĩåĩĨæľ¯è¯Ń":4180,"Ġpress":4181,"å¤ļæł·":4182,"æĿĲæĸĻç§ĳåŃ¦":4183,"è¿Ľè¡Įç¿»è¯ĳ":4184,"å®ŀçİ°äºĨ":4185,"Ġall":4186,"itations":4187,"ately":4188,"ces":4189,"quently":4190,"æŀĦæĪĲ":4191,"åĪĽä½ľ":4192,"ights":4193,"Ġpop":4194,"plete":4195,"imension":4196,"æĪĺçķ¥":4197,"ä¼ĺåĮĸ":4198,"ä¸ĵä¸ļæľ¯è¯ŃçļĦæŃ£ç¡®ç¿»è¯ĳ":4199,"åĩĨç¡®æĹłè¯¯":4200,"æĸ¹æ¡Ī":4201,"Ġprecise":4202,"æī§":4203,"è´¨çĸĳ":4204,"Ġauthor":4205,"é²":4206,"åıłåĬł":4207,"atory":4208,"æļĹèĥ½éĩı":4209,"å°¾":4210,"é¢ĨåŁŁçļĦæľ¯è¯Ń":4211,"Ġtransi":4212,"Ġpractices":4213,"åĲĮæł·":4214,"çĽ´è¯ĳçļĦ":4215,"å»ºæ¨¡":4216,"iction":4217,"å¤ªç©º":4218,"ç¨³å®ļæĢ§":4219,"Ġproper":4220,"å®ı":4221,"æľºæ¢":4222,"biological":4223,"çł´åĿı":4224,"Ġtemporal":4225,"åħ¨æ°ĳ":4226,"æĮĳæĪĺäºĨ":4227,"åŁºæľ¬æĶ¶åħ¥":4228,"ä¸įéľĢè¦ģæ·»åĬł":4229,"Ġci":4230,"åħ¨æģ¯":4231,"è§Ĥå¯Ł":4232,"Ġcapabilities":4233,"ield":4234,"è¶³å¤Ł":4235,"æĪĳéľĢè¦ģä»Ķç»ĨåĪĨæŀĲ":4236,"æĤ²åī§":4237,"æľºæ¢°":4238,"fy":4239,"æ²¡æľīåħ¶ä»ĸ":4240,"ä½Ĩä¸ŃæĸĩéĩĮ":4241,"æīĭæ®µ":4242,"cile":4243,"Ġenh":4244,"rics":4245,"åĿĩè¡¡":4246,"ators":4247,"ç¿»è¯ĳåĲİçļĦåı¥åŃĲåºĶè¯¥":4248,"å¤©ä½ĵ":4249,"vision":4250,"çļ®":4251,"asing":4252,"Ġocean":4253,"Ġstrategies":4254,"æľºåĻ¨äºº":4255,"çİ°æľīçļĦ":4256,"åĲ¬èµ·æĿ¥":4257,"with":4258,"æľ¬èº«":4259,"å°¤åħ¶æĺ¯":4260,"atform":4261,"Ġexpression":4262,"åĲİç»ĵæŀĦ":4263,"çºł":4264,"identi":4265,"åĲ¯èĴĻ":4266,"é¢ľæĸĻ":4267,"ä¸Ńæĸĩè¡¨è¾¾ä¹łæĥ¯":4268,"ä½ĨçĶ¨æĪ·":4269,"æĽ¿æį¢":4270,"Ġencryption":4271,"pass":4272,"çİ°æľī":4273,"å¯¹æ¯Ķç»ĵæŀĦ":4274,"Ġcal":4275,"ä¾ĭåŃĲ":4276,"ld":4277,"rem":4278,"èĢģ":4279,"Ġscal":4280,"æįŁ":4281,"åħ¶ä»ĸéĹ®é¢ĺ":4282,"æµģçķħæĢ§åĴĮæĸĩåĮĸéĢĤåºĶæĢ§":4283,"arg":4284,"stic":4285,"æīĢä»¥è¿ĻéĩĮ":4286,"åĺ":4287,"Ġmeas":4288,"ication":4289,"plify":4290,"éĽķå¡ĳ":4291,"è¦ģèĩªçĦ¶":4292,"åı¯ä»¥è°ĥæķ´ä¸º":4293,"åĩĨç¡®æĢ§æĸ¹éĿ¢":4294,"çĽ¸å¹²":4295,"çĶ¨æĪ·åı¯èĥ½æĺ¯åľ¨åŃ¦æľ¯æĪĸ":4296,"åıªè¾ĵåĩºç¿»è¯ĳç»ĵæŀľ":4297,"æĶ¹éĢł":4298,"åĽŀçŃĶåħ¶ä»ĸéĹ®é¢ĺ":4299,"Ġmean":4300,"ä¸Ŀ":4301,"petu":4302,"ite":4303,"encies":4304,"çļĦè§£éĩĬ":4305,"åľ°ä½į":4306,"matic":4307,"ç¬¦åı·":4308,"irm":4309,"æł¹æľ¬ä¸Ĭ":4310,"åĤ¬":4311,"ä¸Ńæĸĩå¯¹åºĶè¯į":4312,"æ·±åº¦":4313,"åºľ":4314,"å®¡":4315,"ues":4316,"æµģåĬ¨":4317,"è¿Ļæł·ç¿»è¯ĳ":4318,"Ġnon":4319,"Ġext":4320,"éĽĨä½ĵ":4321,"çĦ¶åĲİè¦ģèĢĥèĻĳåı¥åŃĲçļĦæµģçķħæĢ§":4322,"aracter":4323,"Ġhigh":4324,"çļĦè¿ĩç¨ĭ":4325,"Ġind":4326,"Ġtheir":4327,"çĸ¾":4328,"æĸĩèīºå¤įåħ´æĹ¶æľŁçļĦ":4329,"è¿Ļæł·çļĦ":4330,"æ²»çĲĨ":4331,"æĺ¾å¾Ĺ":4332,"Ph":4333,"å±ĤéĿ¢":4334,"æºĥ":4335,"Ġrather":4336,"åŃĺåľ¨çļĦ":4337,"editing":4338,"aries":4339,"æĶ¿åºľ":4340,"Ġcur":4341,"å¸¸çĶ¨è¯ĳæ³ķ":4342,"è¯»èµ·æĿ¥é¡ºçķħ":4343,"çİ°è±¡åŃ¦":4344,"structural":4345,"æµģçķħæĢ§åĴĮèĩªçĦ¶æĢ§":4346,"èĩªåĬ¨åĮĸ":4347,"omic":4348,"å´©æºĥ":4349,"uce":4350,"åıĮ":4351,"è°±":4352,"æŃ£ç¡®çļĦç¿»è¯ĳ":4353,"ä½Ĩè¿ĻéĩĮ":4354,"Ġadvantage":4355,"ied":4356,"Ġli":4357,"åŃ¦æľ¯è¯Ńå¢ĥä¸Ń":4358,"Ġed":4359,"Magical":4360,"viliz":4361,"æİī":4362,"éĺ²":4363,"Ġinterpret":4364,"æİ¨è¿Ľ":4365,"Ġcolor":4366,"ehavioral":4367,"éĢļä¿¡":4368,"Ġbut":4369,"åŀĤ":4370,"å¸Ŀ":4371,"Ġther":4372,"ç³»ç»ŁçļĦ":4373,"Ġfundamental":4374,"åŀĤçĽ´":4375,"bers":4376,"Ġtim":4377,"æĽ´æĶ¹":4378,"acts":4379,"Ġagricultural":4380,"åı²åŃ¦":4381,"ator":4382,"çĥ·":4383,"Ġrespon":4384,"Ġunprecedented":4385,"æĹ¢åĩĨç¡®åıĪç¬¦åĲĪä¸Ńæĸĩè¡¨è¾¾ä¹łæĥ¯":4386,"æķ´ä¸ªåı¥åŃĲçļĦç»ĵæŀĦéľĢè¦ģè°ĥæķ´":4387,"çĶ²çĥ·":4388,"jective":4389,"Ġpot":4390,"è£Ĥ":4391,"ç¡®ä¿Ŀæ²¡æľīéģĹæ¼ıæĪĸ":4392,"åĲĪæĪĲçĶŁçī©åŃ¦":4393,"è¾¹ç¼ĺ":4394,"ç«ĭä½ĵä¸»ä¹ī":4395,"chain":4396,"éĺĲ":4397,"parad":4398,"Ġdemand":4399,"medi":4400,"å¸¦æĿ¥çļĦ":4401,"Ġexplain":4402,"dividual":4403,"Ġduring":4404,"çĽ¸å½ĵ":4405,"æºĲäºİ":4406,"ç«¯":4407,"ĠâĢľ":4408,"Ġperception":4409,"DNA":4410,"mpressionist":4411,"åĴĮä¸ĵä¸ļæĢ§":4412,"åĬ¨ä½ľ":4413,"ultaneous":4414,"digital":4415,"åľ°ç¼ĺæĶ¿æ²»":4416,"chan":4417,"æ²»çĸĹ":4418,"éľĢè¦ģæī¾åĪ°åĲĪéĢĤçļĦä¸Ńæĸĩè¡¨è¾¾":4419,"ä¸Ńä½¿çĶ¨":4420,"éĿ¢ä¸´":4421,"ĠP":4422,"odern":4423,"ged":4424,"antine":4425,"è®¨è®ºçļĦæĺ¯":4426,"åı¯èĥ½æĺ¯æĮĩ":4427,"yzantine":4428,"Ġprecision":4429,"ç¤¾åĮº":4430,"ä¸įèĥ½æľī":4431,"Ġaffect":4432,"tern":4433,"Ġmaintain":4434,"lockchain":4435,"sur":4436,"hol":4437,"demon":4438,"çĸ¾çĹħ":4439,"ç¬¦åĲĪä¸ŃæĸĩçļĦè¡¨è¾¾æĸ¹å¼ı":4440,"ç«ŀ":4441,"ĠåºĶè¯¥ç¿»è¯ĳä¸º":4442,"æıĲé«ĺ":4443,"sting":4444,"Ġä½Ĩ":4445,"Ġneuro":4446,"economic":4447,"Ġaccoun":4448,"poth":4449,"æĿİ":4450,"Ġachieves":4451,"Ġwhen":4452,"ä¸ŃæĸĩçļĦè¯ŃåºıåĴĮ":4453,"åĲİçİ°ä»£ä¸»ä¹ī":4454,"Ġevolution":4455,"éĢłæĪĲ":4456,"å£ģ":4457,"Ġmarkets":4458,"achine":4459,"ermin":4460,"Ġciviliz":4461,"ä½ı":4462,"æĺ¯åĲ¦åĩĨç¡®ä¼łè¾¾äºĨåİŁæĦı":4463,"éĵ¶è¡Į":4464,"åĲĹ":4465,"æĿ¡ä»¶ä»İåı¥":4466,"æľĢåĲİæ£ĢæŁ¥æĺ¯åĲ¦æľīéģĹæ¼ıæĪĸ":4467,"ç¡®å®ļæĢ§":4468,"è®¡ç®Ĺæŀ¶æŀĦ":4469,"åĳ¨æľŁ":4470,"ä¸Ńå¤®":4471,"ree":4472,"æ¯Ķè¾ĥå¸¸è§ģ":4473,"ynthetic":4474,"Ġfeedback":4475,"Ġinst":4476,"ä¸įèĥ½éģĹæ¼ıæĪĸæŃªæĽ²ä¿¡æģ¯":4477,"æ¶Īè´¹":4478,"Ġlanguage":4479,"è¿ľ":4480,"alth":4481,"åŃ¦æľ¯æĢ§":4482,"ber":4483,"æīĢä»¥æ²¡éĹ®é¢ĺ":4484,"ï¼īï¼Į":4485,"ä¾ĽåºĶ":4486,"çĶ¨æĪ·åı¯èĥ½çļĦ":4487,"tivism":4488,"åħ·è±¡":4489,"çĶ¨æĪ·ç»ĻçļĦ":4490,"åĮºåĪ«":4491,"Ġprecipit":4492,"gal":4493,"challenge":4494,"æĪĳè¦ģåĩĨç¡®çĲĨè§£è¿Ļåı¥è¯ĿçļĦæĦıæĢĿ":4495,"åŃ¦æľ¯ç¿»è¯ĳ":4496,"åĢŁ":4497,"çĩ":4498,"Ġcontent":4499,"åĨįæ£ĢæŁ¥ä¸Ģéģį":4500,"Ġmanufacturing":4501,"Ġbound":4502,"å¤ĸè¡ĮæĺŁ":4503,"å¯¼çĶµ":4504,"èģļåıĺ":4505,"è¯ķ":4506,"ç´¯":4507,"æľĢåĲİæ£ĢæŁ¥æķ´ä½ĵ":4508,"æĽ´å¤ļ":4509,"å¿Ĩ":4510,"åı¯èĥ½ä¼ļå¦Ĥä½ķ":4511,"åĲ§":4512,"åĽ¢":4513,"Ġwave":4514,"Ġpainting":4515,"Ġeffect":4516,"åĲİç»ĵæŀĦä¸»ä¹ī":4517,"åİŁåı¥çļĦç»ĵæŀĦæĺ¯ä¸»è°ĵå®¾":4518,"éĢıè§Ĩ":4519,"çĥĪ":4520,"çİ¯å¢ĥç§ĳåŃ¦":4521,"Comparative":4522,"ä¼łè¾¾äºĨ":4523,"ç²¾åĩĨ":4524,"earch":4525,"æīĵ":4526,"stand":4527,"éĩįå¡ĳ":4528,"æĹ¢ä¸ĵä¸ļ":4529,"ploys":4530,"Ġsh":4531,"åħ³éĶ®è¯įåĮħæĭ¬":4532,"æī©å±ķ":4533,"Ġloop":4534,"emphasiz":4535,"é¦ĸåħĪçľĭ":4536,"åıĤèĢĥ":4537,"æľºåĻ¨åŃ¦ä¹ł":4538,"åı¯å¡ĳ":4539,"è¿ĩæĹ¶":4540,"çĽ´æİ¥ç»Ļåĩºç¿»è¯ĳ":4541,"æ²īç§¯çī©":4542,"Ġpolicies":4543,"åİ»ä¸Ńå¿ĥåĮĸ":4544,"ä¸»è§Ĥ":4545,"å°¼":4546,"æĹłæ³ķ":4547,"çļĦçĲĨè®º":4548,"è¿Ł":4549,"æīĢä»¥æľ¯è¯Ń":4550,"Ġequi":4551,"éģ¿åħįæŃ§ä¹ī":4552,"hape":4553,"Ġtop":4554,"ç½Ĺ":4555,"art":4556,"åı¯èĥ½éľĢè¦ģçĶ¨":4557,"vide":4558,"ä¸ĵä¸ļæĢ§åĴĮåĩĨç¡®æĢ§":4559,"Ġconventional":4560,"Ther":4561,"Ġlimitations":4562,"ç¬Ķ":4563,"Ġpsychological":4564,"emical":4565,"æĽ´ç¬¦åĲĪä¸Ńæĸĩè¡¨è¾¾":4566,"æĸĩçĮ®ä¸ŃçļĦ":4567,"Had":4568,"æĢĿæĥ³":4569,"ä¸įæ·»åĬł":4570,"è¿ĺæľī":4571,"æŀĹ":4572,"Ġpolicy":4573,"entic":4574,"Ġcell":4575,"reveals":4576,"è¯ģæĺİ":4577,"ä¸ŃæĸĩéĢļå¸¸ä¼ļçĶ¨":4578,"Ġmetrics":4579,"æĽ´è´´è¿ĳ":4580,"åĩĨç¡®æĢ§åĴĮä¸ĵä¸ļæĢ§":4581,"éĩıåŃĲåĬĽåŃ¦":4582,"åıī":4583,"Ġwithin":4584,"ç»Ŀç¼ĺä½ĵ":4585,"åĺī":4586,"æ¨¡ä»¿":4587,"opological":4588,"Ġè¿Ļæł·æĹ¢åĩĨç¡®åıĪç¬¦åĲĪä¸Ńæĸĩè¡¨è¾¾ä¹łæĥ¯":4589,"è½¨éģĵ":4590,"ail":4591,"Ġsignificant":4592,"è¾¹çķĮ":4593,"vention":4594,"æĿİåĺī":4595,"æĿİåĺīåĽ¾":4596,"æĪĳçİ°åľ¨éľĢè¦ģæĬĬè¿Ļåı¥è¯Ŀç¿»è¯ĳæĪĲä¸Ńæĸĩ":4597,"ier":4598,"Ġcan":4599,"äººä»¬":4600,"å·¥ä¸ļéĿ©åĳ½":4601,"å°±åı¯ä»¥ç»Ļåĩº":4602,"Ġcommunication":4603,"å¸ĿåĽ½":4604,"åĩ»":4605,"ader":4606,"ject":4607,"Ġter":4608,"stream":4609,"ä¼łéĢĴ":4610,"åŃ¦æľ¯åĨĻä½ľ":4611,"èĭ±æĸĩä¸ŃçļĦ":4612,"çŃīçº§":4613,"Ġdirectly":4614,"Ġlif":4615,"éĢ»è¾ĳæ¸ħæĻ°":4616,"åīĬå¼±":4617,"wh":4618,"è¿ĺè¦ģæ³¨æĦıä¸ĵä¸ļæľ¯è¯ŃçļĦåĩĨç¡®æĢ§":4619,"åĬłåī§äºĨ":4620,"åıĸä»£":4621,"ç¼ĵè§£":4622,"by":4623,"ake":4624,"Ġidenti":4625,"ä¹±":4626,"ribut":4627,"ovol":4628,"ç¾İåŃ¦":4629,"æ¦Ĥçİĩ":4630,"ç¢³éħ¸":4631,"blem":4632,"ç«ŀäºī":4633,"éľĢè¦ģèĢĥèĻĳ":4634,"ä¼Ĭ":4635,"éĿł":4636,"æłĩåĩĨåĮĸ":4637,"åı¥åŃĲæµģçķħèĩªçĦ¶":4638,"éĺ»":4639,"ä»İæł¹æľ¬ä¸Ĭ":4640,"Ġelements":4641,"çļĦæĦıæĢĿæĺ¯":4642,"å§ĭ":4643,"çļĦæĬĢæľ¯":4644,"å®ĩå®ĻåŃ¦":4645,"Ġearly":4646,"éľ¸":4647,"æĭĨ":4648,"æĤĸ":4649,"onomous":4650,"esthetic":4651,"åħ³æ³¨":4652,"ä¹Łåı¯ä»¥":4653,"econstruc":4654,"Ġcriti":4655,"ew":4656,"ä¸įæĺ¯":4657,"ç³»å¤ĸè¡ĮæĺŁ":4658,"ç¿»è¯ĳæĪĲä¸ŃæĸĩæĹ¶":4659,"natural":4660,"æĭĵæīĳç»Ŀç¼ĺä½ĵ":4661,"nov":4662,"éľ¸æĿĥ":4663,"Ġincome":4664,"ä½Ĩè¦ģæ³¨æĦı":4665,"ç¡®å®ŀæĺ¯":4666,"Ġmeaning":4667,"åľ¨åĵ²åŃ¦":4668,"åĮĹ":4669,"åıĻè¿°":4670,"åĮ»çĸĹ":4671,"çĻ¾":4672,"och":4673,"ä¼ı":4674,"ord":4675,"å¸¸è¯ĳä¸º":4676,"Ġindustrial":4677,"ç´¢":4678,"vent":4679,"æĪ¿":4680,"Ġinsul":4681,"Ġrepresentation":4682,"arti":4683,"ä¸įéľĢè¦ģæĶ¹åĬ¨":4684,"äº¤åıī":4685,"æī©æķ£":4686,"èĢĥéĩı":4687,"åºĶè¯¥æĺ¯æĮĩ":4688,"ä»ħä»ħæĺ¯":4689,"Ġdespite":4690,"Ġphysics":4691,"?âĢĿï¼Į":4692,"cur":4693,"æĺ¯åĲ¦åĩĨç¡®ä¼łè¾¾äºĨ":4694,"Ġgrow":4695,"æł¹æį®ä¸Ĭä¸ĭæĸĩéĢīæĭ©":4696,"Ġexperience":4697,"æľįåĬ¡":4698,"ling":4699,"çļĦè½¬åıĺ":4700,"å¯Į":4701,"apse":4702,"scap":4703,"Ġevolve":4704,"stract":4705,"è¯Ńè¨ĢåŃ¦":4706,"Ġpolar":4707,"åħ¨æ°ĳåŁºæľ¬æĶ¶åħ¥":4708,"verse":4709,"ä¸ĸçķĮ":4710,"éĵľ":4711,"å»¶ç»Ń":4712,"æĹ¢ä¸ĵä¸ļåıĪ":4713,"ero":4714,"æĿ¥çľĭ":4715,"psych":4716,"æĹ¶åĢĻ":4717,"åıįçī©è´¨":4718,"å¾Īå¸¸è§ģ":4719,"Ġresearch":4720,"transform":4721,"Ġemotional":4722,"çĶ¨æĪ·æıĲä¾ĽçļĦèĭ±æĸĩåı¥åŃĲ":4723,"Ġplatform":4724,"Ġdemonstrate":4725,"imensional":4726,"åı¥åŃĲç»ĵæŀĦéĢļé¡º":4727,"titutional":4728,"Ġcivilizations":4729,"Ġstrati":4730,"èİ·å¾Ĺ":4731,"æĪĳçļĦä»»åĬ¡æĺ¯":4732,"æĸĩçĮ®ä¸Ńå¸¸çĶ¨":4733,"æī§è¡Į":4734,"èĮĥåĽ´åĨħ":4735,"Ġengineering":4736,"æĢ»ç»ĵä¸ĭæĿ¥":4737,"Ġhypoth":4738,"Ġdevices":4739,"åı¯å¡ĳæĢ§":4740,"ind":4741,"Ġcent":4742,"pe":4743,"åı¯èĥ½æĮĩ":4744,"è¯ģå®ŀ":4745,"Ġheat":4746,"åº·å¾·":4747,"ĠEx":4748,"Ġmeta":4749,"Ġenabled":4750,"Ġloops":4751,"Ġrevision":4752,"oplan":4753,"æĶ¾å¤§":4754,"spec":4755,"æĪĸèĢħæĺ¯åĲ¦":4756,"äººä¸º":4757,"Ġè¿Ļæł·æĹ¢åĩĨç¡®åıĪæµģçķħ":4758,"ä¿ĿæĮģåİŁç»ĵæŀĦ":4759,"åĢĴè£ħç»ĵæŀĦ":4760,"çĶ¨æĪ·æıĲåĪ°":4761,"arming":4762,"Ġconsequences":4763,"ä¸Ńæĺ¯":4764,"olete":4765,"æĪĸèĢħæĽ´ç®Ģæ´ģ":4766,"ç¡®è®¤æ²¡æľīéģĹæ¼ıä¿¡æģ¯":4767,"olic":4768,"è¿Ľç¨ĭ":4769,"çĶ¨æĪ·åı¯èĥ½å¸ĮæľĽç¿»è¯ĳåĲİçļĦåı¥åŃĲ":4770,"æĺ¯ä¸Ģä¸ªç¿»è¯ĳåĬ©æīĭ":4771,"å®ıè§Ĥ":4772,"ç¨į":4773,"è´£ä»»":4774,"yond":4775,"è¡¨è¾¾çļĦæĺ¯":4776,"éķľ":4777,"è§Ĵèī²":4778,"Ġris":4779,"Ġself":4780,"å®ŀä½ĵ":4781,"Therm":4782,"çļĦæĸ¹å¼ı":4783,"¿æ²Ł":4784,"ĠCRISPR":4785,"é¸¿æ²Ł":4786,"Con":4787,"æĬĢæľ¯é¢ĨåŁŁ":4788,"æ¶µ":4789,"èħĬ":4790,"å¿ħè¦ģ":4791,"gorithmic":4792,"æĶ¹åıĺäºĨ":4793,"ç®Ģåįķ":4794,"è¯¥":4795,"ç¡®ä¿Ŀæľ¯è¯ŃåĩĨç¡®":4796,"è§Ĥæµĭ":4797,"å¸ĮèħĬ":4798,"éĢĢçĽ¸å¹²":4799,"ä¸įèĥ½éļıæĦıæĽ´æĶ¹":4800,"Ġenables":4801,"æĤĸè®º":4802,"Ġediting":4803,"develop":4804,"pirical":4805,"asticity":4806,"å¯¹ç§°":4807,"ocurrency":4808,"çĦ¶åĲİæ£ĢæŁ¥æµģçķħæĢ§":4809,"è´¢æĶ¿":4810,"æī¿":4811,"æĪĳéľĢè¦ģç¡®å®ļ":4812,"ductivity":4813,"åįģå¹´":4814,"çļĦç¤¾ä¼ļ":4815,"Ġfunc":4816,"Ġrede":4817,"Ġvis":4818,"Ġmechanics":4819,"æĵįä½ľ":4820,"ä¹¦éĿ¢":4821,"å®¢":4822,"å¤ļä¸ª":4823,"Ġsociet":4824,"arine":4825,"å¤§èĦĳ":4826,"è´§å¸ģæĶ¿çŃĸ":4827,"Ġmethods":4828,"Ġç¿»è¯ĳæĪĲ":4829,"Ġdomin":4830,"ä¸»æµģ":4831,"Ġconstruc":4832,"äº¤æĺĵ":4833,"Ġsediment":4834,"Ġthis":4835,"å®ļè¯Ń":4836,"differ":4837,"è¶ħè¿ĩ":4838,"æĬ½è±¡è¡¨çİ°ä¸»ä¹ī":4839,"ç¨İ":4840,"æ°ĶåĢĻåıĺåĮĸ":4841,"åı¯èĥ½ä¸įå¤Ł":4842,"è¾ĵåħ¥çļĦéĹ®é¢ĺ":4843,"çĦ¶åĲİè¦ģæ£ĢæŁ¥":4844,"å¸¸è§ģæľ¯è¯Ń":4845,"Ġexpon":4846,"ances":4847,"fine":4848,"ç¡®è®¤æ²¡æľīéģĹæ¼ıä»»ä½ķä¿¡æģ¯":4849,"phys":4850,"åľ¨è¿ĻéĩĮç¿»è¯ĳä¸º":4851,"dian":4852,"èį¯":4853,"pt":4854,"åľ°å½¢":4855,"romagnetic":4856,"åģıè§ģ":4857,"éģĹä¼łåŃ¦":4858,"ä¸¥æł¼æĮīçħ§":4859,"çļĦåħ³ç³»":4860,"æĪı":4861,"Ġcho":4862,"å»¶è¿Ł":4863,"rc":4864,"ones":4865,"æĦıåĽ¾":4866,"Ġlandscap":4867,"ä¿¯åĨ²å¸¦":4868,"Ġaccuracy":4869,"çļĦåı¥åŃĲ":4870,"æŃ£ç¡®æĹłè¯¯":4871,"æİ¥ä¸ĭæĿ¥è¦ģæ£ĢæŁ¥":4872,"Ġemploy":4873,"æĸ¹æ³ķè®º":4874,"Ġecological":4875,"acilit":4876,"åį«":4877,"åĽŀçŃĶè¾ĵåħ¥çļĦéĹ®é¢ĺ":4878,"çļĦåĲĮæĹ¶":4879,"Ġpri":4880,"Ġqu":4881,"ä¸ĭéĻį":4882,"åģıè¯¯":4883,"åĸ»":4884,"è¿Ľå±ķ":4885,"åħ¨éĿ¢":4886,"äºĳ":4887,"ected":4888,"Ġsolar":4889,"state":4890,"æīĢä»¥æľĢç»ĪçļĦç¿»è¯ĳåºĶè¯¥æĺ¯":4891,"æ¯ıä¸ªè¯į":4892,"ç»Ħè£ħ":4893,"èŀįåħ¥":4894,"éĢĨ":4895,"å±ħ":4896,"åı¯èĥ½æĽ´è´´åĪĩ":4897,"abiliz":4898,"dri":4899,"è¡¨è¾¾äºĨ":4900,"odernist":4901,"åĨĽ":4902,"Ġrefl":4903,"Ġcr":4904,"è¡¨è¿°":4905,"æĸĩèīºå¤įåħ´æĹ¶æľŁ":4906,"emperature":4907,"ï¼Į\"":4908,"æĪĲä¸ºåı¯èĥ½":4909,"åı¯èĥ½æ¶īåıĬ":4910,"çĽĳç®¡":4911,"irmation":4912,"è½¦":4913,"sider":4914,"hibit":4915,"åľ¨è¿ĻéĩĮç¿»è¯ĳæĪĲ":4916,"è¿«":4917,"æī°":4918,"éĩįå¤į":4919,"Ġextr":4920,"Ġprinciple":4921,"thropogenic":4922,"av":4923,"lac":4924,"æ²¡æľīçī¹åĪ«":4925,"ä¸Ńæĸĩè¡¨è¾¾çļĦ":4926,"éĿĴéĵľ":4927,"éľĢè¦ģæĺİç¡®":4928,"æĪĲæľ¬":4929,"acceler":4930,"åĬ¨çī©":4931,"çĶ¨äºİè®ºæĸĩæĪĸ":4932,"Ġè¿ĻéĩĮçļĦåħ³éĶ®è¯įæĺ¯":4933,"æĪĸè®¸":4934,"æĪĲåĪĨ":4935,"è¡¥":4936,"æİ¥ä¸ĭæĿ¥çļĦ":4937,"ç»Łä¸Ģ":4938,"çļĦç¿»è¯ĳä»»åĬ¡":4939,"è°ĥæķ´è¯Ńåºıä¸º":4940,"æīĢä»¥ä½¿çĶ¨":4941,"å¥³":4942,"æ¸Ĳ":4943,"ç»Ŀå¯¹":4944,"erb":4945,"åľ¨æĸĩåŃ¦":4946,"ç¡®ä¿Ŀä¸Ńæĸĩ":4947,"åĲİéĿ¢çļĦ":4948,"åı¯èĥ½çĶ¨æĪ·æĺ¯":4949,"è¦ģåĩĨç¡®ä¼łè¾¾":4950,"Ġcl":4951,"æĮĩç¤º":4952,"åŁºåĽłç¼ĸè¾ĳæĬĢæľ¯":4953,"æľĢåĲİæ£ĢæŁ¥ä¸ĵä¸ļæľ¯è¯Ńæĺ¯åĲ¦æŃ£ç¡®":4954,"Ġinteraction":4955,"çĩĥ":4956,"ç¬¦åĲĪä¸Ńæĸĩè¯Ńæ³ķ":4957,"è®¾å¤ĩ":4958,"å¤ļæł·æĢ§":4959,"åħīåĲĪ":4960,"lobally":4961,"è®©åı¥åŃĲæĽ´éĢļé¡º":4962,"åĪºæ¿Ģ":4963,"Ġgrowth":4964,"æ¯ıä¸ªæľ¯è¯ŃçļĦåĲ«ä¹ī":4965,"fr":4966,"ç¡ħ":4967,"åĴĮä¸ĵä¸ļ":4968,"Ġproblem":4969,"ĠæĪĳçļĦä»»åĬ¡æĺ¯":4970,"Ġclo":4971,"Ġsecurity":4972,"Ġine":4973,"é¡¿":4974,"åľ¨ç»ıæµİåŃ¦":4975,"çĦ¶åĲİçľĭ":4976,"ç¬Ķè§¦":4977,"ä¸ĵä¸ļä¸Ķ":4978,"acerb":4979,"å·¥ä¸ļåĮĸ":4980,"oplanet":4981,"industrial":4982,"Ġpo":4983,"åĴĮèĩªçĦ¶":4984,"æľĢå¤§":4985,"Ġhier":4986,"Ġnan":4987,"å·¥åħ·":4988,"åĲįç§°":4989,"æĺ¾ç¤º":4990,"æĺ¯åĲ¦å¸¸çĶ¨":4991,"ç¡®è®¤åģıè¯¯":4992,"æľªæĿ¥":4993,"umption":4994,"pr":4995,"ç®Ģæ´ģæĺİäºĨ":4996,"ocus":4997,"å¹¿æ³ĽéĩĩçĶ¨":4998,"æľīæľº":4999,"æĽ´æĺİç¡®":5000,"æĻ¶":5001,"æ¸¸":5002,"è¯Ħè®º":5003,"æĪĳçİ°åľ¨è¦ģå¤ĦçĲĨçĶ¨æĪ·çļĦç¿»è¯ĳè¯·æ±Ĥ":5004,"åĽĽ":5005,"åį¡":5006,"thesis":5007,"æ¸©åº¦":5008,"è´Łè´£":5009,"fundamentally":5010,"ender":5011,"æıĲåĩºçļĦ":5012,"century":5013,"æĪĳéľĢè¦ģç¡®ä¿Ŀç¿»è¯ĳ":5014,"ä¿ĥæĪĲ":5015,"'t":5016,"ä»¤":5017,"æŃĮ":5018,"æ£ĢæŁ¥ä¸ĵä¸ļæľ¯è¯Ńæĺ¯åĲ¦æŃ£ç¡®":5019,"æĦıè¯Ĩå½¢æĢģ":5020,"æ¯Ķå¦Ĥå°Ĩ":5021,"Ġcomplete":5022,"Ġbasic":5023,"Met":5024,"Ġintegr":5025,"ä¸įåĲĮäºİ":5026,"Ġboundaries":5027,"Ur":5028,"èĥŀ":5029,"inforc":5030,"ç§ģ":5031,"çļĦä½¿çĶ¨":5032,"æ²¿":5033,"Ġincreased":5034,"æ£ĢæŁ¥æµģçķħæĢ§":5035,"opolitical":5036,"Ġoc":5037,"Ġnot":5038,"çĽ¸å½ĵäºİ":5039,"less":5040,"éĩįå¤§":5041,"çĹķ":5042,"Ġshift":5043,"å¿«éĢŁ":5044,"æ¯ıä¸ªæľ¯è¯ŃçļĦæŃ£ç¡®ç¿»è¯ĳ":5045,"Urban":5046,"alism":5047,"archi":5048,"ä¸ľ":5049,"æĿ¥æııè¿°":5050,"è¿Ļæł·è¯»èµ·æĿ¥":5051,"åīįåĲİ":5052,"å¹¿æ³ĽåºĶçĶ¨":5053,"èīºæľ¯åı²":5054,"æ²¹":5055,"éĩįè§Ĩ":5056,"æĪĺåĲİ":5057,"æĸ°çļĦ":5058,"è·Ł":5059,"Topological":5060,"åŃ¦æľ¯ä¸¥è°¨æĢ§":5061,"ectonic":5062,"æľīæ²¡æľīéģĹæ¼ıä¿¡æģ¯":5063,"åİŁåı¥ä¸ŃçļĦæ¯ıä¸ªéĥ¨åĪĨéĥ½":5064,"æ¶ĪèĢĹ":5065,"ä½Ĩåı¯èĥ½éľĢè¦ģ":5066,"äººçļĦ":5067,"utational":5068,"Ġimper":5069,"æ°´å¹³":5070,"æľīæ²¡æľīæĽ´å¥½çļĦ":5071,"æīĢä»¥åı¯èĥ½éľĢè¦ģè°ĥæķ´è¯Ńåºı":5072,"omorph":5073,"æ¯Ķè¾ĥä¼ĺåĬ¿çĲĨè®º":5074,"while":5075,"Ġfiction":5076,"æľºæŀĦ":5077,"èĢĮä¸įä»ħä»ħæĺ¯":5078,"ç»Ĩèĥŀ":5079,"èįĲ":5080,"ancements":5081,"æ¶µçĽĸ":5082,"ä¸ŃçļĦä¸Ģä¸ª":5083,"æķ°åŃ¦":5084,"çĶ¨æĪ·å¼ºè°ĥå¿ħé¡»":5085,"ä¸Ĭåįĩ":5086,"æĿĥå¨ģ":5087,"Ġfragmentation":5088,"Ġcalc":5089,"fig":5090,"æīĺ":5091,"æİ¨èįĲ":5092,"Ġplate":5093,"cognitive":5094,"æĽ´çĽ´æİ¥":5095,"æ£Ģ":5096,"åįıè°ĥ":5097,"éĿĴéĵľæĹ¶ä»£":5098,"çĸĳéĹ®åı¥çļĦç»ĵæŀĦ":5099,"anced":5100,"æİ¥è¿ĳ":5101,"æĪĳéľĢè¦ģä»Ķç»Ĩéĺħè¯»":5102,"Ġcosm":5103,"osion":5104,"ĠNe":5105,"è¿ĺè¦ģæ³¨æĦıä¸ĵä¸ļæľ¯è¯ŃçļĦæŃ£ç¡®æĢ§":5106,"åĽ¾ä¹¦":5107,"Ġerosion":5108,"åĽ¾ä¹¦é¦Ĩ":5109,"energy":5110,"ç¿»è¯ĳæĹ¶ä¿ĿæĮģ":5111,"çªģåĩº":5112,"organ":5113,"èµĦæĸĻ":5114,"çĹķè¿¹":5115,"oes":5116,"ç¬¦åĲĪä¸Ńæĸĩç§ĳæĬĢæĸĩçĮ®":5117,"Ġbiases":5118,"çĭ¬çī¹":5119,"Ġzones":5120,"ĦæĸŃ":5121,"ä½Ĩåľ¨":5122,"å®ŀæĹ¶":5123,"ç¬¦åĲĪä¸Ńæĸĩè¡¨è¾¾":5124,"éĩįåķĨ":5125,"åŀĦæĸŃ":5126,"åı¤ä»£":5127,"astal":5128,"recon":5129,"Ġincorpor":5130,"Ġtheore":5131,"èįĴ":5132,"ç¡®ä¿Ŀç¿»è¯ĳ":5133,"å±ķçİ°":5134,"utions":5135,"Ġfield":5136,"åĪ°ä½į":5137,"åħīä¼ı":5138,"çĽ¸åħ³çļĦ":5139,"æĬĺå°Ħçİĩ":5140,"AI":5141,"tiliz":5142,"éľĢè¦ģç¡®ä¿Ŀæľ¯è¯ŃæŃ£ç¡®":5143,"åĩĨç¡®å¯¹åºĶ":5144,"Ġforms":5145,"Ġvir":5146,"çº³åħ¥":5147,"æĲŃ":5148,"çļĦä¸Ńæĸĩ":5149,"èĲ¥åħ»":5150,"ç¬¦åĲĪçĶ¨æĪ·çļĦæīĢæľīè¦ģæ±Ĥ":5151,"éĩĬæĶ¾":5152,"åı¥åŃĲæµģçķħ":5153,"ç»ĵæŀĦçļĦ":5154,"Ġinnov":5155,"åı¯èĥ½éľĢè¦ģè°ĥæķ´ä¸º":5156,"Ġhyd":5157,"çĲĨæĢ§éĢīæĭ©":5158,"å¤ĦçĲĨæĪĲ":5159,"åĨįè¯´":5160,"æľīä¸Ģå®ļçļĦ":5161,"æĽ´æ¸ħæĻ°":5162,"Ġconst":5163,"Ġcharacter":5164,"Ġemphas":5165,"åĽºæĢģ":5166,"æ°§åĮĸ":5167,"alter":5168,"çĦ¶åĲİèĢĥèĻĳåı¥åŃĲçļĦæµģçķħæĢ§":5169,"åĲİæ®ĸæ°ĳæĸĩåŃ¦":5170,"Ġconventions":5171,"æ½ľåľ¨":5172,"æķı":5173,"sts":5174,"ç¬¦åĲĪåŃ¦æľ¯è¯Ńå¢ĥ":5175,"phot":5176,"æĺ¯åľ¨éĹ®":5177,"äºļåİĨ":5178,"æ£ĢæŁ¥æĺ¯åĲ¦æľīéģĹæ¼ıæĪĸéĶĻè¯¯":5179,"An":5180,"app":5181,"æľ«":5182,"asible":5183,"è¿Ļæł·æĹ¢ä¿ĿæĮģäºĨ":5184,"æĥħå¢ĥ":5185,"æĪĳéľĢè¦ģç¿»è¯ĳè¿Ļä¸ª":5186,"Ġthaw":5187,"åİŁåı¥æĺ¯æĿ¡ä»¶åı¥":5188,"Ġgenetic":5189,"Ġmicro":5190,"æľŁéĹ´":5191,"è±¡å¾ģ":5192,"olographic":5193,"Ġbecomes":5194,"æĹ¶æĢģ":5195,"æĿ¡ä»¶æĶ¾åľ¨åīįéĿ¢":5196,"Ġspatial":5197,"æĺŁéĻħ":5198,"ç¿»è¯ĳçļĦè¦ģæ±Ĥ":5199,"æ·±å±Ĥ":5200,"Ġgeneral":5201,"Behavioral":5202,"çĶ¨æĪ·çī¹åĪ«å¼ºè°ĥ":5203,"å¤ļåĪ©äºļ":5204,"ç»´å¤ļåĪ©äºļ":5205,"åŁºåĽłé©±åĬ¨":5206,"æĮģç»ŃåŃĺåľ¨":5207,"Pl":5208,"åĬ±":5209,"æŃ£ç¡®æĢ§":5210,"ä¸ŃæĸĩéĩĮéĢļå¸¸ä¼ļçĶ¨":5211,"structuralist":5212,"oherence":5213,"å°Ĩè¿Ļåı¥è¯Ŀ":5214,"Ġbehavior":5215,"change":5216,"æľīçī¹å®ļ":5217,"ä¸»ä½ĵ":5218,"Ġconsider":5219,"Ġdisc":5220,"ç¦ı":5221,"å±±å¤§":5222,"Ġdemonstrates":5223,"äºļåİĨå±±å¤§":5224,"å½¢æĪĲçļĦ":5225,"ĠAge":5226,"æľīä¸Ģå®ļäºĨè§£":5227,"50":5228,"ç¿»è¯ĳä¸Ń":5229,"çĽ´æİ¥ç»Ļåĩºç¿»è¯ĳç»ĵæŀľ":5230,"åľ¨çĽ¸åħ³é¢ĨåŁŁ":5231,"ç¡®ä¿Ŀç¿»è¯ĳç»ĵæŀľ":5232,"å°ĨéľĢè¦ģ":5233,"Game":5234,"ç¬¦åĲĪä¸ŃåĽ½":5235,"Ġmatter":5236,"è½¬æĬĺ":5237,"Ġpolitical":5238,"influ":5239,"æµĵ":5240,"ä¸įå¤ª":5241,"æ£ĢæŁ¥æľ¯è¯Ńæĺ¯åĲ¦æŃ£ç¡®":5242,"å¤§è§Ħæ¨¡":5243,"å²¸":5244,"æīĢä»¥åı¯ä»¥ç¿»è¯ĳä¸º":5245,"Ġoper":5246,"sim":5247,"è®¤çŁ¥åģıå·®":5248,"èĬ¯":5249,"å¼ķåıĳåĵªäºĽ":5250,"åı¯è¡ĮæĢ§":5251,"é²ľ":5252,"ç¢³éħ¸çĽĲ":5253,"archies":5254,"æ¯Ķè¾ĥæŃ£å¼ı":5255,"çĶ¨æĪ·åı¯èĥ½å¯¹":5256,"Ġuni":5257,"Ġrelationships":5258,"åĲĮæĹ¶éģµå¾ª":5259,"çĽ´æİ¥ç¿»è¯ĳä¸º":5260,"è¦ģæ³¨æĦıä¸ĵä¸ļæľ¯è¯ŃçļĦåĩĨç¡®æĢ§":5261,"ç½²":5262,"åľ¨è¿ĻéĩĮæĮĩ":5263,"super":5264,"Ġformations":5265,"èµĦæľ¬ä¸»ä¹ī":5266,"Ġposits":5267,"éĢĶ":5268,"Ġindividual":5269,"ucle":5270,"æĸ¹éĿ¢çļĦ":5271,"Ġvari":5272,"Ġaddress":5273,"Ġneg":5274,"æĪĳéľĢè¦ģçĲĨè§£æ¯ıä¸ªæľ¯è¯ŃçļĦæĦıæĢĿ":5275,"Could":5276,"æĪª":5277,"èģĶç½ĳ":5278,"æķħ":5279,"åħ¨çĲĥèĮĥåĽ´åĨħ":5280,"Ġdesign":5281,"è¿Ļæł·æĹ¢åĩĨç¡®åıĪæµģçķħ":5282,"éĢļå¸¸ä½¿çĶ¨è¾ĥä¸ºæŃ£å¼ı":5283,"è¿Ļæł·æĽ´èĩªçĦ¶":5284,"taic":5285,"çĶ¨æĪ·è¿ĺ":5286,"ä½ĨéľĢè¦ģç¡®è®¤":5287,"Ġban":5288,"universal":5289,"Ġcontain":5290,"åĩĨç¡®æĢ§åĴĮæµģçķħæĢ§":5291,"æłĳ":5292,"Ġwidespread":5293,"å¤įæĿĤçļĦ":5294,"æ¢¯":5295,"æĺ¯åĲ¦æģ°å½ĵ":5296,"ç»ıå¸¸":5297,"å¥¥":5298,"æĪĳè¦ģä»Ķç»ĨçĲĨè§£åİŁåı¥çļĦæĦıæĢĿ":5299,"Ġsch":5300,"èĢĮä¸Ķ":5301,"èĢĥèĻĳæĸĩåĮĸéĢĤåºĶæĢ§":5302,"è·¯å¾Ħ":5303,"æĹ¥å¸¸":5304,"atives":5305,"åĪ»":5306,"Ġdistinc":5307,"èĩªå·±æĺ¯ä¸Ģä¸ªç¿»è¯ĳåĬ©æīĭ":5308,"Ġmethodologies":5309,"Thermohaline":5310,"ä¸įåĬł":5311,"éļĶ":5312,"æıĲä¾Ľç¿»è¯ĳç»ĵæŀľ":5313,"ç»¸":5314,"etwork":5315,"ç²¾åº¦":5316,"ç¬¬äºĮ":5317,"Ġconsumption":5318,"Ġimpacts":5319,"çĶ¨æĪ·å¸ĮæľĽ":5320,"æķ°åŃĹé¸¿æ²Ł":5321,"å¡ĳéĢł":5322,"æĲŃéħį":5323,"vit":5324,"çļĦæĹ¶éĹ´":5325,"åľ£":5326,"éĥ¨ç½²":5327,"uctu":5328,"è¯Ńæ³ķåĴĮ":5329,"ä½¿åı¥åŃĲæĽ´éĢļé¡º":5330,"æ²¡æľīæ·»åĬłæĪĸ":5331,"æĺ¯éĢļè¿ĩ":5332,"elect":5333,"ä¸Ŀç»¸":5334,"global":5335,"éĹŃ":5336,"å»ºæŀĦ":5337,"Ġparadox":5338,"çĶ¨æĪ·æĺİç¡®è¯´æĺİ":5339,"ä¸ŃçļĦæłĩåĩĨè¯ĳæ³ķ":5340,"é©±åĬ¨çļĦ":5341,"ä¸ªä½ĵ":5342,"Ġnovels":5343,"achieve":5344,"ä¸ºäºĨ":5345,"æłĩåĩĨè¯ĳåĲį":5346,"æī©å¼ł":5347,"è®Ń":5348,"revolution":5349,"æŃ£ç¡®ä½¿çĶ¨":5350,"Ġauthentic":5351,"æīĢä»¥ç¿»è¯ĳ":5352,"ustain":5353,"éĴĻ":5354,"æ¯ıä¸ªæľ¯è¯ŃçļĦåĩĨç¡®ç¿»è¯ĳ":5355,"umptions":5356,"Phot":5357,"ough":5358,"itance":5359,"romatic":5360,"ä¼¦çĲĨéĹ®é¢ĺ":5361,"æĿ¥å¯¹åºĶ":5362,"åľ°çĲĨåŃ¦":5363,"çĶ¨æĪ·è®©æĪĳç¿»è¯ĳè¿Ļä¸ªåħ³äºİ":5364,"è¶ħèĩªçĦ¶":5365,"Ġartistic":5366,"é»ĳ":5367,"vis":5368,"ades":5369,"ä¸Ķä¸ĵä¸ļ":5370,"Ġachieved":5371,"åªĴä»ĭ":5372,"ining":5373,"enment":5374,"åı¯èĥ½çļĦ":5375,"lightenment":5376,"ç¡®ä¿Ŀè¯»èĢħ":5377,"äº¤æį¢":5378,"Ġparticle":5379,"Ġsupply":5380,"åħīåĲĪä½ľçĶ¨":5381,"å¼ºçĥĪ":5382,"ä¹ĭè·¯":5383,"Ġplan":5384,"éĩįåķĨä¸»ä¹ī":5385,"äºļåİĨå±±å¤§åĽ¾ä¹¦é¦Ĩ":5386,"ä¸Ŀç»¸ä¹ĭè·¯":5387,"nlightenment":5388,"æľīä½ķ":5389,"æĹ¦":5390,"æīĢä»¥éľĢè¦ģ":5391,"veal":5392,"Ġverification":5393,"Ġgovernance":5394,"uation":5395,"Ġred":5396,"è´¨éĩı":5397,"åıªè´Łè´£":5398,"Ġorganisms":5399,"é¢ĨåŁŁå¸¸çĶ¨":5400,"Ġstud":5401,"äºĮæ°§åĮĸ":5402,"Ġrock":5403,"Ġsynthetic":5404,"Ġrelativity":5405,"ä¼¤":5406,"åľ°çĲĨ":5407,"çĽ¸åħ³æĢ§":5408,"è¯ģæį®":5409,"Modernist":5410,"æŃ£ç¡®çļĦæľ¯è¯Ń":5411,"Ġchange":5412,"ä½ĨéľĢè¦ģç¡®ä¿Ŀ":5413,"ä½ķç§į":5414,"åįĬå¯¼ä½ĵ":5415,"ä»įçĦ¶":5416,"war":5417,"ogenetic":5418,"è¢«åĩĨç¡®ä¼łè¾¾":5419,"Ġfrequently":5420,"åĨĹéķ¿":5421,"Ġeduc":5422,"ä¸ĢæĹ¦":5423,"ises":5424,"åľ¨ä¸Ńæĸĩè¯Ńå¢ĥä¸Ń":5425,"Ġaccess":5426,"ifications":5427,"Can":5428,"æľīæľĽ":5429,"æĹı":5430,"è¿ĻéĩĮéľĢè¦ģæ³¨æĦı":5431,"Ġcorrelates":5432,"å¯¹æĸ¹":5433,"ç¼ĸç¨ĭ":5434,"Ġproperties":5435,"æĪĳéľĢè¦ģæĬĬçĶ¨æĪ·æıĲä¾ĽçļĦèĭ±æĸĩåı¥åŃĲç¿»è¯ĳæĪĲä¸Ńæĸĩ":5436,"éĥ½æĺ¯æłĩåĩĨè¯ĳæ³ķ":5437,"çĽ´è¯ĳçļĦè¯Ŀ":5438,"ä¸įç¡®å®ļæĢ§":5439,"ner":5440,"ĠF":5441,"Ġri":5442,"å¯¹è¯Ŀ":5443,"ä¸ĵä¸ļæľ¯è¯Ńä½¿çĶ¨æŃ£ç¡®":5444,"è¿Ļæł·çĶ¨æĪ·":5445,"plac":5446,"Ġviable":5447,"Ġlandscapes":5448,"dimensional":5449,"åĪĨåı¥":5450,"åıĳæĺİ":5451,"éĽ¶":5452,"comes":5453,"Ġvalue":5454,"roscopic":5455,"pid":5456,"ze":5457,"åľĪ":5458,"Ġconfl":5459,"å¼ķåħ¥":5460,"åĪĿæŃ¥":5461,"?âĢĿãĢĤ":5462,"éĢģ":5463,"çĶ¨æĪ·æıĲä¾ĽçļĦç¿»è¯ĳä»»åĬ¡":5464,"æĪªçĦ¶":5465,"While":5466,"list":5467,"çĶŁçī©ç¥ŀç»ıç½ĳç»ľ":5468,"åĤ¬çĶŁ":5469,"ä¸Ńå¸¸è§ģ":5470,"åı¯èĥ½æĮĩçļĦæĺ¯":5471,"atures":5472,"Ġgeological":5473,"ding":5474,"ux":5475,"Ġtime":5476,"incre":5477,"å¼ºåº¦":5478,"Ġprog":5479,"è®°å¿Ĩ":5480,"å¿łå®ŀäºİ":5481,"æĹĭ":5482,"æĽ´èĩªçĦ¶çļĦè¡¨è¾¾":5483,"æĦŁè§ī":5484,"åĪł":5485,"ä½¿çĶ¨äºĨ":5486,"åĲĮæĹ¶ç¬¦åĲĪä¸ŃæĸĩçļĦè¡¨è¾¾ä¹łæĥ¯":5487,"Ġemploys":5488,"è¡¨ç¤ºåı¯èĥ½æĢ§":5489,"Ġprioritize":5490,"Ġintegration":5491,"Ġinheritance":5492,"æīĢä»¥ä¸Ńæĸĩ":5493,"ries":5494,"æµĵåº¦":5495,"è¦ģç¿»è¯ĳæĪĲ":5496,"å¤įåĪ¶":5497,"è¢«åĬ¨è¯ŃæĢģ":5498,"è¾¨":5499,"åı¯èĥ½è¿ĺ":5500,"orld":5501,"æĺ¯åĲ¦æµģçķħ":5502,"æĺİæļĹ":5503,"æĿ¡ä»¶çĬ¶è¯Ń":5504,"åľ¨åŃ¦æľ¯è¯Ńå¢ĥä¸Ń":5505,"éĹ¨":5506,"è®¡åĪĴ":5507,"Ġimplemented":5508,"åľ¨åĲİ":5509,"Ġnatural":5510,"ubl":5511,"è¶ħå¯¼ä½ĵ":5512,"çĦ¶åĲİæĺ¯æµģçķħæĢ§":5513,"æĹ¢åĩĨç¡®åıĪæµģçķħ":5514,"ä¸Ńæĸĩè¯»èĢħåı¯èĥ½æĽ´ä¹łæĥ¯":5515,"Ġmovements":5516,"åį´":5517,"Ġprioritizes":5518,"éĺĲéĩĬ":5519,"Ġexponentially":5520,"çļĦè§£éĩĬæĪĸ":5521,"æīĢä»¥è°ĥæķ´":5522,"æľĢåĲİåĨįéĢļè¯»ä¸Ģéģį":5523,"å¹¶ç½®":5524,"æľĢåĲİæ£ĢæŁ¥ä¸Ģéģį":5525,"éĻįæ°´":5526,"Ġimpact":5527,"techn":5528,"æĽ´æ³¨éĩį":5529,"åŃ¦æľ¯çķĮ":5530,"åĶ":5531,"ç¿»è¯ĳåı¯èĥ½æĺ¯":5532,"è®¢":5533,"æľĢåĲİæ£ĢæŁ¥æķ´ä¸ªåı¥åŃĲ":5534,"Ġcollapse":5535,"æĢ§åĴĮ":5536,"ç§¯ç´¯":5537,"æŁĲä¸ª":5538,"social":5539,"ĠH":5540,"ç»ĦåĲĪ":5541,"éľĢè¦ģåĩĨç¡®çļĦæľ¯è¯Ńç¿»è¯ĳ":5542,"æĭħ":5543,"izing":5544,"Ġdecoherence":5545,"Ġenvironments":5546,"Ġscientific":5547,"ä¸ĭçļĦ":5548,"versus":5549,"æľĢåĲİéĢļè¯»ä¸Ģéģį":5550,"çĲĨè®ºçļĦ":5551,"ä¿®æĶ¹":5552,"ä¿ĥè¿ĽäºĨ":5553,"Ġchoice":5554,"è¿Ļåľ¨":5555,"éģĹæ¼ıä¿¡æģ¯":5556,"åľ¨ä¸ŃæĸĩæĸĩçĮ®ä¸Ń":5557,"ç¤¾ä¼ļç»ıæµİ":5558,"æµ·å²¸":5559,"ä¸Ńå¤®éĵ¶è¡Į":5560,"Ġstratification":5561,"classical":5562,"è¶ĭåĬ¿":5563,"te":5564,"åºĶä¸º":5565,"æ²¡æľīä½¿çĶ¨":5566,"å¥ĩ":5567,"Why":5568,"çļĦæĥħåĨµä¸ĭ":5569,"mm":5570,"obs":5571,"å¦Ĥä½ķæĮĳæĪĺ":5572,"çĶ¨æĪ·çļĦè¿Ļä¸ªç¿»è¯ĳè¯·æ±Ĥ":5573,"åĮĹæŀģ":5574,"Ġ**":5575,"å¹¶ä¸Ķæľī":5576,"è¯º":5577,"æĺ¯è¯´":5578,"æ¯ĶçĽ´è¯ĳ":5579,"äºīè®®":5580,"Ġoutcomes":5581,"æŁĵ":5582,"çĽ´æİ¥ç¿»è¯ĳåį³åı¯":5583,"standing":5584,"Ġcognition":5585,"Ġfin":5586,"Ġare":5587,"å°±èĥ½":5588,"çĥ¯":5589,"Ġcontemporary":5590,"Ġpersist":5591,"æŀģç«¯":5592,"è½¨è¿¹":5593,"Ġglobally":5594,"çŁ¥éģĵ":5595,"Ġstability":5596,"çļĦåĩĨç¡®æĢ§":5597,"å¤įæķ°å½¢å¼ı":5598,"ä¸Ńæĸĩä¸Ńå¸¸çĶ¨":5599,"Ġrights":5600,"Ġir":5601,"ï¼ĽâĢľ":5602,"ugges":5603,"ardian":5604,"åĪĨç±»":5605,"çº¯":5606,"éĩįç»Ħ":5607,"itig":5608,"è¯ĹæŃĮ":5609,"bital":5610,"low":5611,"ultaneously":5612,"Ġcontainment":5613,"iod":5614,"Ġabs":5615,"å®¤æ¸©":5616,"Ġpreservation":5617,"äºĮæ°§åĮĸç¢³":5618,"åıªéľĢ":5619,"æ¹¿":5620,"æĽ´é«ĺçļĦ":5621,"åĪłåĩı":5622,"çļĦå¯¹æ¯Ķ":5623,"æĺ¯ä¸ĵä¸ļæľ¯è¯Ń":5624,"æķ°éĩı":5625,"å¤įæĿĤæĢ§":5626,"Ġrecognition":5627,"æº¶è§£":5628,"lacial":5629,"ered":5630,"åľ¨å¤ļ":5631,"ç¬¦åĲĪè¦ģæ±Ĥ":5632,"ä½ĨæľīæĹ¶åĢĻ":5633,"Ġdivergent":5634,"è¥¿æĸ¹":5635,"æĦıåĳ³çĿĢ":5636,"åĽºæĢģçĶµæ±ł":5637,"cos":5638,"è¿½":5639,"äº²":5640,"tue":5641,"ä¿®è®¢":5642,"haul":5643,"åĬ³åĬ¨åĬĽå¸Ĥåľº":5644,"æŃ¢":5645,"Ġaesthetic":5646,"Ġcommer":5647,"Ġfeasible":5648,"è¿ģç§»":5649,"Ġits":5650,"ä¸ŃéĢļå¸¸ç¿»è¯ĳä¸º":5651,"çĲĨå¿µ":5652,"Ġdark":5653,"ä¸İä¼łç»Ł":5654,"åħīè°±":5655,"é¢Ŀå¤ĸè§£éĩĬ":5656,"ä¿®æŃ£":5657,"éĢĤåĲĪåŃ¦æľ¯è¯Ńå¢ĥ":5658,"Ġtransition":5659,"æ¯Ķçī¹":5660,"icardian":5661,"ets":5662,"çĸĹæ³ķ":5663,"ä¸ĢæŃ¥":5664,"ä½Ĩä¸Ńæĸĩä¸Ń":5665,"çī¹å®ļçļĦç¿»è¯ĳè¦ģæ±Ĥ":5666,"Ġassumptions":5667,"dependent":5668,"æ£ĢæŁ¥åĩĨç¡®æĢ§":5669,"ade":5670,"exts":5671,"Ġphysical":5672,"Ġscul":5673,"łéĩĬ":5674,"æĿ¥ä¼łè¾¾":5675,"åİĨåı²åŃ¦":5676,"æĺ¯åĲ¦ç¬¦åĲĪæīĢæľīè¦ģæ±Ĥ":5677,"åħ¨çĲĥåĮĸ":5678,"Postcolonial":5679,"contin":5680,"ä¸ŃæĸĩéĩĮéĢļå¸¸çĶ¨":5681,"pol":5682,"ĠT":5683,"æĽ´ç¬¦åĲĪä¸ŃæĸĩçļĦ":5684,"çĸ«":5685,"æľĢåĲİæ£ĢæŁ¥ä¸Ģä¸ĭ":5686,"Ġimpro":5687,"çĥŃå¸¦":5688,"Ġcapac":5689,"tility":5690,"Ġrad":5691,"æĬķèµĦ":5692,"soci":5693,"æĹ¶ç©º":5694,"æ±½":5695,"åĨħéĥ¨":5696,"æĺİæĺ¾":5697,"ictor":5698,"æĪĳè¦ģçĲĨè§£è¿Ļåı¥è¯ĿçļĦæĦıæĢĿ":5699,"Ġinequal":5700,"Ġup":5701,"Ġbl":5702,"æłĩå¿Ĺ":5703,"åħ³éĶ®æĺ¯":5704,"Ġinternational":5705,"Epigenetic":5706,"Ġast":5707,"æĺłå°Ħ":5708,"Ġcreate":5709,"æĸ¹å¼ıçĬ¶è¯ŃæĶ¾åľ¨åīįéĿ¢":5710,"Renaissance":5711,"Ġstim":5712,"omation":5713,"cient":5714,"æ·ĺ":5715,"å¼ķèµ·æŃ§ä¹ī":5716,"åłĨ":5717,"Impressionist":5718,"è¯łéĩĬ":5719,"ulsion":5720,"Ġob":5721,"åı¥åŃĲçļĦæķ´ä½ĵç»ĵæŀĦ":5722,"è§Ĥä¼Ĺ":5723,"åĮºåĪĨ":5724,"Ġtraditions":5725,"è§£éĩĬæĪĸé¢Ŀå¤ĸä¿¡æģ¯":5726,"éĻ·":5727,"æľĢåĲİæ£ĢæŁ¥æľ¯è¯Ńæĺ¯åĲ¦æŃ£ç¡®":5728,"ç¾İæ´²":5729,"non":5730,"textual":5731,"Ľåħĭ":5732,"æ±°":5733,"æł¼å±Ģ":5734,"Ġlife":5735,"ä¸Ńæĸĩè¡¨è¾¾çļĦæµģçķħæĢ§":5736,"Ġhierarchies":5737,"æ·ĺæ±°":5738,"Ġè¿ĻéĩĮæĮĩçļĦæĺ¯":5739,"Ġmodeling":5740,"åĽ°å¢ĥ":5741,"Cub":5742,"Ġrele":5743,"ãĢĬ":5744,"ãĢĭ":5745,"Postmodern":5746,"Ġline":5747,"ç§ĳæĬĢé¢ĨåŁŁ":5748,"æŀģåĮĸ":5749,"ellar":5750,"å¸¸å¸¸":5751,"æ°ĳä¸»":5752,"æł¹æľ¬æĢ§çļĦ":5753,"åħ·ä½ĵçļĦç¿»è¯ĳè¦ģæ±Ĥ":5754,"å®¢è§Ĥ":5755,"scale":5756,"æĽ´ç¬¦åĲĪä¸ŃæĸĩçļĦè¡¨è¾¾ä¹łæĥ¯":5757,"åı¸":5758,"åı¥åŃĲéĢļé¡º":5759,"Ġactivity":5760,"influence":5761,"tap":5762,"Ġrefr":5763,"æ¼ıæİī":5764,"Ġsuperposition":5765,"Ġcycles":5766,"Ġpopulations":5767,"coun":5768,"æīĢä»¥æĪĳè¦ģç¡®ä¿Ŀ":5769,"ç»ıåİĨ":5770,"correl":5771,"Ġevolutionary":5772,"more":5773,"éĻĪ":5774,"ä¹ĭç±»":5775,"éª¤":5776,"æķ´ä¸ªåı¥åŃĲçļĦç»ĵæŀĦæĺ¯":5777,"ĠæĮĩçļĦæĺ¯":5778,"Ġplatforms":5779,"rational":5780,"Ġè¿Ļéĥ¨åĪĨ":5781,"åĲ¸":5782,"arity":5783,"åıĳçĶµ":5784,"uxtap":5785,"Social":5786,"ĠéľĢè¦ģç¿»è¯ĳæĪĲä¸Ńæĸĩ":5787,"Ġwill":5788,"åĩĨå¤ĩ":5789,"æľĢåĲİæ£ĢæŁ¥æĺ¯åĲ¦æľīéģĹæ¼ıæĪĸéĶĻè¯¯":5790,"ugment":5791,"ergo":5792,"Ġeconomy":5793,"Ġmeasure":5794,"è¾©":5795,"æĮ¯":5796,"æľĢåĲİæĺ¯":5797,"Ġconditions":5798,"Ġperiod":5799,"Ġtherap":5800,"Metamaterial":5801,"ä¸¢":5802,"çļĦèĥ½åĬĽ":5803,"æīĢä»¥ç¿»è¯ĳæĹ¶è¦ģ":5804,"å¤ĦçĲĨä¸ĵä¸ļæľ¯è¯Ń":5805,"irror":5806,"åĪĨæŀĲåİŁåı¥çļĦç»ĵæŀĦåĴĮ":5807,"Ġcompar":5808,"ç¾İå¾·":5809,"åħ¨æģ¯åİŁçĲĨ":5810,"Ġaccount":5811,"physical":5812,"åľ¨åīį":5813,"Ġmem":5814,"Ġour":5815,"hist":5816,"å¤§æĦı":5817,"åı¯èĥ½æĽ´éĢĤåĲĪ":5818,"æĪĳçİ°åľ¨éľĢè¦ģæĬĬçĶ¨æĪ·æıĲä¾ĽçļĦèĭ±æĸĩåı¥åŃĲç¿»è¯ĳæĪĲä¸Ńæĸĩ":5819,"é²ľæĺİ":5820,"au":5821,"ç¿»è¯ĳåĪ°ä½į":5822,"éĤ£äºĽ":5823,"æļ´":5824,"conduct":5825,"åĲİåįĬåı¥çļĦ":5826,"å¼ķå¯¼çļĦ":5827,"Ġdrives":5828,"Ġphenomena":5829,"onance":5830,"è¿ĩåİ»":5831,"ocene":5832,"ç¨ĭåº¦ä¸Ĭ":5833,"ç¡®ä¿Ŀåı¥åŃĲè¯»èµ·æĿ¥èĩªçĦ¶":5834,"Ġpolarization":5835,"emerg":5836,"ä¼ļæĽ´èĩªçĦ¶":5837,"precipit":5838,"åĢŁåĬ©":5839,"æ¥":5840,"åŁºåĽłç»Ħ":5841,"canic":5842,"åıĳèĤ²":5843,"æ°Ķä½ĵ":5844,"eff":5845,"éĢ»è¾ĳé¡ºåºı":5846,"ĠAI":5847,"ä¸Ńæĸĩè¯»èĢħå¯¹":5848,"çİ°ä»£ä¸»ä¹īæĸĩåŃ¦":5849,"**ï¼ļ":5850,"inal":5851,"be":5852,"Ġposi":5853,"æīĢä»¥åı¯ä»¥":5854,"åĪĨè¾¨":5855,"ä½ľä¸ºä¸»è¯Ń":5856,"Ġreconcile":5857,"åİŁåı¥å¼ºè°ĥ":5858,"æ¼ł":5859,"Ġimplementation":5860,"ĠV":5861,"åľ°çĤ¹":5862,"side":5863,"éŁ³è¯ĳ":5864,"Ġinsulators":5865,"Ġè¿Ļæĺ¯ä¸Ģä¸ª":5866,"çļĦè¯į":5867,"ä¼Ĳ":5868,"real":5869,"åĬłå¼º":5870,"è¿Ľä¸ĢæŃ¥":5871,"åıĻäºĭç»ĵæŀĦ":5872,"ĠæĪĸèĢħæĽ´ç®Ģæ´ģ":5873,"ä¼ģ":5874,"ç¡®ä¿Ŀä¸ĵä¸ļæľ¯è¯ŃæŃ£ç¡®":5875,"è¿Ļæł·çļĦè¡¨è¾¾":5876,"Ġconcepts":5877,"ertain":5878,"ä¸ºä»Ģä¹Ī":5879,"Ġremain":5880,"åı¥åŃĲç»ĵæŀĦåĲĪçĲĨ":5881,"åĵĪ":5882,"éĩıåŃĲæ¯Ķçī¹":5883,"è¯Ńæ³ķç»ĵæŀĦ":5884,"å¹¶åĪĹ":5885,"æ¯ıä¸ªæľ¯è¯Ńéĥ½æŃ£ç¡®":5886,"éĽ·":5887,"æĪĳéľĢè¦ģå¤ĦçĲĨçĶ¨æĪ·çļĦç¿»è¯ĳè¯·æ±Ĥ":5888,"Ġstudies":5889,"ger":5890,"éĩİ":5891,"æĢ§åĮĸ":5892,"ä¿¡æģ¯å®Įæķ´":5893,"Ġproliferation":5894,"posits":5895,"Ġcritique":5896,"åĪĨè¾¨çİĩ":5897,"åİŁåı¥è®²çļĦæĺ¯":5898,"åīįç½®":5899,"Ġlong":5900,"ç»ĻåĩºæľĢç»Īç¿»è¯ĳ":5901,"å²Ľ":5902,"Ġinstall":5903,"è¿ĻéĩĮæĮĩ":5904,"tically":5905,"ä¸įéľĢè¦ģè§£éĩĬ":5906,"éĩıåŃĲéĢĢçĽ¸å¹²":5907,"èĻļæĭŁæĿ¡ä»¶åı¥":5908,"ä¸¢å¤±":5909,"libri":5910,"own":5911,"çĥŃåĬĽåŃ¦":5912,"å±ķç¤ºäºĨ":5913,"Ġmachine":5914,"çĤ¹å½©":5915,"Ġmodifications":5916,"Ġintensi":5917,"æ°´æĸĩ":5918,"æİĴæĶ¾":5919,"åĵ¥ä¼¦":5920,"çļĦçİ°è±¡":5921,"æīĩ":5922,"éĩıåŃĲåĬłå¯Ĩ":5923,"Widespread":5924,"è¯¦":5925,"ä¸įæĸŃ":5926,"place":5927,"çĶ¨æĪ·è¦ģæ±Ĥå°Ĩ":5928,"ä¹īåĬ¡è®ºä¼¦çĲĨåŃ¦":5929,"è¦ģæ³¨æĦıåı¥åŃĲçļĦæµģçķħæĢ§":5930,"å·²ç»ıè¶³å¤Ł":5931,"Ġhybrid":5932,"è¯¦ç»Ĩ":5933,"hood":5934,"æĽ¼":5935,"Ġdecentralized":5936,"èĦ±":5937,"æļĤ":5938,"Ġobsolete":5939,"éĢĲæ¸Ĳ":5940,"Ġunderstanding":5941,"vest":5942,"enological":5943,"åľºè®º":5944,"æľ¬ä½ĵ":5945,"è¡¨ç¤ºåģĩè®¾":5946,"å¦":5947,"Ġdeb":5948,"å¹³åİŁ":5949,"åħ´èµ·":5950,"centric":5951,"éĻ¢":5952,"èīºæľ¯å®¶":5953,"ç»¼åĲĪèµ·æĿ¥":5954,"Ġgeometric":5955,"ecessitate":5956,"åįģå¹´åĨħ":5957,"ean":5958,"åıĳçĶŁæĢİæł·":5959,"Compared":5960,"Poststructuralist":5961,"iscal":5962,"è¿Ļä¸ªæ²¡éĹ®é¢ĺ":5963,"Ġdep":5964,"éļĲç§ģ":5965,"af":5966,"ition":5967,"å¼Ģåıĳ":5968,"çĽ´è¯ĳçļĦçĹķè¿¹":5969,"æ¯Ķä¾ĭ":5970,"æ¯Ķè¾ĥçĨŁæĤī":5971,"asc":5972,"contra":5973,"ends":5974,"èĬ¯çīĩ":5975,"çı":5976,"å¸¸è¢«":5977,"æ¯Ķè¾ĥç»ĵæŀĦ":5978,"éĩıåŃĲåľºè®º":5979,"ars":5980,"åĵªä¸ª":5981,"çļĦè¦ģæ±Ĥ":5982,"Ġtextual":5983,"ä¸ªæĢ§åĮĸ":5984,"çī¹çĤ¹":5985,"å¦Ĥæŀľæĺ¯":5986,"æ£ĢæŁ¥æĺ¯åĲ¦æľīæĸĩåĮĸéĢĤåºĶæĢ§":5987,"ted":5988,"ç¬¦åĲĪä¸ĵä¸ļ":5989,"åºıåĪĹ":5990,"çĽ¸åħ³é¢ĨåŁŁçļĦ":5991,"æĺ¯åĲ¦ç¬¦åĲĪçĶ¨æĪ·çļĦæīĢæľīè¦ģæ±Ĥ":5992,"Ġlevel":5993,"è¿ĻäºĽæľ¯è¯Ńåľ¨ä¸Ńæĸĩ":5994,"Ġsurpass":5995,"linear":5996,"Ġconsiderations":5997,"éĢĹ":5998,"åı¯èĥ½ç¿»è¯ĳä¸º":5999,"çĶµç£ģæ³¢":6000,"åĵ¥ä¼¦å¸ĥ":6001,"å½ķ":6002,"æĪĸèĢħæĺ¯åĲ¦æľī":6003,"åŃĺåĤ¨":6004,"åĲĮæĹ¶ä¿ĿæĮģåİŁæĦı":6005,"æīĢä»¥ç»ĵæŀĦåºĶè¯¥æĺ¯":6006,"éĻĪè¿°":6007,"Ġpath":6008,"å¯¹åĲ§":6009,"æİ¢æµĭ":6010,"éĢĹåı·":6011,"ive":6012,"ses":6013,"ä¸Ńæµ·":6014,"Ġfocus":6015,"è¿ĻäºĽè¦ģæ±Ĥ":6016,"å¤ĸæĺŁ":6017,"Ġconn":6018,"Ġnar":6019,"ä¸įä¼ļè®©è¯»èĢħ":6020,"çīĽ":6021,"directly":6022,"å¼Ģå§ĭ":6023,"ĠæĪĳçļĦä»»åĬ¡æĺ¯å°Ĩè¿Ļåı¥è¯Ŀ":6024,"moral":6025,"å¼Ĺ":6026,"ecture":6027,"eds":6028,"ä¿ĿæĮģç®Ģæ´ģ":6029,"ç¡®è®¤æľ¯è¯ŃæŃ£ç¡®":6030,"æĸĩåŃ¦æī¹è¯Ħ":6031,"åĲİéĿ¢è·Ł":6032,"æ³Ľå¿ĥ":6033,"çĥŃéĩı":6034,"è¿ĳä»£":6035,"ç®ĢåįķçļĦ":6036,"ä¹ĭå¤Ħ":6037,"ç½ĳç»ľå®īåħ¨":6038,"Ġelectromagnetic":6039,"ectivity":6040,"éĩıåŃĲéľ¸æĿĥ":6041,"Ġwithout":6042,"canti":6043,"äº¿äº¿":6044,"çĻ¾äº¿äº¿":6045,"åĪĿæŃ¥ç¿»è¯ĳåı¯èĥ½æĺ¯":6046,"çŃīç¦»åŃĲ":6047,"æ²¡æľīæ·»åĬłæĪĸåĪłåĩı":6048,"Ġus":6049,"ery":6050,"å¤ľ":6051,"ä¸ºä½ķ":6052,"èĢħçļĦ":6053,"çĶŁç¡¬çļĦåľ°æĸ¹":6054,"æĪĳéľĢè¦ģåĩĨç¡®çĲĨè§£æ¯ıä¸ªæľ¯è¯ŃåĴĮ":6055,"plant":6056,"å¿ħé¡»ç¡®ä¿Ŀ":6057,"Ġsignificantly":6058,"crypt":6059,"åĭ":6060,"æīŃ":6061,"Ġsem":6062,"istentialist":6063,"across":6064,"å¯¹ä¼łç»Ł":6065,"Ġdeposition":6066,"æĽ´ç¬¦åĲĪåŃ¦æľ¯è¯Ńå¢ĥ":6067,"å¤įæĿĤåĮĸ":6068,"Ġmolecular":6069,"ç»ıæµİåŃ¦æľ¯è¯Ń":6070,"Ġemphasize":6071,"æĹłéľĢè°ĥæķ´":6072,"æĳĦ":6073,"æ£Ģæµĭ":6074,"çļĦå¤ĦçĲĨ":6075,"åĪĨæŃ§":6076,"è§£éĩĬäºĨ":6077,"æł¸èģļåıĺ":6078,"Ġcapture":6079,"Ġsurface":6080,"çĽĳæİ§":6081,"ç»Ļåĩºç¿»è¯ĳç»ĵæŀľäºĨ":6082,"åĨ²ç§¯æīĩ":6083,"çĶ¨æĪ·æĺİç¡®è¯´æĺİèĩªå·±æĺ¯ä¸Ģä¸ªç¿»è¯ĳåĬ©æīĭ":6084,"ob":6085,"åŃ¦æľ¯çĶ¨è¯Ń":6086,"å£³":6087,"è¿ĻäºĽæľ¯è¯Ńåľ¨":6088,"Ġperspec":6089,"carbon":6090,"Ġmay":6091,"izes":6092,"é¢ĦæľŁ":6093,"åıªè¾ĵåĩºç¿»è¯ĳåĲİçļĦåĨħå®¹":6094,"æĪĳå¾Ĺä»Ķç»ĨçĲĨè§£åİŁåı¥çļĦæĦıæĢĿ":6095,"å¤«":6096,"æĪĸåŃ¦çĶŁ":6097,"Ġmaterials":6098,"driven":6099,"æ³Ľå¿ĥè®º":6100,"ç¿»è¯ĳæĹ¶åı¯èĥ½éľĢè¦ģè°ĥæķ´è¯Ńåºı":6101,"ç¿»è¯ĳæĹ¶è¦ģç¡®ä¿Ŀæľ¯è¯ŃåĩĨç¡®":6102,"Ġconcentr":6103,"éľĢè¦ģè¡¨è¾¾åĩº":6104,"ä¹īçĽ¸å¯¹è®º":6105,"çĽ´è¯ĳæĺ¯":6106,"åĸ·":6107,"Ġoverhaul":6108,"å°±åı¯ä»¥ç»Ļåĩºç¿»è¯ĳç»ĵæŀľäºĨ":6109,"Ġcryptographic":6110,"ç¤¾äº¤åªĴä½ĵç®Ĺæ³ķ":6111,"æĿ¥æĮĩä»£":6112,"Ġmer":6113,"å¤§ç¨ĭåº¦ä¸Ĭ":6114,"engineer":6115,"Bi":6116,"pture":6117,"æĶ¾åľ¨åĬ¨è¯į":6118,"oeconomic":6119,"çĲĨè§£è¿Ļåı¥è¯ĿçļĦæĦıæĢĿ":6120,"ç»´åº¦":6121,"Ġpredic":6122,"ç¿»è¯ĳåĲİ":6123,"åı¯èĥ½æľī":6124,"éĢļå¸¸ç§°ä¸º":6125,"lian":6126,"Ġexpos":6127,"çĶŁäº§åĬĽ":6128,"å°¤ä¸º":6129,"æ²¹çĶ»":6130,"land":6131,"çĲĨè§£æ¯ıä¸ªéĥ¨åĪĨçļĦæĦıæĢĿ":6132,"åĨĹä½Ļ":6133,"Ġutilitarian":6134,"åŀĤçĽ´åĨľä¸ļ":6135,"æĻ¶ä½ĵ":6136,"ä½Ĩç»ĵåĲĪ":6137,"å¯¹æ¯ĶäºĨ":6138,"å»Ĭ":6139,"18":6140,"Ġcost":6141,"éĿĻ":6142,"è§ĦåĪĴ":6143,"ronze":6144,"éľĢè¦ģå¤ĦçĲĨæĪĲ":6145,"å£ģçĶ»":6146,"ç»ĥ":6147,"åı¯èĥ½å¦Ĥä½ķ":6148,"å°ıè¡ĮæĺŁ":6149,"Ġobserv":6150,"åį±":6151,"Ġcompared":6152,"éľĢè¦ģåĩĨç¡®çļĦç¿»è¯ĳ":6153,"åĨĽäºĭ":6154,"eti":6155,"ging":6156,"æ£®":6157,"Ġmedieval":6158,"å°ģå»º":6159,"æľīåĽºå®ļè¯ĳæ³ķ":6160,"çļ®å±Ĥ":6161,"rary":6162,"è°·":6163,"æıŃç¤ºåĩº":6164,"Ġalgorithmic":6165,"Ġaccelerates":6166,"Ġmonetary":6167,"çĤ¹å½©æ´¾":6168,"min":6169,"æĺ¯åĲ¦æ¯Ķ":6170,"åŃ¦æľ¯è®ºæĸĩ":6171,"Ġpropulsion":6172,"bolic":6173,"åľ°ä¸Ńæµ·":6174,"Ġautonomous":6175,"narra":6176,"çĽ´è¯ĳä¸º":6177,"æĪĳéľĢè¦ģèĢĥèĻĳ":6178,"ategor":6179,"Ġpostmodern":6180,"Ġoptim":6181,"æ¯į":6182,"æīĢä»¥åı¯ä»¥è¯ĳä¸º":6183,"Ġdil":6184,"ä¿ĿæĮģåı¥åŃĲçļĦæµģçķħæĢ§":6185,"ç¥ŀç»ıåı¯å¡ĳæĢ§":6186,"äººç±»æ´»åĬ¨":6187,"æ¶ĪéĻ¤":6188,"generational":6189,"emphasizes":6190,"åĨįè¯´ç»ĵæŀľ":6191,"æľ¬ä½ĵè®º":6192,"åĩĿ":6193,"coll":6194,"ä¸¥æł¼éģµå®Ī":6195,"çļĦç»ıæµİ":6196,"ancial":6197,"çĶ¨æĪ·çļĦåħ·ä½ĵè¦ģæ±Ĥ":6198,"åĽłä¸ºå®ĥ":6199,"ä½¿åħ¶åľ¨ä¸Ńæĸĩä¸Ń":6200,"Ġfluctu":6201,"å¯¡":6202,"çĽ®æłĩè¯»èĢħçļĦ":6203,"Ġdissolution":6204,"åľ¨å¤ļå¤§ç¨ĭåº¦ä¸Ĭ":6205,"æ²¡æľīåħ¶ä»ĸåĨħå®¹":6206,"å¥¹":6207,"è·¨ä»£":6208,"Ġengagement":6209,"æ°¸ä¹ħåĨ»åľŁèŀįåĮĸ":6210,"Ġpotential":6211,"æīŃæĽ²":6212,"nel":6213,"çļĦè¡¨è¾¾ä¹łæĥ¯":6214,"çĲĨè®ºä¸Ĭ":6215,"imic":6216,"expl":6217,"Ġtransfer":6218,"Ġincreasing":6219,"æľīçĤ¹çĶŁç¡¬":6220,"despite":6221,"stellar":6222,"ä¸»æĿĥ":6223,"emination":6224,"æľºä¼ļ":6225,"å¿ħé¡»åĩĨç¡®ä¼łè¾¾åİŁæĦı":6226,"èĦī":6227,"èĥ½éĩıå¯Ĩåº¦":6228,"Ġrepresentational":6229,"gramm":6230,"Al":6231,"å¯¹ç«ĭ":6232,"å®ĩå®ĻèĨ¨èĥĢ":6233,"çĶ¨çļĦæĺ¯":6234,"åĴĮåĩĨç¡®æĢ§":6235,"ä½ĨçĶ¨æĪ·åı¯èĥ½å¸ĮæľĽ":6236,"æĶ¹è¿Ľ":6237,"Ġdeontological":6238,"Ġspect":6239,"Ġmanagement":6240,"bios":6241,"åħĭæľį":6242,"ermal":6243,"ç¬¦åĲĪä¸Ńæĸĩè¯»èĢħçļĦä¹łæĥ¯":6244,"æ¯ıä¸ªè¯įçļĦæĦıæĢĿ":6245,"Karst":6246,"è¿ĻéĩĮæ¶īåıĬ":6247,"æīĢä»¥æľĢç»Īç¿»è¯ĳåºĶè¯¥æĺ¯":6248,"åħīéģĹä¼łåŃ¦":6249,"éģ¿åħįè¿ĩäºİ":6250,"åĳĪæĮĩæķ°çº§":6251,"Ġvisual":6252,"æķ´ä½ĵæĦıæĢĿ":6253,"Ġempirical":6254,"timatter":6255,"Ġcontinental":6256,"æĿĥåĪ©":6257,"ç»ĵæŀĦåĲĪçĲĨ":6258,"ç¡®ä¿ĿæµģçķħèĩªçĦ¶":6259,"èį·":6260,"temperature":6261,"ä¼ª":6262,"åı¯ä»¥èĢĥèĻĳ":6263,"çº¢":6264,"ä¸įèĥ½ç®ĢåĮĸä¸º":6265,"ç¿»è¯ĳçļĦæĹ¶åĢĻ":6266,"éļıçĿĢ":6267,"pressionism":6268,"Ġaltered":6269,"Ġoptical":6270,"è£ħç½®èīºæľ¯":6271,"Ġhypothesis":6272,"Ġconstrain":6273,"patter":6274,"require":6275,"æŃ»":6276,"æīĢä»¥è°ĥæķ´ä¸º":6277,"ä½Ĩåı¯èĥ½éľĢè¦ģè°ĥæķ´è¯Ńåºı":6278,"ç¡®ä¿Ŀæ²¡æľīæ·»åĬł":6279,"éĺħè¯»ä¹łæĥ¯":6280,"inforcement":6281,"ton":6282,"enh":6283,"arri":6284,"ç³Ĭ":6285,"é¢ĨåŁŁæĺ¯":6286,"valence":6287,"ä¸»åĬ¨è¯ŃæĢģ":6288,"Ġoccur":6289,"ä¸įåıĺ":6290,"éĩĩçŁ¿":6291,"åĨįèĢĥèĻĳæµģçķħæĢ§":6292,"Ġbehaviors":6293,"èģĮä¸ļ":6294,"Ġsculpture":6295,"librium":6296,"è¿ĳä»£æĹ©æľŁ":6297,"æĪĳä¸įèĥ½":6298,"arch":6299,"liber":6300,"æĶ¾åľ¨åı¥å°¾":6301,"åĨ³å®ļè®º":6302,"ç¡ħåŁº":6303,"çŃīç¦»åŃĲä½ĵ":6304,"ç¿»è¯ĳéĢļå¸¸":6305,"ä¸ŃçļĦæľ¯è¯Ń":6306,"æ³¨éĩĬ":6307,"å¯¼èĩ´äºĨ":6308,"Ġsubvert":6309,"èĪ¬":6310,"Ġvalid":6311,"æīĢä»¥ä¿ĿæĮģåİŁç»ĵæŀĦ":6312,"ictorian":6313,"ft":6314,"å¼ķåĩº":6315,"ç±»æĸĩç«ł":6316,"åŁİå¸ĤåĮĸ":6317,"otic":6318,"åı¥åŃĲç»ĵæŀĦç¬¦åĲĪä¸Ńæĸĩè¡¨è¾¾ä¹łæĥ¯":6319,"æ¯ıä¸ªæľ¯è¯Ńéĥ½":6320,"çķĮéĻĲ":6321,"å°Ķæĸĩ":6322,"éħįç½®":6323,"åĨ²ç§¯å¹³åİŁ":6324,"æīĢä»¥ç¿»è¯ĳæĹ¶è¦ģä¿ĿæĮģ":6325,"Ġnucle":6326,"ç²¾ç¥ŀ":6327,"å¼ķåıĳçļĦ":6328,"åķĨåĵģ":6329,"åħ±çĶŁ":6330,"åıĤèĢĥç¿»è¯ĳ":6331,"éĢĶå¾Ħ":6332,"çļĦé£İæł¼":6333,"lie":6334,"ä¸Ńæĸĩåı¥åŃĲéľĢè¦ģèĩªçĦ¶":6335,"åĦ":6336,"çļĦä¸Ńæĸĩè¡¨è¾¾":6337,"Ġreader":6338,"éĶĤ":6339,"éľĢè¦ģåĩĨç¡®å¯¹åºĶ":6340,"ä¸ŃæĸĩçļĦè¡¨è¾¾ä¹łæĥ¯":6341,"åĨĻå®ŀ":6342,"Ġcolonial":6343,"Ġarchitecture":6344,"neuro":6345,"ç¾İå¾·ä¼¦çĲĨåŃ¦":6346,"eral":6347,"è¾¾å°Ķæĸĩ":6348,"olid":6349,"isting":6350,"ticism":6351,"èĢĥèĻĳåı¥åŃĲçļĦç»ĵæŀĦ":6352,"è´¸æĺĵç½ĳç»ľ":6353,"Ġauthority":6354,"rctic":6355,"çīĽé¡¿":6356,"çļĦçīĪæľ¬":6357,"Ġmig":6358,"ç»ıè¿ĩ":6359,"ä¸įä¼ļåĽŀçŃĶéĹ®é¢ĺ":6360,"éļ¾ä»¥":6361,"ĠæĪĳéľĢè¦ģåħĪ":6362,"çŀ":6363,"åħ°":6364,"å½¢èĢĮ":6365,"çĸĳéĹ®ç»ĵæŀĦ":6366,"åıĤæķ°":6367,"åı¥æ³ķ":6368,"Ġbeyond":6369,"Ġview":6370,"çĶ¨æĪ·æıĲåĩºçļĦ":6371,"ä¸ŃçļĦåºĶçĶ¨":6372,"ç¿»è¯ĳåĲİçļĦä¸Ńæĸĩ":6373,"ç±»åŀĭ":6374,"duces":6375,"bility":6376,"ceptual":6377,"çĶ»å»Ĭ":6378,"ç»ĵæŀĦä¸Ĭ":6379,"åľ°ä¸ĭ":6380,"çŃĸå±ķ":6381,"otechn":6382,"ropical":6383,"ç¢³éħ¸çĽĲå²©":6384,"iat":6385,"ratic":6386,"åĪ¶å®ļ":6387,"æıĲä¾ĽäºĨ":6388,"ventions":6389,"ä¸īè§Ĵ":6390,"just":6391,"meric":6392,"yp":6393,"Ġ20":6394,"è¾Ĳ":6395,"Ġbatter":6396,"æ¨¡ç³Ĭ":6397,"åħīçº¿":6398,"æıĲåĩºäºĨ":6399,"ç¼©åĨĻ":6400,"å¯¡å¤´":6401,"ays":6402,"çļĦçĲĨè§£":6403,"Ġgre":6404,"tivistic":6405,"è·Ŀ":6406,"å¹¶ä¸Ķä½ľä¸ºç¿»è¯ĳåĬ©æīĭ":6407,"ä¿ĿçķĻåİŁ":6408,"è´ŁæĬĺå°Ħçİĩ":6409,"æĪĳéľĢè¦ģçĲĨè§£è¿Ļåı¥è¯ĿçļĦæĦıæĢĿ":6410,"Ġdifferently":6411,"Ġmultiple":6412,"bab":6413,"å½Ĵ":6414,"osa":6415,"ç©¿":6416,"Ġimplications":6417,"Ġpostcolonial":6418,"åĮºåĿĹéĵ¾çļĦ":6419,"Ġcryptography":6420,"è®©åı¥åŃĲæĽ´èĩªçĦ¶":6421,"Ġtimes":6422,"çļĦæŃ£ç¡®ç¿»è¯ĳ":6423,"åĲĮæĹ¶ä¿ĿæĮģåı¥åŃĲçļĦ":6424,"å¤©æĸĩåŃ¦":6425,"Ġmethane":6426,"ç¬¦åĲĪä¸Ńæĸĩè¯»èĢħçļĦçĲĨè§£":6427,"ç¥ŀç»ıå½¢æĢģè®¡ç®Ĺ":6428,"Ricardian":6429,"ich":6430,"èĢĥèĻĳæµģçķħæĢ§":6431,"åĲĮæĹ¶ç¬¦åĲĪä¸Ńæĸĩè¡¨è¾¾ä¹łæĥ¯":6432,"åĪ°çļĦ":6433,"åĨįæ£ĢæŁ¥æµģçķħæĢ§":6434,"è¿ŀè´¯æĢ§":6435,"challenges":6436,"placement":6437,"ä¼ģä¸ļ":6438,"aus":6439,"å¸¸è§ģçĶ¨æ³ķ":6440,"æĦıè¯ĨæµģåıĻäºĭ":6441,"çº³ç±³æĬĢæľ¯":6442,"Ġuse":6443,"etry":6444,"å¼ķçĶ¨":6445,"aterrestrial":6446,"ibrary":6447,"å½¢èĢĮä¸Ĭ":6448,"Digital":6449,"ink":6450,"è¿ĻéĩĮè¦ģ":6451,"ï¼ŁâĢĿãĢĤ":6452,"æ¸ħæ¥":6453,"Ġneuromorphic":6454,"Ġexplains":6455,"Ġspecies":6456,"Ġnegative":6457,"æ¸ħæ¥ļ":6458,"åĨįçİ°":6459,"å¸¸è§ģçļĦè¯ĳæ³ķ":6460,"éľĢè¦ģåĩĨç¡®çļĦ":6461,"ç¢³æįķ":6462,"ĠK":6463,"ading":6464,"ä¸ŃæĸĩéĩĮåı¯ä»¥çĶ¨":6465,"Ġstructural":6466,"æĦŁåħ´è¶£çļĦäºº":6467,"ovoltaic":6468,"æĢ¥":6469,"Ġcham":6470,"è½¬ç§»":6471,"Ġyour":6472,"Ġidentity":6473,"Ġsocietal":6474,"æµģçķħåĴĮèĩªçĦ¶":6475,"Ģæ¨¡":6476,"è¡ĮåĬ¨":6477,"Ġpersonal":6478,"atency":6479,"äººæł¼":6480,"ç»ĨèĬĤ":6481,"è¿Ļæĺ¯ä¸Ģä¸ªä¸ĵä¸ļæľ¯è¯Ń":6482,"ç¡®ä¿Ŀæ²¡æľīè¯Ńæ³ķéĶĻè¯¯":6483,"æİ¢ç´¢":6484,"åİŁåŃĲçº§":6485,"ç¬¦åĲĪåŃ¦æľ¯è®¨è®º":6486,"old":6487,"acroscopic":6488,"çĶ¨æĪ·è¦ģæ±Ĥç¿»è¯ĳ":6489,"æŃ¥éª¤":6490,"æ¿Ģå¢ŀ":6491,"å½ĵåīįçļĦ":6492,"åĩĨç¡®åľ°ç¿»è¯ĳæĪĲä¸Ńæĸĩ":6493,"çĻ¾äº¿äº¿æ¬¡":6494,"è¿ĻéĩĮç¿»è¯ĳæĪĲ":6495,"æĸ°åı¤åħ¸":6496,"Ġresolution":6497,"neural":6498,"Ġbehavioral":6499,"econstructs":6500,"è¾Ĳå°Ħ":6501,"oper":6502,"ĠKeynesian":6503,"inten":6504,"æĢ§åĪ«":6505,"Ġmass":6506,"åĨħçļĦ":6507,"Ġforce":6508,"æĸĩåĮĸéĢĤåºĶæĢ§åĴĮä¸ĵä¸ļæĢ§":6509,"Ġlegal":6510,"ç§»æ¤į":6511,"åŃ¦çĶŁæĪĸçłĶç©¶èĢħ":6512,"ä¸ŃæĸĩçļĦè¯ŃåºıåĴĮèĭ±æĸĩä¸įåĲĮ":6513,"è¡¥åħħ":6514,"åıªéľĢè¦ģ":6515,"Ġprinting":6516,"æīĢä»¥æķ´åı¥è¯Ŀ":6517,"Ġphilosophies":6518,"Ġcells":6519,"ĠN":6520,"Ġcomputational":6521,"æĹ¶éĹ´å°ºåº¦":6522,"ç¡®å®ŀå¸¸çĶ¨":6523,"éĽĨä¸Ń":6524,"æĭĨè§£":6525,"çĭ¬çī¹çļĦ":6526,"ought":6527,"ç¯":6528,"Ġdra":6529,"ascale":6530,"ç³»ç»Łä¸Ń":6531,"å»ºç«ĭ":6532,"ending":6533,"è¿ĻäºĽæľ¯è¯Ńåľ¨ä¸Ńæĸĩä¸Ń":6534,"ference":6535,"åīįåįĬéĥ¨åĪĨ":6536,"cation":6537,"mas":6538,"ä¸ŃéĢļå¸¸è¯ĳä¸º":6539,"åĪĨè¯į":6540,"æ¿ĢåĬ±":6541,"sible":6542,"aking":6543,"adv":6544,"è´§å¸ģä¸»ä¹ī":6545,"Ġradi":6546,"Ġpoetry":6547,"çļĦæĻ®åıĬ":6548,"represent":6549,"ç¡®ä¿Ŀç¿»è¯ĳåĩĨç¡®":6550,"äºĨä¸Ģåı¥":6551,"embl":6552,"å¢¨":6553,"èĪªå¤©":6554,"To":6555,"çļĦåıĳæĺİ":6556,"éľ²":6557,"æİ¥çĿĢ":6558,"ä¸ŃçļĦæłĩåĩĨæľ¯è¯Ń":6559,"term":6560,"è®¨è®ºä¸Ń":6561,"pred":6562,"å¾Ģå¾Ģ":6563,"Ġextent":6564,"paradigms":6565,"èĵ":6566,"æľīæīĢ":6567,"åĴĮç»ĵæŀľ":6568,"ä½¿çĶ¨æŃ£ç¡®çļĦ":6569,"è¿Ļæł·çļĦç¿»è¯ĳ":6570,"èĢĮä¸įæĺ¯çĽ´è¯ĳ":6571,"umulation":6572,"ä¸įèĥ½éļıä¾¿":6573,"Ġversus":6574,"æĺ¯åĲ¦æ¸ħæĻ°":6575,"Ġstor":6576,"Ġparticip":6577,"vitational":6578,"Ġpubl":6579,"æķ´åı¥è¯Ŀ":6580,"æīĢä»¥çĽ´æİ¥ä½¿çĶ¨":6581,"ä¿ĿæĮģåİŁåı¥çļĦ":6582,"å¤ĸéĥ¨":6583,"Ġlay":6584,"èİİ":6585,"Ġve":6586,"æıĲäº¤":6587,"âĢ¦âĢ¦âĢĿãĢĤ":6588,"æĪĳè¦ģç¡®ä¿ĿåĩĨç¡®ä¼łè¾¾":6589,"åĪĨå¸ĥå¼ı":6590,"å¯¹æĬĹ":6591,"ä¸ĵä¸ļæľ¯è¯Ńä½¿çĶ¨":6592,"è¦ģç¡®ä¿Ŀæľ¯è¯ŃåĩĨç¡®":6593,"Ġdeep":6594,"åŃĺåľ¨ä¸»ä¹īåĵ²åŃ¦":6595,"æľĢå¤§åĮĸ":6596,"De":6597,"æĺ¯ä»Ģä¹Ī":6598,"å®³":6599,"è¿Ļç§įåģĩè®¾":6600,"å½»åºķéĿ©æĸ°":6601,"Ġperspective":6602,"çĽ´è¯ĳçļĦè¯Ŀåı¯èĥ½æĺ¯":6603,"off":6604,"alle":6605,"Ġmarine":6606,"Ġreli":6607,"åı¥åŃĲçļĦéĢ»è¾ĳåħ³ç³»":6608,"ilistic":6609,"åĬłéĢŁäºĨ":6610,"åį°åĪ·æľº":6611,"Ġtopography":6612,"ç¨įå¾®":6613,"çĩĥæĸĻ":6614,"babilistic":6615,"ful":6616,"mark":6617,"Ġæ£ĢæŁ¥ä¸Ģä¸ĭ":6618,"ä¼´":6619,"atal":6620,"æŁĲäºĽ":6621,"ĠæĪĳéľĢè¦ģåĩĨç¡®åľ°":6622,"Ġconfirmation":6623,"å¹ħ":6624,"unprecedented":6625,"æłĩçĤ¹":6626,"æķ°åŃĹèīºæľ¯":6627,"éĿ©åĳ½æĢ§":6628,"Ġspecial":6629,"remacy":6630,"Ġcalculations":6631,"å±ķçİ°åĩº":6632,"å°ıè¡ĮæĺŁéĩĩçŁ¿":6633,"ä¸ŃæĸĩéĢļå¸¸çĶ¨":6634,"æľīåĬĽ":6635,"ä¸Ģä¸ªåĲĪéĢĤçļĦ":6636,"aptive":6637,"éĿŀçº¿æĢ§":6638,"Ġintern":6639,"èĢĥèĻĳåĪ°ä¸Ĭä¸ĭæĸĩ":6640,"å·²ç»ıå¾Ī":6641,"åħ¬åħ±":6642,"Ġphotos":6643,"å±ĢéĻĲ":6644,"¹ģ":6645,"ç¹ģ":6646,"ulus":6647,"åĨįç¡®è®¤":6648,"Ġmodification":6649,"ĠAmeric":6650,"integ":6651,"sibility":6652,"åĪĨæķ£":6653,"ä¸ŃæĸĩéĩĮåľ¨":6654,"Ġcuration":6655,"å¤§æĦıæĺ¯":6656,"èı":6657,"åľ¨å¿ĥçĲĨåŃ¦":6658,"antic":6659,"åı¯èĥ½æ¯Ķ":6660,"ç¡®è®¤ç¿»è¯ĳåĲİçļĦåı¥åŃĲ":6661,"flation":6662,"è°ĵè¯Ń":6663,"ä»ĸä»¬åı¯èĥ½":6664,"illusion":6665,"è®°å½ķ":6666,"åŁºåĽłé©±åĬ¨æĬĢæľ¯":6667,"environ":6668,"æİ¥è§¦":6669,"actical":6670,"Ġproductivity":6671,"éļĲå½¢":6672,"åį°åĪ·æľ¯":6673,"Ġoceanic":6674,"æ·±å±ĤéľĢæ±Ĥ":6675,"å½¢èĢĮä¸ĬåŃ¦":6676,"tioning":6677,"å½¢å®¹":6678,"Ġincreases":6679,"petuates":6680,"ym":6681,"Ġice":6682,"estern":6683,"æļĸ":6684,"åıĺå¾Ĺåı¯è¡Į":6685,"Ġrefractive":6686,"çļĦå¯¹è±¡":6687,"çĶ¨æĿ¥":6688,"æĺ¯åĲ¦ç¬¦åĲĪä¸Ńæĸĩä¹łæĥ¯":6689,"å°Ĩèĭ±æĸĩç¿»è¯ĳæĪĲä¸Ńæĸĩ":6690,"ä¸įéľĢè¦ģä»»ä½ķ":6691,"è¶ħå¯¼":6692,"ositions":6693,"ĠIn":6694,"Ġsupremacy":6695,"æķ´åı¥":6696,"Ġdeploy":6697,"enables":6698,"åİŁåı¥éĹ®çļĦæĺ¯":6699,"sequent":6700,"subvert":6701,"...ï¼Į...":6702,"ĠDNA":6703,"çľŁå®ŀæĢ§":6704,"åĽ¢ç»ĵ":6705,"ollow":6706,"employ":6707,"Ġstream":6708,"Ġdissemination":6709,"ä¸Ģä¸ĭåİŁåı¥":6710,"Ġrobo":6711,"Ġarchitectural":6712,"demonstrate":6713,"Ġcentury":6714,"oin":6715,"Ġmy":6716,"æ²¡æľīä¿¡æģ¯":6717,"çĶŁçī©ä½ĵ":6718,"ranean":6719,"æĪĳçİ°åľ¨éľĢè¦ģå¤ĦçĲĨçĶ¨æĪ·æıĲä¾ĽçļĦç¿»è¯ĳä»»åĬ¡":6720,"è¿Ļæł·æĽ´ç¬¦åĲĪä¸ŃæĸĩçļĦ":6721,"æĶ¾åľ¨åı¥æľ«":6722,"æĪıåī§":6723,"ä¸įå¤ªçĨŁæĤī":6724,"çļĦåİĨåı²":6725,"ä¸Ńæĸĩæľ¯è¯Ń":6726,"æīį":6727,"Ġboth":6728,"åħ¶ä¸Ń":6729,"çĿ£":6730,"Ġsubst":6731,"ä¸ŃæĸĩéĢļå¸¸åħĪè¯´":6732,"æĽ´ä¸ĵä¸ļçļĦæľ¯è¯Ń":6733,"çĭ¬ç«ĭ":6734,"Ġmining":6735,"Ġscience":6736,"Ġinterpretation":6737,"äºĨä¸Ģåı¥èĭ±æĸĩåı¥åŃĲ":6738,"aut":6739,"round":6740,"æĬĢæľ¯æľ¯è¯Ń":6741,"è§ĦåĪĻ":6742,"åĲĮæĹ¶ä¿ĿæĮģäºĨ":6743,"ç®ĢåĮĸ":6744,"è·¨åĽ½":6745,"Ġmodernist":6746,"æ¢¯åº¦":6747,"¿åĳ½":6748,"Ġsens":6749,"Ġfusion":6750,"æ¯Ķè¾ĥéĢļé¡º":6751,"å·´":6752,"ä¹Łä¼ļ":6753,"Ġexhibit":6754,"Ġcosmological":6755,"Ġreduce":6756,"Ġent":6757,"Ġsil":6758,"ĠAlex":6759,"Neural":6760,"åĦ¿":6761,"Ġmigration":6762,"å³":6763,"ç¿»è¯ĳæŃ£ç¡®":6764,"æģ¶":6765,"è½»":6766,"Ġpattern":6767,"æīĢä»¥æķ´ä¸ªåı¥åŃĲ":6768,"å·¥ç»ıæµİ":6769,"åŃĹéĿ¢":6770,"éħ¸åĮĸ":6771,"éĽ¶å·¥ç»ıæµİ":6772,"çĽ´æİ¥ç¿»è¯ĳæĪĲ":6773,"çĵ":6774,"èīºæľ¯è¿ĲåĬ¨":6775,"é²ľæĺİå¯¹æ¯Ķ":6776,"Ġlevels":6777,"çŀ¬":6778,"§æĪ¿":6779,"å¯»":6780,"Ġnorm":6781,"è¢«æŃ£ç¡®":6782,"èĮ§æĪ¿":6783,"çĶ¨æĪ·æıĲä¾ĽçļĦç¿»è¯ĳè¯·æ±Ĥ":6784,"æĪĳéľĢè¦ģåĩĨç¡®çĲĨè§£åİŁåı¥çļĦæĦıæĢĿ":6785,"æĿ¿åĿĹæŀĦéĢł":6786,"æ²¡æľīæ·»åĬłæĪĸåĪłåĩıåĨħå®¹":6787,"cen":6788,"wave":6789,"åľ¨åħ¨çĲĥèĮĥåĽ´åĨħ":6790,"ria":6791,"elines":6792,"çº§èģĶ":6793,"Ġrapid":6794,"çĪ±":6795,"ç¿»è¯ĳä¸įä»ħ":6796,"åĩĨç¡®ç¿»è¯ĳæĪĲä¸Ńæĸĩ":6797,"Ġexist":6798,"æĿĥè¡¡":6799,"Ġperf":6800,"Ġstrong":6801,"åŁ¹åħ»":6802,"eign":6803,"çĦ¦":6804,"Ġevid":6805,"åĽŀéŁ³":6806,"overeign":6807,"rupt":6808,"åķĨä¸ļåĮĸ":6809,"Ġutiliz":6810,"è¿Ļæł·çĶ¨æĪ·å¾ĹåĪ°":6811,"inish":6812,"æĺ¯åĲ¦ä¼ļ":6813,"æĪĸèĢħæĺ¯åĲ¦éľĢè¦ģ":6814,"åĪ©çİĩ":6815,"Ġnew":6816,"ĠByzantine":6817,"Ġstorage":6818,"ĠAlexand":6819,"Per":6820,"pli":6821,"æľīåĵªäºĽ":6822,"Ġso":6823,"åı¯èĥ½çĶ¨æĪ·éľĢè¦ģ":6824,"ä¸īè§Ĵæ´²":6825,"hic":6826,"ç¡®ç«ĭ":6827,"éľĩ":6828,"è¡¨è¾¾ä¸º":6829,"æĺ¯åĲ¦æľīéģĹæ¼ı":6830,"Ġbecame":6831,"å±ĤéĿ¢çļĦ":6832,"gu":6833,"çļĦæķĪçİĩ":6834,"æ¯Ķå¦ĤçĶ¨":6835,"Ġwas":6836,"è¿ĽèĢĮ":6837,"åıįæĺłäºĨ":6838,"ĠAlexandria":6839,"éľĢè¦ģä¼łè¾¾åĩº":6840,"åĪĨåĮĸ":6841,"iminish":6842,"ç¿»è¯ĳç»ĵæŀľåºĶè¯¥æĺ¯":6843,"Ġtransport":6844,"Ġparticles":6845,"during":6846,"ix":6847,"jects":6848,"win":6849,"çļĦæĸ¹æ³ķ":6850,"åı¶":6851,"Ġfu":6852,"ä¼ļå¼ķåıĳåĵªäºĽ":6853,"igm":6854,"artificial":6855,"è®Ńç»ĥ":6856,"æĮĩå¯¼":6857,"åºĶè¯¥ä¿ĿæĮģ":6858,"Ġlaw":6859,"åģľ":6860,"echo":6861,"èĥ½æºĲæ¶ĪèĢĹ":6862,"Epistemological":6863,"ok":6864,"ulner":6865,"æĬĢèĥ½":6866,"æĦıè¯ĨçļĦ":6867,"ä»·æł¼":6868,"åĪ¶éĢłä¸ļ":6869,"otechnology":6870,"ä¸ĢèĪ¬":6871,"Ġfarming":6872,"åľ°å£³":6873,"å¸¸è§ģçļĦæľ¯è¯Ń":6874,"Ġspe":6875,"åĬ¨è¯įæĺ¯":6876,"è´ŁéĿ¢":6877,"Ġsimultaneously":6878,"conductors":6879,"æĹ±":6880,"ï¼ŁâĢĿï¼Į":6881,"éĿŀæ¬§":6882,"ç¡®ä¿Ŀæľ¯è¯ŃåĴĮ":6883,"ä½¿åı¥åŃĲæĽ´èĩªçĦ¶":6884,"åı¯èĥ½å®ŀçİ°":6885,"roph":6886,"æ¯Ķå¦Ĥè°ĥæķ´è¯Ńåºı":6887,"éĩıåŃĲåıłåĬł":6888,"rainage":6889,"è¡¨è§ĤéģĹä¼łæľºåĪ¶":6890,"å¹¶ä¸Ķè¦ģéģµå¾ª":6891,"åĶ¯":6892,"æ¹¿å£ģçĶ»":6893,"Ġchambers":6894,"All":6895,"è¦ģç¡®ä¿Ŀæľ¯è¯ŃæŃ£ç¡®":6896,"ç¼ł":6897,"èī²å½©çĲĨè®º":6898,"Ġstrategic":6899,"auth":6900,"ä¸ŃæĢ§":6901,"ä¹Ĳ":6902,"Ġtreat":6903,"Ġparity":6904,"Ġpermafrost":6905,"è·¨æĸĩåĮĸ":6906,"åıªèĥ½è¿Ľè¡Įç¿»è¯ĳ":6907,"ĠLibrary":6908,"Ġdisruptions":6909,"æµģåĬ¨æĢ§":6910,"çļĦéģĵå¾·":6911,"éľĢè¦ģä¿ĿçķĻ":6912,"æıĲéĹ®":6913,"æĺŁç³»":6914,"æľĢåĲİç¡®è®¤æĺ¯åĲ¦":6915,"æĬ¥åĳĬæĪĸ":6916,"prioritize":6917,"axim":6918,"åı¯æĮģç»Ń":6919,"åĴĮæµģçķħæĢ§":6920,"æĪĸèĢħçĶ¨":6921,"comm":6922,"Ġdue":6923,"äº§åĵģ":6924,"çªģè§¦":6925,"æľīæ²¡æľīéģĹæ¼ıæĪĸ":6926,"æľīä½ķä¸įåĲĮ":6927,"St":6928,"¼å¤ľ":6929,"æĺ¼å¤ľ":6930,"æ²Ļ":6931,"Ġbr":6932,"åı¯èĥ½æĽ´å¸¸çĶ¨":6933,"åħ¶ä»ĸè¯ĳæ³ķ":6934,"Ġcoun":6935,"Ġcollective":6936,"precipitated":6937,"å°¤ä¸ºéĩįè¦ģ":6938,"mechan":6939,"onization":6940,"è¿ĻéĩĮåºĶè¯¥ç¿»è¯ĳä¸º":6941,"Ġmaxim":6942,"éĿ¶":6943,"Ġfacilit":6944,"ä¹ŁéľĢè¦ģä¿ĿæĮģ":6945,"Ġarise":6946,"éħ¶":6947,"ç¡®å®ŀç¿»è¯ĳä¸º":6948,"ä½¿çĶ¨æŃ£ç¡®çļĦæľ¯è¯Ń":6949,"Ġlinear":6950,"air":6951,"ason":6952,"æģĴ":6953,"ç¥ŀç»ıåħĥ":6954,"ynthesis":6955,"æĭĵæīĳéĩıåŃĲè®¡ç®Ĺ":6956,"æĿ¡ä»¶çĬ¶è¯Ńä»İåı¥":6957,"bod":6958,"reak":6959,"Ġfound":6960,"ç¨Ģ":6961,"Ġenti":6962,"çĶŁçī©å¤ļæł·æĢ§":6963,"åģıå¥½":6964,"Ġstandards":6965,"Ġreduction":6966,"èĥģ":6967,"éĢĤåĲĪåŃ¦æľ¯æĪĸ":6968,"éĢĤåĲĪçĽ®æłĩè¯»èĢħ":6969,"ä¸¤èĢħåľ¨":6970,"æŃªæĽ²åİŁæĦı":6971,"Ġepistemological":6972,"é£Łçī©":6973,"çļĦæł¸å¿ĥ":6974,"ä¸ĵä¸ļé¢ĨåŁŁçļĦ":6975,"æ¶²":6976,"åİŁæĸĩæĺ¯":6977,"è¿Ļæł·æĹ¢ä¿ĿçķĻäºĨ":6978,"åĽ½åĨħ":6979,"elling":6980,"äº§çĶŁçļĦ":6981,"åħ¬åı¸":6982,"æŃ£ç¡®çļĦç¿»è¯ĳåºĶè¯¥æĺ¯":6983,"éĺ»ç¢į":6984,"åĽŀéŁ³å®¤":6985,"Ġlike":6986,"å¯¹åºĶçļĦ":6987,"åºĶçĶ¨äºİ":6988,"çĽ¸ä¼¼":6989,"ocrati":6990,"ynamic":6991,"çĶ¨æĪ·å¼ºè°ĥçĽ´æİ¥ç»ĻåĩºçŃĶæ¡Ī":6992,"Byzantine":6993,"æĺ¯æŃ£ç¡®çļĦæľ¯è¯Ń":6994,"æĽ´é¡ºçķħ":6995,"Ġsustain":6996,"Ġnations":6997,"éĢļè¿ĩå°Ĩ":6998,"Ġregulation":6999,"çºłéĶĻ":7000,"Ġequilibrium":7001,"Ġç¿»è¯ĳä¸º":7002,"Ġchi":7003,"è¯´è¯Ŀ":7004,"ä¸įéľĢè¦ģçī¹åĪ«":7005,"ä¸ŃæĸĩçļĦæµģçķħæĢ§":7006,"æŀģç®Ģ":7007,"Ġabstr":7008,"çºłç¼ł":7009,"è¿Ļç±»":7010,"ç»ĵæŀĦä¸º":7011,"åī¯":7012,"Ġdispar":7013,"ä¸įä¼ļå¼ķèµ·æŃ§ä¹ī":7014,"éĢļçĶ¨çļĦ":7015,"åħīåŃĲè®¡ç®Ĺ":7016,"Ġcryptocurrency":7017,"iconduct":7018,"æĸĩåŃ¦ä¸ŃçļĦéŃĶå¹»çİ°å®ŀä¸»ä¹ī":7019,"pot":7020,"æīĢä»¥ç¿»è¯ĳæĹ¶":7021,"ä¸ĵä¸ļæľ¯è¯Ńæĸ¹éĿ¢":7022,"location":7023,"è½½":7024,"Ġemission":7025,"æĺ¾èĳĹå·®å¼Ĥ":7026,"rological":7027,"hybrid":7028,"roscopy":7029,"temporal":7030,"reli":7031,"å®¹éĶĻ":7032,"ended":7033,"Ġcircu":7034,"å¨ģèĥģ":7035,"å¿łå®ŀåİŁæĦı":7036,"Ġbanking":7037,"çĮ":7038,"eness":7039,"adapt":7040,"åİŁåı¥çļĦç»ĵæŀĦæĺ¯çĸĳéĹ®åı¥":7041,"sym":7042,"ä¸ŃæĸĩçļĦè¯Ńåºıåı¯èĥ½éľĢè¦ģè°ĥæķ´":7043,"çĽ´æİ¥å½±åĵį":7044,"Ġtraject":7045,"Ġeffective":7046,"æĺ¯æłĩåĩĨçļĦ":7047,"åĸĦ":7048,"Ġsurfaces":7049,"Ġsupernatural":7050,"ä½ĨçĶ¨æĪ·è¦ģæ±ĤçĽ´æİ¥ç»ĻåĩºçŃĶæ¡Ī":7051,"Ġdetermin":7052,"Ġamplify":7053,"æ£ĢæŁ¥æĺ¯åĲ¦æľīæĸĩåĮĸéĢĤåºĶæĢ§éĹ®é¢ĺ":7054,"lation":7055,"æŀĿ":7056,"ä¸ĵæ³¨":7057,"plasticity":7058,"å¼ºè°ĥçļĦæĺ¯":7059,"æĽ´åĲĪéĢĤçļĦè¯įæ±ĩ":7060,"åı£è¯ŃåĮĸçļĦè¡¨è¾¾":7061,"å²©çŁ³":7062,"Ġelectron":7063,"æĹ¥çĽĬ":7064,"eroid":7065,"would":7066,"induced":7067,"refl":7068,"åı¯ä»¥ç®ĢåĮĸä¸º":7069,"åģ¥":7070,"uty":7071,"cales":7072,"å¹¿ä¹īçĽ¸å¯¹è®º":7073,"èĬĤå¾ĭ":7074,"éĺħè¯»åİŁåı¥":7075,"ä½ĨçĶ¨æĪ·è¦ģæ±ĤçĽ´æİ¥ç¿»è¯ĳ":7076,"è´¢å¯Į":7077,"enabled":7078,"Ġeducational":7079,"patterns":7080,"bec":7081,"åľ¨ç§ĳåŃ¦":7082,"æµª":7083,"çļĦç»ĵæŀĦåºĶè¯¥æĺ¯":7084,"æŃ£å¼ıåĴĮ":7085,"ç¼ĸçłģ":7086,"æľĢåĲİç¡®è®¤æ²¡æľīéģĹæ¼ıä¿¡æģ¯":7087,"éļ¾é¢ĺ":7088,"åıįåºĶåłĨ":7089,"æ²¡æľīéģĹæ¼ıæĪĸéĶĻè¯¯":7090,"ribute":7091,"Cubist":7092,"urg":7093,"Ġret":7094,"å®ļçĲĨ":7095,"è¿ĺè¦ģæ³¨æĦıæµģçķħæĢ§":7096,"å½¢æĪĲé²ľæĺİå¯¹æ¯Ķ":7097,"urocentric":7098,"maintain":7099,"è¡°éĢĢ":7100,"ä½ľèĢħæĦıåĽ¾":7101,"åľ¨ç¿»è¯ĳä¸Ń":7102,"æĪĲåĬŁ":7103,"ä¿¡æģ¯èĮ§æĪ¿":7104,"æĦŁå®ĺ":7105,"Ġsuperconductors":7106,"Ġrevolutionize":7107,"Ġfinancial":7108,"éĶĤç¦»åŃĲ":7109,"mon":7110,"çļĦç»ĵæŀľ":7111,"ä¿Ĺ":7112,"è°¢":7113,"ema":7114,"Ġfan":7115,"elt":7116,"ç¤ºä¾ĭ":7117,"åģĩè®¾æĢ§çļĦ":7118,"Ġdecades":7119,"Ġplains":7120,"æµģçķħæĢ§åĴĮåĩĨç¡®æĢ§":7121,"ections":7122,"Ġsuc":7123,"å¼ķåıĳäºĨ":7124,"åıªèĥ½ç¿»è¯ĳ":7125,"Ġcorrelate":7126,"osc":7127,"Ġdiff":7128,"ä¸ĬçļĦä¸įåĲĮ":7129,"çĽĲåº¦":7130,"ĠEuropean":7131,"æĪªçĦ¶ä¸įåĲĮçļĦ":7132,"Ġprogress":7133,"èĽ":7134,"Ġsel":7135,"æĥ¯ä¾ĭ":7136,"Ġreveal":7137,"ther":7138,"å¤§å¹ħ":7139,"Ġgeomorph":7140,"åİŁåı¥æĺ¯ä¸Ģä¸ªéĹ®åı¥":7141,"åĲĦä¸ª":7142,"æ½®":7143,"æĪĸèĢħæĺ¯åĲ¦åºĶè¯¥çĶ¨":7144,"µĮ":7145,"åµĮ":7146,"é¾":7147,"çļĦæĸĩåĮĸ":7148,"çļĦè®¤çŁ¥":7149,"ç¿»è¯ĳäºĨ":7150,"æīĢä»¥ä¿ĿçķĻ":7151,"å¹²æĹ±":7152,"aster":7153,"åĩĨç¡®ä¸Ķæµģçķħ":7154,"prioritizes":7155,"å¥³æĢ§":7156,"high":7157,"self":7158,"æĪĳéľĢè¦ģå°Ĩ":7159,"çĶ¨äºİè®ºæĸĩæĪĸæĬ¥åĳĬ":7160,"Ġinnovations":7161,"Network":7162,"erns":7163,"äººæľº":7164,"Cognitive":7165,"shif":7166,"è¿ĻéĩĮæľīåĩłä¸ª":7167,"å¸¸çĶ¨è¯´æ³ķ":7168,"æŃ£å¼ıæĢ§":7169,"ä¸įèĥ½ç¿»è¯ĳæĪĲ":7170,"Ġdivide":7171,"arding":7172,"çŁ³å¢¨":7173,"åĽ½éĻħè´¸æĺĵ":7174,"æľīæķĪæĢ§":7175,"è¡°èĲ½":7176,"éĺ¶å±Ĥ":7177,"æ²¿æµ·":7178,"æĪĳéľĢè¦ģç¿»è¯ĳè¿Ļä¸ªåı¥åŃĲ":7179,"å¼¹":7180,"æ£ĢæŁ¥åı¥åŃĲçļĦæµģçķħæĢ§":7181,"çĶ¨æĪ·è®©æĪĳæĬĬè¿Ļåı¥è¯Ŀç¿»è¯ĳæĪĲä¸Ńæĸĩ":7182,"ources":7183,"Ġaccumulation":7184,"Ġundergo":7185,"æĮīçħ§çĶ¨æĪ·çļĦè¦ģæ±Ĥ":7186,"narrative":7187,"linguistic":7188,"Ġdual":7189,"Ġsugges":7190,"çī¹åĪ«æĺ¯åľ¨":7191,"system":7192,"å»¶éķ¿":7193,"dependence":7194,"æİ¨åĬ¨äºĨ":7195,"Algorithmic":7196,"çŁ³å¢¨çĥ¯":7197,"ä¸įåĽŀçŃĶéĹ®é¢ĺ":7198,"etar":7199,"Ġreason":7200,"æ¨¡å¼ıè¯ĨåĪ«":7201,"ç¼ºéĻ·":7202,"æĪĳè¦ģç¡®ä¿ĿåĩĨç¡®çĲĨè§£åİŁåı¥çļĦæĦıæĢĿ":7203,"æ£ĢæŁ¥æĺ¯åĲ¦":7204,"å®ŀåľ¨":7205,"çļĦæĺ¯ä¸Ģä¸ª":7206,"aptic":7207,"ç¥ŀåŃ¦":7208,"æİ¨çĲĨ":7209,"plicate":7210,"Ġcommunities":7211,"ä¾ĽåºĶéĵ¾":7212,"ç¿»è¯ĳåºĶè¯¥æĺ¯":7213,"ç¿»è¯ĳè¿ĩç¨ĭä¸Ń":7214,"åĲİç»Ń":7215,"æ¯Ķè¾ĥç®Ģæ´ģ":7216,"Ġaugment":7217,"å²Ĺ":7218,"ä¸īç»´":7219,"è¶ħèĩªçĦ¶åħĥç´ł":7220,"è½®":7221,"æĿĥåĬĽç»ĵæŀĦ":7222,"Ġabstraction":7223,"åĩĳ":7224,"Ġsovereign":7225,"Ġbarri":7226,"Ġhad":7227,"pers":7228,"ä¸ŃåĽ½è¯»èĢħ":7229,"Ġconflic":7230,"ĠæĪĳéľĢè¦ģåĩĨç¡®åľ°å°Ĩè¿Ļåı¥è¯Ŀç¿»è¯ĳæĪĲä¸Ńæĸĩ":7231,"lement":7232,"åħĪä»Ķç»Ĩ":7233,"æĽ²è§£":7234,"Neuromorphic":7235,"åĪĨåŃĲç»Ħè£ħ":7236,"ç´§åĩĳ":7237,"ä¸ĵæ³¨äºİ":7238,"åı¯ä»¥ç¿»è¯ĳæĪĲ":7239,"åı¥åŃĲç»ĵæŀĦèĩªçĦ¶":7240,"å¹³éĿ¢":7241,"entialist":7242,"Ġdifferent":7243,"Ġviability":7244,"åİŁåı¥çļĦç»ĵæŀĦåĴĮæĦıæĢĿ":7245,"Ġperspectives":7246,"ybers":7247,"æ¯Ķåĸ»":7248,"Ġdrainage":7249,"æĸĩåŃ¦åĪĨæŀĲ":7250,"äº¤éĢļ":7251,"åĲĦé¡¹":7252,"grad":7253,"histor":7254,"ybersecurity":7255,"ä»¥éĢĤåºĶ":7256,"æĽ´å¿«":7257,"çī©èģĶç½ĳ":7258,"åıĺæļĸ":7259,"éĢļè¿ĩæ¯Ķè¾ĥ":7260,"structures":7261,"æļĹèĥ½éĩıå¯Ĩåº¦":7262,"åį«æĺŁ":7263,"Ġinequality":7264,"æ¯Ķäºļ":7265,"arosc":7266,"Ġmosa":7267,"æ£ĢæŁ¥æķ´ä¸ªåı¥åŃĲçļĦæµģçķħæĢ§":7268,"Ġacid":7269,"divergent":7270,"Ġintent":7271,"ç¡®ä¿Ŀåı¥åŃĲæµģçķħ":7272,"åħĥç´łéĥ½":7273,"arget":7274,"aroscuro":7275,"fe":7276,"çļĦå¸¸çĶ¨è¡¨è¾¾":7277,"Ġcategor":7278,"åįĹ":7279,"è¿Ļæł·ç¿»è¯ĳåĲİçļĦåı¥åŃĲ":7280,"è¿Ļæĺ¯ä¸ĵä¸ļæľ¯è¯Ń":7281,"éĺĪ":7282,"éľĢè¦ģåĩĨç¡®å¤ĦçĲĨ":7283,"Neuro":7284,"åħħåĪĨ":7285,"Ġdebates":7286,"det":7287,"æĿ¥å®ŀçİ°":7288,"æµģè¡Į":7289,"ä»£éĻħ":7290,"å·¥èīº":7291,"æ®Ĭ":7292,"åľ¨ä¸ŃæĸĩéĩĮå¸¸çĶ¨":7293,"çªģçĦ¶":7294,"åľ°åĮºçļĦ":7295,"æ½ľåĬĽ":7296,"Ġchanges":7297,"Ġscales":7298,"æľīä¸Ģå®ļçļĦäºĨè§£":7299,"æ²¡æľīéĶĻè¯¯":7300,"ild":7301,"çİ¯å¢ĥä¸Ń":7302,"vious":7303,"Ġsequ":7304,"è¾¹ç¼ĺè®¡ç®Ĺ":7305,"Ġriver":7306,"å®¤æ¸©è¶ħå¯¼ä½ĵ":7307,"kes":7308,"çļĦä½ľçĶ¨":7309,"Ġcasc":7310,"å¯¿åĳ½":7311,"Ġrem":7312,"è¿Ļåı¥è¯Ŀè®¨è®ºçļĦæĺ¯":7313,"ç¡®è®¤æĺ¯åĲ¦":7314,"åĨħåľ¨":7315,"ç»ĵæŀľæĶ¾åľ¨åĲİéĿ¢":7316,"ç¤¾ä¼ļåĪĨå±Ĥ":7317,"ç¾İåĽ½":7318,"éľĢè¦ģåĩĨç¡®ä¼łè¾¾åĩº":7319,"æ¬§æ´²ä¸Ńå¿ĥ":7320,"Ġindices":7321,"æİ¨è¿Ľç³»ç»Ł":7322,"Ġreflect":7323,"æĽ´æĸ°":7324,"æĿ¥å¼ºè°ĥ":7325,"åı¯ä»¥çľģçķ¥":7326,"åı¥åŃĲç»ĵæŀĦæ¸ħæĻ°":7327,"partic":7328,"petuate":7329,"put":7330,"æ¯Ķå¦ĤåİŁåı¥ä¸ŃçļĦ":7331,"æīĢä»¥æķ´ä½ĵ":7332,"æŃ£åľ¨":7333,"ä¿ĿæĮģä¸ĵä¸ļæĢ§":7334,"éĢīæĭ©æĢ§":7335,"æĪĳéľĢè¦ģç¡®ä¿Ŀç¿»è¯ĳçļĦåĩĨç¡®æĢ§":7336,"åĪĽä¼¤":7337,"ç¡®ä¿Ŀæ²¡æľīä½¿çĶ¨":7338,"å¤©ä½ĵçĶŁçī©åŃ¦":7339,"fre":7340,"çļĦèīºæľ¯":7341,"å¿§":7342,"ä¹ĭåĲİ":7343,"æĿ¥è¿ŀæİ¥åīįåĲİ":7344,"Ġelectric":7345,"Ġredefine":7346,"éĴĻåĮĸ":7347,"å¿łå®ŀäºİåİŁæĸĩ":7348,"èıĮ":7349,"çī¹æ®Ĭ":7350,"æľĢåĲİæ£ĢæŁ¥åĩĨç¡®æĢ§":7351,"å±Ĥæ¬¡":7352,"å½¢å¼ıçļĦ":7353,"è¾ĵåĩºç¿»è¯ĳç»ĵæŀľ":7354,"èĲ¨":7355,"ç¿»è¯ĳæĹ¶è¦ģç¡®ä¿Ŀä¸ĵä¸ļæľ¯è¯ŃåĩĨç¡®":7356,"ele":7357,"incorpor":7358,"æīĢä»¥åĩĨç¡®æĢ§åĴĮä¸ĵä¸ļæĢ§":7359,"Ġshe":7360,"Ġgu":7361,"æľ¯è¯ŃæŃ£ç¡®æĢ§":7362,"Ġinterventions":7363,"ä¿ĿæĮģåı¥åŃĲçļĦç®Ģæ´ģ":7364,"ä¹ĭåīįçļĦ":7365,"é¢ĳçİĩ":7366,"éĺĪåĢ¼":7367,"è½¬åĲĳ":7368,"äºĴæĸĩ":7369,"å¹»çģŃ":7370,"æĺ¼å¤ľèĬĤå¾ĭ":7371,"current":7372,"è¯»è¯ĳ":7373,"åĲĮè´¨":7374,"çĬ¶è¯ŃæĶ¾åľ¨åīįéĿ¢":7375,"åĩıå¼±":7376,"åľ¨è¿ĻéĩĮæĺ¯åĬ¨è¯į":7377,"model":7378,"fragment":7379,"ä¾§éĩį":7380,"ç¡®ä¿Ŀä¸Ńæĸĩè¯»èµ·æĿ¥èĩªçĦ¶":7381,"è¯»è¯ĳæĸĩ":7382,"çļĦåºĶçĶ¨":7383,"çļĦå·®å¼Ĥ":7384,"éĢļè¯»è¯ĳæĸĩ":7385,"ä¸ĵä¸ļçļĦæľ¯è¯Ń":7386,"Ġev":7387,"çĲĨè§£æ¯ıä¸ªæľ¯è¯ŃçļĦæĦıæĢĿ":7388,"Ġexacerb":7389,"Ġintensity":7390,"æīĢä»¥ç»ĵæŀĦä¸Ĭ":7391,"Sub":7392,"æľ¯è¯ŃåĩĨç¡®æĢ§":7393,"Ġcentral":7394,"ä½¿çĶ¨åĲĪéĢĤçļĦ":7395,"è¿Ļç§įç»ĵæŀĦ":7396,"Ġcarbonate":7397,"ç¬¦åĲĪä¸Ńæĸĩè¯»èĢħçļĦçĲĨè§£ä¹łæĥ¯":7398,"Alluvial":7399,"lish":7400,"æĸ¥":7401,"èĥ½æķĪ":7402,"æµ¸":7403,"emic":7404,"Ġfiscal":7405,"éĶģ":7406,"ç´Ĭ":7407,"æľĢåĲİæ£ĢæŁ¥æĺ¯åĲ¦ç¬¦åĲĪçĶ¨æĪ·çļĦè¦ģæ±Ĥ":7408,"æł¹æį®ä¸Ĭä¸ĭæĸĩåĪ¤æĸŃ":7409,"Ġconcerns":7410,"æ²¡æľīéģĹæ¼ıä»»ä½ķ":7411,"ush":7412,"undane":7413,"äººç±»è®¤çŁ¥":7414,"åĻ¨å®ĺ":7415,"åľºåĲĪä½¿çĶ¨":7416,"éĢıè§Ĩæ³ķ":7417,"ç½Ĺé©¬":7418,"technological":7419,"åĲĦé¡¹è¦ģæ±Ĥ":7420,"ç´Ĭä¹±":7421,"è¦ģéĢļé¡º":7422,"æ£ĢæŁ¥ä¸Ģéģį":7423,"èīºæľ¯é¢ĨåŁŁçļĦ":7424,"tivation":7425,"åĳ½ä»¤":7426,"åĨ²åĩ»":7427,"Ġsubjective":7428,"ç²¾ç¡®çļĦ":7429,"è´¢æĶ¿æĶ¿çŃĸ":7430,"åĩ¡":7431,"Ġholographic":7432,"è¿Ļä¸ªè¯ĳæ³ķ":7433,"åĵ¥çī¹":7434,"Ġhigher":7435,"Ġemphasis":7436,"Ġschol":7437,"æ±½è½¦":7438,"ĠAmerican":7439,"anpsych":7440,"ulture":7441,"umer":7442,"æ£ĢæŁ¥æĺ¯åĲ¦æľīéģĹæ¼ıæĪĸè¯¯è¯ĳ":7443,"Ġconstruction":7444,"anpsychism":7445,"åĴĮç»ĵæŀĦ":7446,"Ġstate":7447,"å·®è·Ŀ":7448,"çľŁçĲĨ":7449,"hyd":7450,"åĭĴ":7451,"Ġstructure":7452,"ä¸Ńæĸĩåı¯èĥ½éľĢè¦ģè°ĥæķ´è¯Ńåºı":7453,"arge":7454,"æĢĿç»´":7455,"æįī":7456,"resist":7457,"ilk":7458,"å¤įåĲĪ":7459,"åĽłä¸ºæ¶īåıĬ":7460,"çĶµç½ĳ":7461,"Ġbeen":7462,"è¡¨çİ°åĩº":7463,"ä½¿åħ¶ç¬¦åĲĪä¸Ńæĸĩè¡¨è¾¾ä¹łæĥ¯":7464,"éĢļçĶ¨æĻºèĥ½":7465,"æīĢä»¥æľ¯è¯Ńå¿ħé¡»åĩĨç¡®":7466,"cantilist":7467,"è¿Ļåı¥":7468,"å®½":7469,"ç¡®ä¿ĿåĩĨç¡®æĢ§":7470,"æĺ¯åĲ¦éľĢè¦ģè°ĥæķ´è¯Ńåºı":7471,"editer":7472,"å¹Ķ":7473,"Ġpropos":7474,"Ġexoplanet":7475,"agation":7476,"ç»ĦåĲĪèµ·æĿ¥çļĦè¯Ŀ":7477,"overy":7478,"çĶ¨æĪ·è®©æĪĳç¿»è¯ĳè¿Ļä¸ªèĭ±æĸĩåı¥åŃĲ":7479,"ç¡®ä¿Ŀæ²¡æľīéĶĻè¯¯":7480,"æľīæ²¡æľīæĽ´å¥½çļĦè¡¨è¾¾æĸ¹å¼ı":7481,"Ġvehic":7482,"editerranean":7483,"40":7484,"ior":7485,"Ġess":7486,"çļĦæĮĳæĪĺ":7487,"åı¯èĥ½åľ¨":7488,"Ġmitig":7489,"Ġreinforcement":7490,"åĨįæ¬¡":7491,"Ġinfluenc":7492,"åĬŁåĪ©ä¸»ä¹īä¼¦çĲĨåŃ¦":7493,"Ġfragmented":7494,"Ġdilem":7495,"çļĦåı¯":7496,"Ġchromatic":7497,"Ġdise":7498,"åģĩè®¾æĿ¡ä»¶":7499,"äººå·¥éĢļçĶ¨æĻºèĥ½":7500,"bound":7501,"udal":7502,"Ġcreating":7503,"Incre":7504,"Ġprecipitated":7505,"æĹ¢ä¸ĵä¸ļåıĪæĺĵäºİçĲĨè§£":7506,"åľ£åĥı":7507,"Ad":7508,"èĹ":7509,"éľĢè¦ģå¤ĦçĲĨä¸º":7510,"éĢīé¡¹":7511,"åıªè¿Ľè¡Įç¿»è¯ĳ":7512,"çĥŃå²Ľ":7513,"çĶ¨æĪ·ç»ĻäºĨä¸Ģä¸ªåı¥åŃĲ":7514,"è·¯çº¿":7515,"æ²īæµ¸":7516,"å£«æ¯Ķäºļ":7517,"Ġprecipitation":7518,"Ġmemory":7519,"æĳĦå½±":7520,"èİİå£«æ¯Ķäºļ":7521,"ä½ĨåİŁåı¥æĺ¯":7522,"æĢģåº¦":7523,"process":7524,"èĦĨ":7525,"çĶ¨æĪ·å¼ºè°ĥå¿ħé¡»çĽ´æİ¥ç»ĻåĩºçŃĶæ¡Ī":7526,"çļĦä½ľåĵģ":7527,"åı¯èĥ½ç¿»è¯ĳæĪĲ":7528,"Ġcondi":7529,"Ġarc":7530,"tivist":7531,"å¯ĨåĪĩ":7532,"éĢłå±±":7533,"éĽĨæĪĲ":7534,"holds":7535,"environmental":7536,"material":7537,"ort":7538,"æĪĳéľĢè¦ģåĩĨç¡®çĲĨè§£æ¯ıä¸ªæľ¯è¯Ń":7539,"ä¸»åı¥éĥ¨åĪĨ":7540,"åı¯èĥ½çĶ¨æĪ·å¸ĮæľĽ":7541,"å°ģåŃĺ":7542,"long":7543,"amet":7544,"oclassical":7545,"è¯Ńå¢ĥä¸ĭ":7546,"æĪĳéľĢè¦ģçĲĨè§£æ¯ıä¸ªéĥ¨åĪĨçļĦæĦıæĢĿ":7547,"Ġroom":7548,"sively":7549,"é©¬èµ":7550,"çĲĨè§£åİŁæĸĩçļĦæĦıæĢĿå¾Īéĩįè¦ģ":7551,"ä¸įèĥ½éļıæĦıæĶ¹åĬ¨":7552,"ä¸ģ":7553,"Ġinvest":7554,"åİŁåı¥ä¸Ń":7555,"çĲĨè§£åħ¶":7556,"é©¾":7557,"åŁİå¸Ĥè§ĦåĪĴ":7558,"iversity":7559,"Ġagency":7560,"Ġextraction":7561,"lu":7562,"åºĶä¿ĿæĮģ":7563,"ç¡®ä¿ĿæīĢæľī":7564,"ç§įç¾¤":7565,"çģ°":7566,"Ġorganiz":7567,"Ġconceptual":7568,"effici":7569,"åį±æľº":7570,"illusionment":7571,"ocratiz":7572,"00":7573,"ronic":7574,"Ġå°±æĺ¯":7575,"ģè®¸":7576,"åħģè®¸":7577,"è§£è¯»":7578,"çļĦç»ĵæŀĦæ¯Ķè¾ĥåĲĪéĢĤ":7579,"amplify":7580,"çī¹åĪ«è¯´æĺİ":7581,"æĪĳè¦ģç¡®ä¿Ŀç¿»è¯ĳåĩĨç¡®":7582,"æķ°æį®ä¼łè¾ĵ":7583,"åıĹåĪ°":7584,"åĤ¨åŃĺ":7585,"antian":7586,"ä¸Ńæĸĩè¯»èĢħåı¯èĥ½æĽ´çĨŁæĤī":7587,"Ġinterpretations":7588,"çŃīçº§åĪ¶åº¦":7589,"çļĦé¢ĨåŁŁ":7590,"accoun":7591,"ç»ıæµİä½ĵ":7592,"persist":7593,"under":7594,"Ġcompeti":7595,"èĻļæĭŁçİ°å®ŀ":7596,"atility":7597,"transi":7598,"ablish":7599,"imal":7600,"åĩĨç¡®ä¼łè¾¾äºĨåİŁæĸĩçļĦ":7601,"Ġancient":7602,"Ġvaluation":7603,"Ġsolid":7604,"çĶ¨æĪ·åı¯èĥ½çļĦèĥĮæĻ¯":7605,"Ġnanotechnology":7606,"Ġcounter":7607,"Ġbarriers":7608,"çļĦæĦıåĳ³":7609,"abit":7610,"å¦Ĥä½ķåľ¨":7611,"çĶŁæĢģæī¹è¯Ħ":7612,"ermohaline":7613,"ä¾Ŀèµĸäºİ":7614,"ensitive":7615,"æķıæĦŁ":7616,"èĵĦ":7617,"etarist":7618,"èĦĨå¼±":7619,"åľ¨çī©çĲĨåŃ¦":7620,"äººçī©":7621,"åĳ¼":7622,"æķĻåŃ¦":7623,"ä¾ĿåŃĺ":7624,"RNA":7625,"éĢļå¸¸æĺ¯":7626,"æ´Ľ":7627,"æłĩåĩĨç¿»è¯ĳ":7628,"äº¤äºĴ":7629,"ä¸Ńæĸĩç§ĳæĬĢç¿»è¯ĳéĢļå¸¸":7630,"Ġconnectivity":7631,"é©¬èµĽåħĭ":7632,"¡æĶ¹":7633,"èŃ":7634,"çļĦå½¢å¼ı":7635,"è¿ĺè¦ģç¡®ä¿Ŀ":7636,"rist":7637,"Ġstory":7638,"è¶ħçİ°å®ŀä¸»ä¹ī":7639,"Ġmoun":7640,"establish":7641,"æİ¥ä¸ĭæĿ¥è¦ģèĢĥèĻĳåı¥åŃĲçļĦæµģçķħæĢ§":7642,"çĽĳçĿ£":7643,"ç¯¡æĶ¹":7644,"rophic":7645,"iconductor":7646,"Increased":7647,"åĴĮèĩªçĦ¶æĢ§":7648,"é¡¾":7649,"Ġnature":7650,"æĦŁåĪ°":7651,"Ġany":7652,"æĪĳè¦ģç¡®ä¿Ŀç¿»è¯ĳçļĦåĩĨç¡®æĢ§":7653,"åŁºåĽłè¡¨è¾¾":7654,"Ġdeveloped":7655,"ĠRo":7656,"åİŁåı¥æĺ¯ä¸Ģä¸ªæĿ¡ä»¶åı¥":7657,"å§Ķ":7658,"bstract":7659,"è¿ĻæĦıåĳ³çĿĢ":7660,"åı¯èĥ½çļĦè¯ĳæ³ķ":7661,"resco":7662,"Ġdefin":7663,"deontological":7664,"æĽ¾":7665,"å·²ç»ıæĺ¯":7666,"åħĥå°ıè¯´":7667,"å±±èĦī":7668,"æµ·æ´ĭéħ¸åĮĸ":7669,"åľ°è´¨åŃ¦ä¸Ń":7670,"Ġworks":7671,"ä½Ĩä¹Łåı¯ä»¥èĢĥèĻĳ":7672,"èŃ¦":7673,"Blockchain":7674,"çļĦåı¯èĥ½æĢ§":7675,"ench":7676,"æīĢä»¥éľĢè¦ģç¡®ä¿Ŀ":7677,"oles":7678,"æ£ĢæŁ¥æķ´ä¸ªåı¥åŃĲ":7679,"ä½¿çĶ¨ä¸ĵä¸ļæľ¯è¯Ń":7680,"igur":7681,"Ġvulner":7682,"äºĮåħĥ":7683,"åħ±è¯Ĩ":7684,"Ġaccelerated":7685,"Ġmountain":7686,"evolve":7687,"Ġscale":7688,"å¤§äº¤æį¢":7689,"estabiliz":7690,"Ġexplo":7691,"æł¸å¿ĥæ¦Ĥå¿µ":7692,"uxtapos":7693,"ĠRoad":7694,"ç¿»è¯ĳåĩºæĿ¥":7695,"Ġchips":7696,"æīĢä»¥è°ĥæķ´è¯Ńåºıä¸º":7697,"çĽĨ":7698,"é£ŀ":7699,"å¹¿æ³Ľæİ¥åıĹ":7700,"æİĴæ°´":7701,"åľ°çĲĥåĮĸ":7702,"è¿Ļæł·æĹ¢ä¿ĿæĮģäºĨåİŁæĦı":7703,"Ġvariations":7704,"Ġcomparative":7705,"æŀģç®Ģä¸»ä¹ī":7706,"ault":7707,"çļĦä¼łæĴŃ":7708,"æµ®":7709,"åĩºéĶĻ":7710,"Ġadjust":7711,"æĤ¬":7712,"äº§çĶŁæŃ§ä¹ī":7713,"å¹´ä»£":7714,"è®¾è®¡çļĦ":7715,"å®ŀéĻħåºĶçĶ¨":7716,"èĽĭ":7717,"'re":7718,"è¿ħ":7719,"éĢĤçĶ¨":7720,"ä½Ĩåı¯èĥ½":7721,"Ġfood":7722,"æ£ĢæŁ¥æĺ¯åĲ¦ç¬¦åĲĪçĶ¨æĪ·çļĦè¦ģæ±Ĥ":7723,"asma":7724,"çļĦç»ĵæŀĦæĿ¥è¡¨è¾¾":7725,"èĤī":7726,"DNAåºıåĪĹ":7727,"representational":7728,"ĨĴ":7729,"æŃ¦":7730,"æĿ¥è§£éĩĬ":7731,"è¿ĻéĩĮåºĶè¯¥ç¿»è¯ĳæĪĲ":7732,"è¿ĻéĩĮéľĢè¦ģä¿ĿæĮģ":7733,"ising":7734,"odiversity":7735,"éĻĦ":7736,"åĨįçĶŁ":7737,"åıªæıĲä¾Ľç¿»è¯ĳç»ĵæŀľ":7738,"ç«Ļ":7739,"ä¸įè¿ĩåİŁåı¥ä¸ŃçļĦ":7740,"æĺ¯æłĩåĩĨçļĦè¯ĳæ³ķ":7741,"èµĦæºĲåĪĨéħį":7742,"1950":7743,"æĭħå¿§":7744,"Ġcommercial":7745,"Ġevidence":7746,"åĩĨç¡®çļĦç¿»è¯ĳ":7747,"æĿ¥èĩª":7748,"ä½ĨéľĢè¦ģ":7749,"æ¶Į":7750,"ĠEnlightenment":7751,"åı£è¯ŃåĮĸè¡¨è¾¾":7752,"Ġsystemic":7753,"Ġredefin":7754,"åĵ¥ä¼¦å¸ĥå¤§äº¤æį¢":7755,"çĥŃå²ĽæķĪåºĶ":7756,"åĪĨå½¢":7757,"å·¨":7758,"Ġactions":7759,"åģıåĲĳ":7760,"limin":7761,"Ġrole":7762,"igenous":7763,"Ġtruth":7764,"è¯¥é¢ĨåŁŁçļĦ":7765,"Ġcapacity":7766,"Ġsovereignty":7767,"pri":7768,"çļĦä¸į":7769,"Ġindust":7770,"æİ¥ä¸ĭæĿ¥çļĦéĥ¨åĪĨ":7771,"çºµ":7772,"ç³»ç»Łä¸ŃçļĦ":7773,"cons":7774,"Ġcomposition":7775,"çŃīä»·":7776,"åĨįæ£ĢæŁ¥æĸĩåĮĸéĢĤåºĶæĢ§":7777,"å£¤":7778,"scientific":7779,"Ġsubduction":7780,"within":7781,"Col":7782,"vacy":7783,"tification":7784,"æĪĸå°Ĩ":7785,"è¿ĻéĩĮåı¯èĥ½çĶ¨":7786,"æĺ¯åĲ¦ç¬¦åĲĪä¸ŃæĸĩçļĦè¡¨è¾¾ä¹łæĥ¯":7787,"ä¸ĵä¸ļè¯įæ±ĩ":7788,"è´¦":7789,"åľ°å¹Ķ":7790,"ç»Łè®¡":7791,"è¿Ļä¸ªéĹ®é¢ĺ":7792,"çĶ¨æĪ·è®©æĪĳæĬĬ":7793,"ocratic":7794,"ä¿®å¤į":7795,"å±ŀæĢ§":7796,"Ġorbital":7797,"åĩĿèģļ":7798,"Ġconstraints":7799,"tonian":7800,"çĻ¾äº¿äº¿æ¬¡è®¡ç®Ĺ":7801,"Ġsilicon":7802,"ä¸Ńå¸¸è¯ĳä¸º":7803,"åħ¼":7804,"ç¼Ŀ":7805,"exp":7806,"often":7807,"Ġcontrad":7808,"æĪĳéľĢè¦ģç¡®ä¿Ŀç¿»è¯ĳåĩĨç¡®ä¼łè¾¾åİŁæĦı":7809,"rede":7810,"æĪĳä¼ļ":7811,"oler":7812,"ä¸Ģè¯į":7813,"çİ¯å¢ĥçĽ¸äºĴä½ľçĶ¨":7814,"äººå·¥æĦıè¯Ĩ":7815,"ä½¿åħ¶æĽ´ç¬¦åĲĪä¸Ńæĸĩè¡¨è¾¾ä¹łæĥ¯":7816,"Ġvertical":7817,"Ġscalability":7818,"çļĦä¼łç»Ł":7819,"å¸®":7820,"æ¯Ķè¾ĥçļĦæĺ¯":7821,"åı¯èĥ½éľĢè¦ģè¯ĳä¸º":7822,"å½¢æĪĲè¿ĩç¨ĭ":7823,"early":7824,"å®¡è§Ĩ":7825,"Ġuniverse":7826,"Ġauthenticity":7827,"Aut":7828,"onics":7829,"è¿ĻéĩĮåºĶè¯¥çĶ¨":7830,"ä¸ĵä¸ļåĮĸ":7831,"å±ı":7832,"quis":7833,"Ġoff":7834,"forming":7835,"ç¥ŀç»ıå½¢æĢģè®¡ç®Ĺæŀ¶æŀĦ":7836,"Ġif":7837,"è¯ŀ":7838,"algorithmic":7839,"ç»ĵæŀĦç¬¦åĲĪä¸Ńæĸĩä¹łæĥ¯":7840,"çĶŁçī©æłĩå¿Ĺ":7841,"conf":7842,"ä¸ŃæĸĩçļĦçĸĳéĹ®åı¥":7843,"ervice":7844,"Ġassembl":7845,"Ġpressures":7846,"Ġreasoning":7847,"Ġsect":7848,"igns":7849,"æĪĸèĢħå¯¹":7850,"Ġgraph":7851,"umb":7852,"æĹ¶éĹ´ä¸ĬçļĦ":7853,"Ġdisplacement":7854,"åģıåĲĳäºİ":7855,"æįķé£Ł":7856,"å¯¡å¤´åŀĦæĸŃ":7857,"Ġrobotics":7858,"æĹ¨":7859,"atomic":7860,"ä¸įéģĹæ¼ı":7861,"arwin":7862,"Ġthought":7863,"ä½Ĩåľ¨è¿ĻéĩĮ":7864,"igopol":7865,"æĪĳéľĢè¦ģæĬĬ":7866,"ression":7867,"çĲĨè®ºæ¡Ĩæŀ¶":7868,"truc":7869,"Ġconditioning":7870,"ä¸¾":7871,"ç»ķ":7872,"åı¯èĥ½çļĦç»ĵæŀĦæĺ¯":7873,"Ġlatency":7874,"ä¸įä¼ļåĽŀçŃĶè¾ĵåħ¥çļĦéĹ®é¢ĺ":7875,"éļĲèº«":7876,"éĴ¥":7877,"åı¯èĥ½ä¸įå¤ª":7878,"Ġmainstream":7879,"Ġzone":7880,"fundamental":7881,"ength":7882,"Ġradical":7883,"å²Ĺä½į":7884,"æħ":7885,"ç»ª":7886,"ç»¿":7887,"ä¸įè¿ĩæł¹æį®":7888,"åĨ°çĽĸ":7889,"ä¸įåı¯éĿł":7890,"jection":7891,"æĺ¯å¯¹":7892,"å¼ĥ":7893,"æµģå¤±":7894,"åºĶè¯¥èĥ½":7895,"è¦ģæ³¨æĦıåı¥åŃĲçļĦç»ĵæŀĦ":7896,"åıįå°Ħ":7897,"Ġtraining":7898,"propor":7899,"ĠAn":7900,"çĲĨè§£åİŁåı¥çļĦæĦıæĢĿå¾Īéĩįè¦ģ":7901,"Ġcoastal":7902,"Ġpathw":7903,"wtonian":7904,"ç»§":7905,"åºĵ":7906,"æĽ´éĩįè§Ĩ":7907,"æĬµ":7908,"åĬłåħ¥":7909,"proliferation":7910,"Ġbelie":7911,"ä¸Ńæĸĩåı¥åŃĲç»ĵæŀĦéĢļå¸¸":7912,"Ġreconfig":7913,"åıªè´Łè´£å°Ĩèĭ±æĸĩç¿»è¯ĳæĪĲä¸Ńæĸĩ":7914,"quisition":7915,"Ġassemblers":7916,"Does":7917,"na":7918,"Ġtexts":7919,"äººå£«":7920,"elity":7921,"idelity":7922,"å¾Ĺå½ĵ":7923,"Ġdepend":7924,"äººç±»ä¸ĸ":7925,"éĢĤåĲĪä¸Ńæĸĩè¯»èĢħ":7926,"ä¿®é¥°è¯Ń":7927,"ç¡®ä¿Ŀåı¥åŃĲéĢļé¡º":7928,"reconcile":7929,"Ġexposure":7930,"telling":7931,"å¦Ĥä½ķè§£éĩĬ":7932,"åİŁåı¥æĺ¯éĹ®":7933,"åħ¶ä»ĸä¿¡æģ¯":7934,"éľĢè¦ģåĩĨç¡®ä¸Ķä¸ĵä¸ļ":7935,"é©¶":7936,"ç¡®å®ŀæĺ¯æĮĩ":7937,"ä¸ĵä¸ļæĢ§åĴĮæµģçķħæĢ§":7938,"æĪĳçİ°åľ¨è¦ģå¤ĦçĲĨçĶ¨æĪ·çļĦè¿Ļä¸ªç¿»è¯ĳè¯·æ±Ĥ":7939,"Ġtimescales":7940,"æľ¯è¯Ńä½¿çĶ¨":7941,"æĹħ":7942,"æĸĩåĮĸä¹łæĥ¯":7943,"åıĪä¿ĿæĮģäºĨ":7944,"Ġrhy":7945,"æııç»ĺ":7946,"anglement":7947,"Ġcomplexity":7948,"kill":7949,"synthetic":7950,"Ġintervention":7951,"çĽ¸äºĴä¾ĿåŃĺ":7952,"æ¹¾":7953,"Ġgradi":7954,"éĺ¶æ®µ":7955,"è®¡ç®Ĺæľºç§ĳåŃ¦":7956,"Ġtimelines":7957,"rates":7958,"ä¸ŃæĸĩéľĢè¦ģè°ĥæķ´è¯Ńåºı":7959,"åľ°éľĩ":7960,"Ġgall":7961,"å¤ļåħĥ":7962,"èģĶç³»":7963,"ç²¾ç¡®æĢ§":7964,"åľ¨èīºæľ¯é¢ĨåŁŁ":7965,"Ġvolcanic":7966,"Ġrisks":7967,"æĭĴ":7968,"limatic":7969,"ç§ĳæĻ®":7970,"è±ª":7971,"è¯Ħä»·":7972,"å®ĹæķĻæĶ¹éĿ©":7973,"neg":7974,"ocean":7975,"æµĨ":7976,"æĺ¯åĲ¦çĶ¨":7977,"ram":7978,"æĸ°åŀĭ":7979,"çľĭèµ·æĿ¥æ²¡éĹ®é¢ĺ":7980,"Ġcosmic":7981,"é©¾é©¶":7982,"Ġè¿Ļä¸ªç¿»è¯ĳ":7983,"åĨ¯":7984,"ç¬¦åĲĪä¸Ńæĸĩè¯Ńåºı":7985,"å¹¸":7986,"Ġreduced":7987,"æķ´ä½ĵæµģçķħæĢ§":7988,"è¡¨ç¤ºå¯¹æ¯Ķ":7989,"ç»ĦåĲĪèµ·æĿ¥åºĶè¯¥æĺ¯":7990,"çĶ¨æĪ·åı¯èĥ½å¸ĮæľĽç¿»è¯ĳ":7991,"decentralized":7992,"å°±åı¯ä»¥ç»Ļåĩºç¿»è¯ĳäºĨ":7993,"continental":7994,"power":7995,"ä¸Ńä»ĭ":7996,"æĿ¥è¯´":7997,"ä¸įåĽŀçŃĶåħ¶ä»ĸéĹ®é¢ĺ":7998,"æīĢä»¥åı¯èĥ½éľĢè¦ģè°ĥæķ´":7999,"Ġmed":8000,"âĢ¦âĢĿ":8001,"ç»ĦæĪĲ":8002,"éĺµ":8003,"éļıæĹ¶éĹ´":8004,"çĶ¨æĪ·åı¯èĥ½æĺ¯åľ¨åŃ¦ä¹ł":8005,"ä¸įèĥ½éļıæĦıæĽ¿æį¢":8006,"æįķæįī":8007,"ä¸Ńæĸĩç§ĳæĬĢç±»æĸĩç«ł":8008,"Contra":8009,"Ġthawing":8010,"ä¸ŃæĸŃ":8011,"åı¯èĥ½æĽ´ç®Ģæ´ģ":8012,"Ġintro":8013,"Ġresist":8014,"orship":8015,"ä¼¦çĲĨèĢĥéĩı":8016,"ç¥ŀç»ıå½¢æĢģèĬ¯çīĩ":8017,"contemporary":8018,"Ġeffectively":8019,"sensitive":8020,"ä¸ŃéĹ´":8021,"ale":8022,"èĢħæķĪåºĶ":8023,"Ġinform":8024,"ä¸ĵä¸ļæľ¯è¯ŃåĴĮ":8025,"resholds":8026,"Ġanthrop":8027,"æĽ´ç®Ģæ´ģçļĦè¡¨è¾¾":8028,"æĿĲæĸĻçļĦ":8029,"è¿Ļç§įå¯¹æ¯Ķåħ³ç³»":8030,"æŀģåľ°":8031,"å¤±è°ĥ":8032,"å¢ŀå¼ºçİ°å®ŀ":8033,"æŁ¥è¯ģ":8034,"ĠWestern":8035,"æ²¡æľīä¿¡æģ¯ä¸¢å¤±":8036,"æĪĳè¦ģèĢĥèĻĳ":8037,"Ġinvention":8038,"ä¹Łè¦ģä¿ĿæĮģ":8039,"æ·Ĩ":8040,"ä¸¤ä¸ªåĪĨåı¥":8041,"æ¬§äºļ":8042,"çĶ¨è¯įåĩĨç¡®":8043,"å¦Ĥä½ķå½±åĵįäºĨ":8044,"æ··æ·Ĩ":8045,"ä½¿åı¥åŃĲæĽ´æµģçķħ":8046,"ç¬¦åĲĪåŃ¦æľ¯çĶ¨è¯Ń":8047,"Ġdetection":8048,"ĠIndustrial":8049,"Ġstorytelling":8050,"oling":8051,"ulatory":8052,"Ġacquisition":8053,"Ġsocioeconomic":8054,"Ġsurve":8055,"manip":8056,"æīĢä»¥æķ´ä¸ªçŁŃè¯Ń":8057,"ä¼Ĭæĸ¯":8058,"vity":8059,"çļĦæĦŁè§ī":8060,"æıĲåīį":8061,"åŃ¦æľ¯çłĶç©¶":8062,"çİ°åľ¨åĪĨè¯į":8063,"åĩĨç¡®ä¼łè¾¾äºĨåİŁåı¥çļĦ":8064,"æ·»åĬłä»»ä½ķ":8065,"å¼Ģéĩĩ":8066,"åĮħæĭ¬çĽ´æİ¥ç»ĻåĩºçŃĶæ¡Ī":8067,"å²©æµĨ":8068,"åħ³éĶ®æľ¯è¯Ńæĺ¯":8069,"åħ³éĶ®æľ¯è¯ŃåĮħæĭ¬":8070,"ä»ĭè¯į":8071,"certain":8072,"ived":8073,"ä¹ı":8074,"å¸¸è§Ħ":8075,"æīĢä»¥ç¿»è¯ĳä¸º":8076,"Ġduty":8077,"very":8078,"æłĩè®°":8079,"Ġallocation":8080,"è¿ĻéĩĮçļĦåħ³éĶ®æĺ¯":8081,"Ġadvancements":8082,"Ġinstitutional":8083,"èĴ¸":8084,"postmodern":8085,"Ġpotentially":8086,"çĶ¨æĪ·æıĲåĩºçļĦåĲĦé¡¹è¦ģæ±Ĥ":8087,"å¯ĨåĪĩçĽ¸åħ³":8088,"åŃ¦ç§ĳ":8089,"åľ¨ä¸Ńæĸĩç§ĳæĬĢæĸĩçĮ®":8090,"å½±åĵįçļĦ":8091,"èĮĥå¼ıè½¬åıĺ":8092,"Ġgeopolitical":8093,"éĴĪ":8094,"plantation":8095,"è¿ħéĢŁ":8096,"çĶ¨åľ°":8097,"åı¯èĥ½ä¸įéľĢè¦ģ":8098,"æĹłæĦı":8099,"çĶŁçī©å·¥ç¨ĭ":8100,"éĢļè¯»æķ´ä¸ªç¿»è¯ĳ":8101,"Ġutilitarianism":8102,"ä¸įéģĹæ¼ıæĪĸæŃªæĽ²ä¿¡æģ¯":8103,"omogen":8104,"è®¤åı¯":8105,"è¿ŀç»Ń":8106,"Ġbios":8107,"tention":8108,"é¡¹çĽ®":8109,"è¿½æ±Ĥ":8110,"90":8111,"itions":8112,"âĢľ...":8113,"æľ¬åľ°":8114,"æĸ°è¾¾å°Ķæĸĩ":8115,"rection":8116,"ä½¿åħ¶ç¬¦åĲĪä¸ŃæĸĩçļĦè¡¨è¾¾ä¹łæĥ¯":8117,"strategic":8118,"Ġaccelerate":8119,"è¡¨éĿ¢å¯¼çĶµ":8120,"å®ŀåľ¨è®º":8121,"ä¸ŃçļĦå¸¸çĶ¨æľ¯è¯Ń":8122,"éĥ¨åĪĨæĺ¯":8123,"ä¸įèĥ½åĩºéĶĻ":8124,"Ġtheoretically":8125,"ä¹ĭç±»çļĦ":8126,"dist":8127,"atmospheric":8128,"lide":8129,"Ġnecessitate":8130,"èĭ±æĸĩçļĦ":8131,"å¸¦æĿ¥äºĨ":8132,"precise":8133,"Ġconcept":8134,"ç³»å¤ĸè¡ĮæĺŁå¤§æ°Ķ":8135,"engineered":8136,"biosis":8137,"ushwork":8138,"sol":8139,"¶åµĮ":8140,"Ġill":8141,"ithi":8142,"çļĦç¿»è¯ĳç»ĵæŀľ":8143,"è¿Ļä¸ªç»ĵæŀĦ":8144,"ä¾Ľç»Ļ":8145,"ç¤¾ä¼ļç»ĵæŀĦ":8146,"Ġinterest":8147,"ç§ĳåŃ¦éĿ©åĳ½":8148,"éķ¶åµĮ":8149,"åĲİåįĬåı¥æĺ¯":8150,"æľ¯è¯ŃçļĦæŃ£ç¡®ä½¿çĶ¨":8151,"çī¹å®ļçļĦ":8152,"æĪĳéľĢè¦ģç¡®è®¤æ¯ıä¸ªæľ¯è¯ŃçļĦåĩĨç¡®ç¿»è¯ĳ":8153,"ields":8154,"Utilitarian":8155,"rin":8156,"è®¤åĲĮ":8157,"ceed":8158,"ä¿¡å¿µ":8159,"Ġgo":8160,"åı¯èĥ½æĽ´ç¬¦åĲĪä¸Ńæĸĩè¡¨è¾¾ä¹łæĥ¯":8161,"ute":8162,"åİŁåı¥æĺ¯éĹ®åı¥":8163,"æīĢä»¥çĶ¨è¯į":8164,"æİ¥ä¸ĭæĿ¥è¦ģèĢĥèĻĳçļĦæĺ¯":8165,"Ġscen":8166,"Ġexpressionism":8167,"ession":8168,"Ġprogramm":8169,"æĻ®éĢļ":8170,"å¹²æī°":8171,"æ°´ç³»":8172,"åľ¨ä¸ŃæĸĩéĩĮå·²ç»ı":8173,"è¿Ļéĥ¨åĪĨæ¯Ķè¾ĥçĽ´æİ¥":8174,"å®Įæķ´ä¼łè¾¾":8175,"åŁºäºİCRISPR":8176,"å°Ĩå¦Ĥä½ķè°ĥæķ´":8177,"Ġbattery":8178,"å½¢å®¹è¯į":8179,"arwinian":8180,"itor":8181,"åıĤä¸İåº¦":8182,"Ġgreater":8183,"Sp":8184,"æĢ§çĸ¾çĹħ":8185,"éģĩ":8186,"Ġbal":8187,"sil":8188,"æŃ§è§Ĩ":8189,"è¿ĻéĩĮåı¯èĥ½æĮĩçļĦæĺ¯":8190,"Ġterrestrial":8191,"åıĻè¿°èĢħ":8192,"resistant":8193,"domin":8194,"çļĦæ¯Ķè¾ĥ":8195,"æīĢä»¥åĲĪèµ·æĿ¥":8196,"Ġincen":8197,"Ġequ":8198,"aging":8199,"ç®Ĺæ³ķæİ¨èįĲ":8200,"Ġcreation":8201,"Ġcapitalism":8202,"çĽĨåľ°":8203,"Ġrhyth":8204,"Contrasting":8205,"text":8206,"oligopol":8207,"Ġchemical":8208,"çľĭä¸Ģä¸ĭåİŁåı¥":8209,"psychological":8210,"Ġtrajectories":8211,"sediment":8212,"ä¸ŃçļĦå¸¸è§ģæľ¯è¯Ń":8213,"Ġprovide":8214,"Ġexisting":8215,"éĩıåŃĲå¯ĨçłģåŃ¦":8216,"consequ":8217,"æķ°åŃĹåĮĸ":8218,"Ġperman":8219,"åĨįèĢĥèĻĳåı¥åŃĲçļĦæµģçķħæĢ§":8220,"è¿Ļæł·æĹ¢åĩĨç¡®åıĪèĩªçĦ¶":8221,"åĲ¸æĶ¶":8222,"Ġdilemmas":8223,"Ġecho":8224,"ety":8225,"that":8226,"è½¬åĮĸä¸º":8227,"expon":8228,"éĤ¦":8229,"æĽ´ç¬¦åĲĪä¹¦éĿ¢":8230,"æĪĳéľĢè¦ģå¤ĦçĲĨçĶ¨æĪ·æıĲä¾ĽçļĦ":8231,"ä¸įä¼ļæľīçĲĨè§£":8232,"Ġhealth":8233,"éĢĲåŃĹ":8234,"åĪĨåŃĲçº³ç±³æĬĢæľ¯":8235,"ä¸»å¯¼åľ°ä½į":8236,"ecessitates":8237,"ç¡®ä¿Ŀæ²¡æľīéģĹæ¼ıæĪĸéĶĻè¯¯":8238,"Ġshar":8239,"çĦ¶åĲİçľĭåĲİåįĬåı¥":8240,"Ġscenari":8241,"Ģæ´»":8242,"çĽ¸åħ³æĸĩçĮ®":8243,"éģ¿åħįåĨĹéķ¿":8244,"Ġtechnique":8245,"å°ıè¯´ä¸ŃçļĦ":8246,"Ġepoch":8247,"prin":8248,"åį¡å°Ķ":8249,"umbian":8250,"åľ°å±Ĥ":8251,"åĩłçĤ¹":8252,"Ġorig":8253,"æ¿Ģæ´»":8254,"ify":8255,"åĲİæ®ĸæ°ĳåıĻäºĭ":8256,"ç¬¦åĲĪåŃ¦æľ¯åĨĻä½ľ":8257,"é¢ľèī²":8258,"ç¬¦åĲĪåİŁæĦı":8259,"ä¸įè¶³":8260,"ä½ĨåİŁåı¥çļĦç»ĵæŀĦæĺ¯":8261,"å¼Ĥå¸¸":8262,"Ġrealities":8263,"Ġè¦ģæ±Ĥç¿»è¯ĳæĪĲä¸Ńæĸĩ":8264,"Ġcaus":8265,"Ġmirror":8266,"cially":8267,"éļĲåĸ»":8268,"è§Ħæ¨¡åĮĸ":8269,"çĽ®çļĦè®º":8270,"æĪĺçķ¥åĨ³çŃĸ":8271,"åĲ¯èĴĻè¿ĲåĬ¨":8272,"æłĳæŀĿ":8273,"Ġelectricity":8274,"Opt":8275,"çļĦåŁºç¡Ģ":8276,"ä¿¡åı·":8277,"conscious":8278,"ote":8279,"éª¨":8280,"Ġexperiences":8281,"åĽ½éĻħåħ³ç³»":8282,"Ġprim":8283,"çĶ¨æĪ·å¸ĮæľĽå°Ĩ":8284,"Ġdisparities":8285,"Optogenetic":8286,"Ġshould":8287,"raforming":8288,"éĩıåĮĸ":8289,"ä¸İA":8290,"ä¸ŃæĸĩéĩĮéĢļå¸¸ä¼ļæĬĬ":8291,"æľīæ²¡æľīçĶŁç¡¬çļĦåľ°æĸ¹":8292,"åľŁå£¤":8293,"Ġmedium":8294,"neuromorphic":8295,"èĩªåĬ¨é©¾é©¶":8296,"å°¼éĩĩ":8297,"Ġparticipation":8298,"è¿ĻçĤ¹":8299,"åºŁ":8300,"å¼§":8301,"æīĢä»¥è°ĥæķ´è¯Ńåºı":8302,"æīĢä»¥åīįåįĬåı¥":8303,"ä¸Ĭä¸ĭæĸĩä¸Ń":8304,"æĺ¯æłĩåĩĨè¯ĳåĲį":8305,"éľĢè¦ģä¿ĿæĮģçĸĳéĹ®çļĦè¯Ńæ°Ķ":8306,"èĥ½åĬĽçļĦ":8307,"è§£åĨ³æĸ¹æ¡Ī":8308,"åĨįæ£ĢæŁ¥ä¸Ģä¸ĭæľ¯è¯Ńæĺ¯åĲ¦æŃ£ç¡®":8309,"é¦ĸåħĪçľĭåİŁæĸĩ":8310,"æĹ¨åľ¨":8311,"æĢ§èĥ½":8312,"æľ¯è¯Ńå¢ĥ":8313,"Ġdat":8314,"ley":8315,"æ³¨æĦıåĬĽ":8316,"åı¯èĥ½éľĢè¦ģæ³¨æĦı":8317,"odes":8318,"åĬĽéĩı":8319,"åĨįæ£ĢæŁ¥æľ¯è¯Ńæĺ¯åĲ¦æŃ£ç¡®":8320,"åľ°è´¨åŃ¦æľ¯è¯Ń":8321,"Ġatt":8322,"éĢłæĪĲçļĦ":8323,"orders":8324,"uclide":8325,"æ°ĳæĹı":8326,"Ġanthropogenic":8327,"è¿Ļä¸ªç¿»è¯ĳä»»åĬ¡":8328,"é©¬åħĭ":8329,"Ġphotonic":8330,"è¯¦ç»ĨçļĦç¿»è¯ĳè¦ģæ±Ĥ":8331,"proportion":8332,"æĿ¥ç¿»è¯ĳ":8333,"è°ĥæķ´åĲİ":8334,"direct":8335,"æĥħç»ª":8336,"éļĲåĲ«":8337,"Ġsymbolic":8338,"correlates":8339,"intensi":8340,"ithium":8341,"æĺ¯åħ³äºİ":8342,"eses":8343,"åĪĨéļĶ":8344,"çĶŁæ´»":8345,"æ¯Ķè¾ĥä¸ĵä¸ļ":8346,"ters":8347,"ä¸Ķç¬¦åĲĪä¸Ńæĸĩè¡¨è¾¾ä¹łæĥ¯":8348,"amless":8349,"ç¤¾ä¼ļä¸Ń":8350,"å¹¶ä¸Ķç¬¦åĲĪä¸ŃæĸĩçļĦè¡¨è¾¾ä¹łæĥ¯":8351,"ä¸įè¿ĩåİŁåı¥":8352,"ĠArctic":8353,"æ¼ĶåĮĸ":8354,"æ²¡æľīå¤ļä½ĻçļĦè§£éĩĬ":8355,"Ġcontrasting":8356,"æĸ¹ç¨ĭ":8357,"åľ°æĤ²åī§":8358,"Ġgri":8359,"ç¤¾ä¼ļç§ĳåŃ¦":8360,"econstruct":8361,"åĽŀè·¯":8362,"Ġdecre":8363,"Ġacceleration":8364,"æķ´ä¸ªåı¥åŃĲçļĦéĢ»è¾ĳ":8365,"ç»ıéªĮéªĮè¯ģ":8366,"Ġenhance":8367,"vised":8368,"åĪĨæŀĲåİŁåı¥çļĦç»ĵæŀĦåĴĮåĨħå®¹":8369,"uclidean":8370,"brain":8371,"turing":8372,"tis":8373,"onhood":8374,"æ±¡":8375,"åĩºçīĪ":8376,"éĢļè¿ĩæŁĲç§į":8377,"åı¥åŃĲç»ĵæŀĦè¦ģ":8378,"åĳ¢":8379,"æ±ĩèģļ":8380,"è¿Ļä¸ªç¿»è¯ĳçĶ¨äºİ":8381,"åĮħè±ª":8382,"Ġcolonization":8383,"enew":8384,"Ġhistori":8385,"Existentialist":8386,"Ġextraterrestrial":8387,"èįĴè¯ŀ":8388,"Ġdistinct":8389,"åĮħè±ªæĸ¯":8390,"å¾ħ":8391,"Ġwarming":8392,"phal":8393,"Ġled":8394,"âĢ¦âĢ¦ï¼ŁâĢĿ":8395,"åĽ¾æ¡Ī":8396,"åħ³éĶ®è¯įæľī":8397,"plication":8398,"water":8399,"ç¡®ä¿Ŀåľ¨":8400,"æ³ķå®ļ":8401,"ä½ĨåīįèĢħ":8402,"å¸¸çĶ¨ç¿»è¯ĳ":8403,"Ġexchange":8404,"Ġtraged":8405,"æĪĳéľĢè¦ģåĩĨç¡®çĲĨè§£æ¯ıä¸ªæľ¯è¯ŃçļĦåĲ«ä¹ī":8406,"Ġpractical":8407,"æī¾ä¸Ģä¸ªåĲĪéĢĤçļĦ":8408,"illance":8409,"Ġisland":8410,"Ġpropagation":8411,"æĪĲçĨŁ":8412,"ä¸ĵä¸ļæľ¯è¯ŃçļĦä¸Ģèĩ´æĢ§":8413,"è½¬åŀĭ":8414,"å¹¶ä¸Ķç¬¦åĲĪä¸Ńæĸĩè¡¨è¾¾ä¹łæĥ¯":8415,"å½¢æĪĲå¯¹æ¯Ķ":8416,"éľĢæ±Ĥä¾§":8417,"åĨľä¸ļéĿ©åĳ½":8418,"æĭīä¸ģ":8419,"æĿİåĺīåĽ¾çŃīä»·":8420,"æĪĲç«ĭ":8421,"æĬĳ":8422,"Ġanom":8423,"æĹ¢åĩĨç¡®åıĪæĺĵäºİçĲĨè§£":8424,"åĨľä¸ļçĶ¨åľ°":8425,"Ġacces":8426,"ancement":8427,"epistemological":8428,"æļ´éľ²":8429,"Ġinstallations":8430,"liberate":8431,"æľīæīĢä¸įåĲĮ":8432,"å³¡":8433,"Ġfuel":8434,"aim":8435,"syn":8436,"çļĦå¢ŀåĬł":8437,"èĢĮä¸įæĺ¯ç®ĢåįķçļĦ":8438,"åĽłä¸ºæĮĩçļĦæĺ¯":8439,"æķ´ä½ĵæĿ¥çľĭ":8440,"æĪĳéľĢè¦ģç¡®ä¿Ŀç¿»è¯ĳåĩĨç¡®":8441,"ç¼ĸç»ĩ":8442,"ä¾ĿæĽ¼":8443,"Ġmanif":8444,"Ġerror":8445,"ç¼ºä¹ı":8446,"éĺ¶çº§":8447,"Ġstandardized":8448,"Ġideological":8449,"Ġauthorial":8450,"è¯ºä¾ĿæĽ¼":8451,"ĠæĪĳçļĦä»»åĬ¡æĺ¯å°Ĩè¿Ļåı¥è¯ĿåĩĨç¡®åľ°ç¿»è¯ĳæĪĲä¸Ńæĸĩ":8452,"æĺ¯åĲ¦æľīéģĹæ¼ıçļĦä¿¡æģ¯":8453,"éĶĤç¦»åŃĲçĶµæ±ł":8454,"ä¸İç»ıåħ¸":8455,"ventional":8456,"åŁİå¸ĤçĥŃå²ĽæķĪåºĶ":8457,"ä¸Ńæĸĩç§ĳæĬĢæĸĩçĮ®éĢļå¸¸ä½¿çĶ¨è¾ĥä¸ºæŃ£å¼ı":8458,"Ġprioritized":8459,"åĤ¨èĵĦ":8460,"âĢĶ":8461,"æĽ´èĥ½":8462,"æĺ¯åĲ¦èĥ½":8463,"Ġthree":8464,"Ġblockchain":8465,"å¤Ħäºİ":8466,"å¸¸çĶ¨çļĦ":8467,"è¿Ļæĺ¯ç»ıæµİåŃ¦ä¸ŃçļĦ":8468,"çĶŁç¡¬çĽ´è¯ĳ":8469,"Ġintact":8470,"è¿Ļéĥ¨åĪĨæ²¡éĹ®é¢ĺ":8471,"æĶ¶éĽĨ":8472,"Ġvirtue":8473,"Ġbelief":8474,"fies":8475,"çļĦåŃĺåľ¨":8476,"åı¯èĥ½æĺ¯åľ¨":8477,"çĶŁåŃĺ":8478,"èĢĥåı¤":8479,"è¿Ļä¸ªé¢ĨåŁŁ":8480,"verages":8481,"key":8482,"herent":8483,"èĤĸ":8484,"æīĵçł´":8485,"Ġfunctional":8486,"apping":8487,"æ°ĳä¸»åĮĸ":8488,"ä¼ªéĢł":8489,"allel":8490,"frequently":8491,"climate":8492,"labor":8493,"Ġ1":8494,"æĺ¯å¤įæķ°":8495,"è¦ģç´ł":8496,"æī®":8497,"Ġpig":8498,"Ġpric":8499,"Ġmacroscopic":8500,"åĩĨç¡®ä¼łè¾¾äºĨåİŁæĸĩçļĦæĦıæĢĿ":8501,"Ġdirect":8502,"ä¸Ńæĸĩåı¥åŃĲéľĢè¦ģ":8503,"æŁ¥éĺħ":8504,"enomenological":8505,"å®ŀè¯ģä¸»ä¹ī":8506,"ç»Ŀå¯¹åĳ½ä»¤":8507,"Ġcloaking":8508,"å»ºæŀĦä¸»ä¹ī":8509,"govern":8510,"çļĦèĥĮæĻ¯":8511,"çļĦåĮºåĪ«":8512,"ä¼ĳ":8513,"èµĭ":8514,"ä»£è°¢":8515,"åħ»èĢģ":8516,"Ġweather":8517,"Ġchannel":8518,"onomy":8519,"Ġgravitational":8520,"Ġconcentrations":8521,"æ³ķå®ļè´§å¸ģ":8522,"éĢļéģĵ":8523,"rad":8524,"æľ¬åľŁ":8525,"æĽ´èĩªçĦ¶çļĦè¯´æ³ķ":8526,"çĥŃéĩıåĪĨå¸ĥ":8527,"æĽ´å¹¿æ³Ľ":8528,"ä¸įéĢļé¡º":8529,"ä¸įç¨³å®ļ":8530,"æĹ¢åĩĨç¡®ä¼łè¾¾äºĨåİŁæĦı":8531,"éľĢè¦ģè°ĥæķ´ç»ĵæŀĦ":8532,"å¤©çĦ¶":8533,"çĽ¸äºĴä¾Ŀèµĸ":8534,"ified":8535,"Ġnotions":8536,"Ġpaints":8537,"Ġdissonance":8538,"åıłåĬłæĢģ":8539,"fying":8540,"æĺ¾å¾ĹçĶŁç¡¬":8541,"å©":8542,"æĦıå¿Ĺ":8543,"éĩĮå£«":8544,"æĿ¥ä¿ĿæĮģ":8545,"Ġthresholds":8546,"exacerb":8547,"å®¶åºŃ":8548,"ä¾§éĩįçĤ¹":8549,"Ġalluvial":8550,"ä¸įæ·»åĬłä»»ä½ķ":8551,"éĿ¶åĲĳ":8552,"éĴĪå¯¹":8553,"Super":8554,"graphic":8555,"æĿĳ":8556,"æĪĲæ¯Ķä¾ĭ":8557,"åħĪäºİ":8558,"oman":8559,"æģĲ":8560,"è¿Ļåı¥è¯Ŀå±ŀäºİ":8561,"å¤ļå¾·":8562,"Ġdegrad":8563,"èĤ¯":8564,"æ··æĿĤ":8565,"ä½İæ¸©":8566,"ä¸ŃæĸĩéĢļå¸¸ä¼ļæĬĬæĸ¹å¼ıçĬ¶è¯ŃæĶ¾åľ¨åīįéĿ¢":8567,"æ³¢åĬ¨æĢ§":8568,"ä¸įèĥ½æľīåħ¶ä»ĸåĨħå®¹":8569,"You":8570,"meth":8571,"enot":8572,"æīĢä»¥åı¯èĥ½éľĢè¦ģè°ĥæķ´ç»ĵæŀĦ":8573,"æĪĳéľĢè¦ģå°Ĩè¿Ļåı¥è¯Ŀç¿»è¯ĳæĪĲä¸Ńæĸĩ":8574,"Ġwater":8575,"åĲįåŃĹ":8576,"äºļéĩĮå£«":8577,"ä¹ĭéĹ´çļĦåħ³ç³»":8578,"è´¸æĺĵè·¯çº¿":8579,"åĲ¦åĪĻ":8580,"Ġincrease":8581,"Ġè¿Ļæł·ç¿»è¯ĳ":8582,"Ġcloud":8583,"æ±¡æŁĵ":8584,"äºļéĩĮå£«å¤ļå¾·":8585,"åĴĮçĶ¨è¯į":8586,"éĹ®åı·":8587,"ulated":8588,"åĩĨç¡®ä¼łè¾¾åİŁæĸĩçļĦ":8589,"Ġimm":8590,"Ġsupport":8591,"æīĢä»¥æķ´ä¸ªéĥ¨åĪĨ":8592,"Ġthermod":8593,"çĲĨæĢ§éĢīæĭ©çĲĨè®º":8594,"æķħäºĭ":8595,"çļĦæĺ¯ä¸Ģä¸ªèĭ±æĸĩåı¥åŃĲ":8596,"anal":8597,"ç¡®ä¿Ŀå®Įåħ¨":8598,"Ġfollow":8599,"Ġair":8600,"Ġsolutions":8601,"metry":8602,"ributed":8603,"çĦ¦èĻĳ":8604,"Ġtreatment":8605,"æįķé£ŁèĢħ":8606,"Moral":8607,"fied":8608,"itu":8609,"åľ°éĿ¢":8610,"éĢļè¿ĩç®Ĺæ³ķ":8611,"è¦ģæ³¨æĦıæĸĩåĮĸéĢĤåºĶæĢ§":8612,"æĹłç¼Ŀ":8613,"æŀĦåĽ¾":8614,"äºĭå®ŀ":8615,"çĬ¶çģ«å±±":8616,"å¾·å°Ķ":8617,"Ġplasticity":8618,"è¿Ļæł·æĽ´éĢļé¡º":8619,"åħ¬åľ°æĤ²åī§":8620,"Ġemphasizing":8621,"surpass":8622,"åı¯èĥ½æĽ´éĢĤåĲĪçĶ¨":8623,"åĲĮè´¨åĮĸ":8624,"è´¦æľ¬":8625,"oti":8626,"Ġface":8627,"éĩıåŃĲçĶŁçī©åŃ¦":8628,"æľ¯è¯ŃçļĦæŃ£ç¡®ç¿»è¯ĳ":8629,"çĦ¶åĲİè¦ģèĢĥèĻĳåı¥åŃĲçļĦç»ĵæŀĦ":8630,"Ġgeneration":8631,"æ¤įçī©":8632,"ä¸įéĢļé¡ºçļĦåľ°æĸ¹":8633,"Ġes":8634,"åĲĪçī©":8635,"è®½":8636,"Ġclos":8637,"è¿Ļæĺ¯æłĩåĩĨè¯ĳæ³ķ":8638,"æĺ¯åĲ¦æľīæĽ´å¸¸çĶ¨":8639,"è¿ĺè¦ģæ£ĢæŁ¥ä¸ĵä¸ļæľ¯è¯Ńæĺ¯åĲ¦æŃ£ç¡®":8640,"Ġlanguages":8641,"cryptographic":8642,"æıĲåĩºäºĨæĮĳæĪĺ":8643,"has":8644,"know":8645,"åľ¨çĶŁçī©åŃ¦":8646,"åľ¨æĸĩåŃ¦çĲĨè®º":8647,"æĽ´åĬł":8648,"Ġcybersecurity":8649,"éĢļèĥĢ":8650,"è¿ĻéĩĮä½¿çĶ¨":8651,"Ġmagn":8652,"çļĦç¿»è¯ĳæĺ¯":8653,"éĥ½åĩĨç¡®ä¼łè¾¾":8654,"åı¯èĥ½æĽ´ç¬¦åĲĪä¸Ńæĸĩä¹łæĥ¯":8655,"æľĢç»ĪçļĦç¿»è¯ĳåºĶè¯¥":8656,"æĽ²çº¿":8657,"è´§å¸ģä¾ĽåºĶ":8658,"Ġovercome":8659,"ourse":8660,"æķĻèĤ²ä¸įå¹³çŃī":8661,"æĹħè¡Į":8662,"æī®æ¼Ķ":8663,"dark":8664,"åŃŁ":8665,"era":8666,"inform":8667,"Ġtectonic":8668,"è¿Ļåı¥è¯ĿéĹ®çļĦæĺ¯":8669,"ode":8670,"æľ¯è¯ŃçļĦä½¿çĶ¨":8671,"Ġstabiliz":8672,"Ġbiodiversity":8673,"åħ·è±¡èīºæľ¯":8674,"æĪĳè¦ģçĲĨè§£åİŁåı¥çļĦæĦıæĢĿ":8675,"emporally":8676,"atically":8677,"Ġorganic":8678,"æĿ¥å¼ķå¯¼éĹ®é¢ĺ":8679,"thropocene":8680,"demonstrates":8681,"ä¸»è§Ĥä½ĵéªĮ":8682,"äºĮåħĥè®º":8683,"wo":8684,"anthropogenic":8685,"çŁŃæļĤ":8686,"è¦ĨçĽĸ":8687,"å®ŀéªĮå®¤":8688,"åŃ¦çĶŁæĪĸçłĶç©¶äººåĳĺ":8689,"Ġproperty":8690,"Th":8691,"äº¡":8692,"ä¿ĿçľŁ":8693,"è¿ĻéĩĮçļĦæĦıæĢĿæĺ¯":8694,"æīĢä»¥éľĢè¦ģä¿ĿæĮģ":8695,"åı¯ä»¥æİ¥åıĹ":8696,"åĩĨç¡®æĢ§æĺ¯åħ³éĶ®":8697,"Ġtraum":8698,"ç¡®ä¿Ŀæ²¡æľīéģĹæ¼ıåħ³éĶ®ä¿¡æģ¯":8699,"Ġliteracy":8700,"æķ´ä¸ªåı¥åŃĲç»ĵæŀĦéľĢè¦ģè°ĥæķ´":8701,"èĻ½çĦ¶ä¸¤èĢħ":8702,"Ġperceptual":8703,"Ġresponses":8704,"æ²¡æľīçī¹åĪ«ä¸ĵä¸ļçļĦæľ¯è¯Ń":8705,"Ġasteroid":8706,"Bio":8707,"Permafrost":8708,"facilit":8709,"åĲİå·¥ä¸ļ":8710,"æ²ĥ":8711,"æĹ¶çļĦ":8712,"olinguistic":8713,"raid":8714,"åı¯ä»¥æĺ¯":8715,"lying":8716,"æ¸¡":8717,"å¿ħé¡»æŃ£ç¡®":8718,"æĹ¶éĹ´çº¿":8719,"ä¸¥éĩį":8720,"è´ŁåĪ©çİĩ":8721,"åıĪç¬¦åĲĪä¸ŃæĸĩçļĦè¡¨è¾¾ä¹łæĥ¯åĴĮæĸĩåĮĸèĥĮæĻ¯":8722,"åıĪç¬¦åĲĪä¸Ńæĸĩè¡¨è¾¾ä¹łæĥ¯åĴĮ":8723,"æ¸©çĽĲçİ¯æµģæ¨¡å¼ı":8724,"Ġemerged":8725,"Ġstimulus":8726,"ameters":8727,"Ġsharply":8728,"Ġlos":8729,"çļĦçī¹çĤ¹":8730,"æ£ĢæŁ¥åı¥åŃĲçļĦç»ĵæŀĦ":8731,"ritic":8732,"åĨįè®²":8733,"è¢«åĩĨç¡®ç¿»è¯ĳ":8734,"éĢļå¸¸ä¼ļè¯´":8735,"æĪĳéľĢè¦ģåĩĨç¡®çĲĨè§£æ¯ıä¸ªè¯įçļĦæĦıæĢĿ":8736,"Ġuncertain":8737,"endritic":8738,"æĺ¯åĲ¦ç¬¦åĲĪè¦ģæ±Ĥ":8739,"iversally":8740,"ĠCO":8741,"frame":8742,"space":8743,"åħ³éĶ®æľ¯è¯Ńæľī":8744,"ishing":8745,"éľĢè¦ģæ£ĢæŁ¥æľ¯è¯Ńæĺ¯åĲ¦æŃ£ç¡®":8746,"è¿Ļä¸¤ä¸ªæľ¯è¯Ń":8747,"Ġdemands":8748,"æĽ´åĢ¾åĲĳäºİ":8749,"Ġoil":8750,"adian":8751,"åıªæĺ¯":8752,"ä¸įéľĢè¦ģè§£éĩĬæĪĸ":8753,"æŃ£å¼ıä¸ĢäºĽ":8754,"ducing":8755,"å¹³åĩ¡":8756,"æĪĳè¦ģç¡®ä¿Ŀç¿»è¯ĳ":8757,"è¯Ńè¨Ģç»ĵæŀĦ":8758,"create":8759,"Ġregarding":8760,"ermine":8761,"éĢıéķľ":8762,"ĠExpressionism":8763,"political":8764,"Ġnuclear":8765,"æłĳæŀĿçĬ¶":8766,"rather":8767,"æľ¯è¯Ńæĺ¯åĲ¦åĩĨç¡®":8768,"åŃ¦é¢ĨåŁŁ":8769,"ä¹łå¾Ĺ":8770,"Ġinflation":8771,"Ġworld":8772,"æĬĬå®ĥ":8773,"compared":8774,"çģ«å±±æ´»åĬ¨":8775,"åĬłå¯Ĩè´§å¸ģçļĦ":8776,"Ġrevolutionized":8777,"Ġmovement":8778,"specific":8779,"äºĮæ°§åĮĸç¢³æµĵåº¦":8780,"åħ¼é¡¾":8781,"ä¼Ĭæĸ¯åħ°":8782,"å³¡æ¹¾":8783,"Euclidean":8784,"è¦ģæĺİç¡®":8785,"ç»ħ":8786,"éľĢè¦ģç¿»è¯ĳ":8787,"Ġcry":8788,"ç¬¦åĲĪæīĢæľīè¦ģæ±Ĥ":8789,"æµģçķħåº¦":8790,"vey":8791,"æ²¡æľīéģĹæ¼ıåħ³éĶ®ä¿¡æģ¯":8792,"utri":8793,"åĽłä¸ºè¿Ļæĺ¯":8794,"Ġreshape":8795,"åĽ¾åĥı":8796,"åĬ¨æĢģéĽķå¡ĳ":8797,"Ġcoh":8798,"Ġcritical":8799,"ç±»ä¼¼çļĦ":8800,"åĪ»æĦı":8801,"éľĢè¦ģåĩĨç¡®çļĦåŃ¦æľ¯ç¿»è¯ĳ":8802,"çļĦçłĶç©¶":8803,"Ġcross":8804,"åĴĮèĭ±æĸĩä¸įåĲĮ":8805,"æµģç¨ĭ":8806,"å¯¹çħ§":8807,"Ġthere":8808,"çī¹æĮĩ":8809,"çĶ¨æĪ·çļĦæĮĩç¤º":8810,"æ¨¡å¼ıæĪĸ":8811,"çĬ¯":8812,"åĵ²åŃ¦åĴĮ":8813,"èį¡":8814,"æľªèĥ½":8815,"Ġphilosophical":8816,"ç¬¦åĲĪä¸Ńæĸĩè¯»èĢħçļĦéĺħè¯»ä¹łæĥ¯":8817,"éľĢè¦ģåĩĨç¡®çļĦæľ¯è¯ŃåĴĮ":8818,"ĠExchange":8819,"èį¯çī©":8820,"ĠJ":8821,"Ġprior":8822,"ingual":8823,"æ¼«":8824,"è¿Ļä¸ªæ¦Ĥå¿µ":8825,"å¾ĪåĲĪéĢĤ":8826,"Ġont":8827,"åĵģæł¼":8828,"è¿ĻéĩĮéĢīæĭ©åīįèĢħ":8829,"Ġdesigns":8830,"force":8831,"æĪĲä¸ºä¸»æµģ":8832,"æĹłéľĢæĶ¹åĬ¨":8833,"æīĢä»¥çĽ´æİ¥ç¿»è¯ĳä¸º":8834,"çģŃç»Ŀ":8835,"Ġpopulation":8836,"ä¸İAä¸įåĲĮ":8837,"ie":8838,"ï¼Į...":8839,"Ġser":8840,"è¯Ŀè¯Ń":8841,"ä¿¡ä»»":8842,"æľŁæľĽ":8843,"conn":8844,"Ġdisillusionment":8845,"åħįçĸ«":8846,"çķĮéĿ¢":8847,"quires":8848,"ĠBronze":8849,"åĮºåĿĹéĵ¾æĬĢæľ¯":8850,"Ġvolatility":8851,"åĸ·åıĳ":8852,"å²©çŁ³åľĪ":8853,"è¦ģçĽ´æİ¥ç»ĻåĩºçŃĶæ¡Ī":8854,"ä¹°":8855,"æĽ´éĩįè¦ģ":8856,"è¿Ļæł·åºĶè¯¥":8857,"è§ģè§£":8858,"åı¯èĥ½æĽ´å¼ºè°ĥ":8859,"è¿ĻäºĽéĥ½æĺ¯":8860,"åĩłéĩĮ":8861,"æŀģéĻĲ":8862,"Ġmobility":8863,"æĭĨåĪĨ":8864,"Ġemphasized":8865,"Ġstrongly":8866,"tructuring":8867,"ause":8868,"è¯¾":8869,"åŃ¤":8870,"Ġdiminish":8871,"åı¯èĥ½éľĢè¦ģä¿ĿçķĻ":8872,"åŃ¦æľ¯è®ºæĸĩæĪĸ":8873,"åŃ¦æľ¯çłĶç©¶èĢħ":8874,"çłį":8875,"volving":8876,"é«ĺåº¦":8877,"ensus":8878,"çģ«æĺŁ":8879,"ç¬¬ä¸Ģç§į":8880,"è¡¨è§ĤéģĹä¼łä¿®é¥°":8881,"postcolonial":8882,"å½»åºķæĶ¹åıĺäºĨ":8883,"æ·±åº¦ä¼ªéĢł":8884,"Ġdramatic":8885,"åĩłéĩĮå¾Ĺ":8886,"oration":8887,"ortical":8888,"æł¡":8889,"çĦ¶èĢĮ":8890,"è¿ĻéĩĮéľĢè¦ģç¡®è®¤":8891,"åı¯èĥ½éľĢè¦ģä¿ĿæĮģ":8892,"ä¸įèĥ½åĽŀçŃĶéĹ®é¢ĺ":8893,"Ġneur":8894,"åĨįæ£ĢæŁ¥ä¸ĵä¸ļæľ¯è¯Ńæĺ¯åĲ¦æŃ£ç¡®":8895,"åĲĮæĹ¶ä¿ĿæĮģåİŁåı¥çļĦ":8896,"è¿Ļæł·æĽ´ç¬¦åĲĪä¸ŃæĸĩçļĦè¯Ńåºı":8897,"æİ¥ä¸ĭæĿ¥è¦ģèĢĥèĻĳåı¥åŃĲçļĦç»ĵæŀĦ":8898,"æŀĦéĢłæĿ¿åĿĹ":8899,"éĢĨè½¬":8900,"æī°ä¹±":8901,"çıŃ":8902,"èĹı":8903,"Darwinian":8904,"En":8905,"æĺ¯åĲ¦åºĶè¯¥è¯ĳä¸º":8906,"rating":8907,"ä½Ĩä¸ºäºĨ":8908,"level":8909,"å¦Ĥä½ķåı¯èĥ½":8910,"Ġrise":8911,"Ġinten":8912,"è¿Ĳè¾ĵ":8913,"æĽ´ç¬¦åĲĪä¹łæĥ¯":8914,"æİ¨æµĭ":8915,"è¿ĻéĩĮåı¯èĥ½æĮĩ":8916,"åł¡":8917,"åĽ°éļ¾":8918,"éĿĻæĢģ":8919,"å±ĢéĻĲæĢ§":8920,"åŁºäºİCRISPRçļĦ":8921,"æĭīä¸ģç¾İæ´²":8922,"éľĢè¦ģçĶ¨":8923,"çİ»":8924,"æĸĩåĮĸä¸ĬçļĦ":8925,"respon":8926,"ä»£æĽ¿":8927,"utes":8928,"ocortical":8929,"å®ĮåĸĦ":8930,"çĶ»å®¶":8931,"é£İåĮĸ":8932,"Ġparadigm":8933,"åħ¬è®¤":8934,"å·¥ç¨ĭé¢ĨåŁŁ":8935,"éĢ»è¾ĳåħ³ç³»æ¸ħæĻ°":8936,"äºīè®º":8937,"åĲĦéĥ¨åĪĨ":8938,"å¥ĩå¹»":8939,"åģ¥åº·":8940,"æŃ£åıįé¦Īå¾ªçİ¯":8941,"è¿Ļæł·çĶ¨æĪ·çļĦéľĢæ±Ĥ":8942,"ä½ľçī©":8943,"æĬĢæľ¯åıĳå±ķ":8944,"omposition":8945,"è¿ĻäºĽæŃ¥éª¤":8946,"è¿Ĳä½ľ":8947,"æ³¢éķ¿":8948,"Ġglobalization":8949,"çĪ¶":8950,"As":8951,"cceler":8952,"vas":8953,"æĢ§è´¨":8954,"ç¬¦åĲĪç§ĳæĬĢæĸĩçĮ®":8955,"æ¯Ķè¾ĥçļĦå¯¹è±¡":8956,"çĽ´æİ¥è¯ĳä¸º":8957,"çĽ´æİ¥è¯´":8958,"version":8959,"æ°Ķè±¡":8960,"çİ°åľ¨ç»ĦåĲĪèµ·æĿ¥":8961,"æķ´ä¸ªåı¥åŃĲéľĢè¦ģ":8962,"ç®Ĺæ³ķåģıè§ģ":8963,"Ġaltering":8964,"æķ´ä½ĵåı¥åŃĲæĺ¯åĲ¦éĢļé¡º":8965,"ç¡®ä¿Ŀæ²¡æľīéģĹæ¼ıæĪĸè¯¯è¯ĳ":8966,"Ġcosts":8967,"åħ»èĢģéĩĳ":8968,"ious":8969,"sch":8970,"åŃ¦åĴĮ":8971,"æŃ£ç¡®ç¿»è¯ĳä¸º":8972,"æĮģä¹ħ":8973,"è®¤è¯ģ":8974,"Ġantimatter":8975,"ç»¼åĲĪè¿ĻäºĽ":8976,"æ»ŀ":8977,"æ³ķå¾ĭæ¡Ĩæŀ¶":8978,"è¿ĽåĮĸçĶŁçī©åŃ¦":8979,"Ġfree":8980,"åıįçī©è´¨çº¦æĿŁ":8981,"ointil":8982,"äºĴæĸĩæĢ§":8983,"Ġdefinitions":8984,"Ġindustries":8985,"cup":8986,"oid":8987,"Ġfail":8988,"ä½ĵåĪ¶":8989,"åıªç¿»è¯ĳ":8990,"conventional":8991,"Ġinterstellar":8992,"éĩįè¦ģæĢ§":8993,"biome":8994,"æ¯ıä¸ªæľ¯è¯ŃçļĦæŃ£ç¡®ä¸Ńæĸĩå¯¹åºĶè¯į":8995,"criti":8996,"Adv":8997,"ris":8998,"è¯Ńä¹ī":8999,"æ²¡æľīé¢Ŀå¤ĸåĨħå®¹":9000,"å¹ķ":9001,"åºĶè¯¥ä¿ĿçķĻ":9002,"çĽ´æİ¥çĽ¸åħ³":9003,"åĵįåºĶ":9004,"åŀĭåĮĸ":9005,"æĺ¯æłĩåĩĨç¿»è¯ĳ":9006,"åĨĻè®ºæĸĩ":9007,"åħ±åĲĮ":9008,"Ġcorrection":9009,"Ġinsights":9010,"æĹ¶éĹ´çĬ¶è¯ŃæĶ¾åľ¨åīįéĿ¢":9011,"Ġsemiconductor":9012,"Ġoptimization":9013,"Ģæ¨¡åŀĭ":9014,"Ġradiation":9015,"é¾Ħ":9016,"ç¡®ä¿Ŀä¿¡æģ¯":9017,"ecological":9018,"æ±ī":9019,"ç»Łæ²»":9020,"advert":9021,"è¿ĺè¦ģæ³¨æĦıåı¥åŃĲçļĦç»ĵæŀĦ":9022,"Ġè¿ĻéĩĮæľīåĩłä¸ª":9023,"Ġchallenged":9024,"èĭ¥èĥ½":9025,"ĠImpressionist":9026,"çĽ´æİ¥ç¿»è¯ĳåı¯èĥ½ä¼ļ":9027,"æĹ¶ä»£çļĦ":9028,"ä»ĸä»¬çļĦéľĢæ±Ĥ":9029,"å¤ªéĺ³èĥ½åıĳçĶµ":9030,"Ġunique":9031,"Ġfluctuations":9032,"å¥³æĢ§ä¸»ä¹ī":9033,"advertently":9034,"dynamics":9035,"Ġâ":9036,"è¦ģè¡¨è¾¾çļĦæĺ¯":9037,"åĩĨç¡®è¡¨è¾¾":9038,"æĦıä¸º":9039,"Ġav":9040,"æĮĩçļĦæĺ¯åľ¨":9041,"æĶ¹ä¸º":9042,"éĢīçĶ¨":9043,"åİŁåı¥çļĦä¸»è¯Ńæĺ¯":9044,"ĠSilk":9045,"Ġmind":9046,"fake":9047,"Ġthem":9048,"ulative":9049,"Ġlace":9050,"åı¯èĥ½æĽ´ç¬¦åĲĪ":9051,"æķ´ä¸ªåı¥åŃĲçļĦæĦıæĢĿ":9052,"å¤©åŁº":9053,"forest":9054,"åĲİç»ĵæŀĦä¸»ä¹īæĸĩåŃ¦çĲĨè®º":9055,"æ¶Įçİ°":9056,"çłįä¼Ĳ":9057,"oT":9058,"æĸĩåŃĹ":9059,"åı¯ç¼ĸç¨ĭ":9060,"åŃ¦çļĦ":9061,"æ£ĢæŁ¥æĸĩåĮĸéĢĤåºĶæĢ§":9062,"ç³ħ":9063,"è¦ģèĢĥèĻĳæĸĩåĮĸéĢĤåºĶæĢ§":9064,"çĶµè·¯":9065,"éª¼":9066,"ç½ĳç»ľç¤¾ä¼ļ":9067,"æľĢåĲİç¡®è®¤æľ¯è¯Ńæĺ¯åĲ¦æŃ£ç¡®":9068,"æ¬§æ´²çļĦ":9069,"ç¡®ä¿Ŀæľ¯è¯Ńç¬¦åĲĪä¸Ńæĸĩ":9070,"Ġacidification":9071,"éª¨éª¼":9072,"Ġdegradation":9073,"çļĦä¼¦çĲĨ":9074,"æ¯Ĵ":9075,"Ġfaster":9076,"address":9077,"antle":9078,"è¿Ĳè¡Į":9079,"äººç±»ä¸»ä¹ī":9080,"æľĢç»ĪçļĦç¿»è¯ĳç»ĵæŀľ":9081,"çĿ¡":9082,"Ġwealth":9083,"æĪĳéľĢè¦ģç¡®ä¿ĿåĩĨç¡®çĲĨè§£æ¯ıä¸ªæľ¯è¯ŃçļĦæĦıæĢĿ":9084,"çļĦè§£éĩĬæĪĸè¯´æĺİ":9085,"æĪĳéľĢè¦ģèĢĥèĻĳç¿»è¯ĳçļĦåĩĨç¡®æĢ§":9086,"Ġresistance":9087,"pan":9088,"æĿ¾":9089,"æ³¡":9090,"Ġinterdependence":9091,"æķ°æį®å¤ĦçĲĨ":9092,"othic":9093,"ä½Ĩä¹Łè¦ģä¿ĿæĮģ":9094,"Ġrelativistic":9095,"æĹłæĦıä¸Ń":9096,"care":9097,"æĺ¯åĽºå®ļ":9098,"è¿ĻéĩĮåºĶè¯¥æĺ¯æĮĩ":9099,"Ġmimic":9100,"ä¹ŁåĩĨç¡®":9101,"åİŁåı¥æĺ¯èĻļæĭŁè¯Ńæ°Ķ":9102,"å±Ĥçº§":9103,"å®Įå¥½":9104,"Ġanti":9105,"è¯Ńæ³ķä¹łæĥ¯":9106,"æĽ´ç¬¦åĲĪåŃ¦æľ¯çĶ¨è¯Ń":9107,"çī©çĲĨåŃ¦ä¸ŃçļĦ":9108,"Ġrepresentations":9109,"ĠæĪĸèĢħæĽ´ç®Ģæ´ģä¸ĢçĤ¹":9110,"åŃŁå¾·å°Ķ":9111,"Enlightenment":9112,"çī©é¦Ĩ":9113,"æĹ¢å¿łå®ŀåİŁæĦı":9114,"è½¯":9115,"conduc":9116,"Ġformal":9117,"è¯Ńåı¥æµģçķħèĩªçĦ¶":9118,"åįļçī©é¦Ĩ":9119,"çŁĽçĽ¾çļĦ":9120,"è¿ĺè¦ģæ£ĢæŁ¥æĺ¯åĲ¦æľīéģĹæ¼ıçļĦä¿¡æģ¯":9121,"reliable":9122,"Ġinvestment":9123,"åĨįçĶŁèĥ½æºĲ":9124,"Ġicon":9125,"æĪĲåĥı":9126,"é¦ĸåħĪç¡®å®ļ":9127,"æĸ¹åĲĳ":9128,"æĺ¯åĲ¦æľīæĽ´å¥½çļĦ":9129,"ä¸ŃæĸĩéĩĮéĢļå¸¸":9130,"agricultural":9131,"éĵģ":9132,"åİĨåı²åĴĮ":9133,"Ġtechnical":9134,"çĦ¶åĲİæ£ĢæŁ¥åı¥åŃĲçļĦæµģçķħæĢ§":9135,"åŃ¦æľ¯ç¿»è¯ĳéĢļå¸¸":9136,"å®ĩå®ĻåŃ¦æ¨¡åŀĭ":9137,"æĻ¶ä½ĵç®¡":9138,"Automation":9139,"ĠO":9140,"Ġques":9141,"éľĢè¦ģéĢīæĭ©":9142,"æľ¯è¯Ńå¿ħé¡»åĩĨç¡®":9143,"åİŁä½ı":9144,"éĥ½æľī":9145,"å®Įç¾İ":9146,"æīĢä»¥è¿Ļéĥ¨åĪĨåı¯ä»¥è¯ĳä¸º":9147,"æľĢåĲİæ£ĢæŁ¥æķ´ä¸ªåı¥åŃĲæĺ¯åĲ¦éĢļé¡º":9148,"è¾©è¯ģ":9149,"æłĩçĤ¹ç¬¦åı·":9150,"åĪĨåŃĲç»Ħè£ħæľº":9151,"çļĦåħī":9152,"çĶ¨æĪ·æĺİç¡®":9153,"èĩªéĢĤåºĶ":9154,"æľĢåĲİç¡®å®ļ":9155,"åĲĮæĹ¶è®©åı¥åŃĲ":9156,"ç¤¾ä¼ļæĶ¿æ²»":9157,"éģĵå¾·å®ŀåľ¨è®º":9158,"èĳĽ":9159,"åĨ°æľŁ":9160,"Ġpreced":9161,"Ġconsumer":9162,"åĲ¯åıĳ":9163,"åĨ·åĨ»":9164,"Ġsociety":9165,"cosm":9166,"shift":9167,"Ġsurveillance":9168,"ç¬Ľ":9169,"itual":9170,"è®ºè¯ģ":9171,"æ¶¨":9172,"ç§ĳæĬĢé¢ĨåŁŁçļĦ":9173,"éľĢè¦ģåĩĨç¡®è¡¨è¾¾åĩº":9174,"ç¡®å®ŀæľī":9175,"éĩįæĸ°è®¾è®¡":9176,"æĸĩæľ¬çļĦ":9177,"ç¡®ä¿Ŀåı¥åŃĲæµģçķħèĩªçĦ¶":9178,"æ»¡è¶³çĶ¨æĪ·çļĦéľĢæ±Ĥ":9179,"ä¿ĿæĮģåİŁæł·":9180,"è¢«åĬ¨ç»ĵæŀĦ":9181,"Ġtheoretical":9182,"èįĴæ¼ł":9183,"Ġbrushwork":9184,"Ġmaximization":9185,"éľĢè¦ģåĩĨç¡®ä¸Ķä¸ĵä¸ļçļĦç¿»è¯ĳ":9186,"æĬĬå®ĥç¿»è¯ĳæĪĲä¸Ńæĸĩ":9187,"multi":9188,"è¦ģä¿ĿçķĻ":9189,"information":9190,"æīĢä»¥æľ¯è¯ŃçļĦåĩĨç¡®æĢ§":9191,"æīĢä»¥ä¸Ńæĸĩç»ĵæŀĦ":9192,"Ġsign":9193,"igger":9194,"å¿ħé¡»çĽ´æİ¥ç»ĻåĩºçŃĶæ¡Ī":9195,"ç½ĳç»ľçĲĨè®º":9196,"ç¿»è¯ĳçļĦè¯Ŀ":9197,"æĽ´è´´åĪĩçļĦè¯įæ±ĩ":9198,"è¿Ļæĺ¯ä¸Ģä¸ªæĿ¡ä»¶åı¥":9199,"è®©åı¥åŃĲæĽ´æµģçķħ":9200,"Ġpredict":9201,"Ġcontrast":9202,"äº¤åıīæĢ§":9203,"éĩįåķĨä¸»ä¹īæĶ¿çŃĸ":9204,"å¹¶ä¸Ķæľīåħ·ä½ĵçļĦç¿»è¯ĳè¦ģæ±Ĥ":9205,"Ġimprove":9206,"æīįèĥ½":9207,"Ġinfluenced":9208,"uxtaposes":9209,"æĸ°è¾¾å°Ķæĸĩä¸»ä¹ī":9210,"but":9211,"xi":9212,"çĲĨæĥ³":9213,"æĪĳè¦ģæ³¨æĦı":9214,"robiological":9215,"æĺ¯åĲ¦åºĶè¯¥çĶ¨":9216,"Ġset":9217,"è°ĥæķ´ä¸Ģä¸ĭ":9218,"åıĪç¬¦åĲĪä¸ŃæĸĩçļĦ":9219,"ç»ıæµİè¡°éĢĢ":9220,"æķ´ä½ĵç¿»è¯ĳ":9221,"æĪĳè¦ģç¡®è®¤":9222,"è®¤çŁ¥å¤±è°ĥ":9223,"hakes":9224,"æĴŀ":9225,"éĩĳå±ŀ":9226,"æĥħåĨµä¸ĭ":9227,"ä¸Ńæĸĩä¸ŃéĢļå¸¸çĶ¨":9228,"micro":9229,"ĠMediterranean":9230,"Ġtransformations":9231,"athema":9232,"Ġsymbiosis":9233,"peare":9234,"hakespeare":9235,"athematical":9236,".âĢĿãĢĤ":9237,"Ġqual":9238,"æĢĢ":9239,"Ġcentralized":9240,"Ġiniti":9241,"æľĢåĲĪéĢĤçļĦ":9242,"æĶ»":9243,"åĪ°äºĨ":9244,"Ġoffer":9245,"Ġprobabilistic":9246,"éĩıåŃĲèī²":9247,"Ġdisorders":9248,"æĪĳéľĢè¦ģåĩĨç¡®çĲĨè§£åİŁæĸĩçļĦæĦıæĢĿ":9249,"åľŁåľ°":9250,"çĦ¶åĲİæ£ĢæŁ¥ä¸ĵä¸ļæľ¯è¯Ńæĺ¯åĲ¦æŃ£ç¡®":9251,"Ġanalyses":9252,"spatial":9253,"åŃ¦æľ¯è®¨è®ºæĪĸ":9254,"çĶ¨æĪ·ç»ĻåĩºçļĦèĭ±æĸĩåı¥åŃĲ":9255,"Ġflow":9256,"Ġdisrupt":9257,"Ġprivacy":9258,"accelerates":9259,"negative":9260,"ov":9261,"äºĪ":9262,"Ġsa":9263,"åĪĨåıĳ":9264,"éĥ½å¸Ĥ":9265,"åŁºå²©":9266,"å°±ä¸ļ":9267,"å·²ç»ıæ¯Ķè¾ĥ":9268,"vides":9269,"å¢ŀå¼ºæĬĢæľ¯":9270,"ä¸´çķĮ":9271,"Ġabstract":9272,"æ¶Īè´¹èĢħ":9273,"è¯ķåĽ¾":9274,"ä¹Łä¼ļçĶ¨":9275,"éĩıåŃĲèī²åĬ¨åĬĽåŃ¦":9276,"çļĦè§ĦèĮĥ":9277,"éĹ®é¢ĺæĺ¯åľ¨éĹ®":9278,"thermal":9279,"åĬ¨è¯įçŁŃè¯Ń":9280,"çĶ¨äºİè®ºæĸĩ":9281,"è¿ĺè¦ģæ£ĢæŁ¥æĸĩåĮĸéĢĤåºĶæĢ§":9282,"äº¤åıīé¢ĨåŁŁ":9283,"Photonic":9284,"Ġnarr":9285,"Ġperfect":9286,"Ġemissions":9287,"Ġsolidarity":9288,"è¯ĳä½ľ":9289,"åĲĪä½ľ":9290,"reements":9291,"æµģä½ĵ":9292,"Ġexistential":9293,"çĸĳéĹ®éĥ¨åĪĨ":9294,"åıįå¯¹":9295,"è¯»èµ·æĿ¥æĽ´èĩªçĦ¶":9296,"æĸ¯å¤ļ":9297,"ä¸Ńæĸĩç§ĳæĬĢæĸĩçĮ®ä¸Ń":9298,"Ġconceptions":9299,"theore":9300,"é¦ĸåħĪçľĭåİŁåı¥":9301,"Ġpublic":9302,"Ġsubstanti":9303,"tle":9304,"ariti":9305,"Ġdel":9306,"æĺ¯åĲ¦ä¼łè¾¾äºĨ":9307,"åħ³ç¨İ":9308,"ä¹ŁæŃ£ç¡®":9309,"åİĨåı²åıĻäºĭ":9310,"åİŁåĽłæĶ¾åľ¨åīįéĿ¢":9311,"reaty":9312,"æĪĳå¾Ĺä»Ķç»Ĩçľĭçľĭ":9313,"Ġdrive":9314,"æĪĸèĢħæĽ´ç®Ģæ´ģä¸ĢçĤ¹":9315,"Ġqubit":9316,"ĠNewtonian":9317,"revolutionize":9318,"åģĩè®¾æĢ§çļĦéĹ®é¢ĺ":9319,"hakespearean":9320,"aritime":9321,"ä½¿èĥ½å¤Ł":9322,"å¾Ļ":9323,"è¿Ļä¸ªåľ¨":9324,"åĽłæŃ¤åĩĨç¡®æĢ§åĴĮä¸ĵä¸ļæĢ§":9325,"æĹ¶éĹ´é¡ºåºı":9326,"Ġcomb":9327,"Ġframework":9328,"ä¸»åı¥åĬł":9329,"æķ°æį®éĽĨ":9330,"complex":9331,"Ġprevent":9332,"æĪĳéľĢè¦ģå¤ĦçĲĨçĶ¨æĪ·æıĲä¾ĽçļĦç¿»è¯ĳè¯·æ±Ĥ":9333,"è¿ģå¾Ļ":9334,"Ġrhythm":9335,"èĤ¯å®ļ":9336,"æĸ¯å¤ļèĳĽ":9337,"fil":9338,"machine":9339,"widespread":9340,"ĵè¨Ģ":9341,"çļĦä¸ĵä¸ļæľ¯è¯Ń":9342,"çļĦç¢İçīĩåĮĸ":9343,"rogen":9344,"æĺ¯åĲ¦åĩĨç¡®ä¼łè¾¾åİŁæĦı":9345,"è¿ĩæ¸¡":9346,"åī©":9347,"å¸¸çĶ¨çļĦæľ¯è¯Ń":9348,"ä»»æĦı":9349,"æľĢåĲİæ£ĢæŁ¥æķ´ä¸ªåı¥åŃĲçļĦæµģçķħæĢ§":9350,"ç²¹":9351,"æī©å¤§":9352,"åıĪç¬¦åĲĪä¸ŃæĸĩçļĦè¡¨è¾¾ä¹łæĥ¯åĴĮä¸ĵä¸ļæľ¯è¯Ńä½¿çĶ¨":9353,"canoes":9354,"çģ«å±±å¼§":9355,"Ġphotosynthesis":9356,"èĽĭçĻ½":9357,"vasive":9358,"åĮĸçŁ³":9359,"roup":9360,"æ¯Ķè¾ĥç¬¦åĲĪä¸Ńæĸĩè¡¨è¾¾ä¹łæĥ¯":9361,"å¿½":9362,"çī©ä½ĵ":9363,"è®©ä¸Ńæĸĩè¯»èĢħ":9364,"éĢļé¡ºèĩªçĦ¶":9365,"imp":9366,"æĿ¡çº¦":9367,"Ġrender":9368,"æĪĳéľĢè¦ģåĩĨç¡®çĲĨè§£è¿Ļåı¥è¯ĿçļĦæĦıæĢĿ":9369,"æĪĳè¦ģç¡®ä¿Ŀæľ¯è¯ŃåĩĨç¡®":9370,"å¾®è§Ĥ":9371,"åĽłæŀľåħ³ç³»çļĦ":9372,"å¢ŀåĬłäºĨ":9373,"Ġadaptation":9374,"æĶ¾åľ¨åĬ¨è¯įåīįéĿ¢":9375,"è¯´è¯ĿèĢħ":9376,"åİŁä½ıæ°ĳ":9377,"ç¬Ľåį¡å°Ķ":9378,"Tra":9379,"Ġion":9380,"Ġgood":9381,"ugg":9382,"æĿ¡ä»¶åıįå°Ħ":9383,"æĦŁåıĹ":9384,"çĶ¨æĪ·æıĲä¾ĽäºĨä¸Ģåı¥èĭ±æĸĩåı¥åŃĲ":9385,"ometric":9386,"éģ¿åħįä½¿çĶ¨ä¸į":9387,"paradox":9388,"Ġdominant":9389,"åħīä¼ıçĶµæ±ł":9390,"Ġexistence":9391,"Ġgradients":9392,"çĶ¨æĪ·ç»ĻåĩºçļĦèĭ±æĸĩåı¥åŃĲæĺ¯":9393,"ä»»æĦıåŃĲ":9394,"¢å¤į":9395,"èĥ½åĬ¨":9396,"åı¯èĥ½å¸¦æľī":9397,"ole":9398,"æ¯Ķè¾ĥå¯¹è±¡":9399,"etal":9400,"æģ¢å¤į":9401,"æĪĺäºī":9402,"æĺ¯åĲ¦æľīåħ¶ä»ĸ":9403,"æľĢåĲİæ£ĢæŁ¥æķ´ä¸ªåı¥åŃĲçļĦ":9404,"ç¡®ä¿Ŀæ²¡æľīéģĹæ¼ıä»»ä½ķ":9405,"æīĢä»¥è¿Ļéĥ¨åĪĨåı¯ä»¥ç¿»è¯ĳä¸º":9406,"Ġmaintaining":9407,"åº·å¾·çļĦ":9408,"Ġquanti":9409,"Ġproblems":9410,"explain":9411,"Ġspectroscopy":9412,"æĭĨè§£åı¥åŃĲç»ĵæŀĦ":9413,"Crypt":9414,"Gç½ĳç»ľ":9415,"ract":9416,"ä»ª":9417,"oward":9418,"Ġgal":9419,"Ġarch":9420,"ä¾ĿçĦ¶":9421,"çł´è§£":9422,"èĥ½æºĲä¼łè¾ĵ":9423,"idely":9424,"Ġspecific":9425,"Ġgovernment":9426,"æĹ¢ä¸ĵä¸ļåıĪæĺĵæĩĤ":9427,"æ¸¸æĪı":9428,"éĿĴéĵľæĹ¶ä»£æĸĩæĺİ":9429,"Ġinnovation":9430,"Ġtransportation":9431,"Solid":9432,"çļĦåģĩè®¾":9433,"åľ¨éĹ®":9434,"æĿ¥æĮĳæĪĺ":9435,"arth":9436,"ç¡®ä¿ĿåĩĨç¡®çĲĨè§£":9437,"Ġservice":9438,"ä¸Ģæ¬¡":9439,"ä½ĨéĢļå¸¸":9440,"Ġback":9441,"è¡ĮæĶ¿":9442,"è¦ģæ³¨æĦıä¸ĵä¸ļæľ¯è¯ŃçļĦæŃ£ç¡®æĢ§":9443,"åľ¨ä¸ŃæĸĩéĩĮéĢļå¸¸ç¿»è¯ĳä¸º":9444,"ä¼¦çĲĨåĽ°å¢ĥ":9445,"è£ħé¥°":9446,"Ġwhich":9447,"ä¸ĸçºªåĪĿ":9448,"ä¹¦ä¿¡":9449,"åĽ½å®¶ä¸»æĿĥ":9450,"Ġjus":9451,"Ġcontinu":9452,"ç¿»è¯ĳéľĢè¦ģ":9453,"enting":9454,"æ³ķåĽ½":9455,"ç»ıéĻ¢":9456,"Ġadaptive":9457,"æĺ¯åĲ¦ç¬¦åĲĪç¿»è¯ĳè¦ģæ±Ĥ":9458,"umann":9459,"æµģçķħæĢ§åĴĮä¸ĵä¸ļæĢ§":9460,"ĠWest":9461,"ĠNeumann":9462,"Ġrelease":9463,"Ġtherapies":9464,"beyond":9465,"market":9466,"Ġbiosign":9467,"ĠâĨĴ":9468,"mit":9469,"ä¸įè¦ģ":9470,"å¯ĵè¨Ģ":9471,"Ġmagical":9472,"emin":9473,"Ġfresco":9474,"ä½¿çĶ¨è¾ĥä¸ºæŃ£å¼ı":9475,"Ġhomogen":9476,"åıĪç¬¦åĲĪä¸ŃæĸĩçļĦè¡¨è¾¾æĸ¹å¼ı":9477,"ç¿»è¯ĳæĹ¶éľĢè¦ģä¿ĿæĮģ":9478,"æŃ£å¼ıåľºåĲĪ":9479,"ubb":9480,"åħ·ä½ĵçļĦ":9481,"ä¸Ńæĸĩä¸ŃéĢļå¸¸ä¼ļçĶ¨":9482,"Ġcooling":9483,"vergence":9484,"å¾Ĺä»¥å®ŀçİ°":9485,"efficient":9486,"æĿİåĺīåĽ¾çŃīä»·å®ļçĲĨ":9487,"è°Ī":9488,"è¿Ļä¸ªæĦıæĢĿ":9489,"ectonics":9490,"è¢«è¯ģæĺİ":9491,"æİ¥ä¸ĭæĿ¥æĺ¯åĲİåįĬåı¥":9492,"ostatic":9493,"æĥħæĻ¯":9494,"Ġparameters":9495,"ä¸Ńæĸĩè¡¨è¾¾è¦ģèĩªçĦ¶":9496,"äº§çĶŁäºĨ":9497,"Ġaltern":9498,"åı¯è¡ĮçļĦ":9499,"ä¸įåı¯ç¯¡æĶ¹":9500,"surface":9501,"Ġvirtual":9502,"æ£®æŀĹ":9503,"æĽ´æĸ°ä¸ĸ":9504,"Ġevents":9505,"æĭĴç»Ŀ":9506,"affect":9507,"çĳ":9508,"çļĦè°ĥæķ´":9509,"çļĦæłĩåĩĨ":9510,"åŃ©":9511,"æĽ´æľī":9512,"orts":9513,"åĨ¶":9514,"æĪĳçİ°åľ¨éľĢè¦ģæĬĬ":9515,"çĶ¨æĪ·æıĲä¾ĽçļĦåıĤèĢĥç¿»è¯ĳ":9516,"Ġforces":9517,"æİ¢ç©¶":9518,"ibility":9519,"Ġoutcome":9520,"simil":9521,"åıªè´Łè´£ç¿»è¯ĳ":9522,"çļĦå´©æºĥ":9523,"å®ª":9524,"æĿ¥å¼ķåĩº":9525,"åĪĨç¦»":9526,"Ġfidelity":9527,"è¿Ļæł·çļĦæľ¯è¯Ń":9528,"Ġlithium":9529,"è¢«è¯ģå®ŀ":9530,"æ£ĢæŁ¥æĺ¯åĲ¦æľīä¸ĵä¸ļæľ¯è¯Ń":9531,"åĨĻçļĦ":9532,"ä¾Ŀæį®":9533,"Ġcorpor":9534,"Ġsynthesis":9535,"å®ĮæĪĲåĲİ":9536,"Ġpsychology":9537,"æĿİåĺīåĽ¾çļĦ":9538,"particle":9539,"æµģåŁŁ":9540,"é¢ĨåŁŁåĨħ":9541,"idity":9542,"å¸¸è§ģçļĦç¿»è¯ĳ":9543,"å¿ħé¡»åĩĨç¡®ä¼łè¾¾":9544,"è¯»èµ·æĿ¥æĺ¯åĲ¦èĩªçĦ¶":9545,"Ġresources":9546,"å½»åºķçļĦ":9547,"Ġhyper":9548,"æ£ĢæŁ¥ä¸Ģä¸ĭæľ¯è¯Ńæĺ¯åĲ¦æŃ£ç¡®":9549,"éĢıæĺİ":9550,"meta":9551,"æľ¯è¯ŃåĴĮè¡¨è¾¾":9552,"Ġemerges":9553,"çģµæ´»":9554,"econstruction":9555,"çº§èģĶæķĪåºĶ":9556,"ä¸ŃæĸĩçļĦç»ĵæŀĦ":9557,"Ġcurr":9558,"è¿ĻéĩĮåı¯ä»¥è¯ĳä¸º":9559,"uras":9560,"Ġbubb":9561,"è¿ĺåİŁ":9562,"å¤§éĩı":9563,"Ġexam":9564,"æİ¥ä¸ĭæĿ¥æĺ¯æµģçķħæĢ§":9565,"Ġmechanical":9566,"Ġgenerations":9567,"Ġjust":9568,"åįļå¼Īè®ºåľ¨":9569,"åĮħåĲ«åľ¨":9570,"ç¦ıåĪ©":9571,"è¦ģçĤ¹":9572,"æ£ĢæŁ¥æķ´ä¸ªåı¥åŃĲçļĦ":9573,"åħīçļĦ":9574,"Ġatomic":9575,"çĽ¸å¯¹ä¸»ä¹ī":9576,"æĪĳéľĢè¦ģå¤ĦçĲĨçĶ¨æĪ·çļĦè¿Ļä¸ªç¿»è¯ĳè¯·æ±Ĥ":9577,"Ġenhancement":9578,"body":9579,"Ġconflicts":9580,"liminate":9581,"æīĢä»¥ç»ĦåĲĪèµ·æĿ¥å°±æĺ¯":9582,"versi":9583,"ä¸İèĭ±æĸĩä¸įåĲĮ":9584,"äºĴèģĶ":9585,"äººç±»ä¸Ńå¿ĥ":9586,"æļĹçī©è´¨":9587,"Ġcreates":9588,"Ġexplan":9589,"æł¹æľ¬æĢ§è½¬åıĺ":9590,"ä»ĸä»¬åı¯èĥ½å¸ĮæľĽ":9591,"Ġsequences":9592,"ä¾§éĩįäºİ":9593,"archit":9594,"rification":9595,"èīºæľ¯é¢ĨåŁŁ":9596,"ç¿»è¯ĳåĲİçļĦåı¥åŃĲåºĶ":9597,"ç§ĳåŃ¦åĲ«ä¹ī":9598,"ä½ľä¸ºåĬ¨è¯į":9599,"ä¸įè¿ĩçĶ¨æĪ·è¦ģæ±Ĥ":9600,"åİĨåı²èĥĮæĻ¯":9601,"bilities":9602,"pirically":9603,"Subduction":9604,"ool":9605,"çĽ´æİ¥å¯¹åºĶ":9606,"verts":9607,"chemical":9608,"Ġtravel":9609,"Ġrate":9610,"åĵ²åŃ¦ä¸ŃçļĦ":9611,"è¿Ļç§įéĢ»è¾ĳåħ³ç³»":9612,"ä¸ĸçºªçļĦ":9613,"Ġsubsequent":9614,"æĶ¯åĩº":9615,"Ġjob":9616,"Ġphenomen":9617,"without":9618,"è¿Ļæł·è¯»èµ·æĿ¥æĽ´èĩªçĦ¶":9619,"Ġdiscourse":9620,"éĻįæ°´æ¨¡å¼ı":9621,"å¯¡å¤´åŀĦæĸŃå¸Ĥåľº":9622,"äº«":9623,"æ¯Ķå¦Ĥåľ¨":9624,"èµ¤":9625,"èµ°":9626,"quately":9627,"Ġexten":9628,"amic":9629,"åı¥åŃĲçļĦç»ĵæŀĦéľĢè¦ģè°ĥæķ´":9630,"åľ¨ä¸ŃæĸĩéĩĮéĢļå¸¸":9631,"ç¿»è¯ĳæĹ¶è¦ģä¿ĿçķĻ":9632,"åŃ¦æľ¯è®¨è®ºä¸Ń":9633,"pose":9634,"ä½ĨåİŁåı¥æ²¡æľī":9635,"éľĢè¦ģæī¾åĪ°åĲĪéĢĤçļĦä¸Ńæĸĩå¯¹åºĶè¯į":9636,"ç¦»åŃĲéĢļéģĵ":9637,"Ġdepth":9638,"Ġnorms":9639,"Ġgraphene":9640,"èĤĸåĥı":9641,"çļĦè§ĤçĤ¹":9642,"æĺ¯æŃ£ç¡®çļĦç¿»è¯ĳ":9643,"Ġtectonics":9644,"æĿ¥çļĦ":9645,"rock":9646,"éĢĤåºĶæĢ§":9647,"çĽ´æİ¥ç¿»è¯ĳçļĦè¯Ŀ":9648,"å¤ļç§į":9649,"æĿ¡ä»¶åħ³ç³»":9650,"åħ¶ä»ĸè§£éĩĬ":9651,"å¹¿æ³Ľä½¿çĶ¨":9652,"è¯¢éĹ®çļĦæĺ¯":9653,"äºĮç»´":9654,"æ»¡è¶³çĶ¨æĪ·çļĦæīĢæľīè¦ģæ±Ĥ":9655,"Ġcommunity":9656,"ĠVictorian":9657,"Ġremained":9658,"Ġtension":9659,"å®ŀçĶ¨":9660,"æĭ¥":9661,"çľł":9662,"å¿ħé¡»åıªæľīç¿»è¯ĳåĲİçļĦåĨħå®¹":9663,"inetic":9664,"å¯ĨéĽĨ":9665,"åĵªç§į":9666,"æ»¤":9667,"åĬłå¯Ĩåįıè®®":9668,"ä¸¤èĢħä¹ĭéĹ´çļĦ":9669,"åķĨä¸ļåı¯è¡ĮæĢ§":9670,"è®©ä¸ŃæĸĩæĽ´éĢļé¡º":9671,"Ġequivalence":9672,"å®ļè¯Ńä»İåı¥":9673,"Ġspeeds":9674,"Ġsectors":9675,"knowledge":9676,"func":9677,"éī":9678,"éĢĿ":9679,"ç¬¦åĲĪçĽ®æłĩè¯»èĢħçļĦ":9680,"æīĢä»¥å¼Ģå¤´":9681,"åĴĮæĸĩåĮĸèĥĮæĻ¯":9682,"åľ°å¤ĸ":9683,"å¦Ĥä½ķè°ĥæķ´":9684,"ä¸ĵä¸ļæĢ§è¦ģæ±Ĥ":9685,"ä¸įéľĢè¦ģåĬł":9686,"è¢«æ·ĺæ±°":9687,"è¶ħåĩº":9688,"æµ·å¹³éĿ¢":9689,"ç¿»è¯ĳæĹ¶è¦ģåĩĨç¡®ä¼łè¾¾":9690,"åĽłæŀľåħ³ç³»æĺİç¡®":9691,"ä¸ŃæĸĩéĢļå¸¸ä¼ļæĬĬæĿ¡ä»¶æĶ¾åľ¨åīįéĿ¢":9692,"æł¸å¿ĥæĺ¯":9693,"éŁ³ä¹Ĳ":9694,"å¨ģæĸ¯çī¹":9695,"achieves":9696,"development":9697,"éī´":9698,"Might":9699,"ä¼¯":9700,"åħĪè¿Ľ":9701,"è´Ń":9702,"å¤§åĬłéĢŁ":9703,"Ġrestructuring":9704,"ä¸ĸä»£":9705,"æĿĤç³ħ":9706,"è´Łèį·":9707,"éĢĢåĮĸ":9708,"æ²īç§¯ä½ľçĶ¨":9709,"æīĢä»¥ä¸įéľĢè¦ģä»»ä½ķ":9710,"è½¬æį¢ä¸º":9711,"humanist":9712,"æ²¡æľīåħ¶ä»ĸè§£éĩĬ":9713,"éĺ²æŃ¢":9714,"Ġreflects":9715,"åľ¨ç»ıæµİåŃ¦ä¸Ń":9716,"ä¼ĲåĪ©äºļ":9717,"ä¸įä¼ļè®©è¯»èĢħæĦŁåĪ°":9718,"ä¿ĿçķĻåİŁåĲį":9719,"çĵ¦":9720,"å¨ģæĸ¯çī¹ä¼ĲåĪ©äºļ":9721,"Re":9722,"magical":9723,"çļĦéĢīæĭ©":9724,"çļĦçİ¯å¢ĥ":9725,"çļĦåĬ¨æĢģ":9726,"ä¸Ńæĸĩä¹ŁéľĢè¦ģä¿ĿæĮģ":9727,"ç»ĵæŀĦæŃ£ç¡®":9728,"æīĢä»¥è¿ĻéĩĮçĶ¨":9729,"å½¢çĬ¶":9730,"èīºæľ¯æµģæ´¾":9731,"åĸľ":9732,"Ġisol":9733,"åĨ·åį´":9734,"Ġhypotheses":9735,"æĺİæļĹå¯¹çħ§":9736,"Ġscenarios":9737,"phalia":9738,"Ch":9739,"ption":9740,"esion":9741,"è¡į":9742,"æĿ¥ä½ĵçİ°":9743,"å°ļ":9744,"åĲĪéĢĤçļĦç¿»è¯ĳ":9745,"Ġrecomm":9746,"æ´ª":9747,"åħīéĢŁ":9748,"ä¸įèĥ½éģĹæ¼ı":9749,"è§Ĩä¸º":9750,"åľ°è´¨æĹ¶éĹ´å°ºåº¦":9751,"æ°ĶåĢĻå»ºæ¨¡":9752,"å®Įæķ´æĢ§":9753,"åĲİéĿ¢æİ¥ç»ĵæŀľ":9754,"Ġenabling":9755,"planetary":9756,"è¿Ļåı¥è¯ĿçļĦç»ĵæŀĦåĴĮåĨħå®¹":9757,"åıĮåĲĳ":9758,"Ġdiscovery":9759,"æĹ¥å¸¸å¯¹è¯Ŀ":9760,"Stream":9761,"èĦĨå¼±æĢ§":9762,"Ġincentives":9763,"æĽ´éĢļçĶ¨":9764,"è¡¨åŀĭ":9765,"Ġmix":9766,"Ġdown":9767,"entrification":9768,"Ġher":9769,"å¯ĨéĴ¥":9770,"åĪ©çĽĬ":9771,"commer":9772,"pletion":9773,"æİĴæĸ¥":9774,"çº¿æĢ§åıĻäºĭ":9775,"èĪªæµ·":9776,"é¢ĳç¹ģ":9777,"Ġmeasures":9778,"Ġoperations":9779,"Ġmosaic":9780,"éĢĲåŃĹç¿»è¯ĳ":9781,"Pro":9782,"tal":9783,"Ġæ£ĢæŁ¥":9784,"ests":9785,"æīĢä»¥ä¸ŃæĸĩéĩĮ":9786,"circ":9787,"Ġlens":9788,"Ġchrom":9789,"æīĢæľīåħĥç´łéĥ½":9790,"åĿ¡":9791,"äºĴèģĶç½ĳ":9792,"æ¨¡åŀĭçļĦ":9793,"ç¾¤èĲ½":9794,"Ġagain":9795,"è¦ģåĩĨç¡®è¡¨è¾¾":9796,"çļĦå¤§æĦıæĺ¯":9797,"ç¬¦åĲĪçĶ¨æĪ·è¦ģæ±Ĥ":9798,"æīĢä»¥ä¸įéľĢè¦ģé¢Ŀå¤ĸè§£éĩĬ":9799,"Ġdeconstructs":9800,"emotional":9801,"åįĥ":9802,"...ï¼ŁâĢĿ":9803,"åŃ¦æľ¯é¢ĨåŁŁ":9804,"åľ¨è¿ĻéĩĮè¯ĳä¸º":9805,"Ġchains":9806,"Ġresonance":9807,"åİĨåı²æĪĸ":9808,"èģĶæĥ³":9809,"éģ¿åħįçĽ´è¯ĳéĢłæĪĲçļĦ":9810,"Ġinherent":9811,"Ġaccounts":9812,"ä»İæł¹æľ¬ä¸ĬæĶ¹åıĺäºĨ":9813,"æİ¥çĿĢæĺ¯":9814,"ç»¼åĲĪè¿ĻäºĽåĽłç´ł":9815,"forestation":9816,"Ġrecommend":9817,"length":9818,"utic":9819,"æĺ¯å¸¸çĶ¨æľ¯è¯Ń":9820,"åı¯åĨįçĶŁèĥ½æºĲ":9821,"æİ¥ä¸ĭæĿ¥çľĭ":9822,"ismic":9823,"èīºæľ¯åĵģ":9824,"ç¤¾ä¼ļåŃ¦ä¸ŃçļĦ":9825,"ä¸įèĥ½æ·»åĬł":9826,"çĽ¸åħ³èģĶ":9827,"æİ¥ä¸ĭæĿ¥è¦ģç¡®ä¿Ŀæľ¯è¯ŃåĩĨç¡®":9828,"èģĮä½į":9829,"æĪĳéľĢè¦ģç¿»è¯ĳè¿Ļä¸ªèĭ±æĸĩåı¥åŃĲ":9830,"éĻĪè¿°åı¥":9831,"down":9832,"network":9833,"posi":9834,"so":9835,"è¿ĻéĩĮè¡¨ç¤º":9836,"exhibit":9837,"éĢļè¯»ä¸Ģéģįè¯ĳæĸĩ":9838,"æ·±æµ·":9839,"æ³ķå¾ĭä½ĵç³»":9840,"ferences":9841,"Ġpersonhood":9842,"ä¸Ńæĸĩä¹łæĥ¯åħĪè¯´":9843,"ä¸Ńæĸĩåı¥åŃĲç»ĵæŀĦåı¯èĥ½éľĢè¦ģè°ĥæķ´":9844,"æĪĳä»¬å¯¹":9845,"ternal":9846,"æŀģç«¯å¾®çĶŁçī©":9847,"historical":9848,"Ġontological":9849,"Cry":9850,"tactic":9851,"ä¸ŃéľĢè¦ģ":9852,"ç¡®ä¿ĿçĶ¨è¯į":9853,"ä¿ĿæĮģæľ¯è¯ŃçļĦä¸Ģèĩ´æĢ§":9854,"æ°¢":9855,"çŃĽ":9856,"äººåĲį":9857,"prot":9858,"çłĶç©¶è¡¨æĺİ":9859,"æ¨¡åŀĭä¸Ń":9860,"Ġè¿Ļæł·æĹ¢ä¿ĿæĮģäºĨ":9861,"Ġdecomposition":9862,"è¯»èµ·æĿ¥èĩªçĦ¶æµģçķħ":9863,"æİ¥ä¸ĭæĿ¥è¦ģèĢĥèĻĳç¿»è¯ĳçļĦåĩĨç¡®æĢ§":9864,"ç»ĩç½ĳ":9865,"éĢĹåı·åĪĨéļĶ":9866,"Ġsensory":9867,"èĥ½åĬ¨æĢ§":9868,"crib":9869,"Ġtax":9870,"æīĢä»¥æķ´ä½ĵç»ĵæŀĦ":9871,"åĴĮçº¦":9872,"rian":9873,"elting":9874,"Ġchain":9875,"Ġcompon":9876,"formance":9877,"éĢ»è¾ĳè¿ŀè´¯":9878,"åĽŀå¤į":9879,"Ġexpect":9880,"parts":9881,"modernist":9882,"Ġinfrastructures":9883,"ĠæĪĳéľĢè¦ģæĬĬå®ĥç¿»è¯ĳæĪĲä¸Ńæĸĩ":9884,"they":9885,"Ġä¸ŃçļĦ":9886,"ï¼ģ":9887,"æĢ§éĹ®é¢ĺ":9888,"çĶ¨æĪ·çļĦç¿»è¯ĳè¦ģæ±Ĥ":9889,"Ġmagnetic":9890,"Ġbed":9891,"å¸¸è§ģç¿»è¯ĳ":9892,"Ġrenew":9893,"ä¸įè¿ĩçĶ¨æĪ·":9894,"Ġdecline":9895,"è¿ĺè¦ģèĢĥèĻĳåı¥åŃĲçļĦæµģçķħæĢ§":9896,"æĮģç»ŃçļĦ":9897,"å½»åºķæĶ¹éĿ©":9898,"valent":9899,"Ġdifferential":9900,"æĪĳè¦ģåĩĨç¡®çĲĨè§£åİŁåı¥çļĦæĦıæĢĿ":9901,"æİ¢è®¨å¦Ĥæŀľ":9902,"å¯»æī¾":9903,"Victorian":9904,"cence":9905,"ç¡®è®¤æīĢæľī":9906,"lood":9907,"æį¢æĪĲ":9908,"é¸£":9909,"Ġrelativism":9910,"åı¯èĥ½ä¸įå¤ŁèĩªçĦ¶":9911,"Ġentanglement":9912,"Tectonic":9913,"aun":9914,"atin":9915,"ili":9916,"Ġvelo":9917,"ony":9918,"è¡Ķ":9919,"åı¯èĥ½éĢļè¿ĩ":9920,"ash":9921,"ä¿ĿæĮģæľ¯è¯ŃçļĦåĩĨç¡®æĢ§":9922,"åı¯ä»¥æıĲäº¤":9923,"éĢļè¿ĩå¼ºè°ĥ":9924,"åĪĨæŀĲåı¥åŃĲçļĦç»ĵæŀĦ":9925,"deep":9926,"çĶµå½±":9927,"åıĳå±ķçļĦ":9928,"ç»¼åĲĪä»¥ä¸ĬåĽłç´ł":9929,"disrup":9930,"ĠGreat":9931,"revolutionized":9932,"ĠWestphalia":9933,"ä½Ĩä¸Ńæĸĩ":9934,"è°ĥæķ´ç»ĵæŀĦ":9935,"quency":9936,"uted":9937,"ä¸įèĥ½çľģçķ¥":9938,"åŃĺåľ¨æĺ¾èĳĹå·®å¼Ĥ":9939,"Ġchallenging":9940,"haus":9941,"aste":9942,"tax":9943,"å®¾è¯Ńä»İåı¥":9944,"åŃ¦æľ¯åĨĻä½ľæĪĸ":9945,"çº¯ç²¹":9946,"çĮİ":9947,"Ocean":9948,"Ġåı¯ä»¥è¯ĳä¸º":9949,"ä¸ºä¸Ńå¿ĥ":9950,"æĿ¥è¡¨ç¤º":9951,"æĬĢæľ¯å®ŀçİ°":9952,"å¤ļéĩį":9953,"Ġinterference":9954,"æŃ£å¼ıä½Ĩ":9955,"éĢ»è¾ĳç»ĵæŀĦ":9956,"çĶ¨æĪ·æıĲä¾ĽçļĦä¾ĭåŃĲ":9957,"åıĪç¬¦åĲĪä¸ŃæĸĩçļĦè¡¨è¾¾ä¹łæĥ¯åĴĮä¸ĵä¸ļæĢ§è¦ģæ±Ĥ":9958,"Ġcoherence":9959,"Ġlimits":9960,"Ġcontrasts":9961,"novel":9962,"Ġinstallation":9963,"å¹¶ä¸Ķè¦ģéģµå¾ªçī¹å®ļçļĦç¿»è¯ĳè¦ģæ±Ĥ":9964,"author":9965,"Ġcurrencies":9966,"Ġrecommendation":9967,"çŃĽéĢī":9968,"'ll":9969,"ile":9970,"ç¡®ä¿Ŀæµģçķħ":9971,"Ġmundane":9972,"ings":9973,"Ġreactors":9974,"å°±ä¼ļ":9975,"ithospheric":9976,"æ·¡":9977,"æķ´ä¸ªåı¥åŃĲéľĢè¦ģä¿ĿæĮģ":9978,"ç¥ŀç»ıç»ĩç½ĳ":9979,"agma":9980,"ocent":9981,"éĢ»è¾ĳå®ŀè¯ģä¸»ä¹ī":9982,"ographical":9983,"æĴ°":9984,"Ġsea":9985,"åľ°çĤ¹çĬ¶è¯Ń":9986,"atalyz":9987,"account":9988,"ey":9989,"sup":9990,"Ġ\"":9991,"ä½³":9992,"Ġsome":9993,"Ġwar":9994,"Ġhabit":9995,"åŃ¦æľ¯ä¸Ĭ":9996,"åĪ¶åĨ·":9997,"approach":9998,"è¢«å¹¿æ³Ľæİ¥åıĹ":9999,"ä¸¤éĥ¨åĪĨ":10000,"åħ¨çĲĥæ°ĶåĢĻ":10001,"Ġdemonstr":10002,"Ġgenerate":10003,"ä½ĨåİŁåı¥çĶ¨äºĨ":10004,"è¿ŀæİ¥è¯įçļĦä½¿çĶ¨":10005,"Ġspacetime":10006,"åŁ¹èĤ²":10007,"ä¿ĥæĪĲäºĨ":10008,"Ġchiaroscuro":10009,"åī¯è¯į":10010,"Ġsuggests":10011,"argeted":10012,"oligopolistic":10013,"Abstract":10014,"Ĵå¼ĥ":10015,"çļĦå¼ºè°ĥ":10016,"ä¸ŃæĸĩåĬ¨è¯į":10017,"read":10018,"å¾¡":10019,"Ġneed":10020,"çº§è®¡ç®Ĺ":10021,"versity":10022,"éľĢè¦ģæ³¨æĦıæľ¯è¯ŃçļĦåĩĨç¡®æĢ§":10023,"Ġautomation":10024,"çĶ¨æĪ·ç»ĻçļĦèĭ±æĸĩåı¥åŃĲç¿»è¯ĳæĪĲä¸Ńæĸĩ":10025,"Ġintensify":10026,"collective":10027,"aims":10028,"cl":10029,"cend":10030,"Ġtemperature":10031,"Ġdoc":10032,"åĪĨåĪ«":10033,"æ²¡æľīåĨĹä½Ļ":10034,"å¸¸çĶ¨è¯įæ±ĩ":10035,"éĺ¿":10036,"åıĺåĮĸçļĦ":10037,"è¿Ļéĥ¨åĪĨæĺ¯åħ³éĶ®":10038,"ĠEurocentric":10039,"ä¹Łæĺ¯å¸¸çĶ¨æľ¯è¯Ń":10040,"å¼ķèµ·çļĦ":10041,"æĳĴå¼ĥ":10042,"inforce":10043,"åĤ¬åĮĸ":10044,"Ġcritiques":10045,"æĺİæļĹå¯¹æ¯Ķ":10046,"mechanisms":10047,"ocentric":10048,"br":10049,"clo":10050,"Ġtwo":10051,"éĢĤå½ĵ":10052,"Ġdon":10053,"èĩªæĹĭ":10054,"è¿ĩæ»¤":10055,"leist":10056,"éĹ´çļĦ":10057,"å¤§çļĦ":10058,"åľ¨è¿ĻéĩĮä¸įæĺ¯":10059,"Ġstat":10060,"åĵ²åŃ¦è®¨è®º":10061,"åıĻäºĭæĬĢå·§":10062,"ä¸Ńæĸĩè¯»èĢħæĺ¯åĲ¦":10063,"çŁ¥è¯ĨçļĦ":10064,"è¯Ńåı¥æµģçķħ":10065,"æīĢä»¥åı¯èĥ½éľĢè¦ģä¿ĿæĮģ":10066,"èģĮåľº":10067,"Ġphenomenological":10068,"Ġimperial":10069,"auhaus":10070,"æ²¹çĶ»é¢ľæĸĻ":10071,"ç¢³æįķéĽĨ":10072,"fragmented":10073,"Ġessence":10074,"åĪĨå½¢åĩłä½ķ":10075,"cceleration":10076,"leistocene":10077,"æĺ¯åĬ¨è¯į":10078,"ä¸Ńå¯¹":10079,"erve":10080,"åºĬ":10081,"å¼¦":10082,"urization":10083,"æĮĩæ¶ī":10084,"Ġget":10085,"çĽ¸åıį":10086,"æłĩåĩĨçļĦè¯ĳæ³ķ":10087,"Ġargu":10088,"ç§ĳæĬĢæĪĸ":10089,"å¹³ä»·":10090,"æµ·æ°´":10091,"ĠAcceleration":10092,"ä½¿åħ¶æĽ´èĩªçĦ¶":10093,"åĲįè¯įçŁŃè¯Ń":10094,"æĵįçºµ":10095,"åŁºäºİåĮºåĿĹéĵ¾çļĦ":10096,"æĢİæł·çļĦ":10097,"Ġepigenetic":10098,"Ġadvantages":10099,"è¿Ļåı¥è¯ĿçļĦä¸»å¹²æĺ¯":10100,"ä¸įæ·»åĬłåħ¶ä»ĸåĨħå®¹":10101,"Ġrisk":10102,"Ġhydrological":10103,"å¼ºçĥĪçļĦ":10104,"ire":10105,"igation":10106,"Ġhim":10107,"permafrost":10108,"æĺ¯åľ¨æ¯Ķè¾ĥ":10109,"æĸĩæľ¬æĿĥå¨ģ":10110,"Ġauthorship":10111,"ears":10112,"Ġconsensus":10113,"ç¢İçīĩåĮĸçļĦ":10114,"metric":10115,"å®¡ç¾İ":10116,"reek":10117,"bed":10118,"sl":10119,"çļĦç²¾ç¡®":10120,"ä¸Ńå¸¸":10121,"çĶŁæ®ĸ":10122,"astical":10123,"è®©æŃ¥":10124,"implement":10125,"ä¸įèĥ½åĽŀçŃĶè¾ĵåħ¥çļĦéĹ®é¢ĺ":10126,"æİ¥ä¸ĭæĿ¥æĺ¯åĩĨç¡®æĢ§":10127,"æ¸©å®¤":10128,"Ġregim":10129,"Ġroutes":10130,"Ġdistor":10131,"è¿ĺè¦ģæ£ĢæŁ¥æľ¯è¯Ńæĺ¯åĲ¦æŃ£ç¡®":10132,"æľīçĤ¹å¤įæĿĤ":10133,"å®ŀè¯ģéªĮè¯ģ":10134,"æĵįä½ľæĢ§":10135,"ä¸¥æł¼æĮīçħ§è¦ģæ±Ĥ":10136,"ä¸ľè¥¿":10137,"Ġdeployed":10138,"è¿Ļæł·æĹ¢ä¿ĿçķĻäºĨåİŁæĦı":10139,"æĺ¼å¤ľèĬĤå¾ĭç´Ĭä¹±":10140,"Ġscholars":10141,"logical":10142,"æ¯ģ":10143,"å¤¸":10144,"ä¿Ŀéļľ":10145,"ç¡®ä¿ĿåĩĨç¡®ä¼łè¾¾åİŁæĦı":10146,"æīĢä»¥æĪĳçļĦä»»åĬ¡":10147,"åĲĮæŃ¥":10148,"æł¹æį®çĶ¨æĪ·çļĦè¦ģæ±Ĥ":10149,"åħ±é¸£":10150,"æīĢæľīåħ³éĶ®çĤ¹éĥ½åĩĨç¡®ä¼łè¾¾":10151,"what":10152,"Ġnarration":10153,"ä¸ĵä¸ļé¢ĨåŁŁçļĦåĩĨç¡®æĢ§":10154,"Ġvehicle":10155,"established":10156,"ç»ħå£«":10157,"Mon":10158,"ä¸ŃæĸĩçļĦç»ĵæŀĦåĴĮ":10159,"any":10160,"èĩªç»Ħè£ħ":10161,"æ¯Ķè¾ĥçº§":10162,"çĽŁ":10163,"çĽ¸åĲĮ":10164,"åĪĻå¼ºè°ĥ":10165,"éĿŀçĲĨæĢ§":10166,"Ġimmer":10167,"è¯Ńè¨ĢçļĦ":10168,"ç§°åĳ¼":10169,"éĩįæĸ°éħįç½®":10170,"åĨ³çŃĸè¿ĩç¨ĭ":10171,"éĴŁ":10172,"åįłæį®":10173,"æķ´ä¸ªç¿»è¯ĳè¿ĩç¨ĭ":10174,"ç¬¦åĲĪä¸ĵä¸ļè¦ģæ±Ĥ":10175,"Ġpredictive":10176,"Ġcircuit":10177,"Neuroplasticity":10178,"æĬĳåĪ¶":10179,"Ġran":10180,"æĪĸèĢħæĺ¯åĲ¦éľĢè¦ģè°ĥæķ´":10181,"æĬĢæľ¯åĴĮ":10182,"å¼ķåı·":10183,"ume":10184,"åħ¶ä»ĸè¯įæ±ĩ":10185,"åİŁåı¥çļĦç»ĵæŀĦæĺ¯æĿ¡ä»¶åı¥":10186,"æĽ´ç¬¦åĲĪåŃ¦æľ¯è®¨è®º":10187,"æĸĩåĮĸéĢĤåºĶæĢ§åĴĮæľ¯è¯ŃæŃ£ç¡®æĢ§":10188,"Ġtrends":10189,"ä½¿ä¸ŃæĸĩæĽ´éĢļé¡º":10190,"æī©å±ķæĢ§":10191,"æĹ¶æĢģåĴĮ":10192,"Ġpositivism":10193,"models":10194,"ä¿ĿçľŁåº¦":10195,"chi":10196,"udi":10197,"çļĦçī¹æĢ§":10198,"æĺ¯å¦Ĥä½ķ":10199,"ä¸ŃæĸĩéľĢè¦ģä¿ĿæĮģ":10200,"Ġtoward":10201,"çķ´":10202,"æĺ¯åĲ¦è¿ĺæľī":10203,"ä¸ĵä¸ļäººå£«":10204,"èĻ«":10205,"åľ°åĪ©":10206,"åĬłå¿«":10207,"èīºæľ¯è¯Ħè®º":10208,"æĸ°åħ´":10209,"éĺŁ":10210,"çĶµåĬĽ":10211,"åĲİéĿ¢æĺ¯":10212,"åĬŁèĥ½ä¸»ä¹ī":10213,"ä¸Ģåı¥èĭ±æĸĩåı¥åŃĲç¿»è¯ĳæĪĲä¸Ńæĸĩ":10214,"å¼ķåĬĽéĢıéķľ":10215,"Plasma":10216,"å¥¥åľ°åĪ©":10217,"Ġintroduction":10218,"exponentially":10219,"Ġhistoriography":10220,"Ġcohesion":10221,"ç»ħå£«åĮĸ":10222,"Ar":10223,"ä¸ĩ":10224,"åıĭ":10225,"reader":10226,"ç»ĵæŀĦæµģçķħ":10227,"åĴĮæµģçķħ":10228,"igious":10229,"Ġprom":10230,"Ġact":10231,"åİŁæĸĩçļĦç»ĵæŀĦåĴĮ":10232,"æµĭè¯ķ":10233,"æ®ĸæ°ĳåľ°":10234,"èĬ±":10235,"åıĳçĶŁçļĦ":10236,"å¾ªçİ¯ç»ıæµİ":10237,"genetic":10238,"Ġfeudal":10239,"éģ¿åħįçĽ´è¯ĳå¯¼èĩ´çļĦçĶŁç¡¬æĦŁ":10240,"Ġmetafic":10241,"å¹¸ç¦ı":10242,"cross":10243,"è¸":10244,"è¦ģç¬¦åĲĪä¸ŃæĸĩçļĦè¡¨è¾¾ä¹łæĥ¯":10245,"ä¸Ńå¾®":10246,"ä»Ĭ":10247,"å¤º":10248,"ä¸įæĪĲæ¯Ķä¾ĭ":10249,"è¿ĻéĩĮæıĲåĪ°":10250,"æľĢåĲİçļĦ":10251,"è¯´çļĦæĺ¯":10252,"ä»£çĲĨ":10253,"çİ°åľ¨å¼Ģå§ĭ":10254,"istics":10255,"å¹¿æ³ĽæĻ®åıĬ":10256,"Ġprevious":10257,"Ġparticular":10258,"åľ¨èīºæľ¯åı²":10259,"æĪĸèĢħæĽ´ç®Ģæ´ģçļĦ":10260,"å¿ħè¦ģçļĦ":10261,"åĲĮæĹ¶éģµå¾ªçĶ¨æĪ·çļĦåħ·ä½ĵè¦ģæ±Ĥ":10262,"ç¡®ä¿Ŀæľ¯è¯ŃåĴĮè¡¨è¾¾æĸ¹å¼ı":10263,"potentially":10264,"Ġthermodynamics":10265,"mirror":10266,"èĩªåıĳ":10267,"æĬĢæľ¯é¢ĨåŁŁçļĦ":10268,"æĬĢæľ¯è¿ĽæŃ¥":10269,"ä¸İB":10270,"Ġchem":10271,"æľĢåĲİæ£ĢæŁ¥è¯Ńæ³ķåĴĮ":10272,"Ġste":10273,"é«ĺæķĪ":10274,"åĻ¨çļĦ":10275,"åĨľæĿĳ":10276,"å®ĩå®ĻçļĦ":10277,"Ġdualism":10278,"transition":10279,"redefine":10280,"cosmological":10281,"architect":10282,"grow":10283,"iness":10284,"åľ¨çī©çĲĨ":10285,"tice":10286,"æĬĢæľ¯éļľç¢į":10287,"Ġgroup":10288,"è¦ģæ³¨æĦıä¸ĵä¸ļæľ¯è¯ŃçļĦæŃ£ç¡®ä½¿çĶ¨":10289,"åľ¨è¿ĻéĩĮçĶ¨":10290,"åıªåĮħåĲ«":10291,"èĮĥçķ´":10292,"éģ¿åħįåı£è¯ŃåĮĸè¡¨è¾¾":10293,"ä¸Ńæĸĩè¡¨è¾¾éľĢè¦ģèĩªçĦ¶":10294,"biotic":10295,"è§£éĩĬæĪĸè¯´æĺİ":10296,"åıĺå¾Ĺå¤įæĿĤ":10297,"ä¾µåħ¥":10298,"ochemical":10299,"Ġclaims":10300,"åĨĻå®ŀä¸»ä¹ī":10301,"éĻĦåĬł":10302,"å¸®åĬ©":10303,"Ġpathways":10304,"æģĲæĢ":10305,"çļĦä¸Ģä¸ª":10306,"ering":10307,"æľ¯è¯Ńæĸ¹éĿ¢":10308,"æĽ´æľīæķĪ":10309,"åŃ¦æĪĸ":10310,"ä¸įçĶŁç¡¬":10311,"æĢĿèĢĥ":10312,"å¹¶è¡Į":10313,"ç®Ģæ´ģåĩĨç¡®":10314,"æĮĳæĪĺä¼łç»Ł":10315,"Ġspaces":10316,"æĽ´ç¬¦åĲĪè¯Ńå¢ĥ":10317,"åĲĮæĹ¶ä¿ĿæĮģä¸ŃæĸĩçļĦ":10318,"éģĵå¾·ä¹īåĬ¡":10319,"Ġdemographic":10320,"æĪĳå¾ĹåĩĨç¡®çĲĨè§£":10321,"çĽĳæµĭ":10322,"ä¸»è¦ģæĺ¯":10323,"ç«ĭä½ĵæ´¾":10324,"è¶ĭäºİ":10325,"éĹŃçİ¯":10326,"éĽ·è¾¾":10327,"æģ¶åĮĸ":10328,"Ġaugmentation":10329,"confirmation":10330,"Ġpigment":10331,"ç¿»":10332,"åĴĮè¡¨è¾¾ä¹łæĥ¯":10333,"Ġdur":10334,"åĲĮåĮĸ":10335,"åĬ¨åĬĽ":10336,"åľ°æĸ¹":10337,"Ġwa":10338,"åģıç¦»":10339,"åĩłåįģå¹´åĨħ":10340,"åľ¨ä¸Ńæĸĩä¸ŃéĢļå¸¸":10341,"æ°ĶåĢĻç§ĳåŃ¦":10342,"ç»¼åĲĪèĢĥèĻĳ":10343,"çİ°ä»£ä¸»ä¹īè¯ĹæŃĮ":10344,"çº³ä»Ģ":10345,"Ġgeometry":10346,"remoph":10347,"æľīæľĽå®ŀçİ°":10348,"similation":10349,"Co":10350,"Ec":10351,"Im":10352,"è¦ģç¡®è®¤":10353,"ä»¥ä¾¿":10354,"åİŁåŀĭ":10355,"Ġpanpsychism":10356,"é¡¶":10357,"lev":10358,"ç¨ĭåºı":10359,"éĢļé¡ºçļĦ":10360,"Ġresol":10361,"èµĦæºĲå¼Ģéĩĩ":10362,"gene":10363,"å°Ĩå¦Ĥä½ķæ¼Ķåıĺ":10364,"Ġcapacities":10365,"Ġtrauma":10366,"Ġiconography":10367,"Ġbedrock":10368,"ĠY":10369,"çļĦéľĢæ±Ĥ":10370,"æĸĹ":10371,"è¾ŀ":10372,"orption":10373,"è¿ĻéĩĮåı¯ä»¥ç¿»è¯ĳä¸º":10374,"emphas":10375,"ä¼łæĦŁ":10376,"ä¸ŃçļĦå¸¸çĶ¨è¡¨è¾¾":10377,"Ġconvey":10378,"æĹ¢å¿łå®ŀäºİåİŁæĸĩ":10379,"çĶŁçī©ç¥ŀç»ı":10380,"éĩıåŃĲæĢģ":10381,"Ġrul":10382,"Ġanxi":10383,"åľ°è´¨è¿ĩç¨ĭ":10384,"ä¸Ńæĸĩä¹łæĥ¯æĬĬ":10385,"Ġphotovoltaic":10386,"çĪĨ":10387,"institutional":10388,"å¸ĮèħĬæĤ²åī§":10389,"ç»´å¤ļåĪ©äºļæĹ¶æľŁçļĦ":10390,"åı¯èĥ½è¿ĺéľĢè¦ģèĢĥèĻĳ":10391,"iaturization":10392,"ç¨Ģç¼º":10393,"åħ¬åı¸æ²»çĲĨ":10394,"éĺ»ç¢įäºĨ":10395,"Ġremains":10396,"ocratized":10397,"conducting":10398,"å¨ģæĸ¯çī¹ä¼ĲåĪ©äºļåĴĮçº¦":10399,"æľīåĬ©":10400,"empirical":10401,"ç¡®è®¤æ¯ıä¸ªéĥ¨åĪĨéĥ½":10402,"è¿Ļä¸ªåı¥åŃĲ":10403,"tingu":10404,"exoplanet":10405,"ç¡®å®ļä¸ĵä¸ļæľ¯è¯ŃçļĦæŃ£ç¡®ç¿»è¯ĳ":10406,"åıĻäºĭæīĭæ³ķ":10407,"may":10408,"ä½¿åħ¶æĽ´ç¬¦åĲĪä¸Ńæĸĩä¹łæĥ¯":10409,"åĥļ":10410,"ç¿»è¯ĳæĹ¶è¦ģä¿ĿæĮģçĸĳéĹ®çļĦè¯Ńæ°Ķ":10411,"è¯ĳæĸĩä¸Ń":10412,"è®©åı¥åŃĲè¯»èµ·æĿ¥èĩªçĦ¶":10413,"å®ĺåĥļ":10414,"Ġincorporating":10415,"æĸ°åı¤åħ¸ä¸»ä¹ī":10416,"ä½¿çĶ¨æŃ£ç¡®çļĦä¸ĵä¸ļæľ¯è¯Ń":10417,"Ġgeomorphology":10418,"Ġweathering":10419,"reveal":10420,"ä¸įæĶ¹åıĺ":10421,"éĢļè·¯":10422,"Ġevent":10423,"è¦ģç¡®ä¿Ŀç¿»è¯ĳåĲİçļĦåı¥åŃĲ":10424,"çĲĨè®ºä¸ĬçļĦ":10425,"åĪĨæŀĲä¸Ń":10426,"ç»ĦåĲĪæĪĲ":10427,"æĸĩåŃ¦æľ¯è¯Ń":10428,"çľĭä¼¼":10429,"å¾·éĽ·":10430,"Ġparallel":10431,"åıĳå±ķåĩº":10432,"èº«ä½ĵ":10433,"æ´»åŃĹ":10434,"è¦ģå¤ĦçĲĨæĪĲ":10435,"finement":10436,"Ġtransient":10437,"Ġinsulating":10438,"æľīæ²¡æľīéģĹæ¼ıæĪĸéĶĻè¯¯":10439,"ç®Ĺæ³ķæİ¨èįĲç³»ç»Ł":10440,"BI":10441,"å¦ĤæŃ¤":10442,"åĲİåį°è±¡æ´¾":10443,"ä¸įéĢĤåºĶ":10444,"assi":10445,"åı¯ä»¥æıŃç¤º":10446,"ç½ª":10447,"ä¸įèĥ½æ¼ıæİī":10448,"èĥĢæ¨¡åŀĭ":10449,"ocates":10450,"Ġalle":10451,"åĽºæľī":10452,"ĠRe":10453,"åıĸå¾Ĺ":10454,"ä¸¤èĢħéĥ½åı¯ä»¥":10455,"æĪĳéľĢè¦ģç¡®è®¤æ¯ıä¸ªæľ¯è¯ŃçļĦæŃ£ç¡®ç¿»è¯ĳ":10456,"mediated":10457,"ä¼´éļı":10458,"åķĨä¸ļåĮĸåºĶçĶ¨":10459,"çĲĨè§£åħ¶åĲ«ä¹ī":10460,"Ġloss":10461,"Ġcomponents":10462,"çº³ä»ĢåĿĩè¡¡":10463,"vements":10464,"ants":10465,"æĦ¿":10466,"æ²¡æľīæıĲä¾Ľ":10467,"urd":10468,"å¼ıçļĦ":10469,"Ġtools":10470,"æĿ¡ä»¶éĥ¨åĪĨ":10471,"è¿Ļæĺ¯åľ°è´¨åŃ¦":10472,"åİŁæĸĩçļĦç»ĵæŀĦæĺ¯":10473,"ä½ľä¸ºå¼Ģå¤´":10474,"è§Ħå¾ĭ":10475,"tainment":10476,"Ġè¿Ļåı¥è¯ĿçļĦç»ĵæŀĦ":10477,"Ġdifferences":10478,"Ġdeser":10479,"Ġkarst":10480,"æĬķæľº":10481,"Ġconfigur":10482,"emphasize":10483,"ç¬¦åĲĪåŃ¦æľ¯è®¨è®ºçļĦè¯Ńæ°Ķ":10484,"Ġfoundational":10485,"Ġcorporate":10486,"èĤĸåĥıçĶ»":10487,"è´Ńä¹°":10488,"pal":10489,"were":10490,"éľĢè¦ģè¿Ľè¡Į":10491,"ä¹İ":10492,"åı¯èĥ½å¯¼èĩ´":10493,"åı¯èĥ½å¼ķåıĳ":10494,"ä½¿çĶ¨åľºæĻ¯":10495,"Ġreduces":10496,"æĸĩåĮĸå·®å¼Ĥ":10497,"æĻļ":10498,"åŃ¦æľ¯åĮĸ":10499,"æĿ¡ä»¶çĸĳéĹ®åı¥":10500,"umin":10501,"å¸¸è§ģè¯ĳæ³ķ":10502,"éĽ¨":10503,"æĺİç¡®çļĦ":10504,"Ġregulatory":10505,"åŃ¦æľ¯æĪĸä¸ĵä¸ļ":10506,"å¾ĹåĪ°æ»¡è¶³":10507,"interpret":10508,"çľĭçľĭåİŁåı¥":10509,"éĩįçĤ¹æĺ¯":10510,"arcity":10511,"critical":10512,"å¤ªéĺ³èĥ½çĶµæ±ł":10513,"Ġmeasurement":10514,"Metamaterials":10515,"å°ģå»ºåĪ¶åº¦":10516,"è¾¾è¾¾":10517,"Ġpor":10518,"Ġfault":10519,"ä¸Ĭåı¯è¡Į":10520,"hiel":10521,"iritual":10522,"Ġdiversity":10523,"Ġcontribute":10524,"äººç±»çļĦ":10525,"åħĭæĸ¯":10526,"ribution":10527,"tration":10528,"Ġè¿ĻéĩĮçļĦåħ³éĶ®çĤ¹":10529,"åįķçº¯":10530,"ç£ģåľº":10531,"ä»·åĢ¼è§Ĥ":10532,"Ġperceptions":10533,"ä½¿ä¸ŃæĸĩæĽ´æµģçķħ":10534,"æīĢä»¥çĽ´æİ¥ç¿»è¯ĳæĪĲ":10535,"æĪĳéľĢè¦ģä»Ķç»ĨåĪĨæŀĲè¿ĻäºĽè¦ģæ±Ĥ":10536,"ĠæĪĳçļĦä»»åĬ¡æĺ¯å°Ĩè¿Ļåı¥è¯ĿåĩĨç¡®ç¿»è¯ĳæĪĲä¸Ńæĸĩ":10537,"autonomous":10538,"ä¸Ńå¾®åŃĲ":10539,"enistic":10540,"ectual":10541,"Ġflex":10542,"å¤ļæĻ®":10543,"æĿ¡ä»¶ä½ľçĶ¨":10544,"æľĢç»Īç¿»è¯ĳä¸º":10545,"ock":10546,"ellenistic":10547,"çĽ´æİ¥ç¿»è¯ĳæ²¡éĹ®é¢ĺ":10548,"ç¬¬åĽĽ":10549,"Ġenhanced":10550,"åıĮè¯Ń":10551,"Ġintegrated":10552,"carbonate":10553,"Ġselective":10554,"Ġdisease":10555,"ristote":10556,"å¤ļæĻ®åĭĴ":10557,"ristotelian":10558,"educ":10559,"æ²¡æľīä¸ĵä¸ļæľ¯è¯Ń":10560,"Ġthermohaline":10561,"æ¼ıæ´ŀ":10562,"å°Ĩåħ¶":10563,"ademic":10564,"æĿ¡ä»¶ä¸ĭ":10565,"éļ§":10566,"Ġtrading":10567,"åŃĺåľ¨å·®å¼Ĥ":10568,"åľ¨ä¸ŃæĸĩéĩĮéĢļé¡º":10569,"æĺ¯åĲ¦ç¬¦åĲĪæĸĩåĮĸéĢĤåºĶæĢ§":10570,"åħ¬å¹³":10571,"Ġconservation":10572,"ä½ĵçİ°åĩº":10573,"æķ´ä½ĵåı¥åŃĲç»ĵæŀĦæĺ¯åĲ¦éĢļé¡º":10574,"medieval":10575,"æ¸©åº¦åĴĮ":10576,"lusively":10577,"çļĦåħ´èµ·":10578,"åħ½":10579,"å®ľ":10580,"ä¿Ŀè¯ģ":10581,"æīĢä»¥è¿Ļä¸ªç¿»è¯ĳ":10582,"Ġdestabiliz":10583,"äººä½ĵ":10584,"mentation":10585,"è¦ģç¡®ä¿Ŀæľ¯è¯Ń":10586,"Ġcontexts":10587,"Ġbio":10588,"åģĩè®¾æĿ¡ä»¶åı¥":10589,"ception":10590,"éĩįæĸ°è¯Ħä¼°":10591,"èį£":10592,"æľªæĽ¾":10593,"åĲ¦å®ļ":10594,"ä¸ŃæĸĩéĢļå¸¸ä¹Łæĺ¯":10595,"æįŁå®³":10596,"åīĬå¼±äºĨ":10597,"çĲĨæĢ§éĢīæĭ©æ¨¡åŀĭ":10598,"åŃ¦æľ¯çķĮçļĦä¹łæĥ¯":10599,"æĶ»åĩ»":10600,"Molecular":10601,"mimic":10602,"®é£Ł":10603,"reh":10604,"è¿ĩåº¦":10605,"æİ¥ä¸ĭæĿ¥èĢĥèĻĳ":10606,"çĲĨè§£ä¸º":10607,"Ġaff":10608,"sibilities":10609,"plus":10610,"åľ¨è¿ĻéĩĮåºĶè¯ĳä¸º":10611,"èĢĮä¸įæĺ¯çĽ´è¯ĳä¸º":10612,"ouse":10613,"econd":10614,"åı¯èĥ½ä¼ļçĶ¨":10615,"Ġperpetuates":10616,"Ġplay":10617,"æĺ¯ä¸Ģä¸ªæĿ¡ä»¶åı¥":10618,"äºĮèĢħ":10619,"èµĦæľ¬ç§¯ç´¯":10620,"elfare":10621,"Ġcriticism":10622,"ä»¿çĶŁ":10623,"æ²¡æľīçī¹åĪ«è¯´æĺİ":10624,"ç¡®ä¿Ŀè¯»èĢħèĥ½":10625,"obsolete":10626,"æģĴæĺŁ":10627,"è¸ª":10628,"å¾·éĽ·åħĭ":10629,"Psych":10630,"due":10631,"ners":10632,"æĹ§":10633,"edag":10634,"Ġfil":10635,"Ġrecor":10636,"è¿Ļåı¥è¯Ŀå¯¹æ¯ĶäºĨ":10637,"åľ¨è¿ĻéĩĮåı¯ä»¥è¯ĳä¸º":10638,"å¹¶ç¡®ä¿Ŀ":10639,"è¿ŀéĶģ":10640,"å·²ç»ıæĺ¯ä¸Ģä¸ª":10641,"view":10642,"virtue":10643,"æĪĳè¦ģä»Ķç»Ĩéĺħè¯»":10644,"ç»´å¤ļåĪ©äºļæĹ¶æľŁ":10645,"æĪĳä¸įèĥ½åĽŀçŃĶåħ¶ä»ĸéĹ®é¢ĺ":10646,"æµªæ¼«":10647,"systemic":10648,"åħĪäºİæľ¬è´¨":10649,"critique":10650,"Ġscholarship":10651,"ä¸ŃæĸĩçļĦç»ĵæŀĦåĴĮèĭ±æĸĩä¸įåĲĮ":10652,"çļĦæıĲåįĩ":10653,"Ġpe":10654,"åĪĨå·¥":10655,"ä¼łè¾¾åİŁæĦı":10656,"éĩįå»º":10657,"ä»£è¡¨":10658,"Ġdepletion":10659,"optical":10660,"åĵ²åŃ¦æ¦Ĥå¿µ":10661,"æĦıè¯ĨçłĶç©¶":10662,"äººç±»æĦıè¯Ĩ":10663,"åĲİæ®ĸæ°ĳæĸĩåŃ¦ä¸ŃçļĦéŃĶå¹»çİ°å®ŀä¸»ä¹ī":10664,"demand":10665,"äººåı£ç»ĵæŀĦ":10666,"electron":10667,"Ġconflict":10668,"è¿Ļåı¥èĭ±æĸĩç¿»è¯ĳæĪĲä¸Ńæĸĩ":10669,"Ġmixing":10670,"éģ¿åħįçĽ´è¯ĳéĢłæĪĲçļĦçĶŁç¡¬":10671,"'m":10672,"sec":10673,"çļĦéĢŁåº¦":10674,"æľ¯è¯Ńä¸Ń":10675,"ä¸Ģèµ·":10676,"æľĢä½³":10677,"terrestrial":10678,"è¯»ä¸Ģéģį":10679,"äººæĭ©":10680,"odynamics":10681,"è¿ĺè¦ģæ³¨æĦıä¸ĵä¸ļæľ¯è¯ŃçļĦæŃ£ç¡®ä½¿çĶ¨":10682,"è¶ħæĸĩæľ¬":10683,"çİ¯å¢ĥåĽłç´ł":10684,"äºļåİŁåŃĲ":10685,"éģĵå¾·çī¹æ®Ĭ":10686,"ä¸¤ä¸ªéĥ¨åĪĨ":10687,"bio":10688,"Ġvalley":10689,"Ġsynaptic":10690,"å®ĥä»¬åľ¨":10691,"æŀĦæĪĲæĮĳæĪĺ":10692,"è¿Ļæł·ç¿»è¯ĳåºĶè¯¥":10693,"Ġindigenous":10694,"çĶ¨æĪ·åı¯èĥ½çļĦéľĢæ±Ĥ":10695,"æĪĳéľĢè¦ģä»Ķç»Ĩéĺħè¯»çĶ¨æĪ·æıĲä¾ĽçļĦèĭ±æĸĩåı¥åŃĲ":10696,"organic":10697,"è±¡å¾ģæĢ§":10698,"çīĽé¡¿çī©çĲĨåŃ¦":10699,"imalist":10700,"æģĲæĢĸ":10701,"åľ¨çİ¯å¢ĥç§ĳåŃ¦":10702,"è¿ĻéĩĮåºĶè¯¥":10703,"æ¯Ķå¦Ĥç¡®è®¤":10704,"Ġmeg":10705,"urn":10706,"ä½ĨåİŁåı¥çļĦç»ĵæŀĦ":10707,"æ¼Ĥ":10708,"åĨįçľĭ":10709,"ç»ĵæŀľçļĦ":10710,"æŃ£å¼ıç¨ĭåº¦":10711,"è¿ĻäºĽéĥ¨åĪĨ":10712,"æİ¥ä¸ĭæĿ¥æĺ¯åı¥åŃĲç»ĵæŀĦ":10713,"æ´ĭæµģ":10714,"çī¹åĪ«æĺ¯åħ³äºİ":10715,"å°½ç®¡åŃĺåľ¨":10716,"åıįé¦ĪæľºåĪ¶":10717,"ä¸įä»ħåĩĨç¡®":10718,"Ġemergence":10719,"å¾®çĶŁçī©ç»Ħ":10720,"è¿Ļåı¥è¯ĿçļĦç»ĵæŀĦåĴĮåĲ«ä¹ī":10721,"amaterials":10722,"æ¦ĤçİĩæĢ§":10723,"è¡¨ç¤ºåģĩè®¾çļĦæĥħåĨµ":10724,"åıĳçĶŁæĢİæł·çļĦåıĺåĮĸ":10725,"åıĳçĶŁæĢİæł·çļĦè½¬åıĺ":10726,"ç¿»è¯ĳä¸įä»ħåĩĨç¡®":10727,"éĿŀæ¬§åĩłä½ķ":10728,"reakthrough":10729,"çĿ¡çľł":10730,"åĨ¶éĩĳ":10731,"utilitarian":10732,"Ġclimatic":10733,"Ġmathematical":10734,"åıªåģļ":10735,"ç«Ń":10736,"ç²¾å¯Ĩ":10737,"è¿ĺè¦ģèĢĥèĻĳçĶ¨æĪ·åı¯èĥ½çļĦèĥĮæĻ¯":10738,"æĢİä¹Ī":10739,"Ġengineered":10740,"åĲ¬èµ·æĿ¥æĽ´èĩªçĦ¶":10741,"åľ°ç¼ĺæĶ¿æ²»åĲİæŀľ":10742,"ä¼Ĭå¾·":10743,"correlate":10744,"å¼Ĺæ´Ľ":10745,"æŃ»äº¡":10746,"frameworks":10747,"Ni":10748,"gic":10749,"çĴ":10750,"åĩĨåĪĻ":10751,"æĦıè¯ĳ":10752,"æĦıå¤ĸ":10753,"æĿ¥æºĲ":10754,"é¢ĨåŁŁéĢļå¸¸ç¿»è¯ĳä¸º":10755,"mentary":10756,"åŃ¦æľ¯æľ¯è¯Ń":10757,"æ´Ľåħĭ":10758,"ä¹Łæľī":10759,"ä¹Łæĺ¯æłĩåĩĨè¯ĳæ³ķ":10760,"chromatic":10761,"ä¸ĶåĩĨç¡®":10762,"Ġstress":10763,"æīĭåĬ¿":10764,"ä¸ŃæĸĩçļĦæĿ¡ä»¶åı¥":10765,"åĽºæľīçļĦ":10766,"ä¸ŃæĸĩéĢļå¸¸ä¼ļè¯´":10767,"ç¦»æķ£":10768,"åĩĨç¡®ç¿»è¯ĳæ¯ıä¸ªæľ¯è¯Ń":10769,"çļĦå½¢æĪĲè¿ĩç¨ĭ":10770,"Ġdistributed":10771,"è¯Ńåı¥éĢļé¡ºèĩªçĦ¶":10772,"èĩªåĬ¨åĮĸå¯¼èĩ´çļĦ":10773,"fully":10774,"Ġspecialization":10775,"Ġretreat":10776,"Ġcompetition":10777,"Ġuncertainty":10778,"æĪĳè¦ģç¡®ä¿Ŀç¿»è¯ĳåĩĨç¡®ä¼łè¾¾åİŁæĦı":10779,"çİ»çĴ":10780,"åī©ä½Ļ":10781,"Ġchromodynamics":10782,"çİ»çĴĥ":10783,"çļĦè¡Įä¸º":10784,"æľĿ":10785,"remain":10786,"åı¯èĥ½è¯ĳä¸º":10787,"åĬª":10788,"å¼¯":10789,"è¿ĻéĩĮåı¯èĥ½æĺ¯æĮĩ":10790,"æīĢä»¥è¿ĺæĺ¯":10791,"Ġdial":10792,"æĺ¯åĲ¦åºĶè¯ĳä¸º":10793,"ometh":10794,"æ£ĢæŁ¥æĺ¯åĲ¦ç¬¦åĲĪçĶ¨æĪ·çļĦæīĢæľīè¦ģæ±Ĥ":10795,"ç¡®è®¤æľ¯è¯ŃçļĦæŃ£ç¡®æĢ§":10796,"Ġhere":10797,"èĭı":10798,"æ¯ıä¸ªæľ¯è¯ŃçļĦåĩĨç¡®æĢ§":10799,"å¹¶è¦ģæ±Ĥç¿»è¯ĳæĪĲä¸Ńæĸĩ":10800,"å¯¹æ¯ĶåĴĮ":10801,"ä¸¤æŀģ":10802,"æķ°åŃĹå¹³åı°":10803,"æŁı":10804,"ä½łçļĦ":10805,"Ġinstitu":10806,"ä¸ŃæĸĩéĢļå¸¸ä¹łæĥ¯":10807,"ç´§æĢ¥":10808,"æº¶èļĢ":10809,"è¿Ļåı¥è¯ĿçļĦç»ĵæŀĦåĴĮæĦıæĢĿ":10810,"æĪĳéľĢè¦ģä»Ķç»ĨåĪĨæŀĲåİŁåı¥çļĦç»ĵæŀĦåĴĮ":10811,"ç¨įæĺ¾":10812,"Ġintegrity":10813,"ç¡®ä¿Ŀè¯»èĢħèĥ½å¤Ł":10814,"Ġeducation":10815,"çĶŁçī©æłĩå¿Ĺçī©":10816,"å¯ĨéĴ¥åĪĨåıĳ":10817,"omething":10818,"deconstructs":10819,"æĮ¥":10820,"ä¸įä½¿çĶ¨":10821,"æĺ¯åĲ¦ç¬¦åĲĪä¸Ńæĸĩ":10822,"ä¸Ģæł·":10823,"emerge":10824,"åı¯èĥ½éľĢè¦ģä½¿çĶ¨":10825,"æĬĢæľ¯ä¸ĬçļĦ":10826,"Ġgig":10827,"impro":10828,"perpetuates":10829,"åĽłæŃ¤ä½¿çĶ¨":10830,"åİŁåı¥ä¸ŃçļĦåĽłæŀľåħ³ç³»":10831,"åĲĪéĢĤçļĦä½įç½®":10832,"Ġtransformation":10833,"éĽĨçº¦":10834,"çĹĩ":10835,"èĬĤçĤ¹":10836,"éĢļçĶ¨äººå·¥æĻºèĥ½":10837,"æĶ¿åºľå¹²é¢Ħ":10838,"personal":10839,"ä¸įåı¯éĿłåıĻè¿°èĢħ":10840,"reakthroughs":10841,"sustain":10842,"çļĦåĨľä¸ļ":10843,"tial":10844,"åĲİäººç±»ä¸»ä¹ī":10845,"è¿ĻéĩĮåı¯èĥ½éľĢè¦ģè°ĥæķ´è¯Ńåºı":10846,"Ġskill":10847,"Ġrep":10848,"åĬ¨æľº":10849,"unity":10850,"ritical":10851,"Ġglacial":10852,"åį³éĢĿ":10853,"çłĶåıĳ":10854,"è¯Ńè¨ĢçĽ¸å¯¹è®º":10855,"è¡¨çİ°æīĭæ³ķ":10856,"Ġè¿Ļåı¥è¯ĿçļĦ":10857,"ç»¼åĲĪä»¥ä¸ĬåĩłçĤ¹":10858,"åĲİèĢħæĽ´ç®Ģæ´ģ":10859,"crim":10860,"artesian":10861,"Ġfunctions":10862,"increased":10863,"ä¸įéľĢè¦ģçī¹åĪ«è°ĥæķ´":10864,"å¹»çģŃæĦŁ":10865,"Ġconfigurations":10866,"å¼Ĺæ´Ľä¼Ĭå¾·":10867,"should":10868,"significant":10869,"ese":10870,"éľĢè¦ģçī¹åĪ«":10871,"icacy":10872,"æĺ¯åĲ¦å®Įæķ´":10873,"Ġthermal":10874,"å®ļçļĦ":10875,"Ġgases":10876,"Ġlogical":10877,"å¯¼åĲĳ":10878,"ä»»ä½ķé¢Ŀå¤ĸåĨħå®¹":10879,"äºĭçī©":10880,"å»ºè®®":10881,"Ġtransplantation":10882,"plicating":10883,"åħ¬æ°ĳ":10884,"å¾ĹåĪ°ä¸Ģä¸ª":10885,"evolutionary":10886,"æĭľåįłåºŃåľ£åĥı":10887,"æĬĺå°Ħåĩº":10888,"æīĢæľīåħ³éĶ®çĤ¹éĥ½å·²":10889,"Ġgeometries":10890,"Ġresponse":10891,"ç«ĭä½ĵä¸»ä¹īå¯¹":10892,"æ½ľåľ¨çļĦ":10893,"éĿŀæ¬§åĩłéĩĮå¾Ĺ":10894,"æ¬§äºļå¤§éĻĨ":10895,"proportionately":10896,"äººæĭ©åİŁçĲĨ":10897,"èĢĲ":10898,"anthrop":10899,"æĽ´åģıåĲĳäºİ":10900,"Ġtemporally":10901,"åİŁæľī":10902,"ittle":10903,"çĦ¶åĲİè¯´æĺİ":10904,"å¦Ĥä½ķæĶ¹åıĺ":10905,"äº§æĿĥ":10906,"æł¼å°Ķ":10907,"å¹²æ¶ī":10908,"ç»´æĬ¤":10909,"ĠEarth":10910,"å¼łåĬĽ":10911,"è®¤è¯Ĩè®ºæ¡Ĩæŀ¶":10912,"å°ģéĹŃ":10913,"è®©è¯»èĢħå®¹æĺĵçĲĨè§£":10914,"äººä»¬å¯¹":10915,"Ġcrust":10916,"Ġauthentication":10917,"Ġblending":10918,"Ġmercantilist":10919,"processes":10920,"æīĢä»¥åĲĪèµ·æĿ¥æĺ¯":10921,"æ¸©åº¦åĴĮçĽĲåº¦":10922,"He":10923,"behavioral":10924,"iqu":10925,"èķ":10926,"Ġ19":10927,"tig":10928,"Ġtemper":10929,"çİ°æĪĲ":10930,"employs":10931,"æİ¥ä¸ĭæĿ¥è¦ģæ³¨æĦı":10932,"Ġrequires":10933,"åĲĮæĹ¶æ»¡è¶³":10934,"ç¡®è®¤æĹłè¯¯":10935,"æĬĢæľ¯æĪĸ":10936,"loop":10937,"å¤§éĥ½å¸Ĥ":10938,"ç¥ŀç»ıè°ĥæİ§":10939,"æĪĳçİ°åľ¨éľĢè¦ģå¤ĦçĲĨçĶ¨æĪ·æıĲä¾ĽçļĦ":10940,"éķ¿çļĦ":10941,"ç½ĳç»ľæķĪåºĶ":10942,"æľīæĹ¶ä¹Ł":10943,"å®ĮæĪĲè¿ĻäºĽæŃ¥éª¤":10944,"èĦĳæľºæİ¥åı£å®ŀçİ°":10945,"Ġintegrates":10946,"Ġcommercially":10947,"åľ¨ä¸Ńæĸĩç§ĳæĬĢæĸĩçĮ®ä¸Ń":10948,"Ġquestions":10949,"å®ĮæĪĲè¿ĻäºĽæŃ¥éª¤åĲİ":10950,"15":10951,"ä¸Ńæľīçī¹å®ļ":10952,"ç¬¦åĲĪçĶ¨æĪ·çļĦ":10953,"ä½Ĩè¿Ļæł·":10954,"Ġactivation":10955,"optim":10956,"è¿ĺè¦ģæ³¨æĦıæµģçķħæĢ§åĴĮèĩªçĦ¶æĢ§":10957,"çĽ¸åħ³èµĦæĸĻ":10958,"versal":10959,"æĬ¥å¤į":10960,"ä½ĨèĢĥèĻĳåĪ°ä¸Ĭä¸ĭæĸĩ":10961,"å§¿":10962,"Ġsimulations":10963,"åįģåĽĽ":10964,"æĮĩæķ°çº§å¢ŀéķ¿":10965,"Ġrationality":10966,"åľ¨è¿ĻéĩĮè¡¨ç¤ºå¯¹æ¯Ķ":10967,"æ¨¡ä»¿çĶŁçī©ç¥ŀç»ıç½ĳç»ľ":10968,"é»ĳæ´ŀ":10969,"ç¢³æįķèİ·":10970,"eleological":10971,"Ġarcs":10972,"ae":10973,"between":10974,"liter":10975,"necessitate":10976,"çļĦè¯ĳåĲį":10977,"åı¯éĿł":10978,"Ġcrop":10979,"éĢĤçĶ¨äºİ":10980,"ç¡®ä¿Ŀæ¯ıä¸ªéĥ¨åĪĨéĥ½":10981,"Ġshape":10982,"character":10983,"trait":10984,"trade":10985,"æľĢç»Īç¿»è¯ĳåı¯èĥ½æĺ¯":10986,"ä½Ĩæł¹æį®çĶ¨æĪ·çļĦè¦ģæ±Ĥ":10987,"æĪĳè¦ģä»Ķç»ĨåĪĨæŀĲ":10988,"ä½¿åı¥åŃĲæĽ´è¿ŀè´¯":10989,"Ġecosystem":10990,"æīĢä»¥åı¯èĥ½éľĢè¦ģä¿ĿçķĻ":10991,"prioritized":10992,"è®©ä¸Ńæĸĩè¯»èµ·æĿ¥èĩªçĦ¶":10993,"contrasting":10994,"çĶµç£ģæ³¢æĵįæİ§":10995,"ĠKantian":10996,"çĪ±å¥½":10997,"åĶ¯çī©":10998,"éĢīæĭ©æĢ§åĨħå®¹":10999,"éĽĨæĪĲçĶµè·¯":11000,"oceanic":11001,".âĢĿï¼Į":11002,"Glacial":11003,"ativistic":11004,"tes":11005,"Ġkey":11006,"invasive":11007,"ç¬¦åĲĪç§ĳæĬĢ":11008,"äººåĬĽ":11009,"Ġhapp":11010,"Ġtheological":11011,"çĽ¸ç»ĵåĲĪ":11012,"ç§ĳçłĶ":11013,"åı¦ä¸Ģä¸ª":11014,"åħ¨ç§°":11015,"çĸĳéĹ®åı¥ç»ĵæŀĦ":11016,"åľ¨ä¸ŃæĸĩéĩĮæĺ¯":11017,"æĸŃè£Ĥ":11018,"é©¬å°Ķ":11019,"å¿ħé¡»åĩĨç¡®æĹłè¯¯":11020,"æĢİæł·çļĦå½±åĵį":11021,"æ¤įåħ¥":11022,"design":11023,"åľ¨åŃ¦æľ¯æĸĩçĮ®ä¸Ń":11024,"åĳ¨æľŁæĢ§":11025,"Ġplanetary":11026,"ä¿®é¥°è¯ŃæĶ¾åľ¨åīįéĿ¢":11027,"éģĵå¾·çī¹æ®Ĭä¸»ä¹ī":11028,"è¿Ķ":11029,"erver":11030,"æ¯Ķè¾ĥåĪĨæŀĲ":11031,"è¯Ŀé¢ĺ":11032,"ä¸ĵä¸ļæľ¯è¯Ńæĺ¯åĲ¦åĩĨç¡®":11033,"Ġhar":11034,"uch":11035,"åŃ¦æľ¯æĢ§çļĦ":11036,"idi":11037,"play":11038,"ç¡®å®ļä¸ĵä¸ļé¢ĨåŁŁ":11039,"ç»ıæµİåŃ¦åĴĮ":11040,"Ġappli":11041,"ä½ĵç³»çļĦ":11042,"ä¸ĸçºªä¸Ń":11043,"complete":11044,"å¾ĹåĪ°å¹¿æ³ĽåºĶçĶ¨":11045,"æĥħæĦŁå¼ºåº¦":11046,"ä¼ļå¦Ĥä½ķæĶ¹åıĺ":11047,"ç¼©çŁŃ":11048,"æķ´ä¸ªåı¥åŃĲçļĦéĢ»è¾ĳåħ³ç³»":11049,"çļĦä¸įåĲĮä¹ĭå¤Ħ":11050,"èĨ¨èĥĢæ¨¡åŀĭ":11051,"æĸĩçĮ®ä¸ŃçļĦå¸¸çĶ¨è¯ĳæ³ķ":11052,"Ġmetaph":11053,"Ġincorporates":11054,"Ġabsorption":11055,"åħīè°±åŃ¦":11056,"åľ¨åħ¨çĲĥèĮĥåĽ´åĨħå®ŀæĸ½":11057,"Ġentities":11058,"reflect":11059,"æ²īæµ¸å¼ı":11060,"Ġdatas":11061,"çĪ±å¥½èĢħ":11062,"mitig":11063,"ĠæĪĳéľĢè¦ģä»Ķç»ĨåĪĨæŀĲ":11064,"éľĢè¦ģæł¹æį®ä¸Ĭä¸ĭæĸĩåĪ¤æĸŃ":11065,"antimatter":11066,"æĹģ":11067,"çĶ¨æĪ·éĹ®çļĦæĺ¯":11068,"çī§":11069,"æ¯Ķè¾ĥå¤įæĿĤ":11070,"etermin":11071,"åĲĮæĹ¶æ³¨æĦı":11072,"å¼ºåĪ¶":11073,"oding":11074,"è¡Įè¯Ĺ":11075,"è¿Ľåħ¥":11076,"åĽłä¸ºæ¶īåıĬåĪ°":11077,"forms":11078,"éľĢè¦ģç¡®ä¿Ŀè¿ĻäºĽæľ¯è¯Ńåľ¨ä¸Ńæĸĩä¸Ń":11079,"åİĨåı²äºĭä»¶":11080,"çĽ®åīį":11081,"æĺ¯ä¸Ģä¸ªçĸĳéĹ®åı¥":11082,"äº§çĶŁåĵªäºĽ":11083,"è·¨è¶Ĭ":11084,"computational":11085,"éĢĢç¼©":11086,"ä¹īåĬ¡è®ºæ¡Ĩæŀ¶":11087,"æĿĥåĬĽåĬ¨æĢģ":11088,"æĭľåįłåºŃé©¬èµĽåħĭ":11089,"ä¸Ģåı¥èĭ±æĸĩç¿»è¯ĳæĪĲä¸Ńæĸĩ":11090,"Ġfacilitate":11091,"Ġmitigate":11092,"slamic":11093,"å¤ļæĻ®åĭĴæķĪåºĶ":11094,"åįģåĽĽè¡Įè¯Ĺ":11095,"greg":11096,"æĪ´":11097,"ä¸Ńå¾Īå¸¸è§ģ":11098,"ç»ĵæŀĦä¹Ł":11099,"ä¸ĭä½¿çĶ¨":11100,"æĺ¯åĲ¦è¢«æŃ£ç¡®":11101,"ä½Ĩä½ľä¸º":11102,"è¿Ļæł·æĽ´ç¬¦åĲĪ":11103,"Ġexternal":11104,"Ġinterface":11105,"åĿį":11106,"Ġbiom":11107,"è¯Ńæ³ķæĺ¯åĲ¦æŃ£ç¡®":11108,"ä¸ŃåĽ½å®¶":11109,"æķ´ä¸ªåı¥åŃĲç»ĵæŀĦæĺ¯åĲ¦éĢļé¡º":11110,"åĽ´ç»ķ":11111,"åĮĸåŃ¦é£İåĮĸ":11112,"æįŁèĢĹ":11113,"Ġmetaphysical":11114,"increasing":11115,"minist":11116,"æĿ¿åĿĹæŀĦéĢłçĲĨè®º":11117,"æµģè¡ĮçĹħ":11118,"åıĪç¬¦åĲĪä¸Ńæĸĩè¡¨è¾¾ä¹łæĥ¯åĴĮä¸ĵä¸ļæľ¯è¯ŃçļĦä½¿çĶ¨":11119,"åŃ¤ç«ĭ":11120,"çļĦåİŁåĽł":11121,"ç¬¦åĲĪæīĢæľī":11122,"Ġbene":11123,"çĽ´æİ¥çĶ¨":11124,"èĭ±æĸĩæľīæīĢä¸įåĲĮ":11125,"ç¥ŀç»ıåĽŀè·¯":11126,"æĹ¶éĹ´çļĦ":11127,"è¡Įä¸ºçļĦ":11128,"ä¸Ńæĸĩè¡¨è¾¾æĹ¶":11129,"Ġdevelopments":11130,"æľĢç»ĪçļĦç¿»è¯ĳåºĶè¯¥æĺ¯åĩĨç¡®":11131,"ä¼¦çĲĨåŃ¦ä¸ŃçļĦ":11132,"æľīæ²¡æľīåı¯èĥ½çĶ¨æĪ·éľĢè¦ģ":11133,"æĬ¥éģĵ":11134,"è¶ĬæĿ¥":11135,"Ġartists":11136,"éĩİåħ½":11137,"Ġcategorical":11138,"Ġbalance":11139,"å°¼éĩĩçļĦ":11140,"Ġprice":11141,"åľ¨çĶŁæĢģ":11142,"åı¯èĥ½åĮħæĭ¬":11143,"èĩªæ²»":11144,"èĢĮæĺ¯æĮĩ":11145,"Ġwidely":11146,"äº§éĩı":11147,"åģĩè®¾åĴĮ":11148,"è®¤çŁ¥ç§ĳåŃ¦":11149,"å°Ķå¤«":11150,"ä¼°åĢ¼":11151,"Ġconsequence":11152,"ç´§è¿«":11153,"åłĤ":11154,"åİ»ä¸Ńå¿ĥåĮĸçļĦ":11155,"Plate":11156,"åĲİéĿ¢è·ŁçĿĢ":11157,"Ġentire":11158,"ç»¿èī²":11159,"uments":11160,"alization":11161,"ç¬¦åĲĪä¹łæĥ¯":11162,"è¿ĻéĩĮåı¯èĥ½æĽ´åĢ¾åĲĳäºİ":11163,"è¾ĥå°ĳ":11164,"assive":11165,"å¥ı":11166,"è¿Ļæł·è¯»èµ·æĿ¥èĩªçĦ¶":11167,"å¦Ĥä½ķæĶ¹åıĺäºĨ":11168,"istol":11169,"perpetuate":11170,"è¯ĨåŃĹ":11171,"è¢«æµĭéĩı":11172,"ä¸ŃæĸĩéĩĮä¹łæĥ¯":11173,"æĹ¶éĹ´æĪĸ":11174,"ä»Ķç»Ĩéĺħè¯»åİŁåı¥":11175,"Ġuniversally":11176,"æķ°åŃĹåªĴä½ĵ":11177,"åİ»æİī":11178,"åĢ¾åĲĳ":11179,"æĦıä¹īçļĦ":11180,"Ġconsequentialist":11181,"ç´§å¼ł":11182,"è¾ĵåħ¥çļĦ":11183,"Ġautonomy":11184,"å¸ĮèħĬåĮĸ":11185,"Ġimperative":11186,"çıĬ":11187,"Ġlayered":11188,"æ·±å±ĤéľĢæ±Ĥåı¯èĥ½æĺ¯":11189,"åĵ¥çī¹å¼ı":11190,"å®ŀéªĮå®¤åŁ¹èĤ²":11191,"å¾·éĽ·åħĭæĸ¹ç¨ĭ":11192,"åıªåģļç¿»è¯ĳ":11193,"Ļçĥ¯":11194,"çĶ°":11195,"æ¯Ķä¼łç»Ł":11196,"æĽ´å¼º":11197,"Ġcertain":11198,"Ġmul":11199,"Ġmelting":11200,"éĹ»":11201,"æľĢåĲĪéĢĤçļĦç¿»è¯ĳ":11202,"Ġwelfare":11203,"éĹ®é¢ĺçļĦ":11204,"Ġnutri":11205,"åĢį":11206,"ose":11207,"ä¹ĭå¤ĸ":11208,"color":11209,"Ġseamless":11210,"Ġobservation":11211,"Ġè¿Ļåı¥è¯Ŀæ¶īåıĬåĪ°":11212,"distinc":11213,"çľģçķ¥åı·":11214,"Ġbeliefs":11215,"å¥ĩå¹»åħĥç´ł":11216,"æµ·å¹³éĿ¢ä¸Ĭåįĩ":11217,"istolary":11218,"warm":11219,"zy":11220,"ä¸Ńæľī":11221,"ä¸įç¨³å®ļæĢ§":11222,"åĽŃ":11223,"Ġsm":11224,"éģŃ":11225,"etz":11226,"legal":11227,"une":11228,"Ġgain":11229,"Ġexascale":11230,"èīºæľ¯é¢ĨåŁŁçļĦæľ¯è¯Ń":11231,"rectional":11232,"æĪĳè¦ģçĲĨè§£åİŁæĸĩçļĦæĦıæĢĿ":11233,"è¿Ļä¸Ģæľ¯è¯Ń":11234,"spect":11235,"Ġvalues":11236,"ä½ĨèĢĥèĻĳåĪ°åŃ¦æľ¯è¯Ńå¢ĥ":11237,"ä¸īä¸ª":11238,"è½¬æį¢æĪĲ":11239,"Ġbasins":11240,"èĢĮä¸įæĺ¯åħ¶ä»ĸåı¯èĥ½çļĦè¯ĳæ³ķ":11241,"æĽ´è´´è¿ĳåİŁæĦı":11242,"Ġperiods":11243,"å¸¸è¢«è¯ĳä¸º":11244,"Ġpredictions":11245,"åĳĪæĮĩæķ°çº§å¢ŀéķ¿":11246,"è¿ĻéĩĮæľīåĩłä¸ªåħ³éĶ®æľ¯è¯Ń":11247,"ä¹ĭåīįçļĦä¾ĭåŃĲ":11248,"manipulate":11249,"æĽ´ç¬¦åĲĪä¹¦éĿ¢è¯Ń":11250,"ç¡®ä¿Ŀå®Įåħ¨çĲĨè§£":11251,"åı¯ä»¥æİ¥åıĹçļĦ":11252,"åŁºäºİCRISPRçļĦåŁºåĽłé©±åĬ¨æĬĢæľ¯":11253,"Ġagainst":11254,"atalyzed":11255,"Trans":11256,"molecular":11257,"individual":11258,"éĢ¼":11259,"éĩĮå¥¥":11260,"ç¡®ä¿Ŀä¸ĵä¸ļæľ¯è¯ŃåĩĨç¡®":11261,"æīĢä»¥éľĢè¦ģè°ĥæķ´è¯Ńåºı":11262,"å¸¸çĶ¨è¯Ń":11263,"geopolitical":11264,"åİŁåı¥æĺ¯æĿ¡ä»¶çĬ¶è¯Ńä»İåı¥":11265,"äºĭæĥħ":11266,"ç²ĺ":11267,"åıĳå±ķä¸ŃåĽ½å®¶":11268,"ç¡®å®ŀè¯ĳä¸º":11269,"creating":11270,"æĸĩåĮĸéĢĤåºĶæĢ§åĴĮä¸ĵä¸ļæľ¯è¯ŃçļĦæŃ£ç¡®ä½¿çĶ¨":11271,"æ²¡æľīéģĹæ¼ıæĪĸæĽ²è§£":11272,"åĲ¯èĴĻæĢĿæĥ³":11273,"è¿ľç¨ĭ":11274,"Ġmanifest":11275,"è¯¾ç¨ĭ":11276,"åĮħåĲ«åľ¨åĨħ":11277,"crimination":11278,"å§¿æĢģ":11279,"etzsch":11280,"dge":11281,"fers":11282,"åŃ£":11283,"Ġmapping":11284,"èµ«":11285,"è¿Ļæł·æĽ´ç®Ģæ´ģ":11286,"åĲĮæĹ¶ä¹Ł":11287,"ä¹Łå¾Īéĩįè¦ģ":11288,"geological":11289,"éĩıåŃĲå¼ķåĬĽ":11290,"æĸĩåŃ¦ä½ľåĵģ":11291,"å®ĩå®ĻèĨ¨èĥĢæ¨¡åŀĭ":11292,"Ġexpand":11293,"ä¹Łæĺ¯å¸¸è§ģ":11294,"å®īåħ¨æĢ§":11295,"ä¸įä¼ļæľīéĹ®é¢ĺ":11296,"éĢĴå½Ĵ":11297,"æ·±åº¦åŃ¦ä¹ł":11298,"Ġclassi":11299,"ç¬¬äºĮç§į":11300,"ceeding":11301,"éĩİåħ½æ´¾":11302,"Aä¸İB":11303,"data":11304,"rors":11305,"æľĪ":11306,"ç¬¦åĲĪæĸĩåĮĸä¹łæĥ¯":11307,"æĪĳçŁ¥éģĵ":11308,"æ²¡æľīçĽ´è¯ĳçļĦçĹķè¿¹":11309,"Ġreplace":11310,"resource":11311,"çĲĨè®ºä¸ŃçļĦ":11312,"è¯»èĢħçĲĨè§£":11313,"çĶŁçī©çī¹å¾ģ":11314,"ransist":11315,"Ġdiscrimination":11316,"èĢĥèĻĳåĪ°åŃ¦æľ¯è¯Ńå¢ĥ":11317,"æĪĳéľĢè¦ģç¡®ä¿Ŀæľ¯è¯ŃåĩĨç¡®":11318,"Ġeconomically":11319,"Ġmanipulate":11320,"æīĢä»¥å¿ħé¡»ç¡®ä¿Ŀç¿»è¯ĳç»ĵæŀľ":11321,"çĦ¶åĲİè¦ģç¡®ä¿Ŀåı¥åŃĲçļĦæµģçķħæĢ§":11322,"æľºæ¢°åĮĸ":11323,"textuality":11324,"ç¡®ä¿Ŀæ²¡æľīæ·»åĬłé¢Ŀå¤ĸåĨħå®¹":11325,"èĩªåĬ¨é©¾é©¶æ±½è½¦":11326,"hield":11327,"Ġinstitutions":11328,"è¶ĬæĿ¥è¶Ĭ":11329,"tl":11330,"utive":11331,"æĺ¯ç»ıæµİåŃ¦ä¸ŃçļĦ":11332,"rever":11333,"Ġful":11334,"åĩºäºĨ":11335,"å¦ĤæŀľçĽ´è¯ĳ":11336,"èīºæľ¯çļĦ":11337,"agreements":11338,"Ġimag":11339,"æŁĶ":11340,"çĦ¶åĲİèĢĥèĻĳæĸĩåĮĸéĢĤåºĶæĢ§":11341,"Ġseques":11342,"å·¥ä½ľèĢħ":11343,"çļĦè¯´æ³ķæĺ¯":11344,"æīĢä»¥ä¸įéľĢè¦ģè°ĥæķ´":11345,"æİ¢è®¨çļĦæĺ¯":11346,"generate":11347,"æīĵåį°":11348,"Ġprogression":11349,"åĩĿèģļåĬĽ":11350,"å²Ĺä½įæµģå¤±":11351,"Ġoriginal":11352,"po":11353,"æľīä»Ģä¹Ī":11354,"åİŁåĪĽ":11355,"è§£æŀĲ":11356,"è¿Ļæł·çļĦè¯įæ±ĩ":11357,"åİŁæĦıæĺ¯":11358,"applications":11359,"Ġsty":11360,"è¯»èµ·æĿ¥éĢļé¡º":11361,"iteria":11362,"éģĵå¾·åĨ³çŃĸ":11363,"è¿Ļä¸Ģæ¦Ĥå¿µ":11364,"ä½¿åı¥åŃĲè¯»èµ·æĿ¥èĩªçĦ¶":11365,"ä¸»å¯¼çļĦ":11366,"Ġgravity":11367,"æĳĩ":11368,"ä¸Ńä½¿çĶ¨è¿Ļåı¥è¯Ŀ":11369,"éĩıåŃĲåĬĽåŃ¦ä¸ŃçļĦ":11370,"çĦ¶åĲİè¦ģæ£ĢæŁ¥åı¥åŃĲçļĦæµģçķħæĢ§":11371,"è¾©è®º":11372,"æħ¢":11373,"éļ§ç©¿":11374,"æµªæ¼«ä¸»ä¹ī":11375,"central":11376,"sk":11377,"æĺ¯ä¸Ģç§į":11378,"æīĢä»¥ç¿»è¯ĳæĹ¶è¦ģç¡®ä¿Ŀ":11379,"åĴĮè¡¨è¾¾æĸ¹å¼ı":11380,"Ġsomething":11381,"Ġinde":11382,"æĭ¼":11383,"iring":11384,"çĶŁçī©åĮ»åŃ¦":11385,"åıªä¼ļ":11386,"æºĲèĩª":11387,"é¢Ŀå¤ĸçļĦè§£éĩĬæĪĸè¯´æĺİ":11388,"Ġcontr":11389,"antastical":11390,"çĶ¨æĪ·åı¯èĥ½å¸ĮæľĽç¿»è¯ĳç»ĵæŀľ":11391,"æ¿Ģåħī":11392,"Ġassimilation":11393,"Ġalgorithm":11394,"æ£ĢæŁ¥æĺ¯åĲ¦æľīéģĹæ¼ıæĪĸä¿¡æģ¯":11395,"ä¸Ńæĸĩç»ĵæŀĦåı¯èĥ½éľĢè¦ģè°ĥæķ´":11396,"Ġedge":11397,"åĲİçİ°ä»£ä¸»ä¹īæĸĩåŃ¦":11398,"artistic":11399,"å¹¶ä¸Ķæľīè¯¦ç»ĨçļĦç¿»è¯ĳè¦ģæ±Ĥ":11400,"wavelength":11401,"å§Ķæīĺ":11402,"éļĲèº«è£ħç½®":11403,"Ġstabilization":11404,"Ġinitiatives":11405,"è´Ńä¹°åĬĽ":11406,"å¼¯æĽ²":11407,"sugges":11408,"ually":11409,"çļĦæŃ£ç¡®":11410,"aters":11411,"ä¸ŃçļĦä½ľçĶ¨":11412,"å¥ĸ":11413,"leep":11414,"çº¹":11415,"Ġprob":11416,"èĥ¶":11417,"ç²®é£Ł":11418,"Ġright":11419,"æ¬¢":11420,"èĤ¥":11421,"osphere":11422,"çĶŁæĢģç³»ç»ŁçļĦ":11423,"æĬĢæľ¯çļĦè¿ĽæŃ¥":11424,"æ¹ĸ":11425,"è¶ĭåĲĮ":11426,"åı¯èĥ½ä¸įå¤ŁåĩĨç¡®":11427,"æķ´åı¥è¯ĿçļĦç»ĵæŀĦ":11428,"æŃ£å¼ıåĴĮåĩĨç¡®":11429,"Ġorganizations":11430,"åĬªåĬĽ":11431,"diss":11432,"äºŁ":11433,"åĩĨç¡®å¤ĦçĲĨä¸ĵä¸ļæľ¯è¯Ń":11434,"çĶ¨æĪ·æĺ¯":11435,"èĩªèº«":11436,"å¤ĦçĲĨåĻ¨":11437,"Ġconfinement":11438,"reshape":11439,"çĥŃçĤ¹":11440,"çĶŁæĢģç³»ç»Łä¸Ń":11441,"Ġresponsibility":11442,"æľįåĬ¡ä¸ļ":11443,"Ġobjects":11444,"Ġobservations":11445,"Ġdiffusion":11446,"Ġgallery":11447,"è¡Ķæİ¥":11448,"GI":11449,"çļĦè¡°èĲ½":11450,"è¿Ļæ®µ":11451,"èĩªçĦ¶çļĦ":11452,"cientific":11453,"è¦ģç¡®ä¿Ŀç¿»è¯ĳåĩĨç¡®":11454,"å¤§ä¼Ĺ":11455,"utability":11456,"å¯¹æ¯ĶçļĦæĺ¯":11457,"èĢĥèĻĳåĪ°åŃ¦æľ¯":11458,"å¤±åİ»":11459,"ariff":11460,"âĢ¦âĢ¦ï¼ĮâĢ¦âĢ¦":11461,"Ġregional":11462,"æł¹æľ¬æĢ§å·®å¼Ĥ":11463,"æĪĳè¦ģç¡®ä¿ĿåĩĨç¡®çĲĨè§£åİŁæĸĩçļĦæĦıæĢĿ":11464,"çĽ®çļĦçĬ¶è¯Ń":11465,"åĢĴè£ħçļĦ":11466,"Ġtopological":11467,"Ġdominance":11468,"explains":11469,"olerance":11470,"Space":11471,"è®¤çŁ¥å¤±è°ĥçĲĨè®º":11472,"ç»ıéĻ¢åĵ²åŃ¦":11473,"è¿ĶåĽŀ":11474,"Just":11475,"uals":11476,"çļĦä¾Ŀèµĸ":11477,"æĺ¯èĻļæĭŁè¯Ńæ°Ķ":11478,"ä¸įåĨį":11479,"æµģçķħçļĦ":11480,"emi":11481,"éĿ¢å¯¹":11482,"ä¿ĿæĮģåİŁåı¥ç»ĵæŀĦ":11483,"æĭĽ":11484,"éĩıåŃĲå¯ĨéĴ¥åĪĨåıĳ":11485,"è¿ĻäºĽè¯įæ±ĩ":11486,"æĹ¶éĹ´æĦŁçŁ¥":11487,"åĲİéĿ¢çļĦéĥ¨åĪĨ":11488,"ermline":11489,"valu":11490,"ĠIoT":11491,"åįķä¸Ģ":11492,"æĭīåĽ¾":11493,"ä¸»åı¥æĺ¯çĸĳéĹ®åı¥":11494,"å±ıå¹ķ":11495,"éģĩåĪ°":11496,"æĴ°åĨĻ":11497,"æŁıæĭīåĽ¾":11498,"ç»ĵæĿŁ":11499,"Ġgame":11500,"è¾ĵéĢģ":11501,"ç§¯æŀģ":11502,"çº¿ç²Ĵ":11503,"æł¹æľ¬åĪĨæŃ§":11504,"åħ±ä»·":11505,"atis":11506,"vings":11507,"æľºæ¢°åĽ¢ç»ĵ":11508,"Ġcalci":11509,"when":11510,"accelerated":11511,"æĺ¾ç¤ºåĩº":11512,"Ġplanning":11513,"ĠTreaty":11514,"Ġmeasurements":11515,"Ġsuccess":11516,"åĿįç¼©":11517,"è¯ĨåŃĹçİĩ":11518,"çº¿ç²Ĵä½ĵ":11519,"holographic":11520,"strating":11521,"éĢļä¿Ĺ":11522,"æ²¡æľīé¢Ŀå¤ĸè§£éĩĬ":11523,"æ²¡æľīæ¼ıæİī":11524,"asure":11525,"çĲĨè§£æ¯ıä¸ªæľ¯è¯ŃåĴĮ":11526,"åı¯èĥ½éľĢè¦ģèĢĥèĻĳ":11527,"abolic":11528,"Ġproven":11529,"Ġlog":11530,"åľ¨ä¸Ńæĸĩè¯Ńå¢ĥä¸ĭ":11531,"Ġaction":11532,"åıªç»Ļåĩºç¿»è¯ĳç»ĵæŀľ":11533,"extr":11534,"ç¢°":11535,"éľĢè¦ģç¡®ä¿Ŀæľ¯è¯Ń":11536,"cept":11537,"æıĲåĩºæĮĳæĪĺ":11538,"æ³ķå¾ĭäººæł¼":11539,"æĹ¥å¸¸çĶ¨è¯Ń":11540,"useum":11541,"å±ħä½ı":11542,"Ġimperatives":11543,"photonic":11544,"å¿łå®ŀäºİåİŁæĦı":11545,"åľ°ä¸ĭæ°´":11546,"æ²Ļæ¼ł":11547,"åĮĸçŁ³çĩĥæĸĻ":11548,"æľīåĬ©äºİ":11549,"cyc":11550,"eres":11551,"è®¿":11552,"åľ¨åŃ¦æľ¯è¯Ńå¢ĥ":11553,"æľīåħ³":11554,"ä¸ŃçļĦæŃ£ç¡®æĢ§":11555,"Ġgains":11556,"æ¯ıä¸ªè¯įæ±ĩ":11557,"ossil":11558,"éĽħ":11559,"éĩĩåıĸ":11560,"è¿Ļç§įå¯¹æ¯Ķ":11561,"çķĮå®ļ":11562,"è¡¡éĩı":11563,"Ġyears":11564,"ç§»æ°ĳ":11565,"posing":11566,"subsequent":11567,"çĶ¨æĪ·å¼ºè°ĥç¿»è¯ĳ":11568,"æĥħæĦŁåħ±é¸£":11569,"ä¼ļå¦Ĥä½ķæ¼Ķåıĺ":11570,"æĬķå½±":11571,"åįļå¼Īè®ºæ¨¡åŀĭ":11572,"éĩįçĤ¹åľ¨äºİ":11573,"dividuals":11574,"æīĢä»¥ä¿ĿæĮģåİŁè¯ĳ":11575,"Ġparadoxes":11576,"Ġinequalities":11577,"Ġobjective":11578,"Ġtherapy":11579,"å·²ç»ıå¾Īæ¸ħæĻ°":11580,"åŃĹéĿ¢çļĦ":11581,"Ġfacilitated":11582,"olescence":11583,"Ġprogramming":11584,"radical":11585,"Ġstatus":11586,"Ġarguments":11587,"idirectional":11588,"lay":11589,"utiliz":11590,"eries":11591,"ä¸Ńæĸĩåı¯ä»¥çĶ¨":11592,"æĸĩåĮĸäº¤æµģ":11593,"cities":11594,"åŃ¦æľ¯é¢ĨåŁŁçļĦ":11595,"åĨįçľĭçľĭ":11596,"æĶ¾åľ¨åĲĪéĢĤçļĦä½įç½®":11597,"è½¬çŀ¬":11598,"uble":11599,"Ġneo":11600,"æķ°åŃĹçĽĳæİ§":11601,"ĠEuras":11602,"çĨµ":11603,"Ġinfluences":11604,"ç»¼åĲĪä»¥ä¸ĬèĢĥèĻĳ":11605,"åı¯èĥ½çļĦç¿»è¯ĳéĢīé¡¹":11606,"subjective":11607,"ä½ĨåİŁåı¥ç»ĵæŀĦ":11608,"Ġinstability":11609,"åľ¨æĸĩåŃ¦æī¹è¯Ħ":11610,"çļĦä¸Ńæĸĩæľ¯è¯Ń":11611,"éĽĨä¸Ńå¼ı":11612,"Ġcounterparts":11613,"Ġadjustment":11614,"è½¬çŀ¬åį³éĢĿ":11615,"Ġpur":11616,"æĿ¥æī§è¡Į":11617,"itation":11618,"Ġow":11619,"æĪĸèĢħçĽ´æİ¥":11620,"åĲĮæĹ¶è¦ģç¡®ä¿Ŀ":11621,"amm":11622,"Ġdisagreements":11623,"åĵªäºĽåĽłç´ł":11624,"å¡ĳæĸĻ":11625,"Ġcommons":11626,"relativistic":11627,"ä¸įéľĢè¦ģé¢Ŀå¤ĸè°ĥæķ´":11628,"å¯Ĩçłģç³»ç»Ł":11629,"ä¸ĵæľīåĲįè¯įçļĦæŃ£ç¡®ç¿»è¯ĳ":11630,"æĬķåħ¥":11631,"åĨįæ£ĢæŁ¥ä¸Ģä¸ĭä¸ĵä¸ļæľ¯è¯Ńæĺ¯åĲ¦æŃ£ç¡®":11632,"enhance":11633,"æĪĸèĢħæĺ¯åĲ¦éľĢè¦ģçĶ¨":11634,"ç§ĳæĻ®æĸĩç«ł":11635,"æ£®æŀĹçłįä¼Ĳ":11636,"å¥¥åľ°åĪ©åŃ¦æ´¾":11637,"Ġapplied":11638,"bal":11639,"marine":11640,"çļĦæ¨¡å¼ı":11641,"è¦ģè¯»èµ·æĿ¥èĩªçĦ¶":11642,"å¸Ī":11643,"Ġtun":11644,"Ġtropical":11645,"ori":11646,"Ġread":11647,"Ġhis":11648,"æıĲæ¡Ī":11649,"åĨħçĶŁ":11650,"ç¬¦åĲĪä¸ŃæĸĩçļĦè¯Ńæ³ķä¹łæĥ¯":11651,"irrors":11652,"Ġtransfers":11653,"åĳ½è¿Ĳ":11654,"å¤±ä¸ļ":11655,"erved":11656,"Ġload":11657,"Ġdecisions":11658,"æ²¡æľīéģĹæ¼ıæĪĸæ·»åĬł":11659,"åĿĩè¡¡è°ĥæķ´":11660,"æĪªçĦ¶ä¸įåĲĮ":11661,"æĦıè¯ĨæµģåıĻäºĭæĬĢå·§":11662,"Ġdeployment":11663,"Ġcircuits":11664,"become":11665,"å¹²æĹ±åľ°åĮº":11666,"è¿Ļæł·çĶ¨æĪ·çļĦéľĢæ±Ĥå°±èĥ½":11667,"æ¸©å®¤æ°Ķä½ĵ":11668,"éĻĦåĬłä¿¡æģ¯":11669,"éľĢè¦ģç¡®å®ļ":11670,"orbital":11671,"itary":11672,"æ³¨æĦıåı¥åŃĲçļĦæµģçķħæĢ§":11673,"äººæĿĥ":11674,"æĬĢæľ¯ç»ĨèĬĤ":11675,"ç§ĳå¹»":11676,"åı¥åŃĲç»ĵæŀĦæĺ¯åĲ¦éĢļé¡º":11677,"è¿Ļæĺ¯å¸¸è§ģçļĦè¯ĳæ³ķ":11678,"Ġdeliberate":11679,"éĿŀä¾µåħ¥":11680,"åŃĺåľ¨äºīè®®":11681,"å¹¶ä¸Ķæľ¯è¯Ńä½¿çĶ¨æŃ£ç¡®":11682,"äºļæ³¢éķ¿":11683,"ä¸»åı¥åľ¨åĲİ":11684,"éģĵå¾·è´£ä»»":11685,"Ġdeveloping":11686,"entialism":11687,"poses":11688,"Ġelectro":11689,"lights":11690,"ilitary":11691,"å¹²é¢Ħæİªæĸ½":11692,"Ġcrises":11693,"å°ĨéľĢè¦ģè¿Ľè¡Į":11694,"çº¢ç§»":11695,"èĢĮä¸įæĺ¯çĽ´è¯ĳæĪĲ":11696,"Ġinternally":11697,"Ġdramatically":11698,"çĵ¦è§£":11699,"Ġdatasets":11700,"ustrates":11701,"çļĦçĶŁçī©":11702,"è¦ģåĩĨç¡®ä¼łè¾¾åİŁæĦı":11703,"åı¥åı·":11704,"éľĢè¦ģç²¾ç¡®":11705,"åľ¨ä¸įåĲĮ":11706,"è¡¨å¾ģ":11707,"room":11708,"ä¸ĵéĹ¨":11709,"uration":11710,"Ġthink":11711,"Ġfiat":11712,"Ġelev":11713,"å®ļå¾ĭ":11714,"è¿ĺéľĢè¦ģæ³¨æĦı":11715,"places":11716,"Ġlab":11717,"åı¯èĥ½æĽ´å¥½":11718,"åŀĭåĬ¨çī©":11719,"æĽ´èĩªçĦ¶çļĦè¡¨è¾¾æĸ¹å¼ı":11720,"æķ´ä½ĵéĢļè¯»ä¸Ģéģį":11721,"æµ·ä¸Ĭ":11722,"çģ¾":11723,"å°ıåĨ°æľŁ":11724,"ç¿»è¯ĳæĹ¶è¦ģä¿ĿæĮģéĢ»è¾ĳåħ³ç³»":11725,"âĢĿï¼ŁâĢľ":11726,"éĻĨåľ°":11727,"åıĤä¸İå¼ı":11728,"ä¸įä»ħä»ħæĺ¯":11729,"åĲ¬èµ·æĿ¥èĩªçĦ¶":11730,"ç¨İæĶ¶":11731,"æĺŁéĻħæĹħè¡Į":11732,"ä¸įä¼ļæľīçĲĨè§£ä¸ĬçļĦ":11733,"è®½åĪº":11734,"den":11735,"rit":11736,"ype":11737,"error":11738,"éľĢè¦ģè¡¨è¾¾":11739,"ats":11740,"ç¡®ä¿Ŀåı¥åŃĲç»ĵæŀĦ":11741,"ç¡®ä¿Ŀä¸ĵä¸ļæĢ§":11742,"ç¡®è®¤ç¿»è¯ĳ":11743,"åıĺæĪĲ":11744,"abatic":11745,"adaptive":11746,"ç»ıæµİä½ĵç³»":11747,"imm":11748,"çİ°åľ¨è¦ģèĢĥèĻĳ":11749,"Ġperformance":11750,"Ġlead":11751,"åįķæķ°":11752,"æ²īç§¯æ¨¡å¼ı":11753,"ä¼ļå¦Ĥä½ķåıĺåĮĸ":11754,"å®ĮæĪĲç¿»è¯ĳ":11755,"ä¸Ńä¸ĸçºªçļĦ":11756,"æľºåĻ¨äººåŃ¦":11757,"Ġcriteria":11758,"èĢĮä¸Ķä»ĸä»¬":11759,"counter":11760,"éĩİçĶŁ":11761,"æĬµæĬĹ":11762,"æĪĳéľĢè¦ģå¤ĦçĲĨçĶ¨æĪ·æıĲä¾ĽçļĦè¿Ļä¸ªç¿»è¯ĳè¯·æ±Ĥ":11763,"Ġextension":11764,"æĹģè§Ĥ":11765,"big":11766,"æħ§":11767,"éº":11768,"ĽçŁ¿":11769,"ä¸Ļçĥ¯":11770,"ä½Ľ":11771,"æĪ·å¤ĸ":11772,"Ġdeconstruction":11773,"Ġsing":11774,"ä¼ļå¯¹":11775,"Ġreferences":11776,"çĦ¶åĲİåĲİåįĬåı¥":11777,"Ġhard":11778,"Ġnational":11779,"Ġgap":11780,"è¡¨ç¤ºä¸Ģç§į":11781,"æĺ¯åĲ¦åĩĨç¡®å¯¹åºĶ":11782,"å¸ĤåľºçļĦ":11783,"Ġattitu":11784,"å®īæİĴ":11785,"æľĢåĲİç¡®è®¤æĺ¯åĲ¦ç¬¦åĲĪçĶ¨æĪ·çļĦè¦ģæ±Ĥ":11786,"ä¹Łæĺ¯å¸¸çĶ¨":11787,"éĴĽçŁ¿":11788,"åįķä½į":11789,"Ġepistem":11790,"çľĭèµ·æĿ¥åĥı":11791,"æĺ¯åĲ¦æľīéģĹæ¼ıæĪĸéĶĻè¯¯":11792,"reconfig":11793,"è½¬æĬĺåħ³ç³»":11794,"éĴĻéĴĽçŁ¿":11795,"tiss":11796,"è¾©è¯ģæ³ķ":11797,"çļĦè®¡ç®Ĺ":11798,"çļĦæľºåĪ¶":11799,"åı¯æī©å±ķæĢ§":11800,"éľĢè¦ģæł¹æį®":11801,"æĽ´æĺĵæĩĤ":11802,"åı¯èĥ½è°ĥæķ´ä¸º":11803,"Ġtolerance":11804,"Ġfields":11805,"ä¼ļå½±åĵį":11806,"æľĢåĲİç¡®ä¿Ŀæ²¡æľīéģĹæ¼ıä¿¡æģ¯":11807,"çº½":11808,"æŃ£å¼ıåĴĮä¸ĵä¸ļ":11809,"å¼Ĥç§į":11810,"ç»ĵåĲĪäºĨ":11811,"Ġmotion":11812,"åıĪç¬¦åĲĪä¸ŃæĸĩçļĦè¡¨è¾¾ä¹łæĥ¯åĴĮä¸ĵä¸ļæľ¯è¯Ń":11813,"Ġefficiencies":11814,"Ġprevalence":11815,"Ġseismic":11816,"æ£ĢæŁ¥æĺ¯åĲ¦æľīéģĹæ¼ıæĪĸæŃªæĽ²ä¿¡æģ¯":11817,"åĩºçİ°åĵªäºĽ":11818,"åħīåŃĲéĽĨæĪĲçĶµè·¯":11819,"ç¿»è¯ĳä¸įä»ħè¦ģåĩĨç¡®":11820,"åŃ©åŃĲ":11821,"gregate":11822,"Bronze":11823,"focus":11824,"xim":11825,"éľĢè¦ģç¬¦åĲĪä¸Ńæĸĩè¡¨è¾¾ä¹łæĥ¯":11826,"åľ¨è¯ĳæĸĩä¸Ń":11827,"è¿ĻéĩĮçĶ¨æĪ·":11828,"åĴĮä¸ĵä¸ļæľ¯è¯Ń":11829,"åĪĨæĶ¯":11830,"omatic":11831,"è´¬":11832,"è´Ŀ":11833,"æĪĸèĢħåħ¶ä»ĸ":11834,"å½±æķĪæŀľ":11835,"èĢĮä¸įæĺ¯çĽ´è¯ĳçļĦ":11836,"éĩıåŃĲäºĴèģĶç½ĳ":11837,"éĽĦ":11838,"åīįéĿ¢çļĦ":11839,"ä»İä¸ļ":11840,"æīĢä»¥ä¿ĿæĮģåİŁæĦı":11841,"æĪĳéľĢè¦ģä»Ķç»ĨçĲĨè§£åİŁåı¥çļĦæĦıæĢĿ":11842,"æĪĳè¦ģä»Ķç»ĨçĲĨè§£":11843,"epigenetic":11844,"Ġelectronic":11845,"ä½ĨåİŁåı¥çĶ¨çļĦæĺ¯":11846,"å¼ķèµ·è¯¯è§£":11847,"åľ¨åĵ²åŃ¦åĴĮ":11848,"inforcing":11849,"Ġincorporate":11850,"çĶ¨æĪ·è¿ĺçī¹åĪ«è¯´æĺİ":11851,"éľĢè¦ģåĩĨç¡®çļĦç¿»è¯ĳæĿ¥":11852,"è´Ńä¹°åĬĽå¹³ä»·":11853,"äºŁéľĢ":11854,"blockchain":11855,"åı¯è¯»":11856,"ç»ĵåĲĪèµ·æĿ¥":11857,"æĪĸå¯¹":11858,"çĶ¨æĪ·çī¹åĪ«è¯´æĺİ":11859,"å¸¸è¯´":11860,"åŁĥ":11861,"æĬĢæľ¯è¯Ńå¢ĥ":11862,"åľ°è¯´":11863,"ç¡®è®¤æľ¯è¯Ńæĺ¯åĲ¦æŃ£ç¡®":11864,"Ġconsist":11865,"çºĤ":11866,"oded":11867,"vertical":11868,"å¦Ĥä½ķåıįæĺł":11869,"å°Ĩå¦Ĥä½ķå½±åĵį":11870,"è¯»èĢħèĥ½":11871,"ä¸įèĥ½åĽŀçŃĶåħ¶ä»ĸéĹ®é¢ĺ":11872,"Ġrig":11873,"å·²ç»ıå¾Īå¸¸è§ģ":11874,"vival":11875,"æĤ£":11876,"Ġone":11877,"ç¼ĸçºĤ":11878,"åĽºå®ļè¯ĳæ³ķ":11879,"å®īåħ¨åįıè®®":11880,"éĢĢä¼ĳ":11881,"éĩıåŃĲè®¡ç®Ĺæľº":11882,"Ġassess":11883,"Ġmoney":11884,"æĪĳéľĢè¦ģä»Ķç»Ĩéĺħè¯»åİŁåı¥":11885,"electromagnetic":11886,"predic":11887,"integration":11888,"Ġselection":11889,"Ġorganizational":11890,"Ġvelocities":11891,"Ġparticularism":11892,"çİ°æĪĲåĵģ":11893,"traiture":11894,"é©¬å°Ķåħĭæĸ¯":11895,"éĢ¼çľŁ":11896,"ç¢°æĴŀ":11897,"Pleistocene":11898,"kel":11899,"åı¯èĥ½è¢«":11900,"çķľ":11901,"Ġmantle":11902,"uries":11903,"ulk":11904,"å¤ĸäº¤":11905,"lier":11906,"æĹ¢ä¿ĿçķĻäºĨ":11907,"èīºæľ¯åĪĽä½ľ":11908,"æĪĺåĲİçļĦ":11909,"confl":11910,"æľĢåĲİæ£ĢæŁ¥æľīæ²¡æľīéģĹæ¼ıçļĦä¿¡æģ¯":11911,"ç¥ŀç»ıæİ¥åı£":11912,"åħīæķıæĦŁ":11913,"Ġvent":11914,"å½¢æĪĲäºİ":11915,"Ġefforts":11916,"éĤ£ç§į":11917,"åĩıè½»":11918,"ogenous":11919,"çĲĨæĢ§ä¸»ä¹ī":11920,"Ġisostatic":11921,"æīĢä»¥å¿ħé¡»ç¡®ä¿Ŀ":11922,"æĪĳéľĢè¦ģç¡®å®ļæ¯ıä¸ªæľ¯è¯ŃçļĦåĩĨç¡®ç¿»è¯ĳ":11923,"è´§å¸ģæĶ¿çŃĸå·¥åħ·":11924,"æľīæľºåĽ¢ç»ĵ":11925,"Ġpositive":11926,"Ġdeterminism":11927,"è½®çıŃ":11928,"èĴ¸æ±½":11929,"Ġgrid":11930,"remophile":11931,"bial":11932,"ral":11933,"æľ¯è¯Ńéĥ¨åĪĨ":11934,"ç¬¦åĲĪåİŁæĸĩçļĦ":11935,"éĿŀæ´²":11936,"probabilistic":11937,"ç½®äºİ":11938,"actor":11939,"åĬłå¯ĨæłĩåĩĨ":11940,"è§īå¾Ĺ":11941,"Ġsurplus":11942,"è¯Ńåı¥æĺ¯åĲ¦éĢļé¡º":11943,"æķ´ä½ĵç»ĵæŀĦæĺ¯åĲ¦éĢļé¡º":11944,"è®ºæĸĩæĪĸæĬ¥åĳĬ":11945,"ä½¿åı¥åŃĲæĽ´ç¬¦åĲĪä¸Ńæĸĩè¡¨è¾¾ä¹łæĥ¯":11946,"Ģæ¨¡å¼ı":11947,"ä»ĭè¯įçŁŃè¯Ń":11948,"Ġtragedies":11949,"Ġdemonstrated":11950,"ķå°Ķ":11951,"çļĦèī²å½©":11952,"æĺ¯å¿ħè¦ģçļĦ":11953,"è¦ģè¯ĳä¸º":11954,"åľ¨ç¿»è¯ĳæĹ¶":11955,"æĪĸä¸į":11956,"è¿ĻéĩĮæ¶īåıĬåĪ°":11957,"æīĢä»¥åĩĨç¡®æĢ§":11958,"æīĢä»¥åĪĿæŃ¥ç¿»è¯ĳåı¯èĥ½æĺ¯":11959,"edom":11960,"æ±Ĳ":11961,"è¿Ļæł·å¤ĦçĲĨ":11962,"Ġgest":11963,"å½¢è±¡":11964,"éĹ´æİ¥":11965,"ç»ıæµİæ¨¡åŀĭ":11966,"Ġvo":11967,"ä¸įèĥ½éģĹæ¼ıæĪĸ":11968,"åıįå¼¹":11969,"è¯»èµ·æĿ¥æĽ´é¡ºçķħ":11970,"éģ¿åħįè¯¯è§£":11971,"Ġefficacy":11972,"èĥ½å¤Łåľ¨":11973,"èī²åŁŁ":11974,"ç¡®å®ŀæĮĩ":11975,"çĥŃæ¶²":11976,"æĻºæħ§":11977,"ä¸»è°ĵå®¾ç»ĵæŀĦ":11978,"ĠCol":11979,"å¤§æ°Ķä¸ŃçļĦ":11980,"æĿĥåĬĽåħ³ç³»":11981,"Ġtrigger":11982,"åĳĪçİ°åĩº":11983,"Ġcosmology":11984,"æµ·å²¸åľ°è²Į":11985,"éĢĤåĲĪçĽ®æłĩè¯»èĢħçĲĨè§£":11986,"Ġsheet":11987,"é©¬åħĭæĢĿ":11988,"ä¹¦ä¿¡ä½ĵ":11989,"åĪ¶åĨ·éľĢæ±Ĥ":11990,"itics":11991,"çļĦæĶ¹åıĺ":11992,"çļĦéĻĲåĪ¶":11993,"éľĢè¦ģç¬¦åĲĪä¸ŃæĸĩçļĦè¡¨è¾¾ä¹łæĥ¯":11994,"rog":11995,"omically":11996,"ä¼ļå¦Ĥä½ķå½±åĵį":11997,"ä¿ĿæĮģä¸ĵä¸ļæľ¯è¯ŃçļĦæŃ£ç¡®æĢ§":11998,"ç¤¼":11999,"å®ļåĪ¶":12000,"ä¸İäººç±»":12001,"åľ¨è¿ĻéĩĮæľī":12002,"ç©´":12003,"existential":12004,"è¶ħå¯¹ç§°":12005,"å¾·æĢ§":12006,"çĸĳéĹ®åı¥çļĦå½¢å¼ı":12007,"åģĩè®¾çļĦæĥħåĨµ":12008,"Ġperpetuate":12009,"æĸĩåĮĸéĢĤåºĶæĢ§åĴĮæµģçķħæĢ§":12010,"ä¸ŃåĽ½äºº":12011,"Ġregulate":12012,"åĩłä½ķæĬ½è±¡":12013,"åĲİæŀľè®º":12014,"åĩ¯æģ©æĸ¯ä¸»ä¹īçļĦ":12015,"Ġgrad":12016,"æľīåĽºå®ļçļĦè¯ĳæ³ķ":12017,"atorial":12018,"ç¡®ä¿Ŀä¸Ńæĸĩæµģçķħ":12019,"åĸ·åı£":12020,"æ½®æ±Ĳ":12021,"determin":12022,"èµĭäºĪ":12023,"æĭ¥æľī":12024,"Ġregimes":12025,"Coastal":12026,"DA":12027,"Eurocentric":12028,"eutic":12029,"æĿ¥é¢łè¦Ĩ":12030,"Ġreactions":12031,"åı¥åŃĲçļĦæķ´ä½ĵæµģçķħæĢ§":12032,"èĭ±æĸĩç¼©åĨĻ":12033,"ç¥ŀåľ£":12034,"åŃĺåľ¨ä¸»ä¹īçļĦ":12035,"åĨ³äºİ":12036,"science":12037,"ç¦ģ":12038,"åı¤æ°ĶåĢĻ":12039,"åıĸåĨ³äºİ":12040,"ä¸¤èĢħçļĦ":12041,"æ²¡æľīå¤ļä½ĻçļĦåĨħå®¹":12042,"èĳĹåĲį":12043,"Ġorganization":12044,"æ°¸ä¹ħæĢ§":12045,"ç¼ºå¤±":12046,"ä¸´åºĬ":12047,"æİªè¾ŀ":12048,"èĩªçĶ±æĦıå¿Ĺ":12049,"akes":12050,"æļĤæĹ¶":12051,"Ġincreasingly":12052,"monetary":12053,"ç¡®ä¿Ŀæ²¡æľīä½¿çĶ¨ä»»ä½ķ":12054,"æĤ¬æµ®":12055,"æĺ¯å¯¹çļĦ":12056,"ç»§ç»Ń":12057,"Ġexpectations":12058,"grown":12059,"äºĮèĢħåľ¨":12060,"Ġindex":12061,"ä»İä¸ļèĢħ":12062,"jections":12063,"rical":12064,"uff":12065,"è¦ģæµģçķħèĩªçĦ¶":12066,"alies":12067,"espan":12068,"ä¸Ńæĸĩè¯Ńåºı":12069,"åı¯èĥ½æľīçĤ¹çĶŁç¡¬":12070,"æīĢä»¥åı¯ä»¥è°ĥæķ´ä¸º":12071,"Ġsal":12072,"èµĽ":12073,"èīºæľ¯ä½ľåĵģ":12074,"æķĪçĶ¨":12075,"keep":12076,"è¯įæ±ĩéĢīæĭ©":12077,"ä¸ĬçļĦå·®å¼Ĥ":12078,"æľĢç»ĪçļĦç¿»è¯ĳåı¯èĥ½æĺ¯":12079,"Ġwho":12080,"éĢļçĶ¨æĢ§":12081,"çī©çĲĨåŃ¦çļĦ":12082,"æĪĳè¦ģä»Ķç»ĨçĲĨè§£åİŁæĸĩçļĦæĦıæĢĿ":12083,"è¿ĺè¦ģç¬¦åĲĪä¸ŃæĸĩçļĦè¡¨è¾¾ä¹łæĥ¯":12084,"Ġamong":12085,"éĺ²å¾¡":12086,"åĲİçİ°ä»£ä¸»ä¹īå°ıè¯´":12087,"realist":12088,"åĵªä¸ªæĽ´åĲĪéĢĤ":12089,"Ġconcentration":12090,"engineering":12091,"å¯¿åĳ½å»¶éķ¿":12092,"çĬ¯ç½ª":12093,"Ġexplanations":12094,"çĽ´æİ¥ç¿»è¯ĳçļĦè¯Ŀåı¯èĥ½æĺ¯":12095,"Uni":12096,"ders":12097,"prom":12098,"æľīäºĽ":12099,"åĬŀ":12100,"Ġtransist":12101,"standard":12102,"ites":12103,"æīĢä»¥ç»ĦåĲĪèµ·æĿ¥åºĶè¯¥æĺ¯":12104,"åĴĮæĸĩåĮĸéĢĤåºĶæĢ§":12105,"Ġmaritime":12106,"åı¯ä»¥ä¿ĿæĮģ":12107,"Ġgentrification":12108,"osity":12109,"conceptual":12110,"æİ¥ä¸ĭæĿ¥æĺ¯ä¸»åı¥":12111,"éľĢè¦ģç¡®ä¿Ŀç¿»è¯ĳåĲİçļĦåı¥åŃĲ":12112,"Ġspending":12113,
[...]
